#version: 0.2
Ø §
Ù Ħ
Ù Ĭ
Ġ Ø§
Ù ħ
Ġ Ø
ĠØ§ ÙĦ
Ù Ī
Ø§ Ø
Ù Ĩ
Ø ±
Ø ©
Ø ª
Ù ģ
Ø ¯
Ù ĥ
Ø ¹
Ġ Ùħ
Ø ¨
Ù Ĥ
Ø ³
Ù ĩ
Ġ ÙĪ
Ø Ń
Ø§ ÙĦ
Ø ¬
ĠØ ¨
Ø§Ø ª
ÙĬ Ø©
Ġ ÙĦ
ĠØ ª
Ġ Ùģ
ĠØ§ÙĦ Ùħ
ĠØ ¹
Ø µ
Ø§Ø ±
Ø ·
Ø§ ÙĨ
Ù ī
Ø ´
Ø§ Ùħ
ĠÙģ ÙĬ
Ø ®
ÙĬ ÙĨ
Ø ²
ĠÙħ ÙĨ
Ġ Ùĥ
Ġ ÙĬ
Ø ¶
ÙĬ Ø±
Ġ 1
ĠØ ³
Ġ 2
ĠØ§ÙĦ Øª
Ø§Ø ³
ÙĪ ÙĨ
Ø± ÙĬ
ÙĪ ÙĦ
Ø «
Ø °
ĠÙĪ Ø§ÙĦ
ĠØ Ń
Ø§Ø ¨
Ġ 0
ĠØ¹ ÙĦ
Ø§Ø ¯
Ġ ÙĨ
ĠØ§ÙĦ Ø¹
ĠÙĦ ÙĦ
ÙĪ Ø±
Ø§Ø ¡
ĠØ ¬
Ø º
Ġ Ùĩ
Ġ ÙĤ
Ø§Ø ¹
ĠØ ±
ÙĬ ÙĦ
ĠØ§ ÙĨ
Ùĩ Ø§
Ø§Ø ¦
ÙĬ Ø¯
ĠØ§ÙĦ ØŃ
ĠØ ´
ĠØ¹ÙĦ Ùī
ĠØ§ÙĦ Ø³
Ø³ Øª
ĠØ ¯
Ø¨ ÙĬ
ÙĪ Ùħ
Ġ2 0
Ø§ Ùģ
Ø§Ø Ń
ĠØ ®
Ø§Ø ¬
Ø ¸
ÙĬ Ùħ
Ø§ ÙĤ
ĠØ µ
ĠØ¨ Ø§ÙĦ
Øª Ø±
Ġ 3
ĠØ§ÙĦ Ø¬
Ùħ ÙĦ
ĠÙħ Ø¹
ĠØ§ÙĦ Ùģ
Ø§Ø± Ø©
Ø¨ Ø±
ĠØ§ÙĦ Ùĥ
ÙĪ ÙĤ
Ø± Ùĥ
ĠØ§ÙĦ Ø´
ÙĪ Ø¯
ĠØ ·
ĠØ§ÙĦ ÙĨ
ĠØ§ÙĦ ÙĤ
ĠØ§ÙĦ Øµ
ĠØ§ÙĦ Ø¯
Ø¹ ÙĦ
Ø± Ø©
ĠØ¹ ÙĨ
ĠØ§ÙĦ Ø±
ÙĬ Ø§
ĠØ§ÙĦ Ø¨
ĠÙħ ØŃ
Ø¯ Ùħ
ÙĬ Ùģ
Ø± Ø¨
Ø§ Ùĥ
Ø§Ø µ
Ø¹ Ø¯
Ø± ÙĪ
Ġ 4
ĠØ§ÙĦ Ø®
Øª Ùħ
Ø ¦
Ø¹ Ø©
ĠØ§ÙĦ Ø§Ø³
Ġ 5
Ùĩ Ùħ
ÙĬ Ø³
ĠØ§ÙĦ Ùī
ÙĨ Ø§
ÙĤ Ø©
ÙĦ Ø©
ĠØ§ÙĦ ÙĦ
ÙĬ Ø¹
Ø§Ø ·
ÙĬ Øª
Ø§ Ùĩ
Ø§Ø ¶
Ø¯ Ø©
ÙĬ Ø§Øª
ĠØ§ ÙĪ
Ø§Ø ®
ÙĬ ÙĪ
ĠÙĥ Ø³
Ø¹ Ø±
Ùħ ÙĨ
ÙĬ Ùĥ
ĠØ§ Ø³
Ùĥ ÙĨ
Ø§Ø ²
Ø¬ Ø±
ĠØ º
Ø¨ Ø©
Ø¯ ÙĬØ¯
ØŃ ÙĨ
Ùħ Ø©
Ġ20 2
Ø§Ø± Ø§Øª
Ùħ Ø§
Ø° Ø§
Øª ÙĪ
ĠØ§ÙĦ Ø§ÙĨ
ĠÙħ Øµ
ĠØ§ÙĦ ÙĪ
Ġ 6
ĠØ§ÙĦÙħ ÙĨ
ĠØª ØŃ
ĠØ§ÙĦ Ø·
Øª ØŃ
Ø§Ø ´
ĠØ§ Ø®
Ø ¤
ĠÙĥØ³ Ø§Ø±Ø©
ÙĦ ÙĬ
ÙĦ Ùĥ
ĠØ§ÙĦ Ø§
Ġ20 1
Ø³ ÙĦ
ĠØ§ÙĦ Ø§Ùħ
ĠØ§ ØŃ
ĠØ§ Ùĥ
ĠØ§ÙĦ Ø°
ĠØ§ Ø³Øª
Ø¬ Ùħ
Ġ 7
ĠØ§ Ùħ
ĠÙĦ Ø§
ĠØ¨ ÙĨ
Ø´ Ø±
ÙĪ Ø¨
ĠÙĦ Ùħ
ĠÙħ Ø§
Ø³ Ùħ
Ø¯ ÙĬ
ØŃ Ø©
ĠØ§ÙĦ Ø«
Ø§ÙĨ ÙĬ
Ġ 8
Ø§Ø ©
Øª Ø¨
ÙĬ Ø²
ĠØ ²
ĠØ§ Ø¨
ÙĬ ÙĤ
Ø§Ø «
ĠØ§ Ùģ
ÙĦ Ùģ
ÙĦ Ø§Ùħ
Ø±Ùĥ Ø©
ÙĬ Ùĩ
ĠØ§ÙĦÙħ ÙĪ
ĠÙħ Ø·
Ø§ÙĦ Ùħ
ĠØ °
ĠÙĥ ÙĦ
ĠÙĪ Øª
ĠÙĪ Ùħ
ĠØ§ÙĦØª ÙĬ
ĠÙħ ÙĪ
ÙĤ Ø¯
Ġ1 0
ĠØ§ ÙĬ
Ø¨ÙĬ Ø¹
Ø¨ ÙĦ
ĠÙħ Ø´
Ø· Ø©
ĠÙĪ ÙĦ
Ùħ Ø¯
ĠØ§ÙĦ Ùĩ
ÙĪ Ø¹
ÙĬØ± Ø©
ĠØ§ÙĦÙħ ØŃ
Ø¯ Ø§
Ġ202 1
Øµ ÙĦ
Øª ÙĬ
ÙĤ ÙĦ
ĠØ¬ Ùħ
Ø¬ ÙĦ
Ġ 9
ÙĪ Ùģ
ĠØ «
Ø§Ø¯ Ø©
ĠØ§ Ø±
Øª Ø¬
ÙĨ ÙĬ
Øª Ø¯
ĠØ§ÙĦ Ø§ÙĦ
ÙĪÙĤ Ø¹
Ø¯ Ø±
Ùĥ Ø±
ĠØ¨ Ø±
Ùĩ Ø±
Ùħ Ø§ÙĦ
ÙĪ Ø³
ÙĦ Ø§ÙĦ
ÙĪ Ø¬
ÙĬ Ø¨
ĠØ§ÙĦ ÙĬ
Ø± Ùģ
ĠÙħ Øª
Ø° Ùĩ
ĠÙĪØ§ÙĦ Ùħ
Ùĥ ÙĦ
ĠÙħ Ø³
Ø¨ Ø§Ø±
ĠÙĩ Ø°Ø§
ÙĪØ± Ø©
ÙĨ Ø¯
Ø§ÙĨ ÙĬØ©
Ø® Øµ
ÙĨ Ø¹
ĠØª ÙĨ
ÙĪ ÙĬ
Ùĥ Ø©
Ø§Ø± ÙĬ
ĠØª Ø¹
Ø§ÙĦ Ø©
ĠØ ¶
Øª Ùĩ
ÙĦ Ùħ
ÙĨ Ø©
Ùĥ Ø³
ÙĪ Ø§Øª
ĠØª Øµ
Ø¨ Ø¯
Ø³ ÙĬ
ĠÙħ Ø±
Øª Øµ
Ø§Ø¹ Ø©
ÙĪ Ø§
Ùģ Ø±
Ø¶ ÙĦ
Ùħ Ø±
ĠØ§ÙĦ Ø§Ø¹
Ø±Ø¨ ÙĬØ©
ÙĦ Ø¨
ÙĪ Øª
Ø±ÙĬ ÙĤ
ÙĤ Ø±
ØŃÙĨ Ø©
ĠØ§ÙĦ Øº
ÙĪÙĦ Ø©
Ø³ Ø¨
ĠØ¨ ÙĬÙĨ
Ø® Ø¯Ùħ
ĠØ§ÙĦ Ø§Ø±
ĠØ§ÙĦÙĦ Ùĩ
Ùģ ÙĬ
Ø± ÙĤ
Ø§Ùģ Ø©
ĠØ¨ Ø¹Ø¯
Ø¦ ÙĬØ³
ÙĨ ÙĬØ©
Ø« Ø±
ĠØ§ÙĦ Ø²
ĠØ§ Ø¯
ĠÙĥ Ø§ÙĨ
ĠØ§ÙĦ Ø§Ø®
ĠÙĬ Ùħ
ĠÙħ Ø¬
Øª Ùģ
ĠØ´ Ø±ÙĥØ©
Ùĥ Ùħ
ĠØ¹ ÙħÙĦ
Øª Ø®
ĠØª Ùħ
ÙĤ Ùħ
ĠÙħ Ø¯
ĠÙħØ· ØŃÙĨØ©
ĠØ§ÙĦØŃ Ø¬Ø±
ĠØ§ Ø¹
ØªØ± ÙĪÙĨ
ĠÙĩ ÙĪ
Ø§ ÙĬ
Ø¹ ÙĪØ¯
Ø§ÙĦ ÙĬØ©
ØŃ ÙĤ
ÙĪ Ø±ÙĬ
ĠÙħ ÙĤ
ÙĪ Ùĥ
Ġ1 4
ÙĬ Ø§ÙĨ
ĠÙħ Ø®
0 0
ĠÙĩ Ø°Ùĩ
ĠÙĦÙĦ Ùħ
ĠØ§ÙĦÙħ Øµ
ÙĪ Ø§ÙĨ
Ø· Ùħ
ĠØ³ ÙĬ
Ø§Ùħ ÙĦ
ĠÙĦÙĦ Ø¨ÙĬØ¹
ÙĪ ÙĬØ©
ÙĬÙĨ Ø©
Ùĥ ÙĪÙĨ
ĠØ§ÙĦÙħ Ø³Øª
ĠØª ÙĤ
ĠÙħ Ø³Øª
Ø¯ Ø§Øª
Ø ¡
ĠØ§ÙĦÙħ Ø±
ĠØ¬Ùħ ÙĬØ¹
Ġ1 9
ĠØ§ÙĦ Ø©
ÙĨ Øª
ĠØ§ÙĦ Ø§ØŃ
Ø¯ Ø§Ùħ
ĠÙĪ Ùĩ
Ø§Ø °
Ø± Ø§Ø¡
Ø§ÙĦ ÙĬ
ÙĪ Ø²
Ø±ÙĬ Ø¯
ĠØª Ø³
ĠØ¬ Ø¯ÙĬØ¯
Ø§Ùħ Ø©
ĠØ¹ÙĦ ÙĬ
ĠØ§Ø® Ø±
Ø¯ Ø¯
ĠØ¨ ÙĦ
ĠÙħØŃ Ø·Ùħ
ĠØ§ÙĦÙħ Øª
ĠÙħ Ùĥ
Ø§Ùħ Ø¬
ĠØ§ÙĦØ§ ÙĪÙĦ
< |
d o
e n
e x
f t
| >
Ġ <|
do ft
en doft
ex t
endoft ext
ÙĨ Ø³
Ø³ Ø©
Ø± Ø¬
Ø· Ø±
ĠØ§ÙĦÙħ Ø´
ĠÙĬÙħ ÙĥÙĨ
Ø· ÙĦ
ĠØ§ Ø¬
ĠØ§ÙĦÙĬ ÙĪÙħ
ĠØ§ÙĦ Ø§Ø¬
ĠÙĩ ÙĬ
ĠØ® ÙĦØ§ÙĦ
ĠØ§ÙĦ Ø§Øª
ĠØ¨ Ø¹
ĠÙģ Ùī
Ø§Ø¨ Ø©
Ùĥ ØªØ±ÙĪÙĨ
ĠØ¨ Ùħ
ĠØ§ÙĦØ¹ Ø§ÙĦÙħ
ĠÙĪ ÙĤ
Ùģ Ø³
Ġ ÙĬÙĨ
ĠØª Ø±
ĠØ§ÙĦÙħ Ø¹
Ø§Ø¦ ÙĬØ©
Ùħ ÙĬÙĦ
Ġ1 2
Ø³ Ø·
ĠÙĦ Øª
ĠØ§ÙĦØ¨ ØŃ
ĠØ§ÙĦØ§ÙĦ ÙĥØªØ±ÙĪÙĨ
ĠØ¹ Ø¨Ø¯
ĠØª Ø¬
Ùĩ Ø¯
ĠØ§ÙĦØ° ÙĬ
ĠÙĪ Ø¨
ĠÙħ ÙĦ
ÙĤ ÙĬ
ÙĪ Ùī
ĠÙħØµ Ø±
ĠÙĪ Ø²
ĠØ§ÙĦØ³ ÙĬ
Ø¦ Ø©
Ø±Ùĥ Ø²
ĠØ ©
ĠØ§ Øµ
ĠÙĪ ØŃ
Ø¹ Ø§Ø±
ĠØ§ÙĦØ¹ ÙħÙĦ
ĠØ± ÙĤÙħ
Ø± ÙĬØ©
Ùĩ Ø¨
Ġ1 5
ĠØ§ Ø´
ĠØ¨ Ø´
ĠØ§Ùģ Ø¶ÙĦ
ĠÙħØµ ÙĨØ¹
Ø¹ Ø¨
Ø´ Ùģ
Ø¹ Ùħ
ĠØ§ÙĦØ³ Ø¹ÙĪØ¯
ĠØ§ÙĦØ¹ Ø±
ĠØª Ø·
ÙĦ ÙĬØ©
Ùĥ Øª
ĠÙĬ Ø¹
Øª Ø§Ø¬
ĠØŃ ÙĬ
ĠÙħØŃ ÙħØ¯
ÙĪÙħ Ø§Øª
Ø¸ Ø©
Ø§Ø¯ ÙĬ
Ø« ÙĦ
Ø¬ Ø©
Ġ1 1
ĠØ¨ ØŃ
ĠÙĪ Ùĥ
ĠÙĬ ØŃ
Ø¨ Ø§Øª
Ø¸ ÙĬÙģ
ĠÙĪ Ø¬
ĠØ³ Ø¨
ÙĪ Ø¹Ø©
Ø§ÙĦ Ø§Øª
Ġ202 0
ĠØª Ø´
ÙĪ Øµ
ÙĪ Ø©
ĠØ· ØŃÙĨ
Øª ÙĤ
ĠØ¨ Ø¯
ĠØ§ÙĦ Ø§ÙĤ
ĠØŃ Ø³
Ø¹Ø¯ ÙĬÙĨ
ĠÙĤ Ø¯
ĠÙħ ÙĪÙĤØ¹
ĠÙĪ Ùģ
Ø±Ùĥ Ø§Øª
Ø¨ ÙĨ
ĠØ§ÙĦÙħ Ø³
Øª Ùĥ
ĠÙĪ Ø§ØŃ
Ø¹ÙĦ ÙĬÙħ
ÙĤ ÙĪÙĤ
ĠØ§ Ø¶
Ø§Ø±ÙĬ Ø®
Ø§Ø¦ ÙĦ
Ø§ÙĨ Ø§Øª
ĠØ§ÙĦÙħ ÙĤ
ĠØ§ÙĦØ¹ Ø±Ø¨ÙĬØ©
Ø±ÙĬ Ø§Ø¶
ĠØº ÙĬØ±
ĠØ§ÙĦ Ø§Ø¨
ØªØ¯ Ùī
Ø§ÙĤ Ø©
Ø±ÙĬ Ùĥ
ÙĪÙĨ Ø©
Ø§Ø± ÙĬØ©
ĠØ° ÙĦÙĥ
Øª ÙĩØ§
ĠØ¹ Ø§Ùħ
Øª ÙĦ
ĠØ¨ ÙĪ
Ġ2 5
Ø§Øµ Ø©
ĠØ§ ÙĤ
Ø§Ø º
ĠØ¨ Ø§Ø³
ĠØª Ùģ
Ø§Ø¦ ÙĬ
ÙĪ Ø§Ø±
ÙĪØ¯ Ø©
ĠÙĪ ÙĨ
ĠÙĥ ÙĬÙģ
ÙĬÙĦ Ø©
ĠÙĬ ÙĤ
ĠÙĤ Ø¨ÙĦ
ĠØ§ÙĦ Ø§Ø¯
Ġ3 0
ĠØ§ÙĦÙħ Ø¯
Øµ Ø©
Ø² Ø©
Û Į
ĠØ§ÙĦÙģ Ùĥ
ĠØ§ÙĦØ° ÙĩØ¨
ĠØ§ÙĦ Ø¨Ø±
Ø§Ø± Ùĥ
Ø¨ ØŃ
ĠÙģ Ø±
Øª Ùī
Ø¨ÙĬ ÙĤ
Ø§Øµ ÙĦ
ÙĬ Ø¬
Ùģ Ø©
Ø§Ø³ Ø©
ĠØ® Ø¯Ùħ
ĠØ§ÙĦØ¯ ÙĪÙĦ
ØªÙħ Ø§Ø¹
Ø§Øª Ùģ
ĠÙħ Ø¨
ĠØ³ ÙĦ
ĠØ§ÙĦ Ø¨ÙĬ
ĠØ¬ ÙĨ
ĠÙĪ Ø³
ĠØ§ØŃ Ø¯
ĠØª Ø³Øª
ÙĨ Ø§ÙħØ¬
ĠØ¨ Øª
ĠØ§ÙĦØ§ÙĦÙĥØªØ±ÙĪÙĨ ÙĬ
ØªØ¬ Ø§Øª
ĠÙħØ¹ Ø¯Ø§Øª
ĠØ§Ùĥ Ø«Ø±
Ġ20 0
ĠÙĬ ÙĪÙħ
Øµ ÙĪÙĦ
ĠØ§ÙĦØ³Ø¹ÙĪØ¯ ÙĬØ©
Ø§ ÙĬØ©
Ùģ ÙĪ
ĠØ§ Ø¹ÙĦ
ĠØ® Ø·
ØŃ Ùħ
ĠÙĬ ØªÙħ
ÙĤ Ø·
ĠÙĪ Ø§ÙĨ
Ø¨ ÙĬØ©
Øª Ø§Ø¨
ĠÙĪ Ø¹
ØŃ ÙĬ
Ø® ÙĦ
Ø± ÙĬÙĨ
Ø° ÙĦÙĥ
ĠØ§ÙĦØµ ÙĬÙĨ
ÙĬ Ø´
ĠÙĥ ÙħØ§
ĠØ§ ÙĪÙĦ
Ø¶ Ø¹
ĠØ§ÙĦØ¬ Ùħ
ĠÙĬ Ø¬
ĠÙĪØ§ÙĦ Øª
Ø±ÙĪ Ø·
ĠØ§ Ø°Ø§
Ġ1 6
ĠØª Ùĥ
ĠØ® Ø§Ùħ
ĠØ§ÙĦØ± Ø¦ÙĬØ³
Ø§Ø¹ Ø¯
ĠØ§ÙĦØ¬ Ø¯ÙĬØ¯
ĠÙĦ Ø¯
ĠØ§ÙĦÙĥ Ø±Ø©
ĠÙĦ Ùĩ
ĠØ§ÙĦÙħ ØªØŃ
Ġ1 3
ÙĪÙħ Ø©
ĠØ³ Ø¹Ø±
ÙĦ Ø§
ĠÙħ Ø¤
ĠÙĦ Ø§ÙĨ
ÙĪÙĨ Ø§
ÙĦ ÙĤØ©
Ø¨ Ø¹
ĠÙĨ Ø¸
ĠØª Ø¯
Ø± Ø§Øª
Øµ Ùģ
ĠØ³ ÙĨ
Øº Ø©
Ø¬ÙĦ Ø³
Ø§ØŃ Ø©
Ø± Ø¶
ĠØ¨ Ø·
Ø±ÙĪ Ø¹
Ø§Ø³ ÙĬØ©
ĠØ§ÙĦØª ØŃ
Ùħ ÙĬÙħ
Øº ÙĬØ±
Ùģ ÙĦ
ĠØ§ÙĦØ¹ ÙĦ
Ø± Ø¯
Ø¹ ÙħÙĦ
Ø± ØŃ
ĠØ§Ø³Øª Ø®
ĠÙħ Ùħ
ĠØªØŃ ÙħÙĬÙĦ
ĠØ§ÙĦÙħ Ø¬
ĠØŃÙĬ Ø«
ĠÙĦ Ùĥ
ÙĦ ÙĬÙĦ
Ø§Ø± Ø³
Ø§ÙĨ ÙĪÙĨ
Ø² ÙĦ
Øµ Ø±
ĠØ§ÙĦ Ø§Ùģ
ĠÙĥ Ø¨
ĠØª ÙĪ
Ø¶ Ø§Ø¡
ĠØŃ ÙĪÙĦ
ĠØ§ÙĦÙĩ ÙĨØ¯
Ġ10 0
Ø¶ Ø§
ĠÙĪ Ø§Ø³
ĠØ§ÙĨ Ùĩ
ĠØ§ÙĦÙħ Ø®
Ġ0 0
Ø³ Ø§ÙĨ
Ø¯ÙĬ Ø«
Ø§Ø¨ Ø§Øª
ĠØ§ÙĦÙĪ Ø·
ĠÙĪ ÙħÙĨ
ĠØ¹ Ø¨Ø±
ÙĪ ÙĬØ±
ÙĨ Ø§Ø¡
ĠØ§ÙĦØ§Ø³ Øª
ĠØ§ Øº
ĠÙĬ Øª
Ø³ÙĦ Ø³ÙĦ
ĠÙĦ ÙĬ
Ø² ÙĬØ¯
ĠØ± Ø¦ÙĬØ³
Ø±ÙĪ Ø¶
Ø¹Ø± Ùģ
ĠØ¬Ø¯ÙĬØ¯ Ø©
Ùħ Ø§ÙĨ
Ùĩ Ø©
Ø¨ Ø§Ø¨
Ø± Ø§Ø¦
Ø§ÙĤ Ø¹
Ø§Ùħ Ø¹Ø©
ĠØ¨ Ùĥ
ĠØ¨ Ùĩ
ĠØŃ ØªÙī
ĠØ¨Ø§ÙĦ Ùħ
ÙĪØ± ÙĬØ©
ÙĪ Ø§ÙĦ
Ġ1 7
ĠØ§ÙĦ Ø±ÙĬØ§Ø¶
ĠØª Ø±Ùĥ
ĠØ³ ØŃÙĤ
Ùģ Ø¹
ĠÙĤ Ø·
ĠØ§ÙĦØª Ø¬
ÙĪ ÙĬØª
ĠØ¹ÙĦ ÙĬÙĩ
ØªÙĪ Ø¨Ø±
Ġ1 8
ĠØ§ÙĦØ¹ Ø§Ùħ
Ùģ Ø§ÙĦ
Ùħ ÙĬ
ÙĦ Ø§Øª
Ġ2 4
Ø¬ ÙĬÙĦ
ĠØ¹ÙĨ Ø¯
ĠÙħ Ø±ÙĥØ²
ĠÙĦ ÙĨ
ÙĤ ÙĬÙĤ
Ø« ÙĬØ±
ĠØ§Ùĥ ØªÙĪØ¨Ø±
ÙĦÙģ Ø©
ĠØ§ÙĦÙħØªØŃ Ø¯Ø©
ÙĬÙħ Ø©
ÙĦ ÙĤ
ĠØ§ÙĦÙħ Øº
Ø² ÙĬ
ĠØ§ÙĦØª ÙĨ
ĠØ§ÙĦ Ø§Ø·
Ø§Ø³ ÙĬ
ĠÙĤ Ø³Ùħ
ĠÙĩ ÙĦ
ĠØ¨ Ø§ÙĨ
ĠØª Ø¹ÙĦ
ĠØ§Ø¨ ÙĪ
Ø±ÙĬ ÙĤØ©
ĠØ§ÙĦ Ø¶
ÙĬØ§ÙĨ Ø©
ĠÙħ Ø¬Ùħ
ĠÙĩ Ø§ØªÙģ
ĠØ§ Ø«
ĠØ§Ø³ØªØ® Ø¯Ø§Ùħ
ĠØ§ÙĦØ¬ Ø²
Ø§Ø¨ Ø¹
Ùħ ÙĪ
ÙĬØ± ÙĬ
ĠØ³ Øª
Ø§Ø± ÙĥØ©
ĠØ§ÙĦÙĤ Ø±
ĠÙĥ ÙĪØ±
ĠÙģ ÙĦ
ĠØ¨Ø± ÙĨØ§ÙħØ¬
ĠØ§ Øª
Ø§ ÙĬØ±
ĠØ¨Ø¹ Ø¶
ĠÙĦÙĦ Øª
Ø§ÙĦ Ø¨
ĠØ± Ø³
Ġ4 1
Ø±ÙĬ Ø¹
Ø§Ø± Ø¬
Ùģ Ø§Øª
ÙĬÙĨ Ø§
ÙĨ Ø§Ø¹
ÙĬ Ø®
ĠØ§ Ø·
ÙĪØ± Ø¯
Ø¯ Ø«
ĠØ ¸
ĠÙħ ØªØ±
ĠÙĦ Ø¹
Ø¨ Øª
ĠØ¯ Ø±
ĠØ§ÙĦ Ø§Ø´
ĠÙĦ ÙĪ
ĠØ§ÙĦØŃ ÙĤÙĪÙĤ
ĠØ§ÙĦØª Ø¹Ø¯ÙĬÙĨ
ĠØ§ÙĦÙħ ÙĪÙĤØ¹
Ø¶ ÙĪØ¹
Øº Ø·
ĠØ¯ ÙĪÙĦ
ĠÙħ Ø«ÙĦ
ĠÙĨ ÙĤ
Ø§Ø¦ Ø±
ĠÙħØŃ ÙģÙĪ
ĠÙĬ Ø³Øª
ĠØ§ÙĦÙħ Ø¹ÙĦ
ĠÙĪÙĦ Ø§
ĠØ§ÙĦØª Ø¹ÙĦÙĬÙħ
Øª Ø²
ĠØ§ÙĦØµ ØŃ
ĠØ§ÙĦØ§Ø³ ÙĦØ§Ùħ
ĠÙĨ Ø³
Ø¹Ø± Ø¶
ĠÙħÙĨ ØªØ¯Ùī
ĠÙĪ ÙĬ
Ùħ ÙĬØ©
ÙĬÙĨ ÙĬ
Ø§Ø® ÙĦ
Ġ2 3
ØªØ® Ø¯Ø§Ùħ
ĠØªØ· Ø¨ÙĬÙĤ
Ø¶ Ø©
Ø§ ÙĪ
ĠØ¨Ø´ ÙĥÙĦ
ĠØ± ÙĬ
Ġ201 9
ĠØ§ÙĦØµ Ùģ
ĠØ¹ÙħÙĦ ÙĬØ©
ĠØ§ÙĦÙħ Ø¤
Ġ2 2
Ø±ÙĬ Ùħ
ĠØ§Ø® Ø¨Ø§Ø±
ĠÙħ Ø³ÙĦØ³ÙĦ
ĠØª Øª
ĠØ§ÙĦØ¨ ÙĦ
ĠØ§ÙĦ Ø§Øµ
ĠØŃ Ø¬Ø±
ĠØ§ÙĦØª ÙĪ
ĠÙģ Ø§ÙĨ
ĠÙħØŃÙģÙĪ Ø¸Ø©
Ø§Ø¦ ÙħØ©
ĠØ§Ø³ Ùħ
Ø±ÙĬ Ùģ
Ø· ÙĤØ©
ĠØ¹ Ø¯Ø¯
ĠØª Ø®
Ġ2 1
ĠÙĦÙĦ ØŃ
Ġ3 2
ÙĦ Ø§Ø«
ÙĦ Ùī
ĠØ§ÙĦØ® Ø§ØµØ©
ĠØ§ÙĦØª Øµ
ĠÙĦ ØŃ
ĠØ§ÙĦÙħ Ø·
ĠØ§ÙĦ Ø§Ùĥ
ĠØ¨ ÙĬ
Ø± Ø§Ø±
ĠÙĪØ§ÙĦ Ø¹
ĠÙĬ Ø¯
Ø§ÙĦ Ø«
ØªØ± ÙĨØª
Ø± Ùī
ĠØ§ÙĦØª Ø¹
Øº ÙĬØ±Ø©
Ùħ Ø³
ĠØ§ÙĦØ§Ø¬ ØªÙħØ§Ø¹
Ø§ÙĨ ÙĬØ§
ĠØµ ÙĪØ±
Ø±ÙĬ Ø¨
Ø´ Ø©
Ø¹ ÙĬØ©
ÙĨ ÙĬÙĨ
ĠÙĪ Ø±
Ø§Ùĩ Ø¯
Ø¬ Ø§Ø±
ĠØ§ÙĦØ¨ØŃ Ø«
ÙĪ Ø§Ø¡
ÙĨ Ùī
Ø§Ø¦ Ùģ
ÙĪÙĦ Ø§
ĠÙĥÙĪØ± ÙĪÙĨØ§
ĠÙĬ ÙĥÙĪÙĨ
ÙĬØ¯ Ø©
ĠØ§ÙĦØª Ø³
ĠØ§ÙĦØŃ ÙĦÙĤØ©
Ø³Ø¨ Ø¨
Ø§ ÙĪÙĦ
ÙĪ Ø§Ø¹
ĠØ§ÙĦØ¹Ø± Ø§ÙĤ
ĠØ§ÙĦÙģ Ø±
ÙĨ ÙĤ
ÙĬØ± Ø§ÙĨ
ÙħÙĨ Øª
ĠØ§ÙĦØŃ Ùĥ
ĠÙħ Ùģ
ĠØ« Ùħ
Ø§Ø¦ Ø¯
ÙħÙĦ ÙĥØ©
ĠØ¨ Ø³
Ø§Ø¯ ÙĬØ©
ÙĪ ÙĬÙĦ
ØŃ Ø§Øª
ÙĨ Ø§Ùĥ
Ø§ÙĨ Ø§
ĠÙĪØ§ÙĦ ØŃ
ĠØ§Ø³ Ø¹Ø§Ø±
ÙĪ Ø·
ÙĦ Ùĩ
Ġ201 8
ØªØ± Ùĥ
ÙĬ Ø§Ø±
ĠØ§ÙĦØ§Ùħ Ø§Ø±Ø§Øª
Ø§Ø³ Øª
ĠÙħ Ø¬ÙĦØ³
ĠØ§ÙĦÙħ Ùĩ
Ø§Ø° Ø§
ĠØ§ÙĦØ« Ø§ÙĨÙĬ
ÙĨ Ø§ÙĨ
Ø§Ø¨ Ø³
ĠØ¨ÙĪ Ø§Ø³
ĠØ´ Ø±ÙĥØ§Øª
ĠÙħ Ø§Ùĥ
ĠÙĥØ³ Ø§Ø±Ø§Øª
Ø§Ø¨ ÙĦ
ĠØµ ÙĬØ§ÙĨØ©
ĠØ§ÙĦÙħ ÙĦ
ĠÙģ ÙĤØ·
Ø® ÙĪÙĦ
Ø§Ø¯ Ø±
ÙĬÙģ Ø©
ĠØ§ÙĦØ¯ Ø±
Ø³ Ø³
ĠØ¨ÙĪØ§Ø³ Ø·Ø©
ĠØ§ Ø²
ĠØ§ÙĦÙħØŃ Ùħ
ĠØ§ÙĦÙħ Ø¹Ø¯
Ø±ÙĪ Ø³
ĠÙħ ÙĦÙĬ
Ø³ÙĦ Ùħ
Ø° ÙĬØ©
Ø¯ ÙĬÙĪ
ĠØ§ÙĦØŃ Ø¯ÙĬØ¯
ĠØ§ÙĦÙħ Ùĥ
Ø¹ ÙĬ
ĠØ³ Ùħ
ĠØ¹ Ùħ
Ùĩ ÙĦ
ĠØ§ÙĦØ¹ Ø§ÙħØ©
Ùĩ Ø²Ø©
Ùĩ Ø§Ø²
ĠØ¨ ÙĬØ¹
ĠÙĥ ØªØ¨
ĠØ§ÙĦØŃ Ø±
Ø§Ø¶ ÙĬ
ĠØ´ Ø¨
ĠØ§ÙĦØ³ ÙĦ
ĠÙĤ Ø§ÙĦ
ĠØ§ÙĦØ¹ ÙĦÙħ
Ġ4 7
ĠØ§ÙĦØ§ÙĨ ØªØ±ÙĨØª
ĠÙħØ¬Ùħ ÙĪØ¹Ø©
ĠÙĥØ§ÙĨ Øª
ĠÙħÙĨ ØªØ¬Ø§Øª
ÙĪ Ø«
ĠØ§ØŃ ÙħØ¯
ĠÙĦ ÙĤ
ĠØ¨ ÙĩØ§
Ø§Ø¯ Ø§Øª
Ùĩ Ø§Øª
ÙĪÙĦ ÙĪØ¬
ĠØ§Ùģ Ø±ÙĬÙĤ
ÙĨ Ø§Ø¹Ø©
Ġ0 5
ĠÙĪ Ø´
ĠØµ ØŃ
ĠØ¨ Ø¬
Ø§Ø¨ Ø·
ĠÙħØ® Ø±ÙĪØ·
ĠØ´ Ø®Øµ
Ø± Ø¨ÙĬ
ĠØ§Ø®Ø± Ùī
Ùħ Ø§Øª
ĠÙģÙĬ Ø¯ÙĬÙĪ
ĠØ§ÙĦÙħ Ùģ
ĠÙħØ´ Ø§Ùĩ
ĠÙĨ Øª
Ø´ Ø±Ø©
Ø¹ Ø§Øª
ĠÙĬØ¬ Ø¨
ÙĬ Ø·
Ø§Ùħ ÙĦØ©
ĠØ®Ø¯Ùħ Ø©
ĠØ§ÙĨ Øª
ĠÙħÙĨ Ø°
ĠØ· Ø±ÙĬÙĤ
ÙĬ Ø§Ø¡
Ø§Ø¹ Ø§Øª
ĠØ¹ Ø§ÙĦÙĬØ©
ĠÙĬ Ø´
Ùĩ Ø±Ø¨
ĠØ§ÙĦ ÙĪÙĤ
Ø§Ø¨ ÙĤ
Ø± Ø§
ĠÙħØ¨ Ø§Ø´
ĠØ¯ Ø§Ø®ÙĦ
ĠÙĥ ØªØ§Ø¨
Ø§ÙĤ Ø§Øª
ĠØªØµ ÙħÙĬÙħ
Ġ201 7
ÙĥØª ÙĪØ±
ĠØµ Ùģ
ĠØ§ÙĦ Ø§Ø«
ĠØ¨ ÙĤ
ĠØ§ÙĦØª Ùģ
Ø§ÙĦ ØŃ
ĠØ± Ùħ
ĠØªØ³Øª Ø®Ø¯Ùħ
Ø§Ø± Ø¯
ĠÙĨ ÙģØ³
ĠØ§ÙĦØ¬Ø¯ÙĬØ¯ Ø©
ÙĪ Ø§Ø¬
Ø§Ø¦ ÙĤ
ĠØ§ÙģØ±ÙĬÙĤ ÙĬØ§
ĠØ¬ÙĨ ÙĪØ¨
Øº ÙĬ
Ø§Ø³ Ø§Øª
ĠØ§ÙĦØ§Ùħ Ø±ÙĬÙĥ
ĠØ§ÙĦÙģ ØŃÙħ
ĠØª Ø§Ø±ÙĬØ®
Ġ201 6
ĠØ§ÙĦÙĪ Ø²
Øª Ø¨Ø±
ĠØŃØ³ Ø§Ø¨
ĠØ§ÙĦØ« Ø§ÙĦØ«
ĠÙħ Ùĩ
Ø§ ÙĪÙĨ
ĠØ§ÙĦÙģ ÙĦ
ĠÙĬ Ø³
ĠØ§ÙĦÙĥ Ø³
Ø§Ùģ ÙĬØ©
ĠÙĨ ÙĤÙĦ
ĠÙħ Ø²
ĠÙĪÙĦ ÙĥÙĨ
Ø§Ùģ ÙĤ
ĠØ§ÙĦØª ÙĤ
Ø³ ÙĦØ©
ĠÙĪÙĩ ÙĪ
ĠØ¹ Ø¨
ÙĬ ÙĬÙĨ
ĠØªØµ ÙĨ
Ø¨ ÙĪØ¹
ĠØ§ÙĦØ³ Ø¹Ø±
ĠØ³ ÙĥØ³
Ùħ Ø¨Ø±
ĠØ§ÙĦØ¹Ø± Ø¨ÙĬ
Ø§Ùĩ Ø±Ø©
Ġ2 6
ĠØ§ÙĦØ±Ø¦ÙĬØ³ ÙĬØ©
ĠØ§ ÙĩÙħ
ĠÙĥ Ùħ
ĠÙħ ÙĦÙģ
ĠØŃ ÙĦ
ÙĬ Ø§Ø¯Ø©
ĠØ§ÙĦÙħ ÙħÙĦÙĥØ©
ĠÙĬ ÙĪÙĨ
ĠØªÙĨ Ø¸ÙĬÙģ
Ø¸ Ø§Ùħ
ĠØ§ÙĦØµ ØŃØ©
ĠØ§ÙĦØ´ ÙĬØ®
ĠÙĬÙħÙĥÙĨ Ùĥ
ĠØ§ÙĦÙħØ¹ÙĦ ÙĪÙħØ§Øª
ĠØ§ÙĬ Ø¶Ø§
ĠØ¹ Ø±Ø¶
Ø¸ Ø§Ø¦Ùģ
ĠØ§ Ø¨Ø±
ĠØ§ÙĦØ¨ Ø±ÙĬØ¯
ĠØª Ø¨
Ø±Ø§Ø¦ ÙĬÙĦ
Ø±Ùģ Ø©
ĠØ§ÙĦØ§ÙĪÙĦ Ùī
ĠØ¹ Ø±ÙĪØ¶
Ø¨ Ø·
ĠØŃ Ø³Ø¨
ĠÙĦ ÙĥÙĨ
Ø§Ø ¸
ÙĩÙħ Ø§
ĠÙĪ Øµ
ÙĬØ§ Ùĩ
Ġ2 7
ĠØ§ÙĦØ® Ø¯Ùħ
ĠØ®Ø¯Ùħ Ø§Øª
ĠÙĪ Ø¯
ĠØŃ Øµ
ĠØ§ÙĦØ´ Ø±ÙĥØ©
ĠØ§ÙĦØ³ Ø±ÙĬØ¹
ĠØ¬ Ø²
ĠÙĪØ² ÙĬØ±
Ø² ÙĬØ²
ÙĤØ¯ ÙĬÙħ
Ġ5 0
ĠØ§ÙĦÙĤ Ø¯
ÙĨ Ø¨
Ġ3 9
Ø® ÙĪØ±
ĠØ· Ø±ÙĬÙĤØ©
2 0
Ùħ Ø§Ø±
ĠÙĥÙĬÙģ ÙĬØ©
ĠÙĨ ÙĪØ¹
ÙĪØ¨ Ø§
ĠÙĪØ² Ø§Ø±Ø©
ĠÙĦ ÙĩØ§
Ø¯ Ø§Ø¯
ĠØ· ÙĨ
ĠÙĦ Ø¨ÙĨ
Ùħ Ø§Ùħ
ĠÙĪ Ø·
ĠÙģÙĬ ÙĩØ§
Ø¯Ùħ Ø§
ĠØ§ÙĦØª Ø·
Ùĥ Ø§ÙĨ
ĠÙħØ´ Ø±ÙĪØ¹
ĠØ§ÙĦØ® Ø·
ĠØ§ÙĦØ´ Ø®Øµ
ĠØ¬ Ø§ÙħØ¹Ø©
ĠØ¹Ø¨Ø¯ Ø§ÙĦ
Ø¶ Ø±
ĠØ¬ Ø¯
Ùĥ ÙĬØ©
ĠØ§ÙĦØŃ Ø³
ĠØ° Ø§Øª
ÙĬ ÙĪÙĨ
Ø§Ø¹ Ø¯Ø©
ĠØ§ÙĦÙĦ ØºØ©
Ø§Ùħ ÙĬÙĨ
ĠÙĩ ÙĨØ§Ùĥ
ĠØ¯ ÙĪÙĨ
Ùħ Øª
Øº Ø±
ĠØ§ÙĦÙħ Ø²ÙĬØ¯
ĠÙĩ ÙĨØ§
ØŃ ÙĦØ©
ĠØ§ÙĦÙĨ Ùģ
Ø§Øµ ÙĬÙĦ
Ùĥ ÙĬ
ĠØ§ÙĨ ØªØ§Ø¬
ÙĪØ±ÙĬ Ø§
ĠØ§ÙĦØ® Ø§Ùħ
Ø¬ ÙĦÙĬ
ĠØ§ÙĨ ÙĪØ§Ø¹
ĠØ§Ø¨ ÙĨ
Ø§Ø³ Ø¨
ÙĥØ³ ÙĬØ±
Øµ ÙĪØµ
ĠØ§ÙĦØ¹ ÙĤ
Ġ0 1
Ø¸ Ø±
ĠØ¹ÙĦÙĬ ÙĩØ§
ĠØ§ÙĦØ§Ø³ ÙħÙĨØª
ĠØ§ ÙĪÙĨ
Ø§ØŃ ÙĪÙĨØ©
ĠÙĪ ÙģÙĬ
ĠØ§ÙĦÙħØ³Øª Ø®Ø¯Ùħ
ÙĨÙĤ ÙĦØ©
ĠØ§Ùħ Ø§Ùħ
Ø§ØŃ ÙĬØ©
ĠØª Ùĩ
ĠÙħ Ø¨Ø§Ø±
ĠØª ÙĥÙĪÙĨ
ÙĤÙĬ ÙĤØ©
ĠÙĨØ¸ Ø§Ùħ
ĠÙħØ® Øª
Ø§Ø¨ Ø¹Ø©
4 1
ĠÙĤ Øµ
ĠØ§Ø¯ Ø§Ø±Ø©
ĠØ± ÙĪ
Ùĩ Ø§Ø¨
ĠØ§ÙĦÙĥ ÙĪÙĬØª
8 7
Ø§ÙĨ Ø¹
ĠØ¬ ÙĪ
ĠÙħØ¯ ÙĬÙĨØ©
Øµ Ø§ÙĦ
ÙĨØ§ ÙĬØ©
ĠØ§ÙĦÙħÙĪ Ø¶ÙĪØ¹
ĠØŃ Ø²
ĠÙħØŃ Ø·Ø©
ĠÙĪØ§ÙĦ ÙĨ
ĠÙĪØ§ÙĦ Ø¯
Ø¨ Ø§ØŃ
ĠØŃ ÙĤÙĪÙĤ
ĠØ§ÙĦØ¯ ÙĬÙĨ
Ùĩ ÙĪØ±
ĠØ§ÙĦÙħ ÙĦÙĥ
Ø¨ ÙĬØ±
ĠØ§ÙĦØ® Ø§Øµ
ĠØ§ÙĨ Ø´
ÙħÙĦ Ø©
Ø§Øª Ø¨
ĠØ¨ ÙĬØ§ÙĨ
ĠØ§ÙĦØ¬ ÙĨ
Ø± Ø§Ø¬
Øª ÙĬÙĨ
ĠØ§ÙĦØª Ø´
ĠÙħØ¹ ÙĦ
Ø³Øª Ø§ÙĨ
ÙĤ Ø§Ùħ
ĠÙĦÙĦ Ø´
ĠØ§ÙĨ Ø¯
Øº ÙĦ
Ø¹ÙĦ Ùħ
ĠÙĪ ÙĤØ¯
ĠÙĦ Ø¬
ĠØ¨ Ø§Ø±
ÙĬØ¯ ÙĬÙĪ
ĠØ¹ Ø§ÙĦÙħ
ĠØ§ÙĦØ´ Ø±
ĠØ¹ÙĦ ÙĬÙĥ
ÙĪ ÙĬÙĨ
ĠÙĤ Ø§Ø¦ÙħØ©
ĠØ§ÙĦØ« ÙĤ
ÙĤ ÙĤ
ĠÙģÙĬ Ùĩ
Ġ2 8
Ø§Ø¦ Ø¬
ĠØ§ÙĦØ§Ø® Ø¨Ø§Ø±
ÙĬØ² Ø©
Ø§ØŃ ÙĨ
ĠØ§ÙĦ Ø§Ùĩ
ĠÙĪ Ø§
ĠÙĪØ§ØŃ Ø¯
ĠØ§ Ø°
Ø¹ Ø§ÙĦ
ĠØ§ÙĦØ³ ÙĦØ§Ùħ
ĠØ¨ Ø±ÙĬ
ĠØ§ÙĦÙħ Ø¨
ĠØ§ÙĦØ³ ÙĪØ¯
ÙĪÙĦØ§ ÙĬØ§Øª
ĠÙĨ Øµ
Ġ3 5
Ø§Ø±Ùĥ Ø§Øª
ĠØ³ÙĦ Ø³ÙĦØ©
Ġ0 8
ĠØ§ÙĦØ§ÙĤ ØªØµ
ĠØ§ ÙĪØ±
ĠØ³ Ø§Ø¹Ø©
Ø± Ø§Ø¶
Ġ2 9
Ø±ÙĬ ÙĦ
ĠØ· Ø§ØŃÙĪÙĨØ©
3 7
ÙĪÙĤ Ùģ
ĠØ§ÙĦØ¨ØŃ Ø±ÙĬÙĨ
ĠÙħÙĨ ÙĩØ§
Ġ5 2
ĠÙĪ ØªØŃ
Ø§ÙĦ Ø¯
ĠØ§ÙĦØŃ ØµÙĪÙĦ
ÙĥÙĨ ÙĪÙĦÙĪØ¬
ĠÙĦ ÙĬØ³
Øº ÙĬÙĦ
Ø¶ ÙĬ
ØªÙħ Ø¹
ĠØ¹ ÙĤ
Ø±Ø¨ Ø©
Ø§ÙĦ ÙĬØ§
ĠÙĨ Ø¬
Ø¹ ÙĬØ¯
ĠØ§ÙĦÙĥ ÙĦ
ĠÙĨ Ø´Ø±
ĠØ§ÙĦØŃ ÙĬ
ØŃ ÙĪ
ĠÙĪ Ø®
Ø¸ ÙĬÙħ
Ø§ÙĦ Ùģ
Ġ6 9
ÙĬØ± Ø§
Ø¸ Ùħ
ĠØ§ÙĦÙĤ Ø§ÙĨÙĪÙĨ
Ùģ Ø§Ø¡
ĠØµ ÙĨØ¹
Ø¸ ÙħØ©
ĠØŃ Ø§ÙĦØ©
Ø§Ø³ Ø¨Ø©
ĠØ¯ ÙĪØ±
ĠØ§ÙĦØµ Ø®ÙĪØ±
ØŃ ÙĪÙĤ
Ø§ÙĨ Ø¨
ĠØ§ÙĦÙĨ Ø³
ÙĬØ³ ÙĬ
ĠØ® ÙĦ
Ùģ ØŃ
Ø± Ø¹Ø©
Ø² Ø§
ÙĪ Ø¨Ø©
ĠØª ÙĪÙģ
Ø§Ùģ ÙĬ
Ø³ Ùĥ
ĠØ¶ Ø¯
ÙĪ ØªØ±
Ø§Ø¶ ÙĬØ¹
Ø®Øµ Øµ
ĠØ¨ Ø³Ø¨Ø¨
ĠØº Ø³
Ø¨ ÙĤ
ĠÙĪÙĩ ÙĬ
ĠØ§Ùĥ Ø¨Ø±
Ġ4 0
ĠØ§ÙĦÙĤ Ø·
Ġ3 1
ĠØ¬ Ø¯Ø§
ĠØ§ÙĦØª Ø¯
ĠØ§ÙĦØ¨ ÙĨ
Ø§Ø« ÙĬØ±
Ùģ Ø¸
Ùģ ÙĬØ±
ÙĨ ÙĪØ§ÙĨ
Ø§Øµ Ø±
Ø± Ùħ
ĠØ´ ÙĬ
Ø¤ ÙĪÙĦ
ĠÙģ ØªØŃ
ĠØªØ³ ÙĪÙĤ
ĠÙĪ Ø¹ÙĦ
ĠØª ÙĦ
Ø¯ ÙĨ
ĠØ§ÙĦØ´ Ø¹Ø±
Ø§ÙĦ Øª
ĠØ§ÙĦ ÙĬÙħ
Ø§Ø¦ Ø¨
ĠÙħØ´Ø§Ùĩ Ø¯Ø©
8 2
Ø¬ Ø²
ÙħØ§ ÙĬØ©
ĠØ§ÙĦÙĪØ· ÙĨÙĬ
ĠÙĥ ÙĨØª
ĠÙĦ Ø´
ÙĤ Ø¨ÙĦ
Ø¶ ÙĬØ©
ĠÙĦ Ø§Ø³
Ø¬Ùħ ÙĬØ¹
ĠÙĥØ¨ ÙĬØ±Ø©
Ø¸ ÙĩØ±
ØªØ± Ø©
ĠØ´ ÙĩØ±
ĠÙħØªØ± Ø¬Ùħ
Ø§ÙĨ Ø¯
ĠØ§ÙĦØ¹ Ùħ
Ø§ÙĨ Ø©
ĠØ§ÙĦØ° ÙĬÙĨ
ĠØ· ÙĦØ¨
ØŃ Ø¨
ĠÙĪØ§ÙĦ ØªÙĬ
ĠÙĦÙĦ Ø¹
Ø± Ø·
ĠØªØ³ Ø¬ÙĬÙĦ
Ø´Ø± Ø§Øª
Ø² ÙĬØ©
ØªÙħ Ø¨Ø±
Ø§Ø´ Ø©
ĠÙħØ¹ÙĦ ÙĪÙħØ§Øª
ĠØ§ÙĦØ§ÙĨ Ø³Ø§ÙĨ
ĠØµ ÙĦ
Ø§Ø± Ø¨
Ø¨ÙĬ ÙĪØªØ±
ĠØ« ÙĦØ§Ø«
ĠÙĥ Ø§ÙħÙĦ
ĠØ¨ Ø±ÙĬØ¯
ĠØª Ø¹Ø±Ùģ
Ġ5 1
ĠØ§ÙĦ ÙĪÙĦØ§ÙĬØ§Øª
ĠØ§ÙĦÙħ Ø±ÙĥØ²
ĠØ¯ÙĪÙĦ Ø§Ø±
Ø§Ø· ÙĤ
Ø¨ÙĬ Ø§
Ø§Ø¬ Ø§Øª
ĠÙĤØ· Ø¹
ÙĬ Ø§Ùħ
Ø³ ÙĬÙĨ
ĠØ³Ø¨ ØªÙħØ¨Ø±
Ø§Ø¦ Ùħ
ĠØ§ÙĦØ§Ø¹ ÙĦØ§Ùħ
Ġ6 0
Ø´ ÙĬ
Ø³ Ø§Ø¨
ĠÙĪ Ø§Øª
Ø¯ ÙĪØ¯
ĠÙĨ ÙĪÙģ
ÙĨ Ø§Ø¯
ĠØª Ø¹Ø¯ÙĬÙĨ
ĠÙĦØ¨ÙĨ Ø§ÙĨ
ĠØ§ Ùĩ
ĠØªØŃ Øª
9 7
Ø§Ø¬ Ø±
ĠÙħ ØªÙĪ
ĠØ§ Ø¬ÙĦ
Ø§Ùħ Ø§
Ø° ÙĬ
Ø¬ Ø§ÙĨ
Ø·ÙĦ ÙĤ
ĠØ§ÙĦØ± Ø³Ùħ
ĠØ± Ø¬
ĠÙĦØ¹ Ø¨Ø©
Ø§Ø² ÙĦ
ĠØ¨Ø¯ ÙĪÙĨ
ĠØ¨ Øµ
ĠØ§Ùħ Ø±ÙĬÙĥ
ĠÙĪØ§ÙĦ Ø´
ĠØªØ¹ÙĦ ÙĬÙĤ
Ø² ÙĬÙĦ
ÙĨ Ø·
ĠØ§ÙĦØ§Ø¹ ÙħØ§ÙĦ
Ø¬ Ø¯
ĠÙĪ Ø°ÙĦÙĥ
ØŃ Ø§Ø¯
ĠØ§ÙĦØ¯ ÙĥØªÙĪØ±
ĠÙĪØ§ÙĦ Øµ
ĠÙĥØ¨ ÙĬØ±
ĠÙĪÙĤ Øª
Ø§Ùģ Ø¸
ĠØ§ÙĨ ÙĩØ§
ÙĦ Ø§ÙĤ
ĠÙĪØ§ÙĦ Ø³
ĠØ§ÙĦØ® Ø§Ø±Ø¬
ĠÙĥ ÙĨ
Ø§Ùģ ØŃØ©
ÙĪØ¬ Ø¯
ĠØ§ÙĦØ´ Ø±ÙĤ
ĠØ¨Ø§ÙĦ Ùĥ
ĠØ§ÙĨ Ø§
ĠØ¯ ÙĬ
ĠÙĪ Ø¸Ø§Ø¦Ùģ
Ġ3 6
ĠÙĨ ÙĬÙĪ
ĠÙĬ Ùģ
Ø³Ø· ÙĬÙĨ
ĠØ§ÙĦÙħÙĨ ØªØ¯Ùī
Ø¨ÙĬ Ø¨
ĠØ§ Ø¬Ø±
ĠØ§ÙĦØ¹ Ø§Ø¨
Ø³ Ø³Ø©
ĠØ§ÙĦØ± Ø³
ĠÙģ Ùĩ
ĠØ§ÙĦØµÙģ ØŃØ©
ĠØµ ØºÙĬØ±Ø©
ĠØ§ÙĦØ± ÙħÙĦ
Ø¯Ø§ ÙĪÙĦ
Ø´ Ø§Ø±
ĠÙħ Ø¶
ĠØªØµÙĨ ÙĬØ¹
ĠØ¹ÙĨ Ø¯ÙħØ§
ØªÙĬ Ø§Ø±
Ø¨ØŃ Ø«
ĠØ¨ Ø§Ùĥ
ĠØ¨ ÙĬØ±
Ø± ÙĬØ±
ĠØ§ÙĦ Ø§Ø²
Ø¬Ùħ Ø¹
ĠØ§ÙĦØ« Ø§ÙĨ
ĠÙĬ Ùĥ
ĠØ§ÙĦØŃÙĥ ÙĪÙħØ©
ĠØ¨Ø§ÙĦ Øª
ĠØ§ÙĦØ§ÙħØ±ÙĬÙĥ ÙĬØ©
ĠØ§ÙĦØ´ Ø±ÙĥØ§Øª
ÙĬ Øµ
Ø® Ùģ
ĠÙĬ ÙĪÙĦ
Ġ5 9
ĠØ§ÙĦØ§Ø· ÙģØ§ÙĦ
ĠØ§ÙĦØ¹ Ø¯ÙĬØ¯
ĠØ§ÙĦØŃÙĬ Ø§Ø©
ĠØ³ ÙĨØ©
ĠÙĬ Ø§
ĠÙħØ³ ØŃÙĪÙĤ
ĠÙħÙĨ Ùĩ
ĠØ´ Ùĩ
ĠØ§ÙĦÙĪÙĤ Øª
ÙĥÙĨÙĪÙĦÙĪØ¬ ÙĬØ§
Ø±ÙĪ Ùģ
ĠØ§ÙĦÙħØµ ÙĨ
ĠØ¬ ÙĦ
ĠØ¹ÙĦ Ùħ
Ġ201 5
ĠØ§Ùģ ÙĦØ§Ùħ
Ġ201 4
Ø² Ø§Ùħ
ĠÙĪ Ø§Ø¹
ĠØ³ ÙĪ
ĠØ§ÙĦÙħÙĨ ØªØ¬Ø§Øª
ĠØ¯ Ø¹
Ø§Ø¦ Ø¹
ĠØ§ÙĦÙħØ¹Ø¯ Ø§Øª
ØªÙģ Ø§Ø¹
ĠØ¯ ÙĬØ³
ĠÙĦ ØªØŃ
ĠØ§Ø¶ Ø§ÙģØ©
ĠØ§ÙĦÙħ ÙĪØ±Ø¯
ĠÙĤ Ø§ÙĨÙĪÙĨ
Ø§Øª ÙĬ
ĠÙħÙĪ Ø§ÙĤØ¹
ØªÙĪ ÙĬ
Ġ0 9
ĠØ§ÙĦØ¯ ÙĪÙĦØ©
ĠØ§ÙĦØ§ ÙĪØ±
ÙĪ Ø¨ÙĬ
Ø§Ø± Ø¹
Ø¬ Ùĩ
ĠØ§ÙĦØ¯ÙĪÙĦ ÙĬ
ÙĪØ± Ø§Øª
ĠØ§ÙĦØ¹Ø§ÙĦÙħ ÙĬØ©
ĠÙĦ Ø§Ø¹
ĠÙħÙĦÙĬ ÙĪÙĨ
Ø¨ Ø³
ĠÙĪ Ø¶Ø¹
ĠØ§ÙĦØ« Ø§ÙĨÙĬØ©
5 0
ĠØ§ÙĦØ§ØŃ Ø¯
ĠØ§ÙĦØ§ÙĦÙĥØªØ±ÙĪÙĨ ÙĬØ©
ĠÙĪØ§ÙĦ ÙĤ
Ø§Ø¶ Ø§ÙģØ©
ĠØ® Øµ
ĠØŃ Ùħ
ØºÙĬ ÙĬØ±
ĠØµ ÙĨØ§Ø¹Ø©
ĠØ§ÙĦØµ ÙĨØ§Ø¹
ĠØ® Ø§ØµØ©
ĠØ§ÙĦØŃ Ø¬
Ø¯ Ø§Ø±
ĠØ§ÙĦÙĤØ± Ø§ÙĨ
Ùģ Ø§Ø¹
ÙĬØ¯ ÙĬ
Ø§Ø² Ø§Øª
ĠÙĬ Øµ
ĠØ¹ Ø¯Ùħ
ĠØ§ÙĦÙħÙĪ Ø§Ø¯
ĠÙħØ¬ Ø§ÙĦ
ĠØ¯ Ø¨ÙĬ
ĠØŃ ÙĤ
ÙĪÙĨ Ø³
ĠÙħ Ø§ÙĦ
Ø¶ ÙĪ
Ø§ÙĤ ÙĦ
ĠØ§ÙĦØ¯ Ø§Ø®
ĠØ¹ Ø¯
ĠØ§ÙĦÙħ ØªÙĪ
ĠÙĦ Ø³
ØªØ¨ Ø§Ø±
ĠÙĪØ§ØŃ Ø¯Ø©
ĠÙħØ¹ Ø§ÙĦ
8 0
ÙĨØ³ ÙĬØ©
Ġ0 6
ĠØ§ÙĦÙĥ ØªØ±ÙĪÙĨ
ĠØ§ÙĦØ¬ ÙĬØ±ÙĬ
ĠØ§ÙĦØ³ÙĬ Ø§Ø±Ø§Øª
Ø§Ø¬ Ø©
ĠØ§ÙĦØ¯ Ø®ÙĪÙĦ
Øµ Ùī
Øª ÙĨØ§
ĠØ§ÙĦÙĥ Ø«ÙĬØ±
ĠØ§ÙĦØ³ Ø§Ø¹Ø©
ĠÙĤ ÙĨ
Ø· Ø§Øª
ĠØ³ÙĨ ÙĪØ§Øª
Ø° Ø©
ĠÙģ ÙĪ
ĠÙĪÙĥ Ø§ÙĨ
ØªØ® Ø§Ø¨Ø§Øª
ĠØ¨ Ø§Ø¨
ĠÙĪØ§ÙĦ Ùģ
Ø§Ùħ ÙĬ
Ø¨ Ùĩ
ĠÙĨ ØŃÙĨ
ĠÙħÙĨ Ø·ÙĤØ©
ĠÙħØ¬ Ø§ÙĨØ§
ĠØ§ÙĦØªÙĪ Ø§ØµÙĦ
ÙĪ Ø§Ø¯
ĠÙĬ Ø®
ĠØ¹ÙĨ ÙĪØ§ÙĨ
ĠÙĬ Ø¤
ĠÙĦ ÙĥÙĦ
ĠØ§ÙĦØ¹ÙĦ ÙĪÙħ
ĠÙĬÙĪÙĨ ÙĬÙĪ
ĠØŃ Ùĥ
ĠØ§ÙĦÙħÙĨ ØªØ¬
ØªÙĪ Ùī
Ø° ÙĥØ±
ĠÙĤ Ùħ
ĠÙĦÙĦ Ø§Ø³
ĠØ¨ ÙĨØ§
ĠÙħ Øº
Ø§Ø¶ ÙĬØ©
ÙĪ Ø§Ø¨
ĠØ§ÙĦÙħ Ùħ
Ø· ÙĦØ¨
ĠØ§ Ø¹Ø¯
ĠØ§ÙĦÙĤ Ø§ÙĩØ±Ø©
ĠÙĨ Ø´
Ø¨ Ø®
ĠÙħ Ø±Ø©
ĠØ§ÙĦÙĪØ· ÙĨÙĬØ©
ĠÙĥÙĦ ÙħØ©
ĠØ³ ÙĬØ±
ĠØª ÙĦÙĥ
ØŃ Ø§Ø¨
Ú ©
ĠØ´ Ø±Ø§Ø¡
ĠÙħÙĦ Ø§Ø¨Ø³
ĠØ¨ ÙĬØª
Ø¶ ØŃ
Ø¬ ÙĬ
ĠØ¬ Ø±
ĠØ¯ ÙĦÙĬÙĦ
Ø® Ø©
ĠØ§Ø± ÙĤØ§Ùħ
ĠØ§ÙĦØª Ø±Ùĥ
Ġ3 3
ĠÙĪ ÙģØ±
ĠØ¹ ÙħØ±
Øµ ÙĪØ±
ÙĪÙħ ÙĬ
ĠØ§ÙĦØ§Ø³ÙĦØ§Ùħ ÙĬØ©
Ø¶ Ø§ÙĨ
Ùĥ Ø§Øª
ĠØ§ÙĦØ± ÙħØ§ÙĦ
ĠØª Ø¹Ø¯
ĠÙĪØ§ÙĦ Ø§Ø³
ĠØª Ø§Ø«ÙĬØ±
ĠÙĤ Ø·Ø±
Ġ3 7
Øª Ø§
ĠØ§ÙĦØ§ÙĨ Ø¬ÙĦÙĬ
Ġ0 7
Ø§ ÙĩÙħ
ÙĬÙĪ Ø¨
ĠØ§ÙĦÙħØµ Ø±ÙĬ
ĠÙģÙĬ ÙĦÙħ
Ø§Ø¯ Ø±Ø©
Ø§Ùĥ ÙĦ
ÙĤ Ùĩ
ÙĬÙħ ÙĬ
Ø§Ø¦ Ø±Ø©
Ġ0 2
Ø± Ø¹
Ø·ÙĦ Ø§ÙĤ
Ø¯ ÙĬØ©
ĠØ§ÙĦÙĨ Ø§Ø³
ĠØ§ÙĦØ³ Ø¨Øª
ĠØ¨Ø§ÙĦ ÙĤ
ĠÙĪ Ø§Ø¬
ĠÙħ Ø§Ø±Ø³
ĠÙĦ Øµ
ĠØª ÙĥØ³ÙĬØ±
ĠØ§ÙĦÙĨ ÙĤ
ĠØ§ÙĦØª Ø§Ø±ÙĬØ®
ĠÙĦ ÙħÙĨ
ÙĤØ± ÙĬØ±
ÙĬÙĪ Ø·
ĠØ§ÙĦØ§Ø³ Ø¹Ø§Ø±
Ø§Ø¡ Ø§Øª
ØªØ± Ø§Ùĥ
Ġ0 4
ĠØ§ Ø¨ÙĬ
ĠØ§ÙĦØ« ÙĦØ§Ø«
Ø§Ùģ Ø¸Ø©
ĠØ§ÙĦØ¨ Ø·
ĠÙħ Ø§Ø±
Ø´Ø± ÙĬÙĨ
Ø³ Ø§Ùħ
ĠØ§ÙĦØŃ Ø¯ÙĬØ«
Ø· ÙĬØ¹
ĠØ§ÙĦØ§Øª ØµØ§ÙĦ
ĠØ§ÙĦØ¹ Ø±Ø¨
ÙĪ Ùĩ
ĠØ¬ ÙĩØ§Ø²
ĠØ¨ ÙħØ§
ÙħØ¯ ÙĬÙĨØ©
Øº Ùħ
ĠØ§ÙĦÙĥ ÙĩØ±Ø¨
ĠÙĦØ§ ÙĬÙĨ
ĠÙĨ Ùģ
Ø§Ø¦ ØŃ
Ùħ ÙĬØ³
ĠØ§ØŃØ¯ Ø«
ĠØ§ÙĦÙĨÙģ Ø·
ĠØ§ÙĦÙħ Ø§ÙĦ
Ġ0 3
ĠØ± ØŃ
ĠÙĪ ØºÙĬØ±
Ø¨ Ø§Ø¡
ĠØ§ÙĦØ¹ Ø¯
ĠÙĥ Ø±
ĠØ§ÙĦØªØ¬ Ø§Ø±ÙĬØ©
ĠÙĥ Ø§Ø±
ĠØ¨Ø§ÙĦ Ùģ
ĠÙĬ Ø±
ĠÙĦØ¯ Ùī
Ø¯ Ùĩ
ĠØ§ÙĦÙħØº Ø±Ø¨
Ġ201 3
ĠØ§ÙĦØ¹ ÙĨØ§ÙĬØ©
ĠÙħØŃ Ùħ
ÙĪÙĨ Ø§Øª
ĠÙħÙĦÙģ Ø§Øª
ĠØªØ±Ùĥ ÙĬØ§
ĠÙĦÙĦ ÙĨ
ÙĪ Ø§Ø±Ø§Øª
ĠÙģ ÙĤØ¯
ĠÙĪØ§ÙĦ Ø§ÙĨ
ĠØ§Ø¹ ÙħØ§ÙĦ
ÙĬÙĨ Ø§Øª
ĠØ§ÙĦØª Ø±
6 1
ĠÙħØ´ Ø§Ø±ÙĥØ©
ĠØ® Ø§Øµ
Ø§Ùĩ ÙĬÙħ
ĠØ§ÙĦØ³ ÙĨØ©
ĠÙĪ ÙħØ§
ĠØ§Ùħ Ø±
ĠÙĤ Ø±
ĠÙģ Ø¨Ø±
Ø· ÙĪØ±
ĠØªÙĤ Ø¯Ùħ
ĠÙĦ Ùģ
ÙĪ Ø§ÙĤ
ÙģØ³ ÙĬØ±
ØªØ¯ ÙĬØ§Øª
ĠØ§ ÙħÙĨ
Øª Ø§ØŃ
ĠØ¨Ø§Ø³ ØªØ®Ø¯Ø§Ùħ
ĠÙĬ ÙĦ
ĠÙħ Ø«
ØªÙħ Ø±
Ø¨ Ø§ÙĦ
ĠØ§Ø¬ ØªÙħØ§Ø¹
ĠØ§ÙĦØ¬Ùħ Ø¹Ø©
Ø§Ùħ Ø§Øª
ĠÙĪ Ø§Ø®
ĠØ§ ÙĤÙĦ
ĠØ§ÙĦØµ ØºÙĬØ±Ø©
Ø¶ Ùħ
Ġ Ùī
ĠØ¨ÙĨ Ø§Ø¡
ĠØ§ÙĦØ± Ø¬
ĠØ¨Ø± Ø§ÙħØ¬
Ø³ Ø§ÙĦ
Ø§Ø¨ ÙĬ
2 1
ÙĬÙħ ÙĪÙĨ
ĠØ¨ ÙħÙĨ
ĠØ§ÙĦØ§Ø® Ø±Ùī
ÙĪ ØŃ
Ùĥ Ø¯
ĠÙħØ§ ÙĬÙĪ
Ø±Ø¬ Ø©
ĠØ§ÙĦÙĨ ØŃ
ĠÙħØ¹Ø§ÙĦ Ø¬Ø©
ĠØ§ÙĦØ§Ø¹ ÙĦ
ÙĪÙĬ ØªØ±
ĠØªÙĥ ÙĦÙģØ©
Ø§Ø¯ ÙĦ
Ø§Ø¹ ÙĬ
Ùĥ Ø±Ø©
ĠÙĬÙĪÙĦ ÙĬÙĪ
Ø§ ÙĬØª
ĠÙĪÙģ ÙĤ
Ø§Ø¯ ÙĨ
Ø¹ÙĦ ÙĬÙĤ
ĠØ´ Ø§ÙĩØ¯
ĠÙĥ Ø§ÙģØ©
ĠØ§ÙĦØ®Ø¯Ùħ Ø§Øª
ĠÙĨØª Ø§Ø¦Ø¬
Ø§Ùģ Ø±
ĠØ§ÙĬ Ø§Ùħ
Ġ4 5
ĠØ§ÙĦÙħØŃÙħ ÙĪÙĦ
Ø® Ø§Øµ
ĠØ§ÙĦÙħÙĨ Ø²ÙĦ
ÙĪÙĦ Ø§Øª
ĠØ´Ø¨ ÙĥØ©
ĠØ§ÙĦØŃ ÙĤ
ĠÙĬÙĨ Ø§ÙĬØ±
ĠÙħØ¨Ø§Ø´ Ø±
ÙĩØ¯ Ùģ
ĠØ§ÙĦÙħØŃÙħ ÙĪÙĦØ©
ĠÙĥ Øª
ĠØ¨ Ø¯Ø§
ĠØ§ÙĦÙħØµÙĨ Ø¹Ø©
Ø· Ø¨
ĠØŃØ³ ÙĨ
ĠØ±Ùħ Ø¶Ø§ÙĨ
ĠØ³ÙĬ Ø§Ø±Ø§Øª
ĠØ° ÙĥØ±
2 7
Ø±ÙĪ ÙĬØ¯
ĠÙģ Ø±ÙĬÙĤ
ĠØ§ÙĦØ§Ø¬ØªÙħØ§Ø¹ ÙĬØ©
Ø±Ø¯ Ø´Ø©
Ġ5 6
ĠØ§ÙĦØ¯ÙĪÙĦ ÙĬØ©
ĠØ· Ø¨
ĠØ§ÙĦØ¯ Ùħ
Ùĥ Ø§
ĠØ§ÙĦØ§Ø± Ø¶
ĠØ§ÙĦÙħ Ø§ÙĦÙĬØ©
ĠØ§ÙĦØ³ ÙĨ
ĠÙħ ÙħØ§
ĠØ¨Ø§ÙĦ Ø¬
ĠØª ØªÙħ
Øµ Ø¯
ĠØ§Ø¨ Ø±ÙĬÙĦ
ĠØ± Ø§Ø³
ĠØ§ÙĦØµØŃ ÙĬØ©
ĠÙħØ¯ ÙĬØ±
ĠØ§ ÙĤØ±
ĠØ³ ÙĪÙģ
ĠØ§ÙĦØ´ Ùĩ
ĠØ³ÙĬ Ø§Ø³Ø©
Ø§Ùĥ Ø³
ĠØ§ÙĦØª Ø±Ø¨ÙĬØ©
ĠÙĪ Ø§Ø´
ĠÙĦÙĦ Ø³
Ø±Ø§Ø¡ Ø©
Ø· Ùģ
Ø§ ÙĬØ§
Ø³ ÙĬØ©
Ø§Ùģ Ø§Øª
ÙĬÙĥ Ø§
Øª Ø¹
ĠØ² ÙĬØª
Ø¸ÙĬÙģ Ø©
Ø· Ø§ÙĦ
ĠÙħÙĥ Ø§ÙģØŃØ©
ĠØ§Ø¹ Ø§Ø¯Ø©
ÙĪÙħ ÙĬØ©
ĠØ§ÙĦÙĨ Ùĩ
ØŃÙĬ ØŃ
ĠÙĤ ÙĦ
ĠØ§ÙĦØ§Ø¬ØªÙħØ§Ø¹ ÙĬ
ĠÙĪØ§ÙĦ Ø¬
ĠØ³ ÙĪØ±ÙĬØ§
Ùĩ ÙĪØ±ÙĬØ©
ĠÙĦ ÙĥÙħ
ĠØ§ÙĦØ§Ø³ Ø¨ÙĪØ¹
9 4
ĠØ§Ø¬ ÙĩØ²Ø©
ĠØ§ÙĦÙħ ÙĬØ§Ùĩ
Ġ8 0
Ùĥ Ø§Ø±
ĠØŃ Ø¯
ĠØ§ÙĦØ³ ÙĬØ¯
ÙĩØ§ ÙĬØ©
ÙĪØ± Øª
ĠÙħÙĥ Ø§ÙĨ
ĠÙĦ Ø¯ÙĬ
ĠÙĪ Ø§Ø¶
Ø³ ÙĨ
ĠØ§ÙĦØ± ØŃ
ĠÙħØª ÙĨ
ĠØ§ÙĦØ± ÙĤÙħ
ĠØ§ÙĦØ§Ùħ ÙĨ
ĠØ§ÙĦØŃ ÙĦ
ÙĬÙħ Ø§ÙĨ
ÙĨØ§ ÙĪÙĦ
ĠØ§ÙĦØ· Ø§ÙĤØ©
ĠØ§ÙĦÙħØ± Ø§Ø©
ĠÙĪØ§ÙĦ Ø®
ĠØ§ÙĦÙĨ Ø¨Ø§Øª
ĠØ§ Ø±Ø¨
ĠØ§ÙĦØ¬ Ø±
ÙĪØ¨ ÙĬØ©
ĠÙģ ÙĨ
ĠØªØ±Ùĥ ÙĬØ¨
ĠÙħØª ÙĨÙĤÙĦØ©
Ø´Ùģ Ùī
Ùĥ Ø§Ùħ
ĠØ¹ Ø±Ø¨ÙĬ
Ø¯Ùħ Ø©
ĠÙħ Ø§Ø³
ĠØ§ ÙħØ§
ÙģÙĬ Ø°
ĠØ§Ø® ØªØ±
Ø§ÙĤ ÙĬØ©
ÙĥØ± ÙĬØ©
Ø³ Ø§Øª
ĠÙħØ¨Ø§Ø± Ø§Ø©
Ø§ ÙĬÙĦ
ĠØ±Ø³ Ø§ÙĦØ©
ĠÙĪØ¬ ÙĪØ¯
ĠØ§ÙĦØ§Øª ØŃØ§Ø¯
ĠØ§ÙĦØªØµ ÙĨ
Ġ25 3
ĠØ§Ø« ÙĨØ§Ø¡
ĠÙĪ Ø§Ùĥ
Ġ6 5
ÙĬÙĥ ÙĬØ©
ĠØ« ÙĤ
Ùĥ ÙĦØ©
ĠØ§ÙĦØ³ ÙĪ
ĠØª ÙĤØ¯ÙĬÙħ
ĠØªØ¹ Ø±ÙĬÙģ
ĠØŃ Ø±
Ø° Ø±
ĠØ§Ø³ Ø±Ø§Ø¦ÙĬÙĦ
ĠØ§ÙĦØ§Ø¨ ØªØ¯
ĠÙģ ØŃ
ĠØ§Ø¹ÙĦ Ø§ÙĨ
ĠÙĤ Ø¨
Ø¨ÙĦ Øº
ĠÙħ Ø¯Ø±
Ø´ ÙĦ
Ø¹ Ø§Ùħ
ĠØ§ÙĦÙħ Ø·Ø±
ÙĬØ² Ø§Øª
ĠØ§ÙĦØ¹ ÙĨ
ĠØª ÙĪÙĬØªØ±
Ùĥ ÙĬÙĦ
ĠØ§ÙĦØµ ÙĪØ±
Ø§Ø¦ Ø¯Ø©
ĠØ§ ÙĬØ±Ø§ÙĨ
ĠØ± Ø¤
ĠØ§ÙĦØ¬ ÙĦ
ĠØ§ÙĦÙĨ Ø¸Ø§Ùħ
ĠØ§ÙĦØ§Ùħ Ø±
ÙĬÙĥ ÙĪÙĨ
Ø§Ø³ Ùħ
Ø§Ùħ Ø¨
ĠØ´ Ø±
ØªÙĤ Ø§ÙĦ
ĠØ¬ Ø±ÙĬ
ÙħÙĪ Ø°
ĠØ¶ ÙħÙĨ
ĠØ§ÙĦÙģ ÙĬØ¯ÙĬÙĪ
ĠØ§ÙĦØº Ø°
Ø³Ø³ ÙĪØ§Ø±Ø§Øª
Ġ5 00
Ø§Ø¨ ÙĤØ©
ĠÙħØ³ Ø§Ø¡
Ø§ØŃ ÙĦ
Ø§ÙĦ Ùī
Ø¹ÙħÙĦ Ø©
Ø±ÙĬ Ø³
ĠÙħØ¨Ø§Ø´ Ø±Ø©
ĠØ§ÙĦÙĥ ØªØ§Ø¨
Ø§Ø¨ ÙĬØ©
ĠØª Ø¹ÙĦÙĬÙħ
ĠØ§ÙĦØ® ØµÙĪØµ
Ø±ÙĬ Ø§Øª
Ø³Ø· Ø³
Ø³Ø¨ ÙĪÙĥ
ĠØ¹ Ø´Ø±
ĠØ§ÙĬ Ø¶
ĠØ¹ÙĦ ÙĪÙħ
Ø§Ùĥ ÙĨ
ĠØ§ÙĦÙĦ Ø¨ÙĨ
ĠØ§ÙĦÙĥ Ø±
Ø§Ø¯ Ø«
ĠØ¨ ÙĥÙĦ
ĠØŃ Ø¨
Ø®Ø¯Ùħ Ø§Øª
ĠØ§ÙĦØ¬Ø² Ø§Ø¦Ø±
ĠØ§ÙĦØ³ Ùħ
ĠØ§ÙĦØ´ Ø¹
Ø¯ ÙĤ
ĠÙģÙĬ Ø³Ø¨ÙĪÙĥ
ĠØ´ Ø±ØŃ
ĠØ± Ø³Ùħ
Ġ201 2
ĠØ§ÙĦÙĥ Ø±ÙĬÙħ
ÙĪ Ø¶
ĠØ§ÙĦÙĨ Ø´Ø±
Ø· ÙĪØ§ÙĨ
Ø¹ Øª
ĠØ§Ùĥ Øª
Ø¦ ÙĦØ©
ÙĪÙĨ ÙĬ
ĠØ§Øº Ø³Ø·Ø³
ÙĩÙħ Ø©
Øª Ø¨Ø©
ĠÙĦÙĦ Ø¯
ĠØ± ÙĪØ³
ÙĪ ÙĬÙĤ
ĠÙĨÙĪÙģ ÙħØ¨Ø±
ĠØ§ÙĦÙģ ØµÙĦ
ĠØ§ÙĦØªØ· Ø¨ÙĬÙĤ
ÙĪ Ø¡
ĠØ² ÙĬ
ĠØ§ÙĦØ® ÙħÙĬØ³
ĠØ± Ø¨
ĠØ§ÙĦØ§Ùħ Ø§Ùħ
ĠÙģØ¨Ø± Ø§ÙĬØ±
Ø§ ÙĪÙĬ
ĠØ§ÙĦØ¬ Ø§Ùħ
Ø² ÙĬÙĨ
ĠØ¹ÙĦ Ø§Ø¬
1 5
ĠØ¨ ÙĪÙĦ
ĠØªØ¹ ÙħÙĦ
ĠØ§ÙĦØ¨ ÙĨØ§Ø¡
ÙĦÙħ Ø§ÙĨ
ĠØ¯ÙĬØ³ ÙħØ¨Ø±
ĠÙĪ ØµÙĦ
ĠÙĨ ØŃÙĪ
4 3
Ø§Ùħ ÙĨ
ĠØ§ÙĦÙħÙĪ Ø³Ùħ
ÙĬØ± Ø§Øª
ÙħÙĪØ° Ø¬
Ø® Ø§Ùħ
ĠØ¹ ÙĬØ¯
Ùĥ Ø§ÙĦ
Ġ8 7
ĠØ² ÙĪØ¬
ĠÙħÙĥ ØªØ¨
ĠØ§ÙĦØ§Ø± Ø¯ÙĨ
Øº Ø§ÙĨ
ĠÙĨ Ùĩ
Ø´ ÙĨ
ĠØªÙĤ ÙĪÙħ
ĠØ§ ØµÙĦ
ĠØ§ÙĦØ´Ø®Øµ ÙĬØ©
ĠØ§ÙĦØ®Ø§Ø±Ø¬ ÙĬØ©
ĠÙĦ Øº
ĠØ¨ Ùģ
ĠÙĬ Ùĩ
ĠÙĤ Ø§Ùħ
9 3
ĠØ±ÙĬ Ø§ÙĦ
ĠØ§ÙĦÙħØµ Ø±ÙĬØ©
Ùģ Ø´
Ùģ ÙĬÙĨ
ĠÙĦ Ø§ØŃ
ÙĨØ§ Ùĩ
ĠÙħØ³Øª ÙĪÙī
ĠØ§ÙĦØ§Ùħ ÙĬØ±
ĠØ§ Ø«Ø±
ĠÙĪÙĩ Ø°Ø§
Ø§Ø¹ ÙĬØ©
Ġ202 2
ĠØ· Ø±ÙĤ
ĠØ¯ ÙĪÙĦØ©
ĠØ§Ø± ØªÙģØ§Ø¹
ĠÙĤ ÙĬ
ĠØ§ÙĦÙħÙĨ ÙĪØ±Ø©
ĠØ§ÙĦÙħØ³ØªØ®Ø¯Ùħ Ø©
ĠÙĦÙĦ Øµ
ĠØ§ÙĦÙħ Ø²
ĠØ§ÙĦØ³ÙĪØ¯ Ø§ÙĨ
ĠØ§ÙĦØµ ÙĦ
ÙĦ Ø§Ø¡
ĠØ§ÙĦØ® Ø±
ÙĬÙĦ ÙĬ
ĠØ® Ø§Ø±Ø¬
ĠØ¨ Ø®
ĠÙģ Ø¹ÙĦ
Ø· Ø§Ø¡
ĠØªÙģ Ø§ØµÙĬÙĦ
ĠØ§ØŃ ØµÙĦ
Ø§Ø´ Ø±
ĠØŃ Ø¯ÙĬØ«
Ø¬ Ø§Ø¬
ÙĬØ¯ Ø±
Ġ3 00
ĠØŃ Ø¬Ùħ
Ġ7 3
ĠÙĦÙĦ Ùģ
ĠØ¨Ø§Ø³ ÙĬÙĪØ·
ĠØ§ ØªÙģ
ĠØ§ÙĦØ· Ø¨ÙĬØ¹
Ġ4 9
ĠØ§ÙĦÙĪ ØŃ
ĠÙĪÙħ Ø¹
Ø· Ø§Ø±
Ø² Ø§Ø¡
ĠÙĪÙĦ Ø§ÙĬØ©
ØªÙĬ Ø¬Ø©
Ø¬ Ø¨
ĠØ§Ø´ ÙĩØ±
ĠØ§ÙĦØ´ Ø¹Ø¨
ĠØ¯ ÙĬÙĨ
Ġ3 8
ĠØ§ÙĦØ¹Ø§ÙĦÙħ ÙĬ
ĠÙĥ Ø´Ùģ
Ø§ ÙĪÙĦØ©
ĠØ§ÙĦÙĥ Ùħ
ĠØ§ÙĦÙħØ¯ ÙĬÙĨØ©
ÙĪØ¯ ÙĬ
ĠØ§ÙĦØ§Ø³ Ùħ
Ø¯ Ùģ
ĠÙħÙĪ Ø³
ĠÙģ Øª
ÙĬØ¯ ÙĬØ§
ĠØ¨Ø§ÙĦ Ø±ÙĬØ§Ø¶
Ø¹ÙĦ ÙĤ
ĠØ´ÙĬ Ø¡
Ø§ÙĨ ÙĬØª
Ġ8 5
ÙĦÙĬ Ø¬
ĠØ§Ø¯ ÙĪØ§Øª
ĠØ¨Ø±ÙĬØ¯ Ùĥ
Ø¬ ÙĨ
ĠØª ÙĦÙģ
ĠØ§ÙĦØ¯Ø§Ø® ÙĦÙĬØ©
Ø§Ø· Ø±
ĠØ§ÙĦ ÙĬÙĩ
ĠØ§ÙĦÙĥØ³ Ø§Ø±Ø§Øª
Ø« ÙħØ§Ø±
ĠØ§ÙĦØ® Ø¨Ø±
Ø¶ ÙħÙĨ
ĠØ§ÙĦØ®ØµÙĪØµ ÙĬØ©
ĠÙĥ Ø§ÙħÙĦØ©
Ø§ØŃ Ø§Øª
Ø§Ø¦ Ø¹Ø©
ĠØ§ÙĦØ³ Ø§Ø¨ÙĤ
Ø§Ø· ÙģØ§ÙĦ
ĠØ§ÙĨØ´ Ø§Ø¡
ÙĬÙĦ Ø§Øª
ĠØ§ÙĦÙħÙĪ Ø§Ø¶ÙĬØ¹
Øª ÙĩÙħ
ĠØ§ÙĦÙħ Ø«
ĠØ§Ø¨Ø± Ø§ÙĩÙĬÙħ
Ø´ ÙĬÙģ
ĠÙĤ Ø¯Ùħ
ĠØ³ ÙĪÙĤ
ĠÙħØ´ Ø§Ø±
ĠÙĪ ÙĩÙħ
Ø¹ Ø¨Ø©
ØªÙħ Ø¯
ĠÙħØ¤ Ø³Ø³Ø©
ĠØ§ÙĦØª Ø¹ÙĦÙĬÙĤ
ĠÙĪ ØªÙĪ
ĠÙħ ÙĬÙĦ
ĠØ± Ø¯
Ø³ÙĬ Ø·
ÙĪÙĦ ÙĬ
ĠØ§ÙĦÙĤ ÙĬ
ĠØªØ· ÙĪÙĬØ±
ĠØ§ÙĦØ¯ ÙĪØ±ÙĬ
ÙĪ ÙĬØ§Øª
ĠÙĦ ÙĤØ¯
ĠØ¨Ø´ Ø§ÙĨ
ĠØ§ÙĦÙĥØ³ Ø§Ø±Ø©
ĠÙĪØ§ÙĦ Ùĥ
ĠØ§ÙĦÙħÙĨ Ø·ÙĤØ©
Øª ÙĦØ§ÙĦ
Ø§Ø¬ Ø¯
ĠØ§ÙĦÙĬ ÙĩØ§
ÙĪØ§Øª Ùģ
ĠØªÙĨ Ø²ÙĬÙĦ
ĠØ§ÙĦØ§Ùĥ Ø«Ø±
ĠØ§ÙĦØ´ ÙħØ§ÙĦ
ĠÙħÙĪ Ø¶ÙĪØ¹
4 0
Ø¬ Ø±Ø©
Øª ÙĨ
ÙĦ ÙĪØ¨
Ø§Ùĩ Ø±
ĠØµ ÙĪØ±Ø©
Ø· Ø§ÙĤ
ĠØ´ Ø¹Ø±
ĠÙħØ§Ùĥ ÙĬÙĨØ©
Ø« Ùħ
Ø¨ÙĬØ¹ Ø§Øª
Ø¹ ÙĬÙĨ
ĠØ§ÙĦØ¹ Ø¨
ĠÙĦÙĦ ÙĤ
ĠØµ Ø¨Ø§ØŃ
ĠØ§ÙĦØ§Ø± Ø¨Ø¹
ĠÙĥ Ø«ÙĬØ±
ĠØ§ÙĦÙĤ Ø¯Ùħ
ĠØ§ÙĦØ· Ø¨
Ø¹ Ùī
ĠØ¨ ÙĪØ±
ĠØ§ÙĦØ´ ÙħØ³
Ø±ÙĬ Ø·
ÙĪ ÙĬÙħ
ĠØ§ÙĦØ¨ Ø¯
ĠØ§ÙĦÙĦ ÙĬ
ĠØ§ÙĦÙħØ·Ø± ÙĤØ©
ĠØ§ÙĦØ¬ ÙĪØ¯Ø©
ĠØ¨Øª Ø§Ø±ÙĬØ®
Ø¨ ÙĬÙĨ
ĠØ¨ Øº
ĠØª ÙĤØ±ÙĬØ±
ĠØŃ ÙĬÙĨ
ĠÙĥÙĦ ÙĬØ©
Ø§ ÙĪØ±
ĠÙĬØ¹ ÙħÙĦ
ĠØ¯ Ùħ
ĠØªØ¹ÙĦ ÙĨ
ĠÙĤ Ø±Ø§Ø±
ĠØ§ÙĦØ³ Ø¨
ĠØ§ÙĦ Ø§ÙĦÙħ
ĠØ¬ Ø¯Ø©
Ùĥ ÙħØ©
5 1
Ġ7 6
ĠØ§ÙĦÙĨØŃ Ø§Ø³
ÙĪØ¬ Ùĩ
Ġ201 1
ĠÙĬÙĤ ÙĪÙħ
ĠØ§ÙĦØ§ÙĨØ¬ÙĦÙĬ Ø²ÙĬØ©
ÙĬ Ø¦Ø©
ĠØ® ÙĦÙģ
ĠØ§ÙĦØªØ³ Ø¬ÙĬÙĦ
ĠØµ ØºÙĬØ±
ĠØ§ÙĦØ¨ÙĬ Ø§ÙĨØ§Øª
ĠÙĪ Ø§Ùħ
ØªØ¨ Ø§Ø·
ĠÙģÙĦ Ø³Ø·ÙĬÙĨ
Ø§ ÙĬØ¯
ĠÙĪ Ø§Ø±
Ø¦ Ø§Øª
Ø±ÙĬ Ø¨Ø©
ĠØ§ØŃ Ø°ÙĬØ©
ÙĩØ± Ø¬Ø§ÙĨ
ĠØ¨ØŃ Ø«
ĠØ§ÙĦ ÙĬÙĥ
ĠØ¯ Ø§Ø±
ĠØ¯ Ø¹Ùħ
ĠØ§ÙĦØ§Ø³ ØªØ±
ĠØ¨ Ø§Ø¹
ĠØ§ÙĦ Ø§Øº
ĠØµ ÙĦÙī
ĠÙĦ Ø°ÙĦÙĥ
Ø³Ø§ÙĨ Ø©
ĠØŃ Ø§ÙĦ
ĠÙĬ ÙĪØ¬Ø¯
ĠÙħØ¬ Ø§ÙĨÙĬØ©
Ø§Ø¬ Ùħ
ÙĬØ¯ Ø§
ĠØ¨ÙĬØ§ÙĨ Ø§Øª
ĠÙĥ ÙĪÙħ
ÙĪØ¹ Ø§Øª
Ø§ÙĬ Ø¬Ø§Ø±
ĠØ§Ùĥ Ø³
ÙĬ Ø§Ø±Ø§Øª
ĠØ§ÙĦØ¬ Ø§ÙħØ¹Ø©
Ø§Ùĥ Ø²
Ø¹Ø± ÙģØ©
ĠÙĦÙĦ Ø¬
ĠØ§ÙĦ Ø¸
Ø¯ ÙĦ
ĠÙĪØŃ Ø¯Ø©
ĠØ§ÙĦØ§Ø³ Ø§Ø³ÙĬØ©
ĠØ§ÙĦØ§ÙĤ ÙĦ
Ø¹ Ø§Ø¨
8 4
ĠØ§ÙĦÙħ ÙĦÙģ
Ø¤ Ø§ÙĦ
ÙĨØ³ Ø¨Ø©
ĠØª Ø¤
Ø¬ ÙħØ©
ĠØ§ÙĦ Ø§Ø¶
ĠÙħØ³ Ø¤ÙĪÙĦ
ĠØ¯Ø± Ø§Ø³Ø©
ĠØ§ÙĦÙħØ® Øª
ĠØ¨Ø§ÙĦ Ø§Ø¶Ø§ÙģØ©
ĠØª Øº
ĠØ¨Ø§Ø³ Ùħ
Ġ4 2
ĠØ§ÙĦØ³ Ø§Ø¯
ĠØ§ÙĦØŃ ÙĬÙĪ
ĠØ§ÙĦØ§ÙĨ ØªØ§Ø¬
ÙĬ Ø¶
Ġ7 2
ĠÙĪ Ø³ÙĦÙħ
Øº Ø¨
ĠÙĪÙĤ Ø§ÙĦ
Ùģ ÙĬØ©
Ø§Ùģ Ø¶ÙĦ
ÙĬ ÙĬÙģ
Ø§Ø± Ø§
ĠÙĪØ§ÙĦ ÙħÙĨ
ĠØ§Ø¶ ØºØ·
Ø· ÙĬ
ĠØ§Ø® ØªÙĬØ§Ø±
Ø³Øª Ø®Ø¯Ùħ
ÙĬÙĪ Øª
ĠØ¹ Ø´
ĠÙĦØ¯ ÙĬÙĨØ§
ĠÙĬ ÙĪ
ĠØ§ÙĦ ÙĬØ¯
ĠØ§ÙĦØ§Ø¯ Ø§Ø±Ø©
ĠØ§ÙĦÙĤ Øµ
ĠØ¯ ÙĪØ±Ø©
ĠØ§ÙĦØ³ ÙĪÙĤ
Ġ6 1
Ø§Ø² Ùħ
ĠØ® Ø¨Ø±
ĠÙģ Ø§ÙĦ
Ø² ÙĦÙĬØ©
Ø¹ ÙĪ
Ø§Ø¡ Ø©
ĠØ§ÙĦØ§ÙĨ Ø³
ĠØ§ÙĦØ´ Ø¨Ø§Ø¨
ĠÙģÙĬ ÙħØ§
ĠØ§ÙĦÙħ Ø¯Ø±
ĠÙĦ Ø·
ĠØ§ÙĦØ«Ø§ÙĦØ« Ø©
ĠØ¨Ø§ÙĦ ÙħØ¯ÙĬÙĨØ©
Ø±ÙĬ ØŃ
ÙĬÙħ ÙĬØ©
Ø¯ Ùī
ĠÙħØ®Øª ÙĦÙģØ©
Ġ6 3
ÙĨØ§Ø¯ ÙĤ
ĠØ§ÙĦÙħÙĪ Ø§ÙĤØ¹
ĠØ§ÙĦØ¬ Ø³Ùħ
ĠÙĩÙĬ Ø¦Ø©
ĠØ¨ÙĬØ± ÙĪØª
ĠÙĬ Ø±Ø¬
ĠÙħØ± Ø§Ø¬
ĠØ§ÙĦØª Ø®
Ø±ÙĪ Ø¨
Ġ41 3
ĠÙĦÙĦ Ø§ÙĬØ¬Ø§Ø±
Ø§ØŃ Ø¨
ĠØ§ÙĦØ¬Ø² Ø¡
ÙĨØ¯ ÙĪÙĤ
Ùģ Ø±Ø©
ÙĤ ÙĬØ©
Ø§Ùħ Ø±
ØªÙĬ Ø¨
ĠÙĪÙĦ Ùħ
Ø· Ø·
ĠØ¬ ÙĪØ¯Ø©
97 0
ĠÙĤ ØµØ©
ĠØ§ÙĦØ¬ ÙĬØ´
ĠØª ÙģØ³ÙĬØ±
ĠØ§ÙĦÙħØ¬ ØªÙħØ¹
ĠØ§ÙĦØŃ Ø¨
Ø¬ ÙĪÙħ
ĠØ¹ÙĨ Ùĩ
ĠØ³ Ø¹ÙĪØ¯
Ġ3 4
Ùģ ÙĤ
ĠØª Ø´Ø±ÙĬÙĨ
ÙĪÙĦ Ùĩ
ĠØ¨Ø§ÙĦ ØŃ
Ø±ÙĬ Øª
ĠØ§ÙĦ ÙĪØ±
ØªØ® Ø¨
ĠØ§Ø³Øª Ø±
ĠØ¨Ø§ÙĦ Ø¨
Ø² Ø±
Ġ7 7
ĠØªØŃ ÙĤÙĬÙĤ
ĠÙĪØ¬ Ùĩ
ĠØ§ÙĦÙĤ Ø¨
ĠØ§ÙĦÙħ Ø§ÙĨÙĬØ§
ĠØ³ Ùĩ
ĠÙĪÙģ Ø§Ø©
ĠÙĤÙĨ Ø§Ø©
ĠÙĪ Ø«
Ø¹Ø¯ Ø§Øª
Ø§Ø® Ø±
ĠÙĪØª ÙĨ
Ø§Øµ ÙģØ§Øª
ĠØ§ÙĦØ³ÙĬ Ø§Ø³ÙĬØ©
ĠØ§ÙĦØ³Ø¹ÙĪØ¯ ÙĬ
Ø§Ø· ÙĨ
ĠØ§ÙĦØ¨Ø± ÙĨØ§ÙħØ¬
ĠÙĪ ÙĬÙĨ
ĠØ´ ÙĥÙĦ
ĠØ§ÙĦÙħØ³Øª ÙĪÙī
ĠØªØŃ Ø¯ÙĬØ«
ĠÙĪ Ø³Ø·
ĠÙħØª Ø¬Ø±
ĠØ§ÙĦØ§Ø® ÙĬØ±Ø©
ĠØ§ÙĦØ¯ ÙģØ§Ø¹
ĠØªØ´ ØºÙĬÙĦ
ĠØ§ÙĦØ§Ø« ÙĨÙĬÙĨ
2 8
Ø· ÙĪÙĬØ±
Ø§Ø¬ ÙĦ
ÙĨ Ø¯Ø§
ĠÙĥ ÙĪÙĨ
ĠØ§ÙĦØ· Ø¨ÙĬØ©
ĠØ§Øª ØµÙĦ
Ø±ÙĬ Ø§
ĠØ§ÙĦÙħØ¹ Ø§Ø¯ÙĨ
Ø³Ø³ Ø§Øª
ĠÙĪØ³ Ø§Ø¦ÙĦ
Ġ7 5
Ġ7 970
Ġ6 6
Ġ7970 87
ĠØª Ø±ÙĬØ¯
ĠØ¨Ø§ÙĦ Ø³
ĠØ§ÙĦÙĬÙħ ÙĨ
ĠØ§Ø± Ø³Ø§ÙĦ
ÙĪØ¯ ÙĬØ©
ĠØ§ÙĦØ§ ÙĪØ³
ĠÙģ ÙĪÙĤ
ĠÙĪ Ø§Ø¯
Ø·ÙĪØ§ÙĨ Ø©
ĠØ§ÙĦØ¬ ÙĨØ³
Ġ5 4
ĠØªÙĥ ÙĬÙĬÙģ
ÙĬÙħ Ø§
ĠØ§ÙĦÙħØµ ÙĨØ¹
ĠØµÙģ ØŃØ©
ĠØ¨Ø§ÙĦ ÙĦ
Ùĩ ÙĬØ²
ĠØ§ÙĦØ¨ÙĦ Ø¯
Ø¯ÙĬ ÙĤ
ĠØ§ÙĦØ«Ø§ÙĨ ÙĪÙĬØ©
Ġ5 8
ĠÙħ Ø§ÙĨ
ÙĬÙģ ÙĪÙĨ
ĠØ§ÙĦØ®Ø¯Ùħ Ø©
ĠÙħÙĤ Ø§Ø¨ÙĦ
Ø³Ø· ÙĬÙĨÙĬ
Ø¹ Ø§Ø¯Ø©
ĠØŃ ÙĬØ§Øª
ĠÙĦÙĦ ÙħÙĨ
ĠÙĪØ§ÙĦ Ø±
Ġ4 00
ĠØ§Ø¹ÙĦ Ùī
ĠØ¬ÙĨ ÙĬÙĩ
ĠÙĪ ÙĬÙħ
Ø§Ø¦ ÙĦØ©
ĠØ¹ Ø±Ø¨ÙĬØ©
ĠÙĦÙĦ Ø¨ÙĨ
ĠÙĦÙĦØŃ ØµÙĪÙĦ
ĠØ¨ Ø§Øª
ĠØ³ Ùĥ
ĠÙĪ Ø§Ø¨
Ø³ ÙĪÙĨ
Ø² Ùħ
ĠØ² ÙĬØ§Ø¯Ø©
Ø§Ø¦ ØŃØ©
ĠØ³ Ø§Ø¹Ø§Øª
ĠØ§ÙĦØµ ØŃÙĬ
Ġ4 8
Ø¤ ÙĪÙĨ
ĠØ§ÙĦÙħØª ÙĨÙĤÙĦØ©
ÙĬ ÙĪÙħ
ĠØµ Ø§ÙĦØŃ
ĠØ§ÙĪØ± ÙĪØ¨Ø§
ĠØ§Øµ Ø¨ØŃ
ĠØ§ÙĦÙħÙĪ Ø¬
ĠØ± Ùģ
Ùħ ÙĬÙĨ
Øª Ø©
ĠÙĪØ¹ÙĦ Ùī
Ø¹ Ø§ÙĬØ©
ĠÙĦ Ø§Ø¨
ĠØ§ÙĦØª Ùī
Ø§Ø± Ùĩ
Ø´ Ø§Ø±ÙĥØ©
ĠØ¹ÙħÙĦ ÙĬØ§Øª
ĠÙģÙĬ Ø±ÙĪØ³
ĠØ´ Ø±ÙĪØ·
ĠØ§ÙĦÙħØ´ Ø§Ø±ÙĥØ©
ĠØ§ÙĦØ· ÙĦ
ĠÙĪ Ø§Øµ
ĠØ§ÙĦØªØµÙĨ ÙĬÙģ
ĠØ§ÙĦÙĪØ² Ø±Ø§Ø¡
ÙĨØ³ Ø§
ĠØ§ÙĦÙħ Ø³ÙĦÙħ
ĠØ³ Ø±
ĠØ§Ø³ Ø¨ÙĪØ¹
ĠØ¨ Ø±ÙĪ
ĠØª Ø²
Ø¶ ÙĪØ±
ĠÙĤ Ø±Ø§Ø¡Ø©
ÙĬÙĦ Ø§
ĠØ§ÙĦØªØ¹ Ø§ÙĪÙĨ
ĠÙģ ÙĪØ±
Ġ47 37
ĠØ¹ Ø¯Ø©
Ø°Ùĩ Ø¨
ĠØ§Ø³ Ø§Ø³
ĠØ§ÙĦØ§Ø¹ ÙĦÙī
ĠØ¹ ÙĤØ¯
ÙĪ Ø´
Ø¬Ùħ ÙĪØ¹Ø©
ĠØ§ÙĦÙĥÙħ Ø¨ÙĬÙĪØªØ±
ÙĬØª ÙĬ
ĠØ§ÙĦØ§Ø´ ØªØ±Ø§Ùĥ
ÙĬÙĥ ÙĬ
ĠØ§ÙĦÙħØ´ Ø±ÙĪØ¹
Ø§Ø¹ Ùħ
ÙģØ§Ø¡ Ø©
ĠÙĪ ØµÙģ
ĠØªØŃ Ø¯ÙĬØ¯
ĠÙħØ· Ø§ØŃÙĨ
ĠØ§ÙĦØ§ÙĨ ØªØ®Ø§Ø¨Ø§Øª
ĠØ· ÙĪ
ÙĬØ¬ ÙĬØ©
ĠØ¯ Ø±Ø¬Ø©
Ġ6 4
ĠÙĨ Ø·Ø§ÙĤ
ĠØ± ÙģØ¹
Ġ201 0
3 0
ĠØ§Øµ Ø§Ø¨Ø©
ĠØ§ÙĦØ· ÙĦØ¨
Ø§ÙĨ Ø³
ØŃ ÙĬØ©
ĠÙĪ Ø¨Ø±
ĠØ§ÙĦØ· Ø¨ÙĬ
ĠØ§ÙĦØ§Ø³ Ø±Ø§Ø¦ÙĬÙĦ
ÙĦÙĬ Ø¨
6 0
Ø±ÙĬ Ø¹Ø©
ĠØ§ÙĦØ§Ø±Ø¨Ø¹ Ø§Ø¡
ĠÙĪ ÙĥÙĦ
ĠØ§ÙĦØ² Ø±
ĠØ¹ Øµ
ĠØª ÙĪÙĨØ³
ĠØ± Ø¬ÙĦ
ĠØª ØºÙĬÙĬØ±
Ġ7 0
ĠÙħØµ Ø§ÙĨØ¹
ĠØ§ÙĦØ¬ ÙĩØ§Ø²
ĠÙĦÙĦ Ø·
ĠØ§ ÙĩÙĦ
ĠÙħØ®Øª ÙĦÙģ
ĠÙĦØ¯ ÙĬÙĥ
ĠÙĪ Øº
ĠØ¹Ø¨Ø¯Ø§ÙĦ ÙĦÙĩ
Ø® ÙĬØµ
Ø§Øª Ùĩ
ØªÙħ Ø§Ùħ
ĠØ§ÙĦØ§Ø³ ØªØ®Ø¯Ø§Ùħ
ĠØ§ÙĦÙĨ Øª
ĠÙĦÙħ Ø§Ø°Ø§
ĠÙĦÙĦ Ùĩ
ĠÙĩ Ùħ
ÙĪÙĦ Ø¯
ĠÙĩ Ø§
ĠØ§ÙĦÙħ Ø§Ø¶ÙĬ
Ø§Ø¨ ÙĪÙĨ
ĠÙĥ Ø§Ø³
Ø§Ø¯ Ùĩ
ÙĬØ± ÙĬØ§
ĠØ¨ Ø«
ĠÙĬ Ø¨
ĠØ±ÙĬ Ø§Ø¶
ĠØ¨Ø§ÙĦ Ø´
ĠØ§ÙĦØ® ÙĦ
ĠØ§ÙĦÙħÙĪØ±Ø¯ ÙĬÙĨ
ĠØ§ÙĦÙħ Ø¬ÙĦØ³
Ø´ Ø§Ø¡
Ø§Ø· Ø¹
Ø§ÙĦ Ùĥ
ĠÙĬÙĤ Ø¯Ùħ
Ø³ ÙĥØ±ÙĬØ©
ĠØ§ÙĦÙĨ Øµ
Øª Ø§Ø±
ĠÙħÙĪ Ø¹Ø¯
ĠÙĨ ÙĩØ§ÙĬØ©
ĠØ³ÙĬ Ø§Ø±Ø©
ĠÙħØ®Ø±ÙĪØ· ÙĬØ©
ĠØ®Øµ Ùħ
Ġ9 0
ĠØ§ÙĦØ§ÙĤØªØµ Ø§Ø¯ÙĬØ©
ĠØ´ ÙĨØ·
ĠÙĪ Ø§ÙĤ
ĠØ´ ÙħØ§ÙĦ
Ø±Ø§Ø¡ Ø§Øª
Ø±ÙĪ Ø¬
Ġ4 4
ĠØŃ ÙĥÙħ
Ùģ Ø§ÙĤ
ĠØ§ÙĦØ´ Ø¨
ĠØ§ÙĦØ§ØŃ ØªÙĦØ§ÙĦ
ĠØ§Ø³Ùħ Ø§Ø¡
Ùĩ Ø§Ø±
ĠÙĪØ§ÙĦ Ø«
ĠØ¯ ÙĪ
ĠØ§ ÙĬÙĨ
ĠØ¨Ø§ÙĦ ÙĨØ³Ø¨Ø©
Ø®Øµ ØµØ©
ĠÙħØµ Ø§Ø¯Ø±
Ø¶ Ùī
ĠÙĦÙħ Ø¯Ø©
ĠÙĦ ÙĨØ§
Ø§Ø¯ Ùħ
ĠØ§ÙĦÙħ Ø¶
ĠÙħØ¬ Ø§ÙĨÙĬ
ĠØ§ Ø·ÙĦØ§ÙĤ
ĠÙĬØ³Øª Ø®Ø¯Ùħ
ĠØ§ÙĦÙħ ØªØµ
ĠØ§ÙĦÙħØ± ØŃÙĦØ©
ĠØ§ÙĦØª Ùĥ
ĠØ§ÙĦØª ØŃÙĤ
ĠØª Ø§Ø¬
ĠØ§ÙĦÙĤ ÙĨ
ĠØ³ ÙĬÙĨ
Ø§Ø² ÙĬ
ĠÙĦØ¬ ÙĨØ©
Ø¨ Ø§
Ø§Ø¹ Ø±
Ø¬ Ø¹
ĠØ´ Ø±Ùĥ
ĠØ§ÙĦØ§ ÙĬØ±
ĠÙĬÙĤ ÙĪÙĦ
ĠÙĥ Ø±ÙĬÙħ
ĠØ§ÙĦØ¹ Ø¯Ø¯
Ġ5 5
ĠØ¨ Ø§ØŃ
Ø§Øµ ÙħØ©
Ø³Øª Ø±
ĠÙħ Ø§Ø¯Ø©
Ùģ ÙĬÙģ
Ùģ Ø§Ùģ
Ùģ Ø§Ø¸
Ø® Ø±
ĠÙģÙĪ Ø§Ø¦Ø¯
ĠÙĦ ÙħØ§
ÙĬØ± ÙĬØ©
ĠØ§ÙħØ±ÙĬÙĥ Ø§
Ø¹ÙĦ ÙĨ
ĠØ§ÙĦØŃØ¬ Ø§Ø±Ø©
ÙĨ Ø¯ÙĬ
ĠØ¬ Ø§ÙĨØ¨
9 6
ÙĨ ÙĬØ§
ĠØ±ÙĪØ³ ÙĬØ§
ĠØ§ÙĦÙģ ÙĨØ§ÙĨ
ĠÙĦÙĦ Ùĥ
ĠØ§ÙĦØ³ ÙĪØ±ÙĬ
ØªØ¯ Ø§Ø¡
Ø§ ÙĪØ²
Ø¯ Øª
ĠØ§ÙĦÙħ Ø¨Ø§Ø±
ĠØµ Ø§ÙĦ
ĠÙĪØ§ÙĦ Ø·
Ġ25 0
ĠØ§ÙĦÙĨ ÙĤÙĦ
ĠØ§ÙĦØ«ÙĦØ§Ø« Ø§Ø¡
ĠØ§ÙĦØ§Ø± ØªØ¨Ø§Ø·
ĠÙĦÙĦ Ø§ÙĨ
ĠÙĪ Ø§ÙĬ
ĠØ§ÙĦØ± Ø§Ø¨Ø¹
ĠØ§ÙĦØ®Ø§Ùħ Ø³
ĠÙĨ Ø¯
ĠØ§ÙĦÙħ Ø·ÙĦ
ĠØ¬Ø² Ø¡
ĠØ§ÙĦØµÙĨØ§Ø¹ ÙĬØ©
ĠØ§ÙĦØ§Ø³ÙĦØ§Ùħ ÙĬ
ĠØ§ÙĦÙħØ± ÙĪØ±
ÙĨ Ø¬
ÙĥØ³ Ø§Ø±Ø©
Ø´Ø± Ø§Ø¡
ĠØº Ø±ÙģØ©
Ø§Ùħ ÙĬØ©
ĠÙĤ Ùģ
ĠØ§ÙĦØ³ ÙĬØ³ÙĬ
ĠÙĪØª ÙĤ
Ø± Ø²
ĠØ· ÙĦ
ĠÙħÙĪ Ø§Ø¯
ĠØ§ÙĦÙĦ Ø¬
ÙĬÙĪ Ø§ÙĨ
Ø§Ø¬ Ø¹
Ø¶ Ø§Øª
ÙĪ Ø§Ø¹Ø¯
ĠÙĪ ÙĬØª
ĠØ¨ÙĨ Ø§Øª
ĠÙĦÙĩ Ø°Ø§
ĠÙĬØ¹ ÙĨÙĬ
Ø° Ùģ
ØªØ¨ Ø¹
ĠØŃØ³ ÙĬÙĨ
ĠØ§ÙĦØ¨ Ø´Ø±
ÙĪØµ ÙĬÙĦ
ĠÙĦ ÙĩÙħ
ÙĪØ³ Ùģ
ĠÙĪÙħ ØŃ
ĠÙĨÙĬÙĪ Ø²
ĠØ¨Ø§ÙĦ Ø¹
ĠØ· Ø¨ÙĬØ¹
9 8
Ø¸ Ø¨ÙĬ
Ø¯Ø± ÙĬØ©
ĠÙĬØŃ ØªÙĪÙĬ
Øª ÙĦÙģ
Ø« Ø©
Ġ6 8
ĠØ¨Ø± Ø¬
ÙĪÙĤ Ø§Øª
ÙĨØ¯ ÙĤ
ĠØ® Ø§ÙĦØ¯
ĠØ§ÙĦÙħØŃ ÙĦÙĬØ©
ĠÙĬ ØªØŃ
ĠØºØ³ ÙĬÙĦ
Ø±ÙĬ Ø¶
ÙĦØ§Ùħ Ø©
ĠØ§ÙĦØ¹ÙħÙĦ Ø§Ø¡
Ø§ ÙĬØ§Øª
ĠÙħØ´ ÙĥÙĦØ©
Ø§Ø´ Ø§Øª
ĠÙģ ÙĥÙĬØ©
ĠÙĪØ§Øª Ø³Ø§Ø¨
Ø² Ø¨
ĠØªÙĤ ÙĬ
Ø§Ùĥ Ø¯
ĠÙħÙĨ ØªØ¯ÙĬØ§Øª
ĠØ§ÙĦÙĥØªØ±ÙĪÙĨ ÙĬ
ĠÙħ Ø§Ø°Ø§
ĠØ§Ø· ÙģØ§ÙĦ
ĠÙĪ ØªÙħ
Ġ6 7
Ùĩ ÙĪØ¯
ĠØŃØ² Ø¨
ÙĪØ¬ Ø©
ĠØµÙĦ Ø§ØŃ
ĠØµ ØŃØ©
Ø¯Ø± Ø§Øª
ĠÙħ ÙĩØ±Ø¬Ø§ÙĨ
ĠØ§ÙĤØ± Ø§
Ø³Ùĥ Ø±ÙĬ
ĠØ³ Ø¹ÙĬØ¯
Ø§Ø¹ ÙĦ
ĠÙĨØ³ Ø¨Ø©
Øª Ø´
ĠØ¬ Ø¹ÙĦ
ĠØ§Ùĥ Ø³Ø³ÙĪØ§Ø±Ø§Øª
ĠÙħØ¹ ÙĨØ§
ÙĬØª Ùĩ
ĠÙĪØ§ÙĦ Ø¨
ĠØ§ÙĦØ¯ ÙĪ
ĠØ§ÙĦØ§Ø¬ ÙĩØ²Ø©
ĠØ§ÙĦØ¨ÙĦ Ø§Ø¯
ĠØ§ÙĦÙĥ ØªØ¨
ĠØ¨Ø¯Ø§ ÙĬØ©
ĠØ§ÙĦØ§Ùĩ ÙĦÙĬ
Ø¯Ø§ ÙĬØ§
ĠØŃÙĬ Ø§Ø©
Ø° Ø¨
Ġ Ù
ĠØ§ÙĦØ§Ø¹ Ø¶Ø§Ø¡
ĠÙĨ ÙħÙĪØ°Ø¬
ĠØ¨Ø· Ø§ÙĤØ§Øª
ĠÙĨ Ùħ
ĠØªØµ ÙģØŃ
ĠÙĥ Ø±Ø©
ØŃÙĤ ÙĪÙĤ
ĠØ§ÙĦÙĨ ÙģØ³
ĠÙĥ ÙĩØ±Ø¨
ĠØ± ÙĪØ§
ĠØ§ÙĦÙħÙĨ Ø´
Ġ51 0
ĠØ¬ ÙĬ
ĠØ¨Ø±ÙĬ Ø·
ĠÙĨ ØªÙĬØ¬Ø©
ÙĦ Ø²
ĠÙĪ ØªØ±
ĠØ¹ ÙħØ§ÙĨ
ÙĬÙĨ ÙĬØ©
ĠÙħ ÙĦÙĥ
ĠÙĬØ±Ø¬ Ùī
ĠØ§ÙĦØª Ø§ÙĦÙĬ
Ø³ Ø·Ø©
Ø§Ø± ÙĨØ©
ĠØ± Ø§Ø¨Ø·
ĠÙĥÙĦ ÙħØ§Øª
ĠÙĨ Ø¨
ĠØ§ÙĦÙħ Ø§Ø¡
ĠØ§ÙĦÙħØ®Øª ÙĦÙģØ©
ĠÙħØ´ Ø§Ø±ÙĥØ§Øª
7 1
ĠÙĨÙģØ³ Ùĩ
ĠØ§ÙĦÙħÙĦ Ø§Ø¨Ø³
Ø¬ ÙĪ
ĠØ§ÙĦØ¹ÙħÙĦ Ø§Øª
ĠÙĦ ÙĬÙĨ
ĠÙĦ Ø±
ÙĬ ØŃ
ĠÙĬ Ø²
ĠØ§ÙĦØ¹ÙĦÙħ ÙĬ
ĠØ¹ ÙģØ´
ĠØ³ ÙĪØ§Ø¡
Ø³ Ø§Ø¡
ĠÙħØŃÙħ ÙĪØ¯
ĠÙģÙĬ Ø²Ø§
ĠØ«ÙĦØ§Ø« Ø©
ĠÙĦÙĦ Ø§Ø·ÙģØ§ÙĦ
ĠØ§ÙĦÙĪ ØµÙĪÙĦ
ĠØ§ÙĦÙĨ Ø¨
ĠØŃ Ùģ
ĠØ§ÙĦØ® ÙĦÙĬØ¬
ĠØ§ÙĦØ± ÙĪØ³
ĠØµ ÙĪØª
ĠØ¸ ÙĩØ±
ĠØ² Ø±
ĠÙģ ÙĨÙĬ
ĠØ¬ Ø§Ø¡
Ø¦ ÙĬÙĨ
ĠØ§ÙĦØ®Ø± Ø³Ø§ÙĨØ©
ĠÙĦÙĦ Øº
ĠÙĪÙĩÙħ ÙĬØ©
ĠØ· Ø§ÙĦØ¨
ĠØ¨ Ø§Ùħ
Øª ÙĤØ¯
ĠÙĬ ØµÙĦ
ĠÙĪ ÙħÙĦ
ĠØ¨Ø§ÙĦ ÙĨ
ĠØ§Ø³ ÙĦØ§Ùħ
ĠØ§ÙĤ ØªØµ
ĠØ¹ÙĨ ÙĩØ§
ĠÙħ ÙĬÙĥ
Ø§ÙĤ ÙĬ
ĠØ§ÙĦØ¨ØŃ Ø±
ÙĬÙĨ ÙĬØ§
ĠØ§ÙĨ Ùĥ
ĠØ§ÙĦØ´ Ø§Ø´Ø©
ÙĬÙĦ ÙĬØ©
ĠØªØŃ ØªØ§Ø¬
ĠÙĪØª Ø¹
ĠØ§ÙĦÙĩ Ø§ØªÙģ
ĠØ§Øµ Ø¯Ø§Ø±
ĠØª Ø¹Ø±
ĠØº Ø±Ø¨
ÙĬØ² ÙĬØ§
ĠØ± ÙĪÙħ
ÙĬ Ø«
ĠÙĤ ØªÙĦ
Øº Ø§ÙĦ
ĠÙĨ Ø§Ùģ
ĠÙĪØºÙĬØ± ÙĩØ§
ĠØ§ÙĦÙĤ Ø³Ùħ
ĠÙĥ Ø§Ùħ
ÙĤ Ùī
ĠØ§ÙĦÙħ Ø³ÙĬ
ĠØ§Ø± Ø¶
ĠØ§ÙĦÙħÙĪ Ø³
ĠÙĬ ÙĪØ³Ùģ
ĠÙħØ¬ ÙĦØ©
ĠØ§ÙĦÙĥ Ø¨ÙĬØ±
ĠØª ÙĤÙĦ
ĠØ§ÙĨ Ùģ
Ø· ØŃ
Ġ Û
ĠÙĪØ§ÙĦ Ø§Ø¬
Ø¨ÙĬ Øª
Ø§Ø· ÙĨÙĬÙĨ
Ø§Ø¬ ÙĩØ©
ĠÙĦÙĦ Ø¹ÙħÙĦ
ĠØ§Ùħ ÙĬØ±
ĠØª ÙĨØ§ÙĪÙĦ
Ø§ÙĤ Ø¨Ø©
ĠÙģ ÙĤ
ĠØ§ÙĦÙĪØ· ÙĨ
ĠØ§ÙĦØŃ ÙħÙĦ
ĠØ§ÙĦØ· Ø±ÙĤ
ĠÙĪØ§ÙĦ Ø§ØŃ
ĠØªÙĨ Ø¸ÙĬÙħ
ĠØªÙĪÙģ ÙĬØ±
ĠØ§ ÙĬØ©
Ø§ÙĦ Ø³
ĠÙĥØªØ¨ Øª
ĠØ¯ Ø®ÙĪÙĦ
Ġ8 9
ĠÙģ ØªØ±Ø©
ĠØ§ÙĦØ¹ÙĦ Ø§Ø¬
ĠØ³ ÙĬØ¯
Ġ5 7
ĠØ³ Ø§Ùħ
Ġ4 3
ĠØ´ Ø±ÙĤ
ĠØµØŃ ÙĬÙģØ©
ĠØ²ÙĬ Ø§Ø±Ø©
ĠØ¨Ø· Ø§ÙĤØ©
ĠØ§ÙĦØª Ùħ
ÙĪÙĨ ÙĬØ³
Ø±Ø¬ ÙħØ©
ĠØ§ÙĦØ±ÙĬØ§Ø¶ ÙĬØ©
ĠÙĪØ§ÙĦ Ø§Ùħ
ĠØ§ÙĦØ§ÙĪØ³ Ø·
Ø° Ùĥ
ĠÙħØ§Ùĥ ÙĬÙĨØ§Øª
ĠØŃ ÙĪ
ĠØ¨Ø¯ Ø¡
ĠØ¬ÙĪ Ø¬ÙĦ
Ùĩ ÙĨ
Ġ9 9
ĠØ§ÙĦØ¯ Ø¹
ĠØ§ÙĦØªØ¹ÙĦÙĬÙħ ÙĬØ©
ĠÙĥ ÙĪØ¨
ĠÙĪØ§ÙĦ Ø°ÙĬ
ĠØ§ÙĦÙĪ Ø³
Ø§ ÙĪÙħØ©
ĠØº Ø³ÙĦ
Øª ÙĪÙĨ
Ø¬ ÙĬÙĨ
ĠØ§ÙĦØ§Ø± ÙĩØ§Ø¨
ÙĤØ± Ø§Ø·
Ø¨Ø± Ùī
Ġ4 6
ĠØ§Ø³ Ø¨Ø§Ø¨
ĠØ§Ø¨ÙĪ Ø¸Ø¨ÙĬ
ĠØªÙĪÙģ Ø±
ĠÙħØª Ø¹Ø¯
Ø§Ø· Ø©
ĠØªØ¹ Ø§ÙĦÙī
ĠØ§ÙĦØ³Ø§Ø¯ Ø³
ÙĨØ³ Ø§Ø¡
ÙĥÙĨ Ø¯Ø±ÙĬØ©
Ø§ÙĦ Ùĩ
1 0
ĠØ§ÙĦØŃ Ø±Ø¨
ĠØ¯ Ø§Ø¦
Ø´Ø± Ùģ
ĠØ³ Ø§ÙĨ
ĠØ¯ ÙĤÙĬÙĤØ©
Ø§Ø² Ø©
ĠØ§ÙĦØºØ° Ø§Ø¦ÙĬØ©
ĠØª Ø¶
Ø§ÙĦ Øº
ĠØ§ÙĦØ§Ø¨ ÙĬØ¶
ĠØŃ ÙħØ§ÙĬØ©
ĠÙħØ· Ø¹Ùħ
ĠÙĦÙĦ ØµÙģ
ĠÙĤ ÙĪØ§Øª
ĠÙĪØ§ÙĦ ÙĦ
Ø¬ Ø§ØŃ
ĠØ§ÙĦØ± Ùħ
ÙĪÙģ Ø±
ĠÙģØ± ÙĨØ³Ø§
ĠØ§ÙĦØ³ÙĬ Ø§Ø³ÙĬ
ØªØŃ Ø§ÙĨØ§Øª
ĠØ¹Ø§Ùħ Ø§
ÙĨ ÙĪÙĨ
ĠÙĦ ØªØµ
ĠÙĤØ· Ø§Ø¹
ĠØ§ÙĦØªÙģ Ø§ØµÙĬÙĦ
ĠØ§ÙĦÙĨØ³ Ø§Ø¡
Ø³ Ø¬ÙĬÙĦ
ĠØ§Ø¬ ÙħÙĦ
Ø±Ø¬ Ø§ÙĦ
ĠØ§ÙĦØŃ Ø¯
ĠÙħØ³Øª Ø´ÙģÙī
ĠØµ Ø§ØŃØ¨
Ø§Ø² ÙħØ©
ĠÙģ ØµÙĦ
ĠÙħÙĨ Ø²ÙĦ
ĠÙĪ ÙĬØ¹
ĠÙħÙĨ Ø¸
ĠØ§ÙĦØªØ³ ÙĪÙĤ
ĠØ´ Ø¹Ø¨
Ø§Ø ¤
ĠØ§ÙĦÙģ Ø±ÙĤ
ĠØ§ÙĦÙĤ ÙĦØ¨
Ø¶Ø§ ÙĬØ§
ĠØ« Ø§ÙĨ
ĠØ§ÙĦÙħØŃ Ø¬Ø±
Ø¨ Ø§ÙĨÙĬ
ĠØ§ÙĦÙħ ÙĤØ¯
ĠØ§ÙĦÙĦ ØŃ
ÙĬÙħ ÙĤØ±Ø§Ø·
ĠØ§ÙĦÙħÙĨ Ø§Ø·ÙĤ
ÙĬÙĥ ÙĦ
ĠØ§ÙĦØ¨ Ø¹
ĠØ±ØŃ ÙĦØ§Øª
ĠÙĤ ÙĬÙħØ©
ĠØª Ø§Ø¨Ø¹
ĠØ´ ÙĥØ±
ĠÙĦ ØªØ¬
ĠÙĨ ÙĪØ±
ĠØ¹ Ø§ÙħØ©
ĠØ§ÙĦÙĨ Ø¨ÙĬ
ÙĨ Ø¨ÙĬØ©
ĠØ§ÙĦÙĪ Ø¬Ùĩ
ĠØ§ÙĦØ§Ø³ Ø·ÙĪØ§ÙĨØ©
Ø¹ ÙĬÙħ
ĠØŃØ³Ø§Ø¨ Ùĥ
ĠÙħÙĨ ØµØ©
Ġ14 27
ÙĪØ¨Ø§ ÙĬÙĦ
ĠØ§ÙĦØ¨Ø± Ø§ÙħØ¬
Ø¬ Ø¯Ø§Øª
ĠØª Ø³Ùħ
ĠØ¨Ø§ÙĦ Ø®
ĠØªØµÙĨ ÙĬÙģ
ĠÙĦÙĦ Ø¨
ĠØ§ÙĦØ´ ÙĩØ±
Ø¯ ÙĬØ±
ĠÙĬ Ø¹ÙĦÙĨ
ĠÙĦÙĬ Ø³Øª
Ø§Ø¦ Ø²Ø©
Ø§Ø¹ Ø´
ĠØ§ÙĦØ¹ ÙĬÙĨ
ĠØ§ÙĦÙħÙĪ Ø§ÙģÙĤ
Øµ Ø§ÙĦØ§Øª
ĠÙħØ¯Ø± Ø³Ø©
ÙħØ§ÙĦ Ùĥ
ĠØŃ Ø±ÙĥØ©
ĠØ¨Ø§ÙĦ Ø§Ø³
ĠØ§ÙĦØ¹ Ø²ÙĬØ²
ĠØ§ÙĦØµ ÙĪØ±Ø©
ĠÙĦØª ÙĨ
ÙĬØª ÙĩØ§
Ø±ÙĬ ÙħØ©
ĠØ§ÙĦØ¹ ÙħØ±
ĠÙĥ Ø«
ĠØ§Ø³Øª Ø´
ĠØ§ÙĦØ¹ÙĦÙħ ÙĬØ©
ĠØªØ¹ÙĦ Ùħ
ĠØªØ¹Ø¯ ÙĬÙĦ
ĠØ´ ØŃÙĨ
ĠØ§ÙĦØ· Ø±ÙĬÙĤ
ĠÙĬ ØªÙĪ
ĠØ§ÙĦØªØ¹ Ø§ÙħÙĦ
ĠØ§Ø¹Ø¯ Ø§Ø¯
ĠØ¹ Ø±
Ø´ ÙĤ
ĠÙĪÙĥ Ø§ÙĦØ©
ĠØ¬ ÙĬØ¯
ĠÙħØŃ Ø§ÙģØ¸
Ø¹ Ø§Ø¯
ĠØ§ÙĦØ§Ø¹ÙĦ Ø§ÙĨ
ÙĬ ÙĪØ±
ĠÙĨ ØŃ
ĠØ§ÙĦÙģ ÙĪØ±
ĠØ§ Ø¹Ø±Ùģ
ĠØ³ÙĬ ØªÙħ
ĠÙĨ Ø§Ø¯ÙĬ
ĠØ§ÙĦØŃ Ø¬Ùħ
ĠÙĦÙĬ Ø¨ÙĬØ§
Ø§Ùĩ ÙĦ
ÙĪØ§ÙĨ ÙĬÙĨ
ĠØ§ÙĦØ¯ ÙĪØ±Ø©
ĠØ¬Ùħ Ø¹ÙĬØ©
ÙĬ ÙĤØ©
ĠÙĨ ÙĬÙĥ
ĠØ§ÙĨ ØªÙĩ
ĠØ§Ø¹ Ø¶Ø§Ø¡
Ø§ ÙĬÙĨ
ĠÙħØŃ ÙĦ
ÙĤ Ø§Øª
ĠØªØ± Ùħ
ĠØº Ø±
Ø§Ø¨ ÙĦØ©
Ø±Ø¨ Ø§Øª
ĠØª Ø³ÙĦ
ĠÙħØ´Ø§Ùĩ ÙĬØ±
ĠØ§ÙĦØµ ÙĪØª
ØªÙħ Ø§Ø¯
ĠÙħØŃ Ø§ÙģØ¸Ø©
ĠÙĪÙĥ Ø°ÙĦÙĥ
Ú ¯
Ø´ ØŃ
Ø¦ Ø§Ø³Ø©
Ġ5 3
ĠÙĨ Ø§Ø¦Ø¨
ĠØªØ¬ Ø±Ø¨Ø©
ĠØªØ·Ø¨ÙĬÙĤ Ø§Øª
ĠÙħØµ Ø±ÙĬ
ĠØ¹ ÙĬÙĨ
ÙĪØ¨ Ø§Øª
ĠØ§ÙĦØª Ø§ÙĦÙĬØ©
ĠÙĪØ¹ ÙĨÙĪØ§ÙĨ
Ø§Ø¦ ÙĨ
Ø¨ Ø§Ø·
ĠÙħØ³Øª Ø¹ÙħÙĦØ©
ĠÙģ Ø±ÙĬ
Ø¯ Ø§Ø¹
ĠØ§ÙĦØ§ÙĤØªØµ Ø§Ø¯
ĠØ§ÙĦØ¹ÙĦ ÙĬØ§
ĠÙĦÙħ ØŃ
Ùĥ ÙĪ
ĠØ§ÙĦÙħÙĤ Ø¨
ĠØ§ÙĦØ¬Ø² Ø§Ø¦
ĠØ§ÙĦØ³ÙĬ Ø§Ø±Ø©
ĠØ§ ÙĬØ±
Ø¬Ùħ ÙĬÙĦ
ÙĪÙĦ ÙĬØ©
ĠÙħÙĥ ØªØ¨Ø©
ĠÙĦ Ø¬ÙħÙĬØ¹
ĠØ§ÙĦØ¹ Ø«
ĠØ¨Ø§ÙĦ Ø¯
ĠØ§Ùģ Øª
Ø³ ÙĬÙĦ
Ø· ÙĬØ·
Ø§ÙĦ ÙĬÙģ
ĠØ§ÙĦØ· ÙģÙĦ
ĠØ§ÙĬ Ø¬
ĠÙħØ§ÙĦ ÙĬØ²ÙĬØ§
ĠØ±Ø³ Ø§Ø¦ÙĦ
ĠØ± Ø§ÙĬ
Ġ7 4
ĠÙħÙĤ ØªÙĦ
Øµ Ø§Ø±
ĠØ§ØŃØ¯ Ùī
Ø¹Ø± Ø§Ø¶
ĠØªÙĤÙĬ ÙĬÙħ
ĠØ§ÙĦÙĦ ÙĤ
ØªÙģ Ø¹
ĠÙĦÙĪ ØŃØ©
9 9
Ġ05 0
ĠÙħÙĦÙĬ Ø§Ø±
Ø§Ùĥ Ùħ
ĠÙĤØ· Ø¹Ø©
ÙĦØ§ÙĦ Ø©
ĠÙħ ÙĪØ¯
ĠØŃ ÙĦÙĤØ©
ĠØ® Ø²
ÙĨØ¯ Ø³
ØªØ± Ùģ
ĠØ§ÙĦØ¯ Ø±Ø¯Ø´Ø©
ĠÙħÙĤ Ø§ÙĦØ§Øª
ĠØ¨ÙĨ Ùĥ
Ø§Ø± ÙĬØ±
ĠÙĥ ÙĪØ¯
Ø§Ø¦ Ùĩ
ĠÙħØ¹ Ø±Ø¶
5 4
ĠÙĪÙĬÙħ ÙĥÙĨ
ĠØ´ Ø¹
ĠÙĪØ§ÙĦ Ùĩ
ĠÙĪ ÙĬÙĤ
Ø§ÙĨ Ùĩ
ĠÙĪØ§ÙĦÙħ Ø¹
ĠØ± Ø§
Øª Ø§Øª
ĠØ¯ ÙĪØ±ÙĬ
ĠØ¨Ø§ÙĦÙĥ ÙĪÙĬØª
ÙĨ ÙĬØ§Øª
ĠØªÙĨ ÙģÙĬØ°
ĠØ¨ Ø§ÙĬ
Øª Ø±ÙĬ
ĠØ¹ Ø·ÙĪØ±
ĠØ¨Ø§ÙĦ ØµÙĪØ±
ĠØ§ÙĦØ§ØŃ ÙħØ±
ĠØ§ÙĦÙģÙĦ Ø³Ø·ÙĬÙĨÙĬ
ĠØ¨ Ø´Ø±
ĠØ§Ø¬Ø± Ø§Ø¡
ĠØª ØµÙĦ
ĠÙħØªØ± Ø¬ÙħØ©
ĠØ¬Ùħ Ø§ÙĦ
ĠØ§ÙĦØ¬Ø± Ø§ÙĨÙĬØª
ĠÙĦØ§ÙĨ Ùĩ
ĠØ§ÙĦØ§ÙĪØ± ÙĪØ¨ÙĬ
ĠØ´Ùĩ Ø§Ø¯Ø©
ĠØ§ÙĦÙģØ± ÙĨØ³ÙĬØ©
ĠØ§ÙĦÙĪ Ø§ÙĤØ¹
ĠØ¯ ÙĬÙĥ
Ø²ÙĬ ÙĪÙĨ
ĠØ¨ ÙĪÙĥ
ÙĤ Ø§Ø¦ÙĤ
Ø§Ø± ÙĤ
ĠÙĪØ¨ Ø¹Ø¯
ĠØŃØµ Ø±ÙĬØ©
ĠØª Ø¹Ø±Ø¶
ĠØ§ÙĦØ¯Ø± Ø§Ø³Ø§Øª
Ø´ Ø¨
ĠÙħØµ Ø¯Ø±
ĠØ§ÙĦØ· Ø¹Ø§Ùħ
ĠÙĥ ÙĪÙĦ
ĠØ§ÙĦÙĥ Ø¨
ĠØ§ÙĦÙĨ Ø´
ĠØ§ÙĦØ¹ Ø±ÙĪØ¶
Ø® Ø§ÙĦ
ÙģÙĬØ± ÙĪØ³
Ø¹ÙĦ Ø§Ø¬
ĠÙħ ØªØŃ
ĠØ§ÙĦØ³ ÙĬÙĦ
ĠØ¨ÙĨ Ø³
Ø¹ ÙĪÙĨ
ĠÙĤØ¯ Ø±Ø©
ĠÙħØªÙĪ Ø³Ø·
ĠÙĪØ§ÙĦ Øº
ĠØ§ÙĦÙģØ± ÙĨ
ÙĨ Ø§Ø¦ÙĬØ©
ĠÙģ Ø¶
ĠÙĬ Ø¹Ø¯
ĠØ¨ ÙĪØª
Ġ15 0
ĠØ§ÙĦØ¯ ÙģØ¹
Ø¬Ø± Ø¯
ĠØ§Ø´ ØªØ±
ĠÙĪÙģØ± Ø§ÙĥØ³
ĠØª ØªØŃ
ĠÙĪØª Ø´
ĠØ§ÙĦØ¨ÙĬ Øª
ĠÙħ ÙĦÙħ
ĠØ§Ø³ Ø·
ĠØ§Ùģ Ø±
ÙĩØ¯ Ø§Ùģ
Ø§Ø¬ Ùĩ
Ø¶ ÙĬØ±
ĠØ¨Ø§ÙĦ Ø§ÙĨ
ĠØ§Ø¬ Ø²Ø§Ø¡
ĠØ§ÙĦØ§ÙħØ±ÙĬÙĥ ÙĬ
ĠØ§ ÙħÙĦ
Ø· Ø§ÙĨ
ĠØ§ÙĦØ¬Ùħ ÙĩÙĪØ±ÙĬØ©
ĠÙħÙħ ÙĥÙĨ
ÙĥÙĪÙĨ Ø§Øª
ĠØº Ø±Ùģ
ĠØ¨Ø§ÙĦ Ø·
ĠØ§ÙĦÙĨ ÙĪ
ĠØ§ÙĩÙħ ÙĬØ©
ĠØ§ÙĦÙĥÙĩØ±Ø¨ Ø§Ø¦ÙĬØ©
ĠØ´ ÙĤÙĤ
ĠØ§ÙĦÙĦØ¬ ÙĨØ©
ĠØ§ÙĦØŃ ÙĥÙħ
ÙĬÙģ Ø±
ĠÙĬÙĥ Ø´Ùģ
ĠØ±Ø¤ ÙĬØ©
ĠØ§ÙĦÙħÙĥ ØªØ¨
4 2
ĠÙħØŃ Ø¬Ø±
ÙĦØ¨ ÙĬØ©
Ø§Ø± Øª
ĠØŃ ÙģØ¸
ĠØ§ÙĦØ¹ Øµ
ĠØ§ÙĦØ§Ùħ Ùħ
ĠØ§ÙĦØ¨ÙĨ Ùĥ
Ø§Ø¹ Ø¨
ĠØ³ Ùģ
ĠØ§ÙĪÙĦ Ø§
ĠØ¯ Ø±Ø¯Ø´Ø©
ØªÙĤ Ùī
ØŃ Ø§Ø«
Ø®ÙĦ Øµ
ĠÙħÙħ Ø§Ø±
Ø¹ Ø§
ĠÙĬ Ø³Ùħ
Ø·Ùģ Ùī
Ø³ Ø±
ĠØ§ÙĦØ´ ØŃÙĨ
Ø§Ùĥ Ø±
ĠØ¹ Ø²
ĠØ§ÙĦØ´Ø± Ø·Ø©
ĠØŃ ÙħØ¯
ĠØ¨ÙĨ ÙĬ
ĠØŃ Ø¯Ø«
Ø§ØŃ ÙĬ
Ø¯ÙĬØ¯ Ø©
ĠÙĦ ØºØ©
Øµ ØŃ
ĠÙĦÙĦ ÙħØ±
ĠØ§ÙĦØ±ÙĬØ§Ø¶ Ø©
ĠØµ ÙĨØ¯ÙĪÙĤ
ĠØ± Ø¨ÙĬØ¹
ĠÙĬØ¹ ØªØ¨Ø±
ĠØ§ÙĦÙĬ Ø§Ø¨
ĠØ§ÙĦÙħÙĩ ÙĨÙĬØ©
ĠØ§ÙĦÙĪØ² ÙĨ
ĠØ§ÙĦØªØ¬ Ø§Ø±Ø©
ĠØ§Ø¶ Ø§ÙģÙĬØ©
ĠØ¹ÙĦÙĬÙĥ Ùħ
ĠØ§Ø² Ø§ÙĦØ©
Ø§ÙĦ Ø¬
ĠØ¨ÙĨ Øª
ĠØ·ÙĪ ÙĬÙĦØ©
ĠØŃ ÙģÙĦ
ĠÙĦÙĦ Ø§Ùħ
Ø¦ ÙĬ
ĠØ§Ø³ØªØ± Ø§ÙĦÙĬØ§
ĠÙħ Ø¸
ĠÙħÙĪ Ø¬
ĠØ§ÙĦØ³ Ø§Ø®
ĠØ§Ø¨ ÙĦ
ĠØ§ÙĦÙħØŃ ØªÙĪÙī
ĠØµ ØŃÙĬØŃ
ĠØ§ÙĦØ¨ ÙĪ
ĠØ´ Ø§Ø±Ø¹
ĠØ§Ø¬Ø± Ø§Ø¡Ø§Øª
Ø§Ø¦ ÙĩØ§
ÙĨ Ø§Ùģ
ĠØ¬Ùħ Ø¹
ĠÙĪ Ø³Øª
ĠØ§ÙĦØ±Ø³Ùħ ÙĬ
Ø· Ø¨ÙĬÙĤ
ĠÙģÙĩ ÙĪ
ĠØ§ÙĨ ØŃ
Ø±ÙĬ Ø·Ø©
ĠÙĪÙĥ ÙĬÙģ
ĠÙħÙĨ Ø¸ÙħØ©
ĠØ§ÙĦØª ÙĥØ³ÙĬØ±
ĠÙģ Ø¹Ø§ÙĦ
Ġ6 00
Ø±ÙĪ Ø©
ÙĬ Ø¨Ø©
ĠØ± Ø´
Ø±Ùģ Ø¹
ĠØ§ÙĦØ¹ÙħÙĦ ÙĬØ©
ĠÙħÙĨ ØªØ¬
ĠØ§ÙĦÙħØªØµ ÙģØŃ
Ø§ÙĪÙĦ Ø§Øª
ĠØ§Ø³ Ø¦ÙĦØ©
ĠØ· Ø±Ùģ
ĠØ§ÙĦØ§Ø³ ÙĪØ¯
ÙĨ Ø¨ÙĬ
ĠØ§ÙĦØªØ´ ØºÙĬÙĦ
ĠØ§ÙĦÙĤ ÙĪØ§Øª
Ùĥ ØªØ¨
ĠØ§ÙĦØ² ÙĬØª
ĠÙħØ± Ø§ÙĥØ²
Ġ19 8
Ø§ÙĦ ÙĤ
ĠØªÙĪ Ø§ØµÙĦ
ĠØ§ÙĦØª ÙĥÙĨÙĪÙĦÙĪØ¬ÙĬØ§
ĠÙħ ÙĪÙĦ
ĠÙħØ¹ Ø±ÙģØ©
Øº Ø§Øª
ĠÙĦÙħ ÙĪÙĤØ¹
ĠØ§ÙĦØ´Ø±ÙĤ ÙĬØ©
9 0
ĠØª Ø§Ø³
ĠÙĪ ÙĪ
ÙĬØ¯ ÙĬØ©
Ø· Ø±Ø©
ĠØµ ÙĨØ§Ø¹
ĠÙĥ ÙĪ
ĠØ·Ø¨ Ø§Ø¹Ø©
ĠØ¨ÙĦ Ø¯
ĠØ¬ ÙĩØ©
ĠØ§Ùħ Ø³
ĠØ§ÙĦØªØµ ÙħÙĬÙħ
ĠÙĪÙĦ ÙĬØ³
ĠØ§ÙĦØ¨ Ø§Ø±
ĠØ¬Ø±ÙĬ Ø¯Ø©
Ùĩ ÙĪÙĦØ©
ĠØŃØµ Ø§ÙĨ
ĠØ³ Ø¬ÙĦ
ĠØ§ÙĦØ³ ÙģØ±
ĠØ§ ØªØŃ
ĠØ§ÙĦÙĥ Øª
ĠØ¨Ø§ÙĦ ÙħÙĨ
ĠÙħÙĪ Ø§Ø¶ÙĬØ¹
Ø§Øª ÙĩØ§
Ø· Ø¹
ĠÙģ ÙĦØ§
ĠØª Ø¯Ø§ÙĪÙĦ
ĠØ§ÙĦØ´Ø¹ Ø¨ÙĬ
ĠØ§ÙĦÙĩ ÙĪØ§Ø¡
Øª Ø³
Ø¹ÙĦ ÙĤØ©
Ø§Ø³ ÙĦ
ĠØµ Ø¯
ĠØ§ÙĦØªØ±Ùĥ ÙĬØ©
ĠØ¯Ø§Ø¦ ÙħØ§
ĠØ± ÙĬÙħÙĪÙĨ
ĠØ® Ø·Ø©
ĠØ§ÙĦ Ø§ØµÙĦ
Ø¹ÙĦ ÙĪÙħØ§Øª
ĠÙħØ±Ø§Ø¬ Ø¹Ø©
Ø§Ø¨ Ø±
ĠØ¸ ÙĦ
ĠØ¨ ØªØŃ
Ùĥ ÙĬÙĨ
ĠØ¹ Ø¶ÙĪ
ĠÙĦÙĦ Ø§Ø¹
Ø± Ø±
ĠÙĥ ÙĬÙĦ
ĠØ§ØŃØ¯ Ø§Ø«
ĠØ§ÙĦ Ø±ÙĬ
ĠØ§ÙĦØ§Ø¨ØªØ¯ Ø§Ø¦ÙĬØ©
ÙĪÙĨÙĬØ³ ÙĬØ§
ĠÙħØ´ Ø§ÙĥÙĦ
ĠØ§ÙĦØ§Ùģ Ø±ÙĬÙĤ
ĠÙĤÙģ Ø§Ø²Ø§Øª
ĠØ³Ø¨ Ø¨
ĠØ§Øµ ØŃØ§Ø¨
ĠØ§ÙĦØ§Ø´ Ø®Ø§Øµ
ĠÙĪØµÙĦ Øª
ĠØ§ÙĦØ³ ÙĬØ±
Ġ08 8
Ø§Ø¦ Ø©
Ø§ ÙĪÙĬØ©
ĠØ§ÙĦ ÙĪÙĦ
ĠØ¨ÙĬÙĨ ÙħØ§
Ø§Ø± ÙĤØ©
ĠØŃ ÙħÙĦ
ĠØ§ÙĦØªÙĨ ÙħÙĬØ©
ĠØªØ³ Ø§Ø¹Ø¯
ĠØ§ÙĦØ¹Ø±Ø§ÙĤ ÙĬØ©
Ġ200 9
Ø¯Ø± Ø§Ø³Ø§Øª
Ġ52 93
ĠØ§ÙĦÙħØ±ÙĥØ² ÙĬ
ĠØ§ÙĦØ· ØŃÙĨ
ÙĪØ³ Ø©
ĠØ§ÙĦÙħ Ø§Ø¯Ø©
ĠÙħØ® Ø·Ø·
ĠØ§ÙĦØµ Ø§ÙĨØ¹
Ø§Ø± Ùģ
ĠØ¨ÙĪ Ø§Ø¨Ø©
ĠØ§Ø« Ø§Ø«
ĠØ§ÙĦØªÙĤ ÙĨÙĬØ©
ĠØ§ÙĦØµÙĬÙĨ ÙĬØ©
ĠÙĨ Ø²
ĠÙĨØµ Ø§Ø¦ØŃ
ĠØª ÙĪÙĤ
ĠØ¨Ø±ÙĬØ· Ø§ÙĨÙĬØ§
ĠØªØ³Øª Ø·ÙĬØ¹
ĠØµ Ø¨
ĠØ¹ Ø§Ø¬ÙĦ
ĠØ§ÙĦÙģ Ø±ÙĬÙĤ
ĠØ§Ø² ÙħØ©
ĠØ§Ø¨Ø± Ø²
Ø®Ùģ Ø§Ø¶
Ø¦ ÙĬØ©
Ø± Ø§Ùģ
ĠØ§ÙĦÙĤØ¯ Ø³
ĠØ§ÙĦÙĤ ÙĬØ§Ùħ
Ø¯ ÙĪ
Ø¯ ÙĬÙĨ
ĠØªÙħ Øª
ĠÙĨÙĤ Ø¯Ùħ
ĠÙĩ ÙĨØ¯
ĠØ§ÙĦØ³ ÙĬÙĨ
ĠØ§ÙĦØ¨ Ø±ÙĬØ·
ĠØ§ÙĦÙĨ ÙĬ
ĠØªØ¹ ØªØ¨Ø±
ĠØ§ÙĦÙħØ³ Ø¤ÙĪÙĦ
ĠÙĦ Ø§Ø¬
ĠØªØŃ ÙĪÙĬÙĦ
ĠØ§ÙĨ Ø³
Ø¹ ÙħØ§ÙĦ
ĠØªØŃ ÙĦÙĬÙĦ
ĠÙĬ ÙĪØª
Øµ ÙĬÙĦ
ĠÙĬ ÙħÙĨ
ĠÙĦ ØªÙĪ
ĠØŃÙĥ ÙĪÙħØ©
ĠØ§ Ø¹Ø±Ø¶
Ø§ÙĬ ÙĬØ±
ĠØ§ÙĦØ¬ ÙĪ
ĠØ´ Ø§Ø´Ø©
ĠØ§ÙĦØ¨ Ø´Ø±Ø©
Ġ9 15
ĠØª Ø¨Ø¯
ĠØ§ÙĦØ° Ø§Øª
ĠØ§Ø· Ø§Ø±
ĠØªÙĦÙģ ÙĪÙĨ
ÙħÙĦ Ùĥ
ĠØ§ÙĦÙĨ ÙĪÙħ
Øª ÙĤÙĦ
ÙĪÙħ Ø§
ĠØ§ÙĦØ§Ùģ Ø¶ÙĦ
ĠØ±ÙĬ Ø§Ø¶ÙĬØ©
Ø±Ø· Ø§ÙĨ
ĠÙĥ Ùģ
ĠØ§ÙĦØ¨ ÙĤ
ĠØ§Ø³ØªØ® Ø±Ø§Ø¬
ĠÙĦØ¹ Ø§Ùħ
ĠÙĦÙĦ Ø±
ĠÙĦ Ø§Øª
ĠÙĪØ§ÙĦÙħ ØŃ
ĠØ³ ÙĤ
ĠÙĦ ÙĪÙĨ
ĠÙħØ¤ ØªÙħØ±
ĠØ§ÙĦÙħÙĤØ¨ ÙĦØ©
ĠØº ÙĬØ§Ø±
ĠÙĪØ§ÙĦ Ø§Ø¯
ĠÙħÙħ Øª
ĠØ§ÙĦØ±ØŃ ÙħÙĨ
ĠØ§Ø³Øª Ø±Ø§Øª
ĠØ§ÙĦØ§ÙĦ Ø¹Ø§Ø¨
ÙĤØ± Ø±
ØªÙħ ÙĬØ²
ĠØªÙĩ ØªØ²
ĠÙĤ ÙĪØ©
Ø§Ø¯ ÙĬÙħÙĬØ©
ÙĨ Ùģ
Ø¹ Ø²ÙĬØ²
ĠÙĤ Ø³
ĠØ§ÙĦØ¯ ÙĪØ±
ĠØ³ Ø¹Ø¯
ĠØ§ÙĦÙĩ ÙĬØ¦Ø©
Ġ14 43
ĠØ§ÙĦØ§Ø¯ Ø§Ø±ÙĬØ©
ĠØ§ÙĦØ³ ÙĪØ±ÙĬØ©
ĠØ¶ Ø¹
Ø§ÙĦ Ø§
Ø§Ùģ ÙĤØ©
Ø´ Ø§Øª
ĠØ¨ÙĦ Ø§
Ġ15 84
ĠØŃ Ø±Ø¨
ĠØ§ÙĦØŃ ØµÙī
ĠÙĪØ§ÙĦ ØªØŃ
ĠØ§ÙĦÙģ ÙĨÙĬ
ĠÙĨ ÙĬØ¬
ĠØ§ÙĦØº Ø§Ø¡
Ø¬ ÙĦØ©
ĠØ¶ ØºØ·
Ø¯ ÙĪØ¯Ø©
ĠÙħ Ø±Ø¨
3 6
ĠØ´ ÙĨ
ĠÙĦ Ø¹ÙħÙĦ
ÙĬ Ø§Ø¬
ĠÙħÙĨ Ø§Ø·ÙĤ
ĠØ¯ Ø§
ĠØ¯ ÙģØ¹
ÙĬÙĦ Ùĩ
Ġ1584 41
ĠØ§ÙĦÙĨ ÙĪØ¹
ĠØ§ÙĦØ¯ Ùĩ
Ø³ÙĬ Ø·Ø©
ĠØ§ÙĦÙĤØ¯ ÙĬÙħØ©
ĠØµØ§ÙĦ ØŃØ©
ĠØ§ÙĦÙĤ Ø§Ø¦ÙħØ©
Ø§Ùĩ Ø¯Ø©
ĠØ§ÙĦÙģ ÙĨÙĬØ©
ĠØªØ³ÙĪÙĤ ÙĬ
ĠØ§ÙĦÙĤØ± ÙĨ
ÙĪØ² ÙĬØ¹
1 7
ĠØ§ÙĦØ§ÙĦ Ø§Øª
ĠØ§ÙĦØ¹ ÙĨÙĪØ§ÙĨ
ĠØ§ÙĦØŃ Ø§ÙĦÙĬ
ĠÙģ Ø¶ÙĦ
ĠØŃ Ø§ÙĦØ§Øª
ĠØ§ÙĦØ¹Ø± Ø¶
ĠØ§ ØªØµ
ĠØ§ÙĦÙģÙĦ Ø³Ø·ÙĬÙĨ
ĠÙħ ÙĪÙĨ
ĠØ§ÙĦÙģ ØªØ±Ø©
ĠØ§ÙĨØ¯ ÙĪÙĨÙĬØ³ÙĬØ§
ĠÙĪØ§ÙĦ Ø§Ø±
ĠØ§ÙĦØ¯ÙĪÙĦ Ø§Ø±
Ø®Øµ ÙĪØµ
ĠÙĪ ÙĦÙĬ
ĠØ§ÙĦØªØŃ ÙĥÙħ
Ø® ÙĬ
ÙĬØ² Ø±
ĠØŃ ÙħÙĦØ©
ĠÙĨ Ø§
ĠØŃ ØµÙĦ
ĠØ§ÙĦØ± Ø¬ÙĦ
ØªÙĬ Ø§Ø¬Ø§Øª
Ùĩ Ø§Ø¯
ĠØ§ÙĦØŃ Ùħ
ĠØªØ± Ø§ÙħØ¨
ĠØ§ÙĦÙħØ³ÙĦÙħ ÙĬÙĨ
ĠØ§ÙĦÙĨ Ø¸
ĠØ§ÙĦØ§Ø« Ø§Ø«
ĠÙĦ Ø¨
Ø§Ø¦ Ø·
ĠØ§Ø® ØªØ¨Ø§Ø±
ĠØ§ÙĦØŃ Øµ
ĠÙĦÙĦ ØªØŃ
ĠØ§ÙĦÙĦØ¨ÙĨ Ø§ÙĨÙĬØ©
ĠÙĦ Ø§Ùħ
ĠØ§ÙĦÙħØ³Øª ÙĤØ¨ÙĦ
ĠÙħ ÙĥÙĨ
ĠØ§ÙĦÙħÙĤ Ø¨ÙĦ
Ø±ÙĬ Ø¨ÙĬØ©
ĠØªÙĥ Ø´Ùģ
ÙĨ Ùĩ
ĠØ§ÙĦØ«ÙĤ ÙĬÙĦØ©
ĠØª ÙĦÙĤ
ĠØ§ÙĦØ§Ø³Øª Ø§Ø°
ĠØª ØªÙĪ
ĠØ§ÙĦØ§Ø± Ø¯
ĠØ§ÙĦØ§ÙĨØ³ Ø§ÙĨÙĬØ©
ĠØ§ÙĦØ¬Ùħ ÙĬØ¹
ĠÙĪØ§ÙĦ Ø§Ø¹
ĠØªØ¬ ÙĩÙĬØ²
ĠØ§ÙĦØ´ Ø±ÙĬÙģ
ĠÙĦÙħ Ø³
ÙĤØ± Ø§Ø±
Ø· Ø§ÙĦÙĬØ§
ĠØ§ÙĦÙĤØ§ÙĨÙĪÙĨ ÙĬØ©
ĠØ§ÙĦØŃØ± Ø§Ø±Ø©
ĠØ§ÙĦÙĤ Ùħ
ÙĤ Ø³
ĠØ§ÙĦØ¯ Ø¹Ùħ
ØªØ¨ Ø§Ø±Ø§Øª
ĠØ´ Ø¨Ø§Ø¨
ĠØ±Ø³ ÙĪÙĦ
ĠÙģ Ùĥ
ĠØ§ÙĦØ± Ø¯
ÙĪØ§Ø± ØªØ²
Ø¹ Ø§ÙħÙĦ
ĠÙĬ Ø·
ÙĨØ· ÙĨ
ĠÙĬÙĪØª ÙĬÙĪØ¨
ĠÙĪØª Øµ
Ø§Ø¨ Ùĩ
ĠÙħØ³Øª Ø¬Ø¯Ø§Øª
Ø¸ Ø§Ø±
ÙĬØ³ Ø©
Øª Ø§Ø¡
ĠØ§Ø³Øª ÙħØ±
Ø§Ùĥ ÙĬØ¯
ĠØ§ÙĦØ·Ø¨ÙĬØ¹ ÙĬØ©
ÙħØ± Ø§Ø¡
ĠØ§ÙĦ Ø§Ø°
Ġ41 7
ĠØ¨ÙħÙĨ Ø§Ø³Ø¨Ø©
ÙĦÙĬ ØŃ
ĠØªÙĤ ÙĨÙĬØ©
Ø¹ Ø§ÙĪÙĨ
ĠÙĪ ÙĬØ±
ĠÙĤ Ø¯Ø±
ĠØ§ÙĦØ¶ ØºØ·
ĠÙĤ ÙĦØ¨
ĠØ¯ Ùĩ
Ø¹ÙĦ ÙĪÙħ
ĠÙĬØ¬ Ø¹ÙĦ
Ùĩ ÙĪØ©
ĠØ§Ø± Ø´ÙĬÙģ
Ø§ÙĬ ÙĬÙĨ
ĠØ§ÙĦØ§Ø³Øª Ø«ÙħØ§Ø±
ĠØ§Ø³Øª Ø®Ø¯Ùħ
ĠÙĨÙĤ ÙĪÙħ
ÙĪ ØªÙĪ
ĠÙĦÙĦØ¨ÙĨ Ø§Øª
ĠØ§ÙĦØ¯ ÙĬÙħÙĤØ±Ø§Ø·
ĠØ§ÙĦÙĤØ· Ø§Ø¹
ĠØ§ÙĦÙĪ Ø§ØŃ
Ø¯ Ø¯Ø©
ĠØ§ÙĦØ¹ Ø§ÙĦÙĬ
ĠØ§ÙĦØª Ø¯Ø§ÙĪÙĦ
ĠÙĨ ÙĪÙħ
ĠÙĤØµ Øµ
Ø· ÙĤ
ĠØ§ÙĦÙģÙĦØ³Ø·ÙĬÙĨ ÙĬØ©
ĠØ§ÙĦÙĤ Ø¶
ÙĥÙħ Ø¨ÙĬÙĪØªØ±
ÙĩØ± Ø§Øª
ĠÙĩ Ø¯Ùģ
ĠØ¨ Ø¯Ø±
Ø§ØŃ Ø«
Ø®Ø¯Ùħ Ø©
ÙĨ Ùĥ
ĠÙĥ Ø°ÙĦÙĥ
ĠØ¨Ùħ ØŃ
Ġ200 8
ĠÙĦÙĤ Ø§Ø¡
ĠØ§ÙĦØ§Ø³Ø±Ø§Ø¦ÙĬÙĦ ÙĬ
ĠØ§ÙĦØ± Ø®Ø§Ùħ
ĠØ§ÙĦØ¹ Ø§ØµÙħØ©
ĠÙħØ¹ Ø¸Ùħ
ĠØ§ÙĨ ÙĨØ§
ĠØ¨Øº Ø¯Ø§Ø¯
ĠÙĦÙĦ Ø±Ø¬Ø§ÙĦ
ĠØ§ÙĦÙħØ´ Ø§Ø±ÙĥØ§Øª
ĠØ§ÙĦØ§Ø® Ø±
ĠØ§ÙĦØµÙĦ Ø§Ø©
Ø¸ Ùģ
ĠØª ÙĪØ¬Ø¯
Ø® Ø±Ø©
Ġ3 82
ĠØ§ÙĦØ³ Ùģ
ÙĨØ³ ÙĬÙĤ
Ø±ÙĬØ¨ Ø§
ĠØ§ÙĦØ¹ÙĦ Ø§ÙĤØ§Øª
ĠÙĬ ÙĥÙĨ
ĠØ§ÙĦØŃ Ø´Ø±Ø§Øª
ĠØ§ÙĦØ§Ø³ Ø±Ø©
ÙĦØ§ ÙĬÙĨ
ĠÙħÙĪ Ø§Ø¬ÙĩØ©
ĠØ³Ø¨ ÙĬÙĦ
Ġ19 7
ĠØ§ÙĦÙĪ Ø¶Ø¹
ĠÙĨ ÙĪ
ĠØ§ÙĦØ® Ø¨
ÙĤ ÙĬÙħ
ĠØ§ÙĦÙĥ ÙĨ
ĠÙĦÙĦ ØªÙĪ
ØªØŃ Ø§ÙĨ
ĠØ§ÙĦØ² ÙħØ§ÙĦÙĥ
ĠÙħ ÙĬØ¯ÙĬØ§
ĠØ§ÙĦØª Ø§Ø³
ĠÙħ ÙĩÙħØ©
ĠØ§ÙĦÙĥÙĩØ±Ø¨ Ø§Ø¡
ĠÙĦ Ø§Ùĥ
ĠØ³ Ø§Ø¨ÙĤ
Ġ9 5
Ø§ÙĨ Ùī
Ø§Ø® Ø°
ĠØ¨Ø§ÙĦÙģ ÙĬØ¯ÙĬÙĪ
ĠÙĨØ¸ Ø±
ĠÙħÙĨ ØŃ
ĠÙĨØ§Ùģ Ø°Ø©
ĠØ§ ÙĬÙĦ
ĠÙħØµ Ø·ÙģÙī
ĠØ§ÙĦØªØ¹ÙĦÙĬÙĤ Ø§Øª
Ø± Ø§Ø¹
Ø¨ÙĬ Ùĩ
ĠØªØ± ØªÙĬØ¨
ÙĪÙĤ Ø©
ĠØ¨Ø· Ø±ÙĬÙĤØ©
ĠØ§ÙĦØª Ø¨
ÙĤ Ø¯Ùħ
ĠØ§ÙĦØ´ÙħØ§ÙĦ ÙĬØ©
ĠØ¨ ÙĤÙĦ
ĠØª ÙĪÙĤØ¹
ĠÙĪØ§ÙĦ ØªÙĪ
Ġ9 7
ĠÙĨØ´ Ø§Ø·
ĠÙĤ Ø¶
Ġ3 41
ĠÙĦÙħ Ø´
ĠÙĪ ØµÙĪÙĦ
ĠØ§ÙĦ Ø±Ùĥ
ĠØ§ÙĦÙħ Ø³ÙĦ
ĠÙĦØ§Ø³ ØªØ®Ø¯Ø§Ùħ
ÙĪØ± ÙĪÙĨØ§
ĠØ§ÙĦØ³ÙĦ Ø·Ø©
Ø¹ ÙħØ©
ĠØ§ÙĦØ¬ÙĨ ÙĪØ¨ÙĬØ©
ĠÙĪØ§ÙĦ Ø³ÙĦ
ĠØªØ¨ Ø¯Ø§
ĠØ¨ÙĨØ³ Ø¨Ø©
ĠÙĥØ§ÙĨ ÙĪÙĨ
ĠØª Ø«
Ø§Ø¯ ÙħØ©
Øµ ÙĨØ¹
Ø§Ùģ Øª
ĠØ§ÙĦØ§Ø³ ØªÙģ
Ø¯ÙĬ ÙĤØ©
Ø·ÙĦØ¨ Ø§Øª
ĠØ´ Ø§Ø±Ùĥ
ĠØ§ÙĦØ¨Ø´Ø± ÙĬØ©
Ø® Ùħ
ÙĬÙĥ Ø³
ĠØ§ÙĦÙħØ¹Ø¯ ÙĨÙĬØ©
Ø®Ùģ Ø¶
ĠØª ÙĬ
ĠØ¨ Ø¨
ĠÙĤ Ø§Ø¹Ø¯Ø©
Ùĥ Ø§ÙĨÙĬØ©
Ø§Ø¦ Ø²
ĠØ§ÙĦØ±ÙĤÙħ ÙĬØ©
ĠØ§ÙĦÙĨ Ø§Ø±
Ø±ÙĪ ØŃ
Ø§Ø¯ Ø¦
6 7
ØªØ± ÙĥØ©
ĠØ§Ø¨ Ø·Ø§ÙĦ
Ø²ÙĬ Ø§Ø¡
2 5
ĠÙĪØ§ÙĦ Ø²
ĠØ§ÙĦØ® Øµ
ÙĤÙĬ Ø¨Ø©
3 8
Ø¬ Ø§Ø¨
Ø¹ Ùĩ
ĠØ§ÙĦØŃØ¯ÙĬØ« Ø©
ĠØª ÙĥÙĨÙĪÙĦÙĪØ¬ÙĬØ§
ĠØ· Ø±
ĠÙħÙĨ ÙĩÙħ
ĠØ§ÙĦØ¨ÙĬ Ø¦Ø©
Ø¶ ÙĪÙĬØ©
ĠÙģØŃ Øµ
ĠØ§ Ø´Ø±
ĠØ§ÙĦØŃÙĤ ÙĪÙĦ
ÙĦ ØŃØ©
ĠÙĥ Ø±Ø¨
ĠØ§ÙĦØŃ ÙĪØ«
ĠÙĦÙĦ Ø§Ø³Øª
ĠØ§Ø¹ÙĦ Ø§ÙĨØ§Øª
Ø±ÙĪ Ø§
ĠØ¸ ÙĩÙĪØ±
ĠÙĦÙĦ ÙĨØ³Ø§Ø¡
ĠÙĪØ§Ø³ Øª
ĠØ´ ÙĩØ¯
ĠÙĨÙĬØ¬ ÙĬØ±ÙĬØ§
Ø¯ ÙĪØ²
ĠØ§ Ø¡
ĠØ§ÙħØ± Ø§Ø©
ØŃ Ø¯
ØªÙĬ ØŃ
ĠØ§ÙĦØ¨Ø± ÙĦÙħØ§ÙĨ
ĠØ§ÙĦØªÙĨ Ø¸ÙĬÙģ
ĠÙĥÙĨ Ø¯Ø§
Ø§Ø³ ÙĬØ±
ĠØ¶ Ø¨Ø·
ÙĪ Ø§ÙħÙĦ
ĠÙĪØ§ÙĦ Ø§Øª
ĠØ§ÙĦÙĦØ¨ÙĨ Ø§ÙĨÙĬ
ĠÙģ Ø¹
ĠÙĤ Ø¶ÙĬØ©
ĠØ§ÙĦÙĪ Ø¸ÙĬÙģØ©
ĠØªØŃ ØªÙĪÙĬ
3 61
ĠØªØŃ ÙħÙĦ
ĠÙĦ ÙĬÙģ
ĠØª Ø¨ØŃØ«
ÙĤØ¯ Ø±
ÙĤ Øª
ĠÙħÙĨ Øµ
ĠÙĦØ§ ÙĬ
ĠÙħØŃ ØªÙĪÙī
ĠØ§ÙĦØ§ÙĤ Ø³Ø§Ùħ
ĠØ§ÙĦØ± ÙĪ
Ùĩ ÙĬ
ĠØ« Ø§ÙĨÙĬØ©
ĠØ§ÙĦØŃ Ø§ÙĦØ©
Ġ Ú©
ĠØ¨Ø§Ø± ÙĬØ³
ĠØ®Ø· ÙĪØ§Øª
ĠØªÙĨ Ø³
ĠØ³ Ø¤Ø§ÙĦ
ĠÙĨ ØµÙģ
ĠØ§ÙĦØº Ø§Ø²
Ġ41 2
ĠØ± ØºÙħ
ĠÙĦÙĩ Ø°Ùĩ
ĠØ§ÙĦØª ÙĦ
1 1
ĠÙĬ Øº
ĠØ« ÙĦ
ĠØªØ´ ÙĥÙĬÙĦ
ĠØ§ÙĦØªØ³ ÙĪÙĬÙĤ
Ø´ Ø§Ùģ
ØªØ± Ø§Øª
ĠØº Ø²Ø©
ĠØ³ ÙģØ±
ÙĬØ¯Ø± ÙĪÙĦ
ÙĨÙĬ ÙĬÙĨ
Ø§ÙĦ Ø¹
ÙĦ Ø§Ø¹
ĠÙĪØ§ÙĦ Ø§Ø®
ĠØ§ÙģØª ØªØ§ØŃ
ĠÙĪ Ø¸ÙĬÙģØ©
ĠØŃÙĦ ÙĪÙĦ
ĠØ¨ÙĦ Øº
ĠØ¯ Ø±ÙĪØ³
ÙĬÙĨ Ùĩ
ĠØ¨Ø· ÙĪÙĦØ©
ĠØ§ÙĨØ¯ Ø±ÙĪÙĬØ¯
4 5
ĠØ§Ø´ ØªØ±Ùĥ
ĠØ§ÙĨØŃ Ø§Ø¡
ÙĪØ± ÙĪ
ĠØ§ÙĦØ¹ Ø³ÙĥØ±ÙĬØ©
Ø³Øª ÙĬØ±
ĠØ§ÙĦÙĤ Ø¶Ø§Ø¡
ĠØ§ÙĦØ³ Ø¬
ĠØºØ³ Ø§ÙĦØ§Øª
ĠÙħØªØ¹Ø¯ Ø¯Ø©
ĠÙĪ Ø³ÙĬ
ĠØ§ÙĦØ³ Ø¯
ĠÙģ Ø³
ĠØ§Ø¯ Ø§Ø¡
ĠØ¹Ø¨ Ø§Ø±Ø©
ĠØ¹ Ø±Ø¨
ĠÙĬ Ø¹Ø±Ùģ
ĠØ§ØµÙĦ Ø§ØŃ
ĠÙĪ Ø§Ø°Ø§
Ø° ÙĪØ±
Ġ341 361
Û ¡
ĠÙĬØ³ Ø§Ø¹Ø¯
ĠÙĦÙĦØº Ø§ÙĬØ©
ĠØ§ Ø¦
ÙĦØ² ÙħØ§Øª
Ø±Ø¬ Ø§Øª
ĠÙģ ÙĩÙħ
Ø¬ Ø§Ø²
ÙĬ Ø§Ø¯
Ùħ Ø¬Ø©
ĠÙħØ§ ÙĬ
ĠØŃ Ø§Ø¯Ø«
ĠÙĥ Ø§ØªØ¨
ĠØ ¦
Øº Ø±Ø¨
ĠØ§ÙĦÙĥ ÙĪÙĨ
ĠØ§ÙĦØ§Ø® ÙĬØ±
ĠØ§ÙĦØ¹ ÙĤÙĦ
ĠØ§ÙĦÙĨ Ø§ÙĤÙĦ
ĠÙģ Ø§Ø±
ĠÙĪØ§ÙĦ Ø§Ø³Øª
ĠÙĩ Ø¯Ø§ÙĬØ§
ÙĬØ¯ Ø§Øª
ĠØ§ÙĦØ¬ ÙĪÙĬØ©
ĠØ¯ Ø§Ø¹Ø´
ĠØ¨ÙĨ ÙģØ³
ĠØ§ÙĦØŃ Ø¯ÙĪØ¯
ĠÙĥØª Ø§Ø¨Ø©
ĠØ§ÙĦÙħ Ø¬ÙħÙĪØ¹Ø©
ĠØ§ÙĦØ±Ø³Ùħ ÙĬØ©
ĠØ¬ ÙĬØ¯Ø©
ĠØ¬ Ø§Ùħ
Ø´ÙĦ ÙĪÙĨØ©
ĠØ¬Ø¯ÙĬØ¯ ÙĨØ§
ĠØ§ÙĦÙħ ÙĬÙĦ
ĠÙĪ ÙĬÙĥ
ĠØ§ÙĦÙħÙĦÙģ Ø§Øª
ĠÙĪ ÙĬØ¨
ĠØ§ÙĦØ±Ø¬ Ø§Ø¡
Ø¬ Ø§Ùĩ
ĠØ§ÙĦØ· Ø±ÙĬÙĤØ©
Ø§Ø¯ ÙĤ
ĠØ§ÙĦØ«ÙĤ Ø§ÙģØ©
Ø¯Ø§ ÙĬØ©
ĠØ§ØªØŃ Ø§Ø¯
ĠÙĩ Ø§Ùħ
ĠØ§ÙĦØº Ø±Ø¨ÙĬØ©
ØºÙĦ ÙĬÙģ
ÙĬÙĤ Ùī
ĠØ¯ ÙĤØ§Ø¦ÙĤ
ĠÙħØ¹ Ø±Ùģ
ĠØªØŃ Ø³ÙĬÙĨ
2 3
ĠÙħÙĨ Ø¹
ĠÙħÙĨ Ø§Ø²ÙĦ
ĠÙĪØ§ÙĦ Ø§
ĠÙĨØ³ Ø®Ø©
ĠØ§ÙĦÙħÙĨ Ø²ÙĦÙĬØ©
ØŃ Ùĥ
ĠØ¨Ø§ÙĦÙĥ Ø§ÙħÙĦ
ĠØ° ÙĩØ¨
Ø±Ø· ÙĪÙħ
ÙĪÙĤ ÙĬØª
ĠØ§ÙĦÙħØ´ Ø§Ø±
ĠØ§ÙĦØ³ÙĬÙĦ ÙĬÙĥØ§
ĠØ§ÙĦØ¹ ÙĦØ§ÙħØ©
ĠØ§Ø³ ÙĪØ¯
ĠØ³ ÙĪØ±ÙĬØ©
ĠØ§ÙĦØŃ ÙĤÙĬÙĤ
ĠØ§ÙĦØ¨ Ø§Ø¨
ĠØ¹ÙĦÙĬ ÙĩÙħ
ĠØªØ¬ Ø§Ùĩ
ĠØ§ÙĪÙĨ ÙĦØ§ÙĬÙĨ
ĠØ§ÙĦØ¬ ÙĪÙĨØ©
ĠØ§ÙĦØ·ÙĦ Ø§Ø¨
ĠØ¹ Ø·
Ø§Ø¯ Øª
ĠØªØ§Ø¬ ÙĬØ±
ĠÙĥ Ø±ÙĬ
ĠØ§ÙĦØ´ Ø±Ø§Ø¡
ĠØ¬ Ø¨
ĠØ§ÙĦØ³ Ø§Ø¨ÙĤØ©
ĠØ§ÙĦÙħÙĪØ¬ ÙĪØ¯Ø©
ĠÙĪØ§Ø³ Ø¹
ÙĬ Ø§ÙĦ
ĠÙĦÙĦ Ø®
ĠØ§ÙĦØ² ÙĪØ¬
ĠÙħØ¨Ø§Ø± ÙĬØ§Øª
ÙĪ Ø§Ùħ
ĠÙħØ± ØŃØ¨
Ø§ÙĦ Øµ
ĠÙħØ¯ Ø¨ÙĦ
ĠÙĦÙĦÙħ ØŃ
ĠØ§Ø³ ÙĬØ§
ĠØ§ÙĦØ¹Ø« ÙĪØ±
ÙĦÙħ Ø§Øª
ĠÙħ ÙĬØ¯
ĠØ· Ø§Ø¦Ø±Ø©
ĠØ§ÙĦÙħÙĪ Ø§Ø·ÙĨÙĬÙĨ
ÙĪÙħ ÙĬØª
ĠØ§ÙĦÙĥ ÙĪØ§Ø±ØªØ²
ĠØ§ÙĦØ§Ø®Ø¨Ø§Ø± ÙĬØ©
ĠØ§ÙĦØ§ ÙĬØ·
ØªÙħ Ø±Ø§Ø±
ĠØ§ÙĦØ¹ Ø³ÙĥØ±ÙĬ
Ġ12 0
ĠÙħØµÙĨØ¹ ÙĬ
ĠØ§ÙĦÙĥ Ø¨Ø±Ùī
ĠØ§Ø¹ÙĦ ÙĨ
ĠØ± ÙħÙĦ
ĠØ§ÙĦØ§Ùħ ÙĬØ±Ø©
ĠØ§ÙĦÙħØ¯ Ø§Ø±Ø³
ĠØ§ÙĦØ±Ø¬ Ø§ÙĦ
ĠØ§ÙĦØ§Ø³ ÙĨØ§ÙĨ
ĠÙħØªÙĨ ÙĪØ¹Ø©
ĠØ³ ÙĪØ±Ø©
ĠØ§ÙĦØ¬ Ø¨Ø³
ĠØ§ÙĦØ§Ùħ ÙĨÙĬØ©
Ø´ Ø¯
ĠÙħÙĪÙĤØ¹ ÙĨØ§
ĠÙģØ± ØµØ©
ĠÙĪØ§ÙĦ Ø§ÙĤ
Ø¬ ÙĬØ±
ĠÙĬØŃ Ø¯Ø«
ĠÙĪØ§ÙĦØª Ø¹ÙĦÙĬÙħ
ĠØŃ ÙĤÙĬÙĤØ©
ĠÙĦØ§ ÙĪÙĦ
ĠØ³ Ø¯
ĠØ´ Ùĥ
ĠØ¨ Ø§ÙģØ¶ÙĦ
Ø° ÙĥØ±Ø©
ÙĦ ÙĦ
Ø§Ø¦ Øµ
ØªØ§Ø¨ Ø¹Ø©
Ø±Ùģ Ø¶
ĠØªØŃ Ø±ÙĬØ±
ĠÙĬØŃ ØªØ§Ø¬
ĠÙĪÙħ Ø³
Ø§Ø¦ ÙĨØ§
ĠØ§ÙĦØª ÙĤÙĦ
ĠØ¨Ø§ÙĦ Ø±
ĠØ§ÙĦØ§Ø³ØªØ± Ø§Øª
ÙĤØ± Ø§Ùħ
ĠÙħØ¯ Ùī
ĠØ§ÙĦØ§Ø¹ÙĦ Ø§ÙĨØ§Øª
Ø§ÙĦØª Ø§ÙĦÙĬ
ĠØ§ÙĦØ§Ø³ ÙĥÙĨØ¯Ø±ÙĬØ©
ĠØŃÙĪ Ø§ÙĦÙĬ
ÙĪÙģ ÙĬØ¯
ĠÙħ Ø§Ùĩ
ĠØ§ÙĦØ¹ ÙħØ§ÙĦ
ĠØª ÙĪØµÙĬÙĦ
ÙĪ ÙĬØ§
ĠØ³ÙĦ ÙĬÙħØ§ÙĨ
Ø¶ ÙĦØ©
ĠÙĦ Ø®
ĠØ³ ÙĬÙĥÙĪÙĨ
ĠØ® Ùģ
ĠØµ Ø¯ÙĬÙĤ
ĠÙħ ÙĬÙĨ
ĠØ§ÙĦØ§Ø³ ÙĪØ§ÙĤ
ĠØ§ÙĦØ·Ø¨ÙĬØ¹ ÙĬ
Ø«ÙĦ Ø§Ø«
ĠØ§ÙĨ ÙĤØ±
ĠØ§ÙĦØ§Ø¨ØªØ¯ Ø§Ø¦ÙĬ
ĠØ¹ Ø±Ùģ
ĠØ§ÙĦÙħØª Ø¹ÙĦÙĤØ©
ÙĬÙĦ Ùħ
ĠØ· Ø¨ÙĬØ©
ĠÙĪÙĬ ØŃ
ĠÙĪ ÙĬØ¬
ĠÙĪÙħ ÙĪ
ĠØ¨Ø§ÙĦÙĦ ØºØ©
ĠÙĦÙĦÙħ ÙĪ
ĠØ§Ø¶ Ùģ
ĠØŃ Ø¯ÙĪØ¯
ĠÙħØ· ÙĦÙĪØ¨
ĠÙĦ ØªØ±
ĠÙħ ÙĪÙĤÙģ
ÙĬØ± Ùĩ
ĠØ§ØªÙģ Ø§ÙĤÙĬØ©
ĠØªØ¹ÙĦÙĬÙĤ Ø§Øª
ĠØ§ÙĦØ¹Ø±Ø§ÙĤ ÙĬ
ĠÙĪ Ø±ÙĤ
ĠØ¨Ø§ÙĦ Ø¯Ùħ
ĠÙĨ Ø§Ø±
ĠØ§ØŃ ØªØ±
ĠØ« Ø§ÙĨÙĬ
ÙĨØ¯ ÙĨ
ĠÙĪÙģÙĤ Ø§
ĠÙħØ± ØŃÙĦØ©
ØºØ§ÙĨ Ø³ØªØ§ÙĨ
ĠØ§ÙĦÙħØµ Ø¯Ø±
Ùħ Ø³Ø©
ĠØ§ØŃ ØªÙģ
Ø¶ ÙħØ§ÙĨ
Ø§Ø± Ø¶
ĠØ§ÙĦÙħ Ø§Ø¶ÙĬØ©
ĠØ¶ Ø±
ĠÙģ Ø§Øª
ĠÙħØ³ Ø§Ø¹Ø¯Ø©
ĠÙģØª Ø§Ø©
Ùĩ ÙĪÙħ
ĠØ§Ø³ Ø¨
ĠØ§Ø± Ø³ÙĦ
ĠØ§ÙĦÙĦ ÙĪÙĨ
Ø± ÙĤØ©
Ġ7 8
Ġ7 9
ĠØ§ÙĦØº Ø³ÙĬÙĦ
ĠØ§ÙĦØ´ ÙĬ
ĠØ§ÙĦØ¯ Ø³Øª
ĠÙĦÙĦÙħ Ø´Ø§Ø±ÙĥØ©
ĠØ§ÙĦÙħØŃ ÙĦÙĬ
ĠØ§ÙĦØ§Øª ÙģØ§ÙĤ
ĠØ§ÙĦØ§ÙĦ Ø²Ø§Ùħ
ĠØ¨Ùĩ Ø°Ø§
Ù ª
ĠØ§ÙĦ Ø¨ÙĬØ¹
ÙĪØµ Ø§Øª
ĠØ§ÙĦØ¬Ø² ÙĬØ±Ø©
ĠØ§ÙĦØ¯Ø± Ø§Ø³Ø©
ĠØ§ÙĦØ¯Ø± Ø§Ø³ÙĬ
ĠØ¯ Ø®ÙĦ
ĠØ§ÙĦÙħ Ø±Ø©
ĠØ³ Ø±ÙĬØ¹
ĠØ§Ø¹ÙĦ ÙĨØª
ĠÙĬØª Ø¹ÙĦÙĤ
Ø§Ø± Ø¨Ø©
ĠÙħØ´Ø§Ø± ÙĬØ¹
ĠØ§ÙĦØ§Ø® Ø±ÙĬÙĨ
ÙĨ Ø§Ø·
ĠØŃ ÙĤÙĬØ¨Ø©
ĠØ§ÙĦØ§ÙĦ ÙĬ
ĠØ§ÙĦØµ ÙĦØ¨
ĠØ§ÙĦØŃÙĬÙĪ Ø§ÙĨØ§Øª
Ø§Ø³ Ø¨Ø§Øª
ĠØ® Ø±ÙĬØ·Ø©
ØªÙĪ ØŃ
ĠØ§ ØªØ®
ĠØ§ÙĦÙħØº Ø±Ø¨ÙĬ
ĠØ¬Ø² Ø±
ĠØ§ Ùī
ĠÙĪØ§Ø´ ÙĨØ·ÙĨ
ĠØ§ÙĦÙħØŃ Ø§Ø¬Ø±
Ġ200 7
ĠØ§ÙĦÙģ ÙĨ
Øª Ø¯ÙĬ
ĠØµ ØŃÙĬ
Ø¨Ø¹ Ø¶
ĠØ§ÙĦØ§Ùħ Ø±Ø§Ø¶
ĠØªØ¯ ÙģÙĤ
ĠØ§ÙĦØ§Ø¬ Ø±Ø§Ø¡Ø§Øª
Ø§Ùħ ÙĬÙħ
ĠØ§ÙĦØµ ÙĬØ¯
Ø¹Ø¯ Ø¯
Ø§Ø· Ø¦
ĠØ§ÙĦØ§ÙĦÙħ Ø§ÙĨÙĬØ©
ĠØ§ÙĦØ± Ø§Ø¨Ø¹Ø©
ĠØ® ÙĬØ±
ĠØ³ Ø¬
ĠÙĪÙħ Ø³Øª
ĠÙĪÙĦ Ø¯
ĠÙĨ Ø¹Ùħ
ĠØ§ÙĦØŃ ÙĪØ§Ø±
ĠÙĪ ÙĬÙĦ
ĠÙĪØ§ÙĦØª ÙĨ
ĠÙĪÙħ Ø´
ĠÙĬÙĪÙħ ÙĬØ§
ĠØ± Ø§Ø¦Ø¹Ø©
ÙĦ ÙĪÙĦ
ĠØ¹ ÙĪØ¯Ø©
ĠØ§ÙĦØ§Ùħ ÙĪØ±
ĠØ§ÙĦØ¨ÙĬ Ø¶Ø§Ø¡
Ø¨ ÙĪ
Ø§ÙĬ Ø¨Ø±
ĠÙĪØ§ÙĦ Ø§Ø¨
ĠÙħÙĪ Ø§ØµÙģØ§Øª
ØªÙĦ Ø§Ùģ
ĠØ§ÙĦÙĨ ÙĤØ¯
Ùħ Ùħ
ĠÙħÙĦ Ø§ØŃ
ĠØ§ÙĦÙģ Øª
ĠØ§ÙĦØ± Ø§Ø¨Ø·
Ø·Ø± ÙĬØ©
ĠÙģ ÙĪØ²
ĠØ· ÙĪÙĬÙĦ
Ø§Ø¯ Ø§Ø±Ø©
ĠØ§ÙĨ Ø·ÙĦØ§ÙĤ
ĠØ´ Ùģ
ĠØ§ÙĦØŃÙĥ ÙĪÙħÙĬØ©
ĠØ§ÙĦØ¬ ÙĨØ³ÙĬØ©
ĠØ¬ ÙĬÙĨ
ĠØ§ ÙĩØ¯Ø§Ùģ
ĠØ±Ø¬ Ø§ÙĦ
ĠØ¨Ø§Ùĥ Ø³ØªØ§ÙĨ
ĠÙģÙĩ ÙĬ
ØŃ ÙĦÙĤØ©
ĠØª Ø§
Ø´ Ø·Ø©
ĠÙĨØ¬ Ø§ØŃ
ĠØ§ÙĦØŃ Ø¶
ĠØ§ÙĦØ® Ø¶
ĠØ¹ÙĦ Ø§ÙĤØ©
ĠØ§ÙĨ ÙĤ
ĠÙħØ¹ Ø¯ÙĦ
ĠØ§ÙĦØ§Ø³ Ø¯
ĠØ§ÙĦÙģÙĪØ± ÙĥØ³
ĠØª ÙĪØ²ÙĬØ¹
ĠØ´ÙĥØ± Ø§
Ùħ Ø¹
ĠÙĪÙħ ÙĤ
Ġ8 6
ÙĬÙĨ ÙĪ
Ø§Ø² ÙĨ
ĠØ§Ø³Øª ÙĤ
ĠÙĬ Ø¨ØŃØ«
ĠÙĪØ§ÙĦ Ø¨Ø±
Ø·ÙĦ Ø¹
ĠØ¯ Ø§Ø¦Ùħ
ĠØŃ ÙĤÙĬÙĤ
ĠØ« Ø§ÙĦØ«
Ø¸ Ø§Øª
ĠØ· Ùģ
ÙĪØ² Ø§Ø±Ø©
ĠØ§ÙĦÙħÙĤ Ø§ÙĦ
ÙĬÙħ ÙĨ
ĠØ§ÙĦØµ ÙĨØ§Ø¹Ø©
Ø´ Ø§Ø¨
ĠØ§ÙħØ±ÙĬÙĥ ÙĬ
ĠÙħØ· Ø§Ø±
ÙĬØ¬ Ø§
Ø§Ø± Ùī
Ø³ Ø¯
ĠØ§ÙĦØ§Ø¯ Ø¨
ØŃ Ø«
Ø« ÙħØ±
ĠØ§ÙĦÙĥ Ø§ØªØ¨
3 5
ĠØ§ÙĦØ° ÙĥÙĬØ©
Ø§Ø® Ø±Ø©
ĠØ§ÙĦØªØŃÙĤ ÙĬÙĤ
ĠÙĦÙĦ ÙĥÙħØ¨ÙĬÙĪØªØ±
ĠØ¨Ø§ÙĦØ¨ Ø´Ø±Ø©
Ø§Ø¯ Ùī
1 2
ĠØ±ÙĪØ§ ÙĬØ©
Øª Ø§ÙĦ
ĠØ³Ø§Ùħ Ø³ÙĪÙĨ
Ø§Ø¨ Øª
ĠØ§ÙĦÙĪØŃ Ø¯Ø©
ĠØ§ÙĦØ± ÙĤ
Ø§Ùĥ Ø©
ĠØªÙģ Ø¹
Ø² ÙĦÙĬ
ĠÙĦÙĦ Ø³ÙĬ
ĠÙħ ÙĬ
Ø¨ Ø§ÙĤ
ÙĪØ± Ø¬
ĠØ§ÙĨ Ø®ÙģØ§Ø¶
1 9
ĠØ§ÙĦÙĪ Ø¬
ĠØ§ÙĬ Ø·Ø§ÙĦÙĬØ§
ĠØªØ¬ Ø¹ÙĦ
ĠÙĪ Ø§Ùģ
ĠØªØ± ØºØ¨
ĠØ¬ Ø§Ùĩ
ĠØŃØ² ÙĬØ±Ø§ÙĨ
ĠÙĪ Ø§Ø·
ĠÙĪ ØªØ±Ùĥ
ĠØµ Ø¯Ø±
ĠØ§ÙĦØ³Ø¨ Ø¨
ĠØ´Ø®Øµ ÙĬØ©
ĠÙĪ Ø³ÙĦ
ĠØ§ÙĦÙħØ· Ø§ØŃÙĨ
ĠØŃ Ø§ÙĦÙĬØ§
ĠÙĪØŃ ØªÙī
ĠØª ØªØ±
ĠÙĤ ÙĦÙĬÙĦ
ĠÙħÙĨ Ø²ÙĦÙĬØ©
ĠØ§ÙĦØ§Ø³ ÙĩÙħ
ĠØ§ÙĦØŃ ÙħØ§Ùħ
ĠØ§ÙĦØ¹ Ø§ÙħÙĦ
ĠÙħØ± Ø¶
ĠØ§ÙĦØ§ÙĦØ²Ø§Ùħ ÙĬØ©
ÙĬØ± ØªØ§Øª
ĠØ§ÙĦØ¬ ÙħÙĬÙĦ
Ġ19 9
ĠÙĩ ÙĨ
Øµ Ø§Øµ
ĠØ§ÙĦÙħØº Ø±Ø¨ÙĬØ©
ĠØµ ÙĬØ¯
ĠØ§ÙĦØ§Ø¹ Ø¯
Ø§Ø¶ Ø§Øª
Ø³ ÙĬÙħ
ÙĦØ¨ ÙĬÙĨ
ÙĦ Øª
ĠØ´ Øº
ÙĤØ± Ø§Ø¡
ĠØ§ÙĨ ÙĬ
ØŃ Ø±
ĠÙĥ ÙĦØ§Ùħ
ĠØªØ¹ Ø²ÙĬØ²
ĠØ§ÙĦØ§Ø³ Ø¦ÙĦØ©
ĠØµØŃ ÙĬØ©
ĠØ§ÙĦØŃ Ø²Ø§Ùħ
ĠØ§ÙĦØ§Ø± Ø´ÙĬÙģ
ĠØ¯ Ø§Ø®
ĠØ´ Ø§Ø¨
ĠÙĬ Ø¶
ĠØ§ÙĦØ§ ÙĪ
ĠÙĪÙĥØ§ÙĨ Øª
ĠÙħØ¹ Ø¯
ĠØ¹ Ø²ÙĦ
ĠØ§ÙĦØª Ø¹Ø¨
ĠØ± Ùĥ
ĠÙħ ÙĬØ§Ùĩ
Ø§Ùĥ Ø±Ø©
ĠÙĪØ§ÙĦÙħ Ø³
8 5
ĠØ§ÙĦÙĬÙĪÙħ ÙĬØ©
ĠØ¨ Ø°ÙĦÙĥ
ĠÙĪØ§ÙĦÙħ Ø±
Ø¨ÙĦ ÙĪÙħ
Ø§Ùģ Ø¹
ĠØ§ÙĦÙĥØ¨ ÙĬØ±Ø©
ĠÙĦØª Ø´
ĠØ§ ÙĬÙĤ
ĠØ§ÙĦÙħØŃ ÙĥÙħØ©
ĠØ§ÙĦØ´Ø®Øµ ÙĬ
ĠÙĦ ÙģØ©
Ø§Ùĩ ÙĬØ±
ĠØªØ¬ Ø§Ø±ÙĬØ©
ĠØ´ ÙħØ³
ĠØ§ÙĦØ¨ Øµ
ĠÙĦ Ø°Ø§
ĠÙĦÙĥ Ø±Ø©
ĠØ§ÙĦØ§ÙĤØªØµ Ø§Ø¯ÙĬ
ĠØª Ø¸ÙĩØ±
ĠØ³ ÙĦÙħØ§ÙĨ
ĠØ§ØªÙģ Ø§ÙĤ
ĠØ¨Ø± Ø´ÙĦÙĪÙĨØ©
ĠØ§ÙĦÙħØ¤ ØªÙħØ±
ĠØ§ÙĦØª Ø¹ÙĦÙħ
Ġ36 28
ÙĪ ÙĬØ¯
ĠØ§ÙĦÙĦ Ø§Ø²ÙħØ©
ĠØ§ÙĦØ§ÙĨ Ø¯
Ø±ÙĬ ØŃØ©
ĠØ±ÙĪ ØŃ
Ġ9 6
ĠÙĨ ØµØ±
ĠØ± ØŃÙĦØ©
ĠØ® Ø±
ĠØ§ÙĦØµ ÙĬÙģ
ĠÙħÙĨ Ùĥ
ĠØ§ÙĦÙĨØª Ø§Ø¦Ø¬
Ø§Ùħ ÙĬÙĥ
ĠØ§ÙĨØª Ø´Ø§Ø±
ĠÙĬ Ø±ÙĬØ¯
ĠÙĪØ¹ ÙĨ
ĠÙĪ ØªØ¨
ÙĬ Ø§Ø¨
Ùĥ Ø°Ø§
ĠØ§ÙĦØ±ÙĬØ§Ø¶ ÙĬØ§Øª
ÙĦ Ø§Ùĥ
ÙĪØ¬ ÙĬÙĩ
ĠÙĪØ¨ ÙĬÙĨ
ĠÙĪ Ø§Ø«
ĠØ¨Ø¹ ÙħÙĦ
Ùģ ÙĬØ¯
ĠØ§Ø® Ø°
ĠØ±Ùħ Ø²
ØªÙĪ ØŃØ©
ĠØµØ¨Ø§ØŃ Ø§
ĠØ§ÙĦØ± ØºÙħ
ĠØªØ³ÙĪÙĤ ÙĪØ§
ĠÙĦÙĦØª ÙĨ
ĠØ§ÙĦØª ÙĪÙĨ
ĠØ§ Ø¹Ø±Ø§Ø¶
Ø± ÙĪÙĨ
ĠÙħØ¹ Ùĩ
ĠØ± Ø§Ø¦Ø¹
ĠØ² ÙĬÙĨ
ĠØ§ØŃ ÙĥØ§Ùħ
ÙĪØ± Ø§
ĠØª ÙĪÙĥ
ĠÙħØª Ø®ØµØµ
ĠÙĬØ¬ ÙĪØ²
ĠÙħ ÙĤØ±
ĠØ§ÙĨØ´ Ø·Ø©
ĠÙĥ Ø§ÙĦ
ĠØ§ÙĦØ² ÙĪØ§Ø¬
ĠÙħØ³ Ø§ØŃØ©
ĠØ§ÙĦÙĤØ¨ Ø¶
ÙĨ Ø§Øª
ĠØ§ÙĦØªÙĨ ÙģÙĬ
ĠÙĦ Ø§Ø³Øª
ĠØ³ÙĪ Ø¨Ø±
Ø§ÙĤ Ø´Ø©
Ø§ÙħÙĬÙĨ Ø§Øª
Ġ37 7
ÙĬØ³ Ùī
Ùĥ ÙĬØ±
ĠØ§ÙĦÙĨØ¨Ø§Øª Ø§Øª
Ø®Øµ Ø©
ÙĤÙĬ ÙĬÙħ
Ø§ÙĤ ÙĦØ©
ĠÙĦ ÙĨØ¯ÙĨ
ĠØ§ÙĦØªØŃ Ø±ÙĬØ±
ĠÙħ ÙĩÙħ
ĠØ¹ Ø§ÙħÙĦ
ĠÙĩ ÙĬÙĦ
ĠØ§ÙĦØª Øº
ĠØ§ÙĦØ§Øª ØµØ§ÙĦØ§Øª
ĠØ§ÙĦÙĪ Ø³Ø·
ĠÙĬØ¤ Ø¯ÙĬ
Ùĩ Ø±Ø©
ĠÙĦØ´ Ø±ÙĥØ©
ĠÙħÙĤ Ø§Ø±ÙĨØ©
ĠØ¨Ø³ Ø±Ø¹Ø©
ĠÙĨÙĤ Ø·Ø©
ĠØ¨ Ø§Ø®
ĠØ¨ ÙģÙĬØ±ÙĪØ³
ĠÙĪØ¨ Ø§ÙĦ
Ø´Ùģ ÙĬØ§Øª
ĠØ·ÙĦØ¨ Ø§Øª
ĠØ¨ ÙĬÙĥ
ĠØŃ ÙĦÙħ
ĠÙħØ¯ Ø±ÙĬØ¯
Ø±ÙĬ ØŃØ§Øª
ÙĦ ÙĬÙĨ
Ø§Ø´ Ø±Ø©
ĠÙĪØ§ØŃ ØµÙĦ
Ø§Ø± Ø¦
ĠØ§ÙĦÙģ Ø¶
ĠØª Ø·ÙĦÙĤ
Ø§Ø± ÙĬÙĨ
ØŃ Ùī
ĠØ¨ ØªÙĪ
ĠÙĦÙĥ ÙĬ
ĠØ§ÙĦÙħØ¬ Ø§ÙĦ
Ø§Ø¦ ÙĤØ©
ÙĤ Ø§
ĠÙģ ÙĨØ¯ÙĤ
ĠØ§ÙĦØ§ ÙĬØ§Ùħ
ØªÙĩ ÙĬ
ĠØ² ÙħÙĨ
ĠØ§ÙĦÙĥØªØ±ÙĪÙĨ ÙĬØ©
ĠØ¨Ùĩ Ø°Ùĩ
ĠÙħ Ø§Øª
ĠØ³ Ø§Ø®
ĠÙ ±
ÙħÙĦ Ø§Øª
Ø·ÙĦ Ø§Ø¨
ĠØ§ÙĦÙħØ³ Ø§Ø¹Ø¯Ø©
ĠØ§ÙĦØ± Ø§Ø³
ĠØ§ÙĦÙħØµÙĨØ¹ ÙĬÙĨ
ĠØ¯ ÙĥØªÙĪØ±
Ø±ÙĪ Ø¨Ø§Øª
ĠØ§ÙĦÙĪ ÙĬØ¨
ĠØ§ÙĦØŃ Ø±Ø©
ĠØµ ÙĬ
ĠØ§ÙĦÙĤ ÙĬÙħØ©
ĠÙħØŃ Ø§Ø¶
Ø§ÙĨØ¯ Ø±ÙĪÙĬØ¯
ØŃ Ø¶
ĠÙĪÙħ Ø±
ØªØ¬ Ø§Ø±Ø©
ĠØ§ÙĦÙħØªÙĪ Ø³Ø·
ÙĨ Ø§Ø¦ÙĬ
ĠØ§ÙĦØ§Ùģ ØªØ±
ĠÙĤ ÙĪØ§Ø¹Ø¯
ĠØ· Ø¨ÙĬØ¨
Ø§Ø° Ø¬
ĠØ¨ ÙĥÙħ
ĠØ§ÙĦØ« ÙĪØ±Ø©
ĠÙĦ ØŃÙĤÙĪÙĤ
Ø· ÙĨØ§Ø¹
ÙĪÙĨ Ùĩ
ĠØ§ÙĦØªØ¬ Ø§Ø±ÙĬ
ĠØ§ÙĦÙģ ÙĬØ²
ĠØ§ÙĦÙĨ ÙĪØ§Ø¨
ĠÙĪØ§ÙĦ ØªØ±
Ø§Ø¬ Ø³ØªÙĬØ±
ĠÙĪÙĩ Ø°Ùĩ
Ø§ÙĤ Ø´
ĠØ§ÙĦØ§Øµ ÙĦÙĬ
ĠØ§Ø¨ Ø¯Ø§
ĠØ¨Ø§ÙĨ Ùĩ
ĠÙĨ Ø§ØµØ±
ĠÙģ ÙĪÙĦ
ĠØ§ÙĦØ§ÙĬØ± Ø§ÙĨÙĬ
ĠØ§Ø¨ ØªØ¯
ĠØªØ¹ ÙĬÙĬÙĨ
ĠØ§ÙĦØ¹ÙĨ Ø§ØµØ±
ĠØ§ÙĦØ· Ø¨ÙĬØ¨
ĠØ§ÙĦÙĦ Ø¹Ø¨Ø©
Ø« ÙħØ§ÙĨ
ĠØ§ÙĦØ± Ø·Ø¨
ĠØ¨ Ø²ÙĬ
ÙĤØ· Ø§Ø¹
ĠØ§ÙĦØ§Ø¬ ÙĨØ¨ÙĬØ©
ĠÙĪÙĨ ØŃÙĨ
ĠØ¬Ùħ ÙĬÙĦØ©
ĠØ§ÙĦØµÙĨØ§Ø¹ ÙĬ
ĠÙĪ ÙĬØ³
ĠÙģ ÙĨØ§Ø¯ÙĤ
ĠØº Ø¶
ĠÙĪÙĦ ÙĪ
Ø¨ Ùĥ
ĠÙĦÙĤ Ø§ØŃ
ĠØ± ÙĤ
ĠØ² ÙĬØ¯
ĠØ¹ÙĦ Ø§ÙħØ©
ĠØ¨Ø§ÙĦ Øµ
ĠØªØŃ Ø¯Ø«
ĠØ§ÙĦÙħÙĥ Ø§ÙĨ
ĠÙħ ÙĪØ±Ø¯
ĠÙĪ Ø±Ø¯
ĠØ¨ÙĤÙĦ Ùħ
ĠÙĦ Ø§Ø®
ĠÙĨ ÙĬ
ĠÙĪØ§Ø³ Ø¹Ø©
ĠØ§ÙĦÙĦØŃ ÙĪÙħ
ĠØ§ÙĦØ³ ÙĥØ±
ĠØ¨Ø§ÙĦ Ø¶
ĠØ§ÙĦØ§Øµ Ø§Ø¨Ø©
ĠØ§ÙĦÙħØ¯ ÙĨÙĬØ©
ĠØ§ÙĦØ§Ø³Øª Ø´
1 4
ĠØ§ÙĦÙħØ¤ Ø³Ø³Ø§Øª
ĠØ§ÙĦØ¬Ùħ Ø¹ÙĬØ©
ĠØ§ÙĦØŃØ³ ÙĨ
ĠØªØ¬ Ø¯
Ùĩ Ø§Ùħ
ØªØ± Ø§
ĠØ§ÙĦØ±Ø³ Ø§Ø¦ÙĦ
ĠØ§ÙĦÙģ ÙĬØ³
ĠØ¨Ø§ÙĦÙĤ Ø±Ø¨
ÙĪ ØªÙĬ
Ø¨ Ø§ÙĨ
ĠÙĬ ÙĦÙĬ
ĠØ§ÙĦÙħÙĨ Ø§Ø²ÙĦ
ĠØ§Ùģ ÙĥØ§Ø±
ĠØ¬Ø¯ Ø§Ø±Ø§
ĠØ§ÙĦØ¨Ø¹ Ø¶
Ġ Ú
Ø§Ø¹ ÙĬØ¯
ĠØ¬Ùħ ÙĩÙĪØ±ÙĬØ©
ĠØ± ØŃÙħ
ĠØ§ Ø·ÙĦÙĤ
ĠØ§ÙĦØŃØ³ Ø§Ø¨
ĠØ§ÙĦØ±Ø¦ÙĬØ³ ÙĬ
ĠØ§ÙĦØ¹ ÙĪØ¯Ø©
ÙĨ Ø¬Ø±
ĠØ§Ø¯ Ø®Ø§ÙĦ
ĠØ¨Ø¬ ÙĪØ¯Ø©
Øº Ø±Ø©
Ø¨ÙĬ Ø¹Ø©
ĠØ§ÙĨ ÙĩÙħ
Ø¶ Ø§ÙģØ©
ĠØ§ÙĦÙģØ±ÙĨ Ø³ÙĬ
ĠØ§ÙĦÙģÙĦ Ø³
Ø¨Ø± Ø©
ĠØ§ÙĦØ¬Ø§Ùħ Ø¹Ø§Øª
Ġ8 4
Ø¬ÙĦ Ø§Øª
Ø³ÙĬ ÙĪÙħ
ĠÙħØ¯ Ø§Ø±
ĠØ³Ùĩ ÙĦØ©
ĠØ§ÙĦÙĥ Ø§ÙħÙĦ
ĠÙħÙĨ Ø´
ĠÙĨ ÙĪØ±Ø©
Ġ6 2
ĠØ¨Øª ÙĨ
1 6
ĠØ¨ ØªØµ
ĠØ§ÙĦØ³ Ø§Ø¨Ø¹
ĠØ° Ùĥ
Ø² ÙĨ
ĠÙĨ Ø³Øª
Ø§Ùĥ ÙħØ©
ĠÙģ Ø§
ĠØ§ÙĤ ÙĪÙī
ĠØ§ÙĦÙħÙĨ ØªØ¯ÙĬØ§Øª
ĠØ¨ ÙĬÙĦ
ĠØ§ÙĦØª Ø±Ø¨
ĠØ§ÙĦÙħÙĨ Ø¸
ĠØ§ÙĦØª Ø§Ø¨Ø¹Ø©
ĠØ§Ùħ Ø±Ø§Ø¶
ĠØ¨ØŃ ÙĬØ«
ĠØ§ÙĦØ³ Ùĥ
ĠØ§ÙĦÙĥ ÙĪÙĥ
ĠÙħ ÙĪØ¨Ø§ÙĬÙĦ
ÙĬÙĨ Øº
ĠØ§ÙĦØ§Ùħ ÙĪØ§ÙĦ
Øª Ø¸Ø±
Ø§Ø· ÙĬ
ĠØ§ÙĦØ³ÙĦ Ø·Ø§Øª
ĠÙĪØ§Ø¶ Ø§Ùģ
ĠØ§ÙĦØ² ÙħÙĨ
ĠØ§Ø´ Ø®Ø§Øµ
ĠØ³Ø§ÙħØ³ÙĪÙĨ Ø¬
ĠØ§ÙĦÙģ ÙĨØ§Ø¯ÙĤ
ĠÙĬ Ø§ØªÙĬ
ÙĬÙħ ÙĬØ§Ø¡
ĠÙĬØ¤ ÙĥØ¯
Øª ÙĬÙĦ
ĠØ§ÙĦØ¨Ø± Ø§Ø²
ĠØ§ÙĦØ¹Ùħ ÙĪØ¯ÙĬØ©
ĠØ±ÙĬØ§Ø¶ Ø©
ĠÙĥ ÙĬ
ĠÙħØ±ØŃØ¨ Ø§
Ø¹Ø¯ Ø§Ø¯
Ø¨ ÙĪÙĨ
Ø¤ ÙĦØ§Ø¡
ĠØ¨ ÙħØ±
Ø¨ ÙĪØ¨
ĠÙģØ¹Ø§ÙĦ ÙĬØ§Øª
ĠØ§ÙĦÙĥ Ø§ÙħÙĦØ©
ĠØ· ÙĪÙĦ
ĠØ§ÙĦØŃ Ø±ÙĥØ©
ĠÙħØŃ Ø§ÙĪÙĦØ©
ĠØ§Ùħ ÙĬÙĨ
ÙĨ Ø²
ĠØ§ÙĦØ´ Ø±ÙĪØ·
ĠÙħØª Ø§Ø¨Ø¹Ø©
ÙĩØ§ ÙĬ
ĠÙĪ Ø±Ø§Ø¡
ĠØ§ÙĦÙħØ· Ø¨Ø®
ĠØ§ØŃ ÙģØ¸
Ġ9 00
ĠÙĪØ§ÙĦ Ø³ÙĬ
ĠØ§Ø³ ÙħÙĬ
ĠØ§ÙĦØ§Ùħ ÙĬÙĨ
ĠÙģØ± Ø¹
ĠØ§ÙĦÙĪ Ø¸Ø§Ø¦Ùģ
ĠÙħØ¯ Ø§Ø±Ø³
ĠØ§ÙĦÙħØ³Øª Ø¹ÙħÙĦØ©
Øª ÙħÙĦ
Ø¬Ùħ Ø§Øª
ĠØ¹Ùħ Ø±ÙĪ
ĠÙĥ ÙĪÙĥ
ĠØ§ÙĦØ´ Ø§Ø±ÙĤØ©
ĠØ§ÙĦØ¬ ÙħØ§ÙĦ
Ø§ ÙĪÙħ
ĠØ§ÙĦÙħÙĦÙĥ ÙĬØ©
ÙĬ Ø§Ø³
Ø¬ Ø§Øª
Ø¨Ø± ÙĨØ§ÙħØ¬
ĠØ§ÙĦØª ÙĦÙģ
ĠÙĥ ÙĪÙģÙĬØ¯
Ø§Ø¦ Ùĥ
ĠØ§ÙĦÙĥ ÙĦÙħØ§Øª
ĠÙĬ Ø²ÙĬØ¯
ĠØ±Ùģ Ø¶
ÙĦÙĤ Ø§Øª
ĠØ§ÙĦØ§Ø® Ø¶Ø±
Ø±ÙĪ ØŃØ§Øª
ĠØ§ÙĦÙĤ ÙĬØ§Ø¯Ø©
ĠØ§ÙĦØµØŃ Ø§ÙģØ©
Ø§Ø± Ø¶Ø©
Ġ23 21
ĠØ§ Ø²ÙĬØ§Ø¡
ĠØ§Ùħ Ø§ÙĥÙĨ
ĠÙĦÙĦ Ø§Ø¬
Ø¬ Ø§
ĠØ· Ø¨ÙĤ
Ø¸ ÙģÙĬÙĨ
ĠØ§ÙĦÙħ Ø¹Ø±ÙģØ©
ĠÙĬ Ø§Ø³
ĠÙħØ³ Ø§Ø¹Ø¯
ÙĦ Øµ
ĠÙħØ¹ ÙĨÙī
ĠØ§ÙĦÙħØ¯Ø± Ø³Ø©
ĠØ± Øº
ĠÙħ ÙĥØ©
ĠØ§ÙĦÙģ ÙĦØ¨ÙĬÙĨ
ĠÙĩ Ø¬ÙĪÙħ
ĠÙĨÙĤ Ø§Ø·
ĠØ§ÙĦØªØ·Ø¨ÙĬÙĤ Ø§Øª
ĠØªØ³ Ø±Ø¨Ø§Øª
ĠÙģØ± Øµ
ĠØ§ÙĦÙĩ Ø¬Ø±Ø©
ĠØ¬ÙĦ Ø³Ø©
ĠÙħØ±Ø¨ Ø¹
Ø§ÙĤ Ø¯
Ø« ÙĦØ©
ĠØ§ÙĦÙĨ Ø²
ĠØ¨ ÙĥØ±
ĠØ§ÙĨ Ø³Øª
ĠØ§ÙĦÙħØ¨ Ø§Ø´Ø±
Ø¹ ÙĨ
ĠÙħÙħ ÙĬØ²Ø©
ĠØ±Ø³ ÙĪÙħ
ĠÙħ Ø³ÙĦ
ĠÙĪØ§ÙĦÙħ ÙĪ
ĠÙĪ Ø§ÙĪ
ĠØ¯ ÙĦ
ĠØ§ÙĦØ§Ø® ÙĪØ§ÙĨ
ĠÙħØ² Ø¯
Û ķ
ĠØª Ø¬ÙħØ¹
ĠØ· Ø±ØŃ
Ø¯ Ø§Ø±Ø§Øª
ĠØ§ÙĦÙħ ÙĥØª
Ø±Ùģ ÙĬÙĩ
Ø¨ÙĨ Ùī
ĠØ§ÙĦØ¬ Ø¨
ØªØµ Ø±
ĠØ§ÙĦÙĨ Ø¸Ø±
ĠØ¹ ÙĬØ§Ø¯Ø©
ØªÙħ Ø§ÙĨ
ĠÙĦÙĪ Ø§Ø²Ùħ
ĠÙħ Ø¨ÙĬØ¹Ø§Øª
Ø¯ ÙĬØ§Øª
ĠØ¨ Ø§
ĠØ§ÙĦØ³ÙĬ Ø§ØŃØ©
ĠÙħÙĦÙħ ÙĪØ³Ø©
ĠØªØ¯ ÙĪÙĬØ±
ĠØª ÙĪØ³
ĠØ§ÙĤ ØªØ±
Ø§Ø¦ ÙĬØ§Øª
ĠØ§ÙĦØªØ±Ùĥ ÙĬ
ĠØ°ÙĥØ± Ùī
ĠÙĪÙĤ Ùģ
ĠØ§ÙĦØ³ Ø¤Ø§ÙĦ
ĠØ§ÙĦØ§ÙĨ Ùģ
ĠÙĦÙĦÙħ Ø³
ĠØ§ÙĦØ§Ùģ ÙĦØ§Ùħ
ĠØ¹Ø§ÙĦÙħ ÙĬØ©
ØŃ Ùĩ
ĠØ§ÙĦØ§Ø³ Ø¨Ø§Ø¨
ĠÙĬ ÙĪÙģØ±
ĠØ§ÙĤØªØµ Ø§Ø¯
Ùĥ ÙĪÙħØ©
Ø§Ø³Øª ÙĬÙĥ
ĠØ¬ ÙĨØ³
ĠØªØ¨Ø¯ ÙĬÙĦ
ĠÙĦ Ø§Øµ
ĠØ® ØµÙĪØµ
ĠØ§ÙĦØ§ØŃ ØªØ±
ĠÙĥ Ø±ÙĪ
ĠØ§ÙĦØ±ÙĪØ³ ÙĬØ©
ĠØ¨ ÙĪØµ
ĠØ¨Ø§ÙĦØ¯Ùħ Ø§Ùħ
ĠØ§ÙĦÙģ ÙĪÙĦ
Ø§Ø¦ Ùī
ĠØ¹ÙĨ Ø§ØµØ±
ĠØ®Ø· ÙĪØ·
Ùĥ Ø§ÙģØŃØ©
ĠØ§ Ø¬Ùħ
ĠØªØŃ ÙĤÙĤ
Øª Ø§ÙĨ
ĠØ§Ùħ ÙĥØ§ÙĨÙĬØ©
Øº ÙĨ
ĠØ´ ÙĪ
ĠØ§ÙĦØ¯Ø§Ø® ÙĦÙĬ
ĠØ§ÙĦÙħÙħ ÙĬØ²Ø©
ĠØ§ÙĦÙħÙĨ Ø§Ø³Ø¨Ø©
Ġ8 8
ĠØ¨ ÙĩØ¯Ùģ
Ø§Ùĩ Ø¯Ø§Øª
ĠØªØ¯ Ø®ÙĦ
ĠØ³ ÙĥÙĨ
ĠØŃ ÙħØ§Ùħ
ĠØ§ÙĦÙĤ Ø±Ø§Ø¡Ø©
ÙĪØ§Ø¬ ÙĩØ©
ĠØ§ÙĦØ¯ ÙĬÙĥ
ĠÙĪØª Ø³
ĠÙĥØ«ÙĬØ± Ø§
ĠÙģÙĤ Ø§ÙĦ
ĠØŃ Ø´Ø±Ø§Øª
ĠÙħØŃ Ø·Ø§Øª
ĠØ§ÙĦÙĩ ÙĪØ§ØªÙģ
ĠØ§ÙĦØŃØ³ ÙĬÙĨ
ĠØºØ³ Ø§ÙĦØ©
ĠØ§ÙĦØ³ Ø±
ĠØ§Ø¹ÙĦ Ø§Ùħ
ĠØ§ÙĦØŃ Ø§ÙĦØ§Øª
ĠÙħÙĪ Ø³Ùħ
ĠØ«Ø§ÙĨ ÙĪÙĬ
ĠÙĬØ¨ Ø¯Ø§
ĠØ§ÙĦØ§ØŃØ¯ Ø§Ø«
Ø² Ø§Ø²
ÙĥØª Ø§Ø¨
ĠØ§ÙĦÙģ Ø¹ÙĦ
ĠØªÙģØ¹ ÙĬÙĦ
ĠØ§ÙĦÙĤÙĨ ÙĪØ§Øª
ĠØ¨ Ø¯Ø§Øª
ĠÙĬ Ø¨Ø¯
ĠÙĤ ÙĬÙħ
ĠÙħÙĤ Ø¯ÙħØ©
ĠØ§ÙĦÙħØ´Ø§Ø± ÙĬØ¹
ĠØ§ÙĦØ§Ø¯ ÙĪÙĬØ©
Ø¬ Ø§Ø¹
ĠØ§ÙĦØ¹ ÙħÙĬÙĦ
ĠØ§Ø³Øª Ø¹ÙħØ§ÙĦ
ÙĪ Ø³Øª
Ø§Ø¹ ÙĬÙĦ
ĠØ§ÙĦÙĨ ÙĬÙĦ
ĠØª ÙĥÙĨ
Ùģ ÙĪØ±
ĠØ¹ Ø²ÙĬØ²
ĠØ¨ Ø§Ø¬
ĠØ³ Ø±Ø¹Ø©
Ø§ÙĦ Ø´
ĠØ§ÙĦÙħÙĪ Ø§Ø±Ø¯
ĠÙħØ¯Ø¨ÙĦ Ø¬
Ù «
ĠØ§ÙĦØ¬Ø²Ø§Ø¦ Ø±ÙĬ
Ø¨ ÙĪÙĦ
ĠÙĦ Ø¹ÙĦØ§Ø¬
Ø±Ø§Ø¦ Ùħ
ĠØ§ÙĦØ±Ø³ Ø§ÙĦØ©
ĠØ³ Ø±ÙĬ
ĠØ§ÙĦÙħÙĪ Øª
ĠØ§Ø« Ø§Ø±
ĠØªÙĩ ÙĨ
ĠÙĦÙĦ Ø§Øª
ĠØ§ÙĦØ§Ùħ Ø©
ĠØ§ÙĦÙħØ¤ Ø³Ø³Ø©
Ø¶ ÙĬÙģ
ĠÙĥ ÙĬØ±
ĠØ§ÙĦÙģ Ø±Ø¯
ĠØ§Ùħ ÙĪØ§ÙĦ
ĠØ§Ùħ ØªØŃØ§ÙĨØ§Øª
ĠØŃ Ø°Ùģ
ĠØ§ÙĦÙģ ÙĬØ±
ĠÙħ Ø¯Ø©
ĠØ¹ Ø§Ø¯Ø©
ÛĮ ÙĨ
Ùģ Ø§
Ùĩ Ø§ÙĨ
ĠØ§ÙĦÙħØ¯ ÙĨÙĬ
ĠÙĪØ§ÙĨ Ø§
ĠØ¨Ø³ ÙĩÙĪÙĦØ©
Ø§Ø¦ Ø±Ø§Øª
ÙĨØ¨ ÙĪÙĦ
ĠØµ Ø®Ø±Ø©
ĠØ§ÙĦÙħØ·ÙĦ ÙĪØ¨Ø©
ĠÙħØ³ÙĦØ³ÙĦ Ø§Øª
ĠØ§ÙĦÙĤØ¯ Ø±Ø©
ĠØª ÙĬÙĦ
ÙĬÙģ Ø§
ĠØ® Ø³
ĠÙģØŃ ÙĪØµØ§Øª
ĠØ§ÙĦØ¨ Ø§ØŃØ«
2 4
ĠØ§ÙĦÙĬ ÙĪÙĨ
Ùĩ Ø¬
ĠØªØŃ ØµÙĦ
ĠØ§Ø¨ ÙĨØ§Ø¡
Ġ47 7
ĠØ¨ Ø³ÙĬØ·Ø©
ĠØ§Ø¯ Ø®ÙĦ
Ø« ÙĤ
ØŃÙĬ Ø§Ø©
3 1
ØŃØ¶ Ø±Ø§Øª
ĠØº Ø°
Ø¹Ø¯ ÙĬÙĦ
ĠØ§ÙĦÙħÙĨ Ø§Ø³Ø¨
ĠØ§ÙĦÙħØ® Ø±ÙĪØ·
Ùĥ ÙĬÙĦØ©
ĠÙĪ Ø¨Ø¯
ĠØª ÙħÙĨ
ĠÙĬ Ø¹ÙĪØ¯
ĠØ§ÙĦÙħÙĨ Ø§Ùħ
ĠØ§ÙĦØª ÙħÙĪ
ĠØ§Ø± ÙĩØ§Ø¨
Ø±Ùģ ÙĬØ©
ĠØ§ÙĦØ§Øµ ÙĦÙĬØ©
ĠÙħØ± ÙĪØ±
Ø² Ø¹
ĠÙĦØ§ÙĨ ÙĩØ§
ĠØ¹Ø¨Ø¯Ø§ÙĦ Ø±ØŃ
ĠØ§Ø«Ø± Ø§Ø¡
ĠØ§Ø±Ø¨ Ø¹Ø©
Ø§Ø¯ ÙħÙĬØ©
ĠØªÙĤ Ø§Ø±ÙĬØ±
ĠØªØŃ Ø¶ÙĬØ±
ØºØ· ÙĬØ©
ĠØ§ÙĦØ³ÙĬ Ø§Ø³Ø©
ĠØ¨ ÙĪØ¯
ÙĤØ¯ ÙĬØ±
ĠØ· ÙģÙĦ
ĠØ§ÙĦØ´Ø± Ø¹ÙĬØ©
ĠØ§ÙĦÙĥ Ø´Ùģ
ĠØ¯Ùħ Ø´ÙĤ
ĠÙĪØ§ÙĦØ¹ Ø§ÙĦÙħ
ĠÙħÙĦ ØªÙĤÙī
ĠÙħØ³Øª ÙĤØ¨ÙĦ
ĠÙħØ¹ ÙĩØ¯
ÙĪØ¯ Ø§ÙĨ
ĠÙĪØ¨ Ø§ÙĦØªØ§ÙĦÙĬ
ĠØ§ØµØ¨ØŃ Øª
Ø¹ Ø§Ø¡
ĠØ§ÙĦØ® ÙĬÙħØ©
ĠØ§ Ø¸
ĠØ§ÙĦÙħ ÙħØª
Øª ÙĤÙĬ
Ø§Ø² Ø§ÙĦØ©
ĠØ² ÙĪØ§Ø¬
ÙĪ Ø§ÙĨÙĬ
ĠÙĪØ§ÙĦ Ø¹ÙħÙĦ
ĠØ§ÙĨ Ø¸ÙħØ©
ĠÙĩ Ø§Ø´
ĠØ§Øº ÙĨÙĬØ©
ĠØ§ÙĦØ® Ø²
ĠØ§ÙĦÙĤØ± Ø§Ø±
ĠØ§ÙĦØª Ø®ØµØµ
ĠÙĥ ÙĬÙĨÙĬØ§
ĠØ§ÙĦÙħÙĤ Ø§ÙĦØ§Øª
ĠØ§ÙĦØª Ø±Ø¬ÙħØ©
ĠØ§ÙĦØ² Ø¬Ø§Ø¬
ĠØµ Ø§Ø±
ÙĪØª ÙĬÙĨ
ĠØ¨Ø§ÙĦ Øº
ĠØ§ÙĦØ¬ Ø¯
ĠØ§ÙĬ Ø§Ø±
ĠØªÙĪ Ø¸ÙĬÙģ
ĠØ±Ø¨ ÙħØ§
ĠØ§ÙĦØ¬ ÙĬÙĦ
ĠÙĪÙĬ ØªÙħ
ĠØ§ÙĦÙħÙĤ Ø¯ÙħØ©
ĠÙĤØ§Ùħ Øª
ĠØ§Ùģ ØºØ§ÙĨØ³ØªØ§ÙĨ
ĠÙħØªÙĨ ÙĤÙĦ
Ø·Ø± ØŃ
ĠØªØ´ ÙħÙĦ
Ġ12 71
ĠÙĥ Ø´
ĠØ§ÙĦØ® ÙĬØ±
ĠØª Ø®ØµØµ
ĠØ§ÙĦØª Ùĩ
ĠØ´ ÙĤØ©
6 5
82 8
ĠÙħØ¨ Ø¯Ø§
ĠØ³ÙĤ ÙĪØ·
ĠØ§ÙĦØ® Ø±Ø·ÙĪÙħ
ĠØ§ÙĦØ®Ø§Ùħ Ø³Ø©
Ø¨ ÙĪÙĥ
ĠÙĪØ§ÙĦÙħ ÙĤ
ĠÙĦØ¯ÙĬ ÙĩØ§
ĠØ§ ÙĬÙģÙĪÙĨ
ĠØ§ÙĦÙħØ¯ ÙĬØ±
ĠÙĥØ« ÙĬØ±Ø©
ĠØ§ÙĦÙĤ ÙĩÙĪØ©
Ø±Ø¨ ÙĪÙĦ
ĠØŃØ² Ø§Ùħ
ĠÙħÙħØ§Ø± Ø³Ø©
Ø³Ø§Øª ÙĬÙĨ
ĠØª ÙĪÙĦ
Ø±ÙĪ Ø¡
Ø§Ø¨ Ø·Ø©
ĠÙĦÙĦÙħ ÙĤ
ĠØ§ÙĦØªØŃ ÙħÙĬÙĦ
ĠÙĦÙħ ÙĪ
ØªØ¨ Ø·
ĠØ§ÙĦØ§ÙĨØ¬ÙĦÙĬ Ø²ÙĬ
ĠØ¹ÙĦ ÙĬÙĨØ§
ĠÙĪØ§ÙĦ Ø®Ø¯ÙħØ§Øª
ĠÙģ ÙħÙĨ
ĠØ§ÙĦÙħØªÙĪ Ø³Ø·Ø©
Ġ59 37
ĠØ¨ÙĨ ÙĩØ§
Ġ8 00
ØªØ¬ Ø§ÙĪØ²
Ø¤ ÙĬØ©
ĠÙĦØ§Ø¹ Ø¨
ĠÙĦ ÙĬÙĦØ©
ĠØ§ÙĦØ® ÙĦÙģ
ĠØ¹ÙĦ Ø§ÙħØ§Øª
ĠØ§ÙĦØ¹ Ø¶ÙĪ
Ø¨Ø± Ø§
ĠÙħØ¬ ØªÙħØ¹
ĠÙĪØ§ÙĦÙħ ÙĪÙĤØ¹
ĠØªÙħ Ø§Ùħ
ĠØ¹Ø¨ Ø§Ø³
Ùģ Ø°
ĠÙħ Ø§ÙĦÙĬØ©
ĠØ³ Ø§ÙĦÙħ
ĠØ§ÙĦØŃ ÙģØ§Ø¸
Ø¦ Ø§
ÙĬÙĪ ÙĬØ©
ĠÙĬØŃ ØµÙĦ
ĠØ§Ø¯ Ø§Ø©
ĠÙħÙĨÙĩ Ø¬
ĠØ§ÙĦÙħ Ø¨ÙĬØ¹Ø§Øª
ÙĪØ± Ùĩ
ĠØ§ÙĦÙĤØ¯ ÙĬÙħ
ĠÙĬÙĥ ØªØ¨
ĠØ®Ø² Ø§ÙĨØ§Øª
ĠØ§ÙĦØ¬ ÙĪØ§ÙĦ
ĠÙħÙĨ Ø§Ø³Ø¨Ø©
ĠØ¨Ø¹ ÙĬØ¯
Ùħ Ø±Ø©
ØªØµ Ø§Øµ
ĠØ§ÙĦÙĤ ÙĪØ©
Ø§Ø¦ ÙĬØ§
ÙģØ§Øª ÙĬØŃ
ĠØ§Ùĥ Ø¯
ĠÙħØµÙĨØ¹ ÙĬÙĨ
ĠØ³ÙĬ Ø§Ø³ÙĬØ©
ĠØ§ÙĦØ§ÙĪØ± ÙĪØ¨ÙĬØ©
ĠØ§ÙĦØ¹ÙĦ Ø§ÙĤØ©
ĠÙĥ ÙģØ§Ø¡Ø©
ĠØ³Ø¨ ÙĪØ±Øª
ĠØµ Ø±Ùģ
ĠØ§ÙĦØ§Øµ Ø·ÙĨØ§Ø¹
ĠØª ÙĥØ±
ĠÙģØ§ÙĨ Ùĩ
ĠØ¨Ø±ÙĬ Ø¯ÙĬ
ĠØ³ ÙĬÙĦ
ĠÙĨØ¬ ÙĪÙħ
ĠØ§ÙĦØ¹ ØµØ±
ĠØ§ÙĦØŃ ÙħØ§ÙĬØ©
ĠØ± ÙĥÙĨ
ĠØ¶ ÙħØ§ÙĨ
ĠØ¨ Ø§ÙĤ
ĠÙħØ¯ ÙĪÙĨØ©
ĠÙĥÙĬÙĦ ÙĪ
ĠÙĦÙĦ Ø§Ø´
ĠÙģÙĬ Øª
ĠØ° ÙĬ
ĠØ§ Ø¯Ùħ
ĠØ§ÙĦØ¹ÙĦÙħ Ø§Ø¡
ĠØ§ÙĦØ° Ùĥ
ĠØ¯ÙĬÙĨ Ø§Ø±
ĠÙħ ÙĬØ±
ĠØ§ÙĦÙħ ÙĥØ³
ĠÙĪØª Ø¬
ĠÙħØ³Øª Ø®Ø¯Ùħ
ĠØª Ø±Ø¬ÙħØ©
ĠÙĨ Ø¹
ĠØ³ ÙĬØªÙĬ
ĠØ§ÙĦØª Ø®ÙĦØµ
ĠØ§ÙĦÙħÙĨ ØªØ®Ø¨
ĠØ§ÙĦØ¨ Ø¯Ø§ÙĬØ©
ĠÙĤ ÙĪÙĬØ©
Ø±ÙĬ Ø¬
ÙĨØª ÙĬÙĨ
1 8
ĠÙħØ¹ ÙĩØ§
ĠÙģ ÙĥØ±Ø©
Øº Ø§Ùħ
ĠØ¨ Ø§ÙĬØ¯
ĠÙħÙĤ Ø§Ø·Ø¹
ĠØ§Ø³ØªØ®Ø¯Ø§Ùħ ÙĩØ§
ĠØ¬Ø¯ ÙĪÙĦ
ĠØ§ÙĦØ§Ø² ÙħØ©
ĠØ¬ Ø§Ø¦Ø²Ø©
ĠØ§Ø³ÙĦØ§Ùħ ÙĬØ©
ĠØ³ Ø§Øª
ĠØ§ÙĦØŃ ÙĤÙĬÙĤØ©
ĠÙĦÙĦ Ø§ÙĨØ¯Ø±ÙĪÙĬØ¯
ÙĪØ± ÙĬÙĨ
Ø¬ÙĦÙĬ Ø²ÙĬØ©
ĠÙĦ Ø¹Ø¨
ØªØ² Ø§Ùħ
Ùģ ÙĬØ§Øª
ĠØ§ÙĦÙĥ Ø§ÙĦ
ĠØ¨Ø³ Ø¹Ø±
ĠÙħÙĨ Ø§Ùģ
ĠØª ÙĪÙĤÙģ
ĠØ§Ø³Ø· ÙĨØ¨ÙĪÙĦ
ĠØªØŃ ÙĥÙħ
ĠØ§ÙĦØ§ÙĤ ØµÙī
ĠÙĥ ÙģØ±
ĠØªØµ ÙĪÙĬØ±
ØªØ² Ø§Ø²
ÙĪÙĦ ÙĬÙĨ
7 9
Ø³ÙĦ ÙĬÙħ
ĠØ§ÙĦÙĩÙĨØ¯ Ø³Ø©
ĠÙĥØ§ÙĨ ÙĪØ§
ĠØ¨ ÙħØ¯ÙĬÙĨØ©
Ø° ÙĦ
ĠÙĬØ³Øª Ø·ÙĬØ¹
ĠØ§ÙĦØ± Ø§ÙĬ
ĠØ§ÙĦØ· Ø§ÙĦØ¨
ĠØ§ÙĦÙħØŃ Ø¯ÙĪØ¯Ø©
ĠØªÙħ Ø§ÙħØ§
ĠØ§Ø¨ÙĪ Ø§Ø¨
ĠØ§Ø³ØªÙħØ± Ø§Ø±
ĠØ§ÙĪ Øª
ØŃ Øª
ĠØ§ÙĦÙħ Ø§Ø³
ĠØ° ÙĪ
ĠÙĥ Ø§Ø´
ĠÙĦØ· ØŃÙĨ
Ø§ÙģØ¸ Ø§Øª
Ø· ÙĬØ¨
ĠØ§ÙĦÙħÙģ Ø¶ÙĦØ©
ĠØ¯ Ùģ
ĠØ§ÙĦØ§ ÙĬØ¬
ĠÙĩ ÙĪØ§ØªÙģ
ĠØ§Ø¨ÙĬ Ø¶
ĠØ§ ÙĬÙĩ
ĠØ§ÙĦØ³ÙĦ Ø¹
ĠØ§ÙĦØ¹ ÙĩØ¯
Ø§Ø· Ùģ
Ġ80 51
ĠØ´Ø¨ Ùĩ
Ø§Ùģ Ùĩ
ĠØ¯Ø± Ø§Ø³Ø§Øª
ÙĬÙĪØ± Ùĥ
Ø² Ø§Ø¨
Ùħ Ø¬
Ø³ÙĦØ³ÙĦ Ø§Øª
ØªØ² Ùħ
ĠØ§ÙĦØ´Ø¨ ÙĥØ©
ĠØ§ÙĦÙħ ØªÙħ
ĠØ§Ø³ØªØ±Ø§Øª ÙĬØ¬ÙĬØ©
ĠØ® ÙħØ³
Ùĩ ÙĦÙĥ
ÙĬÙĥ Ø§ÙĨ
Ġ477 828
ĠÙħ Ø±ÙĪ
ÙĬÙĪ Ùģ
ĠÙĪØª Ø®
ĠÙĪØ§ÙĦÙĨ Ø´Ø±
ĠÙĦØ§Ø³ØªØ®Ø¯Ø§Ùħ ÙĩØ§
ĠÙĦÙĬÙĨ ÙĥØ¯
3 2
ĠØ³ Ø·ØŃ
ØªÙĤ Ø¯Ùħ
ĠÙħÙĬÙĦ Ø§Ø¯
ĠØ§ÙĦÙħØ´ ØªØ±ÙĥØ©
ÙĤ ÙĦØ©
Ġ200 6
ĠÙħØ¹ Ø§
ĠØ§ÙĦÙĨ Ø§Ø¦Ø¨
ĠØ§Ø³ ÙĪØ§ÙĤ
ĠØº Ø¯Ø§
ĠÙħØª Ø§Ø¨Ø¹
ĠÙĨÙģØ³ ÙĩØ§
Ø¯ÙĤ Ø§Ø¡
Ø®ÙĬ ØµØ©
ĠØ¨Ùħ Ø³
ĠØ®ÙĦØ§ÙĦ ÙĩØ§
ĠØ§ÙĦØ§Ùģ Ø±
ĠØ¬ ÙĪØ±Ø¬
ĠÙĪ Ø§ÙĤØ¹
ĠÙĤ Ø±ÙĬØ©
ĠØ® Ø·Ø±
ĠÙĦØ¯ÙĬ Ùĩ
Ø· Ø§
ĠÙĥ ÙħÙĬØ©
ĠØŃ Ø§Ø±
ÙĬÙħÙĬ Ø§Ø¦ÙĬØ©
ĠÙĪØ¹ Ø¯Ùħ
ĠØ§ÙĦØµ ÙĬØ§ÙĨØ©
ĠØ§ÙĦØªØ¯ Ø±ÙĬØ¨
ĠØ´Ø± Ø·Ø©
Ø¹Ø§ÙĦ Ø¬Ø©
ĠØ¹Ø¨Ø¯Ø§ÙĦØ±ØŃ ÙħÙĨ
ÙĬÙħ ÙĬÙĦ
ĠÙħÙĦ Ø®Øµ
ĠÙħØª ØµÙģ
ĠØ§ÙĦÙģ ÙĤÙĩ
Ø§Øµ ÙĦØ©
ĠØ§Ø³Ø¨ Ø§ÙĨÙĬØ§
ĠØ¨ Ø§Ø·
ĠÙĬØ¯ Ø¹ÙĪ
ĠØ§ÙĦÙĥØ§ÙĦ Ø³ÙĬÙĪÙħ
Ø¦ ÙĪÙĨ
ĠØ§ÙĦÙħ Ø¬Ùħ
ÙĤÙĦ Ø§Ø¨
ĠÙĨ Ø§Ø¬
Ø§Øª ÙĦ
ĠØ®Ø· ÙĪØ©
ĠØ§ÙĦÙħØ¤ ÙĦÙģ
Ø§ÙĤ Ø¨
ÙĬØ¯Ø±ÙĪÙĦ ÙĬÙĥÙĬØ©
ĠÙĪ Ø¶
ĠØ¬ Ø³Ùħ
ĠÙĪØª Ùģ
ĠØ¶ ÙĪØ¡
ĠØ§ØŃ ØªØ¬
ÙĦØ§ÙĦ Ø§Øª
ĠÙħØ± Ø§ÙĤØ¨Ø©
Ø² ÙĪÙĨ
ĠØ´ Ø§ÙĨ
ĠØ§ÙĦÙĨØ´ Ø§Ø·
ĠØ§Ø± Ø®Øµ
ĠØ§Ø¯ ÙĪÙĬØ©
ĠØ§Ø¯ ÙĨØ§Ùĩ
ĠØ§ÙĦØ¯ÙĬÙĨ ÙĬØ©
ĠØ¨ Ø®ØµÙĪØµ
ĠØ§ÙĦØ§Ø³ Ø§Ø³ÙĬ
ĠØ§ÙĦÙħØ¤ ÙħÙĨ
ÙĬØ± Ø§Ø¯
ĠØ§ÙĦØªØŃÙĤ ÙĤ
ĠØ¬ Ø¹
ĠÙħØŃ ÙĥÙħØ©
ØªÙĬ Ø´
ĠÙĪØ§ØŃ Ø©
ĠØ§ÙĦØ±ÙĬØ§Ø¶ ÙĬ
ĠØ¯ Ø§Ø¦Ø±Ø©
ĠØ§ÙĦÙħØ« Ø§ÙĦ
ĠØ§ÙĦØ§ØŃ ØªÙģ
ĠØ§ÙĦÙĥ Ø±Ø¨
ĠÙĦØ³ ÙĨØ©
Ø¬ Ø±ÙĬ
ÛĮ Ø©
ĠÙĤ ÙĪÙĦ
ĠØ§ÙĦØ§Ùħ Ø§ÙĥÙĨ
ĠØ§ÙĦ Ø§Ø¦
ØŃ ÙĬÙĨ
Ø§ÙħÙĦ Ø§Øª
Ġ8 2
ĠØ§ÙĦØ§Ø¹ÙĦØ§Ùħ ÙĬØ©
ĠØ§ Ø¯Ø±
ÙĤØ· Ø¹
Ø§Ùģ ÙĬØ§
ÙĬØ³ Ø§ÙĨ
ĠØ§ÙĦÙħØ¯ ÙĨ
ĠØ¯ Ø±Ø¬Ø§Øª
Ø¯ ÙĪÙĨ
Ø§ÙĦ ÙĬØ¨
ĠØ§ÙĦØ® ÙĬØ§Ø±Ø§Øª
ĠØ¶ ØŃ
ĠØ§ÙĦØº ÙĬØ±
ĠÙħØŃ Ø±Ùĥ
ĠÙĪØ§ÙĦÙħ Ø³Øª
ĠØ§ÙĦØ³ÙĪ ÙĬØ³
ĠØ§ÙĦØ± Ø¹Ø§ÙĬØ©
Ø±ÙĪØ¡ Ø©
Ø§Ø¯ ÙĪ
ĠÙĩ Ø¤ÙĦØ§Ø¡
ĠØ§ÙĦÙĨØ¨ ÙĪÙĬ
ĠØªØµ Ø¯Ø±
ĠÙĬ ØªØ±
ĠÙĤ ÙĬØ§Ø¯Ø©
ĠØ´ ÙĬØ®
ĠØ§ÙĦÙĤ ÙĦ
ĠØ§ÙĦØ³ÙĪØ¯ Ø§ÙĨÙĬ
Ø² Ø§Øª
ØŃ Ø§ÙĨ
ĠØ«ÙĤ Ø§ÙģØ©
ĠØ§Ø³Øª Ø§Ø°
Øº ÙĪ
ĠÙĤØµ ÙĬØ±Ø©
ĠØ§ÙĦØº ÙĬØ§Ø±
Ġ19 5
ÙĪ Ø§ØŃ
ĠØ¯Ø± Ø³
ĠÙĦØªØŃ ÙĤÙĬÙĤ
ĠØ¨Ø§ÙĦ Ø§Ùħ
ĠØ§ÙĦÙĪØ² ÙĬØ±
ĠØ¹ Ø§Ø¦
ĠÙĦÙĦ ØªØ®
ÙĦÙħ Ø§ÙĨÙĬØ©
ĠØ¬ Ø§Ùĥ
ĠÙĪØ± Ø´Ø©
ÙĬØ§ÙĨ Ø§
ĠØ§ÙĦÙĩ ÙĦØ§ÙĦ
ĠÙĦÙĬÙģ Ø±Ø¨ÙĪÙĦ
ĠØ¨Ø¬ Ø§ÙħØ¹Ø©
ĠØ§ÙĦØ§Ø´ ÙĬØ§Ø¡
Ø§ÙĪÙĦ Ø§Ø¯
ĠØ§ÙĦØ§Ø¯ Ø§Ø¡
Ø¸ ÙĦ
ĠØ§ÙĦÙĨ ØµØ±
Ø§Ø¨ ÙĬÙĨ
ĠÙĩ ÙĪÙĦ
ĠÙħÙħ ÙĬØ²Ø§Øª
ĠØ·Ø¨ÙĬØ¹ ÙĬ
ĠÙĪØ§ÙĦ ÙħÙĦ
Ø¹ÙĪØ¯ ÙĬØ©
Ø¹ ÙĤ
ĠØ§ÙĦØª ÙģØ³ÙĬØ±
Ùĩ ÙĬØ±
ÙĨ ÙĥØ±
ÙĪÙħ ÙĨÙĬ
ĠØ§ÙĦØ¯ ÙĨÙĬØ§
ĠÙĪÙĬÙĨ Ø¯ÙĪØ²
ĠØ§ÙĨÙģ Ø¬Ø§Ø±
ĠØ§ÙĦØ´ Ø§Ø±Ø¹
ĠØ§ÙĦÙĤ Ø§Ø¯ÙħØ©
ĠØ§ÙĦØ¯ÙĬÙħÙĤØ±Ø§Ø· ÙĬØ©
ĠÙĬØ¨Ø¯ ÙĪ
ĠØ³ ØŃØ¨
ĠØ§ÙĦØ¨ØŃ Ø±ÙĬØ©
ĠØ§ÙĦÙĤÙĬ Ø§Ø³
ÙĪØµ ÙĪÙĦ
ĠØ§ÙĦÙĨØ³ Ø®Ø©
ĠØ´ Ø§Ø´Ø§Øª
ĠØ§ÙĦÙģ ÙĤ
ĠØ¬ ÙĩÙĪØ¯
ĠØ§ÙĨ ØªØ®Ø§Ø¨Ø§Øª
ØªÙĥ Ø§Ø±
ĠÙĪØ¹ ÙħÙĦ
ĠÙĦØ¯ Ø¹Ùħ
ĠÙĦØ§ÙĨ ØªØ§Ø¬
ØªØµ Ø§Ø±
ĠØª ØºÙĬØ±
ĠØ§ÙĦÙĥ Ø§Ùħ
ĠØ§ÙĦØ§ÙĤ Ø§ÙħØ©
ĠØ§ÙĦØ´Ø¹Ø¨ ÙĬØ©
ĠØµ ÙģØ±
ĠØµÙĦ Ø§Ø©
ĠØ§ÙĦØ¹ Ø¨Ø¯
ĠÙĤ Ø±Ø¨
ÙĬÙģ Ø§Øª
ĠÙģ Ùħ
ĠØ¨ Ø§Ø´
ĠØ§ÙĦÙħØ³ØªØ®Ø¯Ùħ ÙĬÙĨ
ĠØ§Ø³Ùħ Ø§Ø¹ÙĬÙĦ
ĠØ§ÙĦØ¨ Ø´
ÙĤ ÙĪÙĦ
ĠÙħØ³Ø¤ÙĪÙĦ ÙĬØ©
ĠØ¬ ÙĪØ²
ĠØ§ÙĦØ³ ÙĥÙĨ
ĠØ§ ØªØ¬
ĠÙĪÙģ Ø¯
ĠØ§ÙĦØ¬Ø§Ùħ Ø¹ÙĬ
ĠØ§ÙĦØ¬ÙĦ Ø¯
ĠØŃØ³ Ø§Ø¨Ø§Øª
Ø± Øª
ĠØªØµ ÙĦÙĬØŃ
ĠÙĬ ÙĤÙĦ
ĠØŃ ÙĪØ§Ø±
ĠØ§ÙĦØº Ø±ÙģØ©
ĠØ¨ ØŃÙĤ
ĠØ¬ Ø¨ÙĦ
ÙĬÙĥ ÙĪ
Ø· ØŃÙĨØ©
Ø¶ Ø§Ø¹
ĠØ³ ÙĪÙī
ĠØ¬Ùħ ÙĬÙĦ
ĠØ±ÙĬÙħÙĪÙĨ Ø¯
7 5
ĠØ§ÙĦØ¹Ø¯ ÙĦ
ĠØ³ ÙĥØ§ÙĨ
ĠØ¬ ÙĪÙĨ
ĠÙĬ Ø¸ÙĩØ±
ĠØ§Ø¹ ØªÙħØ§Ø¯
Ø§Øµ Ø±Ø©
Ø§ÙĦ ÙĬØ¯
ĠØ§ÙĦØ¹ Ø§ÙĦÙĬØ©
Ġ8 1
ØªÙĥ ÙĪÙĬÙĨ
Øº ÙĩØ§ÙĬ
ĠØ¬Ø² ÙĬØ±Ø©
ĠØ§ÙĦØ§Ø³Ø¨ÙĪØ¹ ÙĬØ©
ĠØ§ÙĦØ³ÙĬ Ø§ØŃÙĬØ©
ĠØ´Øº Ø§ÙĦØ©
ĠØ§ÙĦÙģ ÙĬÙĦÙħ
ĠØ§ÙĦØ§ÙĨ ØªÙĤ
ĠØ§ÙĦÙħØª ÙĨ
ĠØ§ÙĦÙĪØ² Ø§Ø±Ø©
ĠÙħ Ø«ÙĬØ±
ĠØ§ÙĦÙħÙĪ Ø§Ø·ÙĨ
ÙĦÙĬ Øº
ĠØµ ÙĨØ§Ø¯
ĠÙĪÙĥ ÙĬÙĦ
ĠÙĨ Ø§Ø³
ĠØ§ÙĦØ³ÙĪØ¯ Ø§Ø¡
ĠØª ØªØ¨Ø¹
ĠÙħØ± Ø§Øª
ĠØ§ÙĦØªØµÙĨ ÙĬØ¹
ĠØ§ÙĦÙģÙĬØ± ÙĪØ³
3 9
ĠØ§ÙĦÙħØ´ Ø§ÙĩØ¯Ø§Øª
ĠÙĪØ§ÙĦ ÙĦÙĩ
ĠØ§ÙĦÙĪ Ø«
ĠÙĪØ§ÙĦÙħ Ø´
ĠØªØ¹ Ø§ÙĪÙĨ
ĠØ§ÙĦØ± Ø¨ÙĬØ¹
ĠØ§ÙĦØµØŃ ÙģÙĬ
ĠØ§ÙĦÙħØ³ÙĦ ØŃØ©
ĠØ³ ÙĬÙģ
ĠØ§ÙĦÙĬØ§Ø¨ Ø§ÙĨ
ĠÙħ Ø±Ùĥ
ĠØ¨Øµ ÙĪØ±Ø©
ĠÙĦ Ø²ÙĬ
ÙĪØ¬ Ø¨
Ø¨ ØºÙĬ
ĠØ§ÙĦÙħ Ø§ÙĦÙĬ
ĠÙħØ¨ Ø§Ø¯Ø±Ø©
ĠØ§ÙĦØ§ÙĪÙĦ ÙĬØ©
ĠØ§ÙĦØ§ÙĨØ¯ Ø±ÙĪÙĬØ¯
ĠÙĥ Ø§Ø¨
ĠØªØ¹ Ø¨Ø±
Ø¶ÙĦ Ø§Øª
ĠÙħØ¨Ø§Ø± Ùĥ
ĠØ¹ Ø«ÙħØ§ÙĨ
ĠÙĪØ§ÙĬ Ø¶Ø§
ĠØ·Ø¨ÙĬØ¹ ÙĬØ©
ĠØ§Ø¨ØªØ¯ Ø§Ø¦ÙĬ
ĠØ§ÙĦØ¬ Ø§Ùģ
ØªÙĬ Ø§ÙĦ
ĠÙĪØ§ÙĦ Ø§ÙĦ
ĠÙħÙĨ Ø§
ĠÙħ Ø±Ùģ
ĠØ® ÙĬØ§Ø±Ø§Øª
ĠÙĦÙħ Ø¹Ø±ÙģØ©
ĠØ§ÙĦÙĥ ÙģØ§Ø¡Ø©
ĠØŃØ¯ ÙĪØ«
ĠÙĪØ§ÙĦ Ø¬Ùħ
ĠØ§ÙĦÙħØ± Ø§Ùĩ
ĠØ³Ø¹ÙĪØ¯ ÙĬ
ĠØ§ÙĦØ· ÙĪØ¨
ÙĨØ¯ Ø§Øª
ĠÙĩ ÙĬØ±
ĠØ§ÙĦØ¬ Ø§ÙĨØ¨
Ø§Ø« Ø©
ĠØ¹Ø¨Ø¯Ø§ÙĦ Ø¹Ø²ÙĬØ²
ÙĪÙĬ Ø¶
ĠØ§ÙĨØªÙĩ Ø§Ø¡
ØªØ¯ Ø±ÙĬØ¨
ĠÙĤ ÙĪÙĦÙĩ
ĠØ¹ÙĤ ÙĪØ¯
ĠØ± Ø§Ùħ
Ø´Ø± ÙĤ
ĠØ³ Ø¨ÙĦ
ĠØ§ÙĦØ« ÙĦ
4 8
ĠØª ÙħØ±
ÙĪØ¹ ÙĬØ©
Ù ¬
ØªÙģ ÙĦ
ĠÙħØµ ÙĨ
ÙĬÙĪ Ø¨ÙĬØ§
ĠØ¹ Ø§ÙĦÙĬ
ĠØ§ÙĦØ¹ÙħÙĦ ÙĬØ§Øª
ÙĤØ± Ø§Ø¡Ø©
ĠÙħ Ø°ÙĥØ±Ø©
Ø± Ø§Ø¨
ĠØ§ÙĦØ§Ø¹ÙĦØ§Ùħ ÙĬ
ĠØ§ÙĦÙħØ¨Ø§Ø± Ø§Ø©
Ø§Ø· Ø¹Ø©
ĠØ§ÙĦØ´ÙħØ³ ÙĬØ©
ĠØ§ÙĦØ°Ø§Øª ÙĬØ©
ÙĨØ¯ ÙĬØ©
ÙĪÙħÙĨÙĬ ÙĪÙħ
ĠØªÙĬÙĦ ÙĤØ±Ø§Ùħ
ĠØ§ÙĦÙĨ Ø§Øª
ĠØ§ÙĪØ± Ø§ÙĤ
ĠØ¨Ø§ÙĦÙģ Ø¹ÙĦ
ĠÙĦØº Ø±Ø¶
ĠØ¨ Ø§ÙĤÙĦ
ĠÙħØ¬Ùħ Ø¹
ĠÙħÙħ ÙĬØ²
ĠØ§ÙĦÙĨÙģØ³ ÙĬØ©
ĠÙħÙĪ Øª
ÙĦØ§ ÙĬØ§
ĠØ¹ ÙħØ§ÙĦ
ĠÙħØ¤ Ø´Ø±
ÙĪØ§Ø¯ Ø«
ĠØ· Ø¨Ø¹
ĠØ§ÙĦØª Ø¬ÙħÙĬÙĦ
Ø§Ø¨ ØªØ©
ÙĦ ÙĨØ¯Ø§
ĠÙħ ÙħÙĨ
ĠÙĪØ± ÙĤØ©
ĠÙĤ Ø¶Ø§ÙĬØ§
ĠÙĤØ§ÙĦ Øª
ĠØ± ÙĬØª
ĠØ§ÙĦØŃ Ø±ÙĬØ©
ĠØªÙħ ÙĥÙĨ
ĠØ¨Ùħ Ø¹
ĠÙħ Ø²ÙĬØ¯
ĠØ¨ÙĨ Ø´Ø±
ĠØ¹ Ø§Ø¯ÙĦ
ĠØªØ¹ Ø¨
ĠÙħØ¬Ùħ ÙĪØ¹
ĠØ· Ø§ÙĦ
ĠØ¨ØŃ Ø³Ø¨
ĠØ³ Ø®
ĠØ§Ø³ Ø±Ø¹
Ø§Ùĩ ÙĬÙĦ
Ø§Ø¯ Ø±Ø§Øª
ĠÙĨ ÙĨ
ĠØ® ÙĦÙĤ
ĠØ§Ø´ ÙĥØ§ÙĦ
ĠØ§ÙĦØªØ´ Ø±ÙĬØ¹
ĠØ§ÙĦØ§ÙĬØ± Ø§ÙĨÙĬØ©
87 5
ĠØ¨Øª ÙĪÙĤÙĬØª
Ø® ÙħØ©
ĠØ§ÙĦØµ Ø¯
ĠÙĬÙĤ Ø¹
ĠØ¨ÙĬÙĨ ÙĩÙħ
ĠØ§ÙĦ ÙĬØ³
ĠØ§Ø³Øª Ø¹Ø§Ø¯Ø©
ĠÙĪØª Ø·ÙĪÙĬØ±
Ø±ÙĬ Ø¨Ø§Øª
ĠØ¨Ø§ÙĦ Ø§ØŃ
ĠØªØº Ø°ÙĬØ©
ĠÙħÙĪØ¯ ÙĬÙĦ
Ġ ÛĮ
ĠØ§ÙĦÙħ ØªØ±
Ø§Ø¨ÙĦ Ø³
ĠÙħÙĤ Ø±ÙĪØ¡Ø©
ĠØ§ÙĦØª ÙĪØµÙĬÙĦ
ĠØ§ÙĦØ¨Ø±ÙĬØ· Ø§ÙĨÙĬØ©
ĠØ§ Ø±ÙĬ
ĠÙħÙĥ ÙĬØ§Ø¬
ĠØªØ¹ÙĦÙĬÙĤ ÙĬ
ĠÙħØ§Ø± ÙĥØª
ĠØªØµ Ø§Ø¯ÙħÙĬØ©
ĠØ§Ùĥ Ø³Ø¨
ĠÙĤÙĬ Ø§Ø³
ĠØ§ÙĪÙĦ Ùī
ĠØ¯Ø± ÙĩÙħ
ĠØ§ÙĦØµ Ø¨Ø§ØŃ
ĠØ§ÙĦÙħØ´ ØªØ±Ùĥ
ĠÙĤÙĨ ÙĪØ§Øª
Ø² ÙĬØ¹
ĠØµ Ø¹
Ġ11 0
ĠØ§ ÙĬØ¯
ĠØ§Ø± Ø§Ø¶ÙĬ
ĠÙĬÙĪÙħ Ø§
ĠØ§ÙĦØ¨Ø±ÙĬØ¯ ÙĬØ©
Øº Ø§Ø±
ÙĪ Ø®
ĠØªÙĤ Ø¹
ĠØ§ÙĦØ«ÙĤ Ø§ÙģÙĬØ©
ĠØªØ§Ø³ ÙĬØ³
ÙĩØ± Ø§ÙĨ
ÙħÙĨ Ø©
ÙĪØ§Ø± Ø¨
ĠØª ÙĦÙħ
ĠØ¯Ø¹ ÙĪØ©
ĠØ¨ ÙĪØ³
ĠÙĦØ§Ø¹ Ø§Ø¯Ø©
ØªÙħ Ø¯Ø©
ĠÙĦÙĦØ´ Ø¹Ø±
ĠØ§ÙĦØ± Ø¨ØŃ
ĠØ´ Ø§ÙħÙĦ
ĠØ§ÙĦÙĤ ÙĪÙĦ
ÙĨ ÙĬØ¹
ĠØ§ÙĦÙħ Ø§Ø¦Ø©
ĠØ³ Ø±ÙĬØ¹Ø©
ĠÙħÙĩ Ø§Ø±Ø§Øª
Ø§Øª Ùħ
ĠØ¨Ø¹ ÙĨÙĪØ§ÙĨ
ĠØ§ÙĦØªÙĨ Ø¸ÙĬÙħ
ĠØµ Ø§Ø¨ÙĪÙĨ
ĠÙĤ ÙĨØ§Ø¹
ĠÙģ ÙħØ§
Ùħ ØŃ
ĠÙĪÙĦ ÙĨ
ĠØ§ÙĤ Ø§ÙħØ©
ĠØ·ÙĦ Ø§Ø¨
ĠÙħÙģ ÙĩÙĪÙħ
ĠÙħ Ø§Ø±ÙĥØ§Øª
ÙĪØ¯ Ùĩ
ĠÙĪ ÙĬØ´
ĠØ¯ ÙĬØ±
ĠØ§ÙĦØ² Ø¨
Ġ13 0
ĠØ® ÙħØ³Ø©
ĠÙĪØ§ÙĦ ØªØµ
ĠØ±Ø³Ùħ ÙĬ
ĠØ¨ Ø§Ø¯
Ø° ÙĬØ¨
Ġ23 4
ĠÙħØµØ± ÙĬØ©
ĠÙĨ Ø§ÙĤÙĦ
ĠØ· ÙĬØ±Ø§ÙĨ
ĠØ§ÙĦØ¯ ÙĤÙĬÙĤØ©
ÙĥØª Ø§Ø¨Ø©
ĠØ§ÙĦØ¨ÙĨ ÙĪÙĥ
ĠØ¬ ÙĬØ±
ĠØ§ÙĦØµ Ø§Ø¨ÙĪÙĨ
ĠÙħØµ ØºØ±Ø©
ĠØ§ÙĦÙħÙĤ Ø§ÙĪÙħØ©
ĠØªÙĪ Ø§ÙģÙĤ
ĠØ§ÙĤ Ø¯Ùħ
Øµ ÙĬØ¯
ĠØ§ÙĦØŃ ÙħØ¯
ĠØ®Ø§Ø±Ø¬ ÙĬØ©
ĠØ§ ØªØ¨
Ø±ÙĬ Ø¯Ø©
ĠØ§Ø³Øª Ùĥ
ĠÙĥ ÙĪØ±ÙĬØ§
ĠÙħÙĨ Ø¬Ùħ
Ø§Ø¹ Ùĩ
ĠØ§ÙĦÙħÙĩ ÙĨØ¯Ø³
ĠØ§ÙĦÙħØ´ Ø§ÙĥÙĦ
ĠØ§ÙĦØ§ÙĨ ØªÙĤØ§ÙĦ
ĠÙħØ§Ø³ ØªØ±
ĠØ§ÙĦÙħÙĬÙĦ Ø§Ø¯
ĠØ§ÙĦÙĨÙĩ Ø¶Ø©
ĠØŃ Ø§Ø¬Ø©
ĠÙĨÙĬÙĪ ÙĬÙĪØ±Ùĥ
ĠØ§ÙĦØ§Ø³ØªØ±Ø§Øª ÙĬØ¬ÙĬØ©
ĠØ§ÙĦÙħØ· ØŃÙĨØ©
ĠÙĤØ§ÙĨÙĪÙĨ ÙĬØ©
ĠÙĨ Ø¨Ø§Øª
Ø² ÙĪØ¬
Ø« Ø§ÙĦ
ĠØ§ÙĨ ÙħÙĬ
Ø§Ø³ ÙĪØ¨
ĠØ§Ø³ ÙħÙĨØª
ØªÙĪ Ø¨
ĠØŃ ÙģØ±
Øµ Ø§Øª
ĠØ´ Ùħ
ĠØ§ÙĦÙħØ¬ ØªÙħ
ĠØ§ÙĦØŃ Ø§Ø³Ø¨
ĠÙħ ÙĪØ±
ĠØ§ÙĦØ° ÙĥØ±
ĠØ§ÙĦØ± ÙĪÙħ
ĠÙħ ÙĬØª
ĠÙħÙĨ Ø§Ø³Ø¨
ĠØŃ Ø¶
ĠÙħØ± Ø³
ĠØª ÙĪØ±
ĠØ¹ ØµØ±
ĠØ¨ ÙĬØ¯
ĠØ«ÙĤ ÙĬÙĦØ©
ĠÙĨ ÙĤØ¯
ĠÙĨ Ø¬Ùħ
ĠØ§ÙĦØ¹ ÙĬÙĪÙĨ
ĠØ° Ø§
ĠØ§ÙĦØ¯ÙĪÙĦ ÙĪÙħÙĬØª
ĠØ§ÙĦØŃ ÙħØ±Ø§Ø¡
ĠØ§ÙĦÙħ Ø±Ùĥ
ĠÙħÙĪØ³ Ùī
ĠØ§ÙĬÙĦ ÙĪÙĦ
ĠØŃ Ø§ÙĪÙĦ
ĠØ§ÙĦØªÙĪÙĨ Ø³ÙĬ
ĠØ§Ø± Ø¯ÙĪ
ĠÙĪØ§ÙĦÙħ Ø¤
ĠØ§ÙĦØ«Ø§ÙĨ ÙĪÙĬ
ĠØ¨ ÙĤÙĬ
ØŃ ÙĬØ¯
Ø§Ø´ Ø¯
ĠÙħÙĪ Ø§Ø·ÙĨ
ĠØ§ÙĦØ§Ø¯ ÙĪØ§Øª
ĠØ§ÙĦØ± Ø¦
ĠØ§Ø³Øª ÙģØ³
Ø´ ÙĪ
ĠÙħØ³Øª ÙĦØ²ÙħØ§Øª
ĠØªØ³ÙĦ ÙĬÙħ
ĠØ§ÙĦÙħ Ø±Ùģ
ĠØ¬Ø±ÙĬ ÙħØ©
ĠØ³ ÙĪØ¯
Ø³ ÙĥØ±
Ø¬ ØªÙħØ¹
ĠØ§ÙĦÙģ ÙĪ
ĠÙĬ Ø·ÙĦÙĤ
ĠØ¶Ø± ÙĪØ±Ø©
ĠØ§ÙĦÙģ ÙĬØª
ĠØ¨ØŃ Ø§Ø¬Ø©
ĠØ§ÙĦØ§ÙģØ±ÙĬÙĤ ÙĬ
Ø§Ùĥ Ùĩ
ĠØªØ¯ Ø±ÙĬØ¨
ĠØ§ÙĦØ· ÙĤØ³
ĠØ¬ Ø§ÙĨ
ĠÙĬØ¯ Ø®ÙĦ
ĠØ³ ØªØ±
ĠØ§ Ø±ÙĬØ¯
ĠÙĦØ³ ØŃÙĤ
ĠØªØ¬ Ø¯ÙĬØ¯
Ø§Ø± Ùħ
ĠØ§Ø¨ ØŃØ«
ØªØµ Ùģ
ØŃÙĤ ÙĤ
ĠØŃÙģ Ø§Ø¶Ø§Øª
ĠÙĨ Ø®
ÙĪØ§Ø± Ø¹
ĠØ§ÙĦØªÙĤ ÙĪÙĬÙħ
Ġ68 875
ĠØ§Ø® Øª
ĠØ§ÙĦØ²ÙĬØª ÙĪÙĨ
ĠØ¨ÙĤ ÙĬÙħØ©
ĠØ§ÙĦÙħÙħ ÙĥÙĨ
ĠÙħØ· Ø¨Ø®
Ø¯Ø± Ø§Ø³Ø©
ĠÙħØ¬ Ø¯
ÙĤ Ø¨
ĠÙĪØ³ ÙĪÙģ
ĠØ§ÙĦÙħÙĤØ¯ Ø³
ĠÙĪØ§ÙĨ Øª
ĠØªØ¬ Ø§Ø±
ØªØ± ÙĪÙĦ
ĠØ³Ø¨ ÙĤ
ĠØ§ÙĦØŃ Ø§ÙĦÙĬØ©
ĠØ§ÙĦÙĩ Ø¯Ùģ
ĠØªÙĪ Ø§Ø¬Ùĩ
Ø±Ø§Ø¦ Ø¨
ĠØ§ÙĦØ§ÙĨ Øª
ĠØ§ÙĦÙĥ ÙĦØ§Ùħ
ĠÙħÙģ Ø§Ø¬
ĠØ§ÙĦÙĪØ§ØŃ Ø¯
ÙĬÙĪ Ø³
Ġ19 6
ĠØ§ÙĦØŃ Ø§Ø¬Ø©
Ø§Ùģ ÙĦ
ĠØ§ÙĦÙĨØª Ø±ÙĬÙĦ
ĠØ§ÙĦØ¹ ÙĬØ¯
ĠØ§ÙĦØ¯ ÙħØ§Ùħ
ĠÙħÙĦ Ø§ÙĬÙĬÙĨ
ĠÙĪØ§ÙĦ Ø¨ÙĬ
ĠØ§ÙĦÙĥ ÙĦÙĬ
ĠØ§ÙĦØ° Ùī
ÙĬØ¨ ÙĬØ©
Ø§ÙĤ Ùģ
ĠÙħØ¹ ÙĦÙħ
ĠØªÙģ Ø§Ø³ÙĬØ±
ĠØ³ ÙĦÙħ
ĠØ§ÙĦØ§Ùĥ Ø¨Ø±
Øµ Ø§ÙĨ
Ùĩ Ø§Ø¬
ĠØ§ÙĦØ· ÙĬØ±Ø§ÙĨ
ĠÙħØª Ùī
ĠØ§ÙĦÙĥ Ø§Ø´
Ø§ØµÙĦ Ø§ØŃ
ĠØ§ÙĦØ¯Ø± Ø§Ø³ÙĬØ©
ĠØ§ÙĦØ¬ ÙĬØ²Ø©
Ø§Ø« Ø±
ĠØª Ø³Ø¨Ø¨
ĠÙĦÙĦÙħ Ø³Øª
Ø³ ÙĬØ³
ĠØ± ÙĪÙĨ
Ø§ÙĦ ÙĬÙĩ
ĠÙĪÙħ Øµ
ĠÙħØ§Ø³ ÙĨØ¬Ø±
ĠØ¹ Ø´Ø±Ø©
ĠØ§ÙĦØ±Ø³ ÙĪÙħ
ĠØªÙĨØ³ ÙĬÙĤ
ĠØ¨ ÙĩÙħ
ĠÙĪÙĩ ÙĨØ§Ùĥ
ĠØ§ÙĦÙħ ÙĥØ±
ĠØ§Ø¹ ØªÙĤØ§ÙĦ
ĠØ¨Ø§ÙĦØ¬ ÙħÙĦØ©
Øª Ø±ÙĬØ§Øª
Ġ7 1
ĠÙĪØ§Ùĥ Ø«Ø±
Ø¬ ØŃ
ĠÙĦØª ÙĤØ¯ÙĬÙħ
Ġ9 4
ĠØ´ÙĨ ØºÙĩØ§ÙĬ
ÙĨØ§Ø· ÙĬØ³ÙĬ
ĠØ§Ø¹ ØªØ¨Ø§Ø±
ĠØ§Ø¬ ÙĨØ¨ÙĬ
ĠØªØ± Ø§Ø¬Ø¹
ĠÙĪØµÙģ Ø§Øª
ĠÙħØ³ Ø§Ø¨ÙĤØ©
ĠÙĦÙĬ ÙĪÙħ
ĠØ«ÙĦ Ø§Ø¬Ø§Øª
ĠÙĦØªØŃ Ø³ÙĬÙĨ
ĠØ§ÙĦØ³Ø§Ø® ÙĨ
Ø¶ ÙħØ§Ùħ
ĠØ± Ø®ÙĬØµØ©
ĠØ®Ø· Ø§
ĠØ§ÙĦØ¬ ÙĩØ§Øª
ĠØ§ÙĦØ§Ø± Ø§Ø¶ÙĬ
ĠÙĦÙĦÙħ Ø´
ÙĤ Ø¯ÙħØ©
Ø¬Ùħ Ø§ÙĨ
ĠÙĦØª Ø³
3 4
Ø± Øµ
ĠÙĦ Ø§Ùģ
ĠØŃ Ø¯ÙĬØ¯
ĠØ¨Ø§ÙĬØ¯ ÙĨ
ĠØ§ÙĦØ± Ø§Ø¦Ø¯Ø©
ĠÙĦØŃ Ø¸Ø©
ØªÙħ ÙĨÙī
Ø¹ÙĪØ¯ Ø©
ĠØ§ÙĥØª Ø´Ùģ
ĠÙĨÙģØ³ Ùĥ
ĠØ§Ø³ ÙģÙĦ
ĠØ§Ùĥ Ø§Ø¯ÙĬÙħÙĬØ©
ĠØ§Øº ÙĦØ§ÙĤ
ĠØ± Ø¶ÙĬ
ÙĥÙĦ Ø§Øª
ĠØ§ÙĦØ§Ø¨ Ø§ØŃÙĬØ©
ĠØªÙĪÙĤ ÙĬØ¹
ĠØ§ÙĦÙħØ®Ø±ÙĪØ· ÙĬØ©
ĠÙĪ Ø°
ĠØ§ÙĦÙĪÙĤ Ø§ÙĬØ©
2 6
ĠØ§ÙĦÙĨ Ø¬Ø§ØŃ
ĠØ§ÙĦØ« Ø¯ÙĬ
ĠØ¨ÙĤ ÙĪØ©
ĠØ¹ Ø³ÙĥØ±ÙĬØ©
ĠØ§ÙĦØ¨ÙĬ Ø§ÙĨ
Ø§ÙħØ¨ ÙĪ
ĠÙĨÙĩ Ø§Ø¦ÙĬ
ĠÙĪÙĦ Ùĩ
ÙĪØ¬ ÙĪØ¯
ĠØ§ÙĦØ³ÙĨ ÙĪØ§Øª
ÙĪÙĨ ÙĬØ§
ĠÙĦÙĦ Ø¯Ø±Ø§Ø³Ø§Øª
ĠØ§ÙĦØ§ÙĦ ÙĪØ§ÙĨ
ĠÙĨ ÙĩØ±
ĠÙĦÙħ ÙĪØ§Ø¬ÙĩØ©
Ø§Ùĩ Ø¨
ĠØ§ÙĦÙģ ÙĥØ±
ØŃ ÙĦ
ĠÙĦÙĦ Ø§ØŃ
ĠÙĪØ¬ Ø¯
ĠØª Ø§Ùħ
ĠÙģ Ø§Ø³
ĠØ§ÙĦØª ØºÙĬÙĬØ±
ĠØ§ØŃ ÙħØ±
ĠØ§ÙĦÙħØ´ ÙĥÙĦØ©
Ø§ÙĨ Øª
Ø³Ùĥ ÙĪ
ĠÙĨØ³ Ø§Ø¦ÙĬØ©
ĠÙĪØª Ø¯
ĠØ§ÙĦØ±ÙĤÙħ ÙĬ
ĠÙĩ Ùī
ĠØ§ÙĦØ§ÙħÙĬØ± ÙĥÙĬØ©
Ġ200 4
ĠØ§ÙĦØ¨ ÙĪÙĦ
Ø§Ø¨ÙĤ Ø§Øª
ĠØ§ÙĦÙĤ Ø±ÙĬØ¨Ø©
ĠÙĬØŃ ÙĬ
ĠØªÙĩÙĨ Ø¦Ø©
ØªÙģ Ø³
ĠØ§ÙĦØ¨ ÙĪØ±
ĠÙģ Ø§Ø°Ø§
ĠØ§ÙĦØ±Ø³ ÙĪÙĦ
ÙħØ§ÙĦ ÙĬØ©
ĠÙĪØŃ Ø¯Ø§Øª
Ø§Ø±Ø³ Ø§ÙĦ
ĠØ§ÙĦØ¨ÙĬ Ø§ÙĨÙĬ
Øª ÙĦÙĥ
ĠØ§ÙĦÙĨ Ø¬
ĠØ§ÙĦÙĤ ÙħØ±
ĠØ§ÙĦØ§Ø³Øª Ø«Ùħ
ĠØ§ÙĦÙĥ ÙĦÙĬØ©
Ġ45 9
8 9
ĠÙģÙĬ Ø³
ĠØ¨Ùĥ ÙĪØ±ÙĪÙĨØ§
ĠÙĦØŃ ÙħØ§ÙĬØ©
ÙĬÙģ ÙĬ
ĠØ§ØŃ Øµ
Ø±ÙĤ ÙĬØ©
ĠÙĨÙĪØ¹ ÙĬØ©
ĠÙħØ³ Ø¬Ø¯
ĠÙħÙĨ Ø²
Ġ9 1
ĠØ¯ÙĪÙĦ ÙĬØ©
ĠØ¬ ÙĪÙĦ
ĠÙģ Ø³Ø§ØªÙĬÙĨ
ĠØ§ÙĦØª ÙĤØ±ÙĬØ±
ĠÙħØ´ ØªØ±Ùĥ
Ø· ÙĪØ±Ø©
ĠØ® ÙĬØ§Ø±
ĠØ§ÙĦØ«ÙĤ Ø§ÙģÙĬ
ĠØ³ ÙĦØ§Ùħ
Ø§Ùĥ Ø¨
ĠØº Ø§ÙĦØ¨
ĠØ§ÙĦØ± Ø´
ĠÙħÙĨ ØªØ®Ø¨
Ø§ ÙĪÙī
ĠØª ÙĪØ¨
ĠØ§ÙĦØ¯Ùĩ ÙĪÙĨ
ĠØ¹ Ø·Ø±
ĠÙĦÙĦ ØªØµ
ĠØ§ÙĦÙģÙĬØ² ÙĬØ§Ø¡
ĠØ§ÙĦØ± ÙĪØŃ
ĠØ§ÙĦÙĤ Ø§Ø¯Ùħ
ĠØ§ÙĦØªØŃ ÙĦÙĬÙĦ
ĠØµÙģ ØŃØ§Øª
ĠÙĩ Ø´
ĠØ¹ÙĦ Ø§ÙĤØ§Øª
ĠØ¨Ø¬ Ø¯Ø©
ĠØ§ÙĦÙĥØª Ø§Ø¨Ø©
ĠÙħØ¹ ÙĬÙĨØ©
ĠØ®ÙĦÙģ ÙĬØ§Øª
ĠØ§ÙĦØ° Ùĩ
ĠØŃ Ø¬Ø²
ĠØ¬Ùħ Ø§Ø¹Ø©
ĠØ§ÙĦÙĦ ÙĬÙĦ
ĠØ§ÙĦÙħØ¨Ø§Ø± Ùĥ
ĠÙĤ ÙħØª
ĠÙĥÙĪØ¨ ÙĪÙĨ
ĠÙĥÙħ Ø¨ÙĬÙĪØªØ±
ĠÙĪ Ø±ØŃ
ØªØ± ØŃ
ÙĪØ¯ Ø§
ĠØ§ÙĦØ§Ùĩ ÙĦÙĬØ©
ĠÙĦÙĬÙĨÙĥØ¯ Ø§ÙĨ
ĠØ§ÙĦØ´ ÙĥÙĦ
ĠÙħØ¹ Ø§ÙĬÙĬØ±
ĠØ§ÙĦØªØŃ Ø§ÙĦÙģ
ĠØ§Ø« ÙĨÙĬÙĨ
ĠØªØµ Ø±ÙĬØŃ
ĠÙĦ Ø§ÙĤ
Ø¨ Ø¹Ø©
ØªØ¨ Ø·Ø©
ĠÙĪØ¬ ÙĩØ©
ĠÙĤ Ø§Ø¨ÙĦ
ĠØ§ÙĬ Ø¬Ø§Ø±
ĠØ³ÙĦ ÙĬÙħ
ĠÙĪØ§ÙĦ Ø§Ùĥ
ĠØ· Ø§Ø±ÙĤ
ĠÙħÙħ Ø«ÙĦ
Ø§ÙĩØ¯ Ø§Ùģ
ĠØ§ÙĦØŃØ± Ø§Ø±ÙĬØ©
Ø±ÙĪ ÙģØ©
ĠØ§ÙħØ±ÙĬÙĥ ÙĬØ©
Ùħ Ùī
ĠØ§ØªØµ Ø§ÙĦ
ĠØ§ÙĦÙħ Ø§Ø±ÙĥØ©
ĠØ§ÙĦØ³ÙĬ Ø·Ø±Ø©
ØªÙħ ÙĥÙĨ
Ùĥ ÙĬÙĥ
Ø¸ Ø§Ùĩ
ĠØ¨ Ø§Ø±Ùĥ
Ø³Øª ÙĩØ§
ĠØ§ÙĦØ³Ø§Ø® ÙĨØ©
ĠØª Ø®Øµ
ĠØ§ÙĦØ§Ø±Ø¯ ÙĨÙĬØ©
ĠØªØª Ø¶ÙħÙĨ
ĠØ§ÙĦÙģ Ø¦Ø©
ĠØ§ÙĦØµ Ø±Ùģ
ĠØ§ÙĦÙĤ Ø§Ø¶ÙĬ
ÙĪÙĨ Øº
ĠØ³ ÙĦØ§ÙħØ©
ÙĪÙģ Ø©
ĠÙħ Ø¨Ø±
ĠØ¹ Ø§Ø´
ĠÙĤ Ø§Ø¦Ø¯
ĠØ§ÙĦÙĦ ÙĩÙħ
ĠÙĤØ± Ø§Ø±Ø§Øª
ĠØ§ÙĦØ³ ÙĬØ±Ø©
ĠØ§ÙĦØ¬ Ùĩ
ĠØ§ÙĦØµ ØºÙĬØ±
ĠÙģÙĬ ØµÙĦ
ĠÙĦ ÙĪÙĥ
ĠØ¨Ø§Ø³ Ø¹Ø§Ø±
ĠØ¹ ÙĬØ³Ùī
ĠØ§ÙĦØ¬ Ø§Ø±ÙĬ
Ġ16 0
ĠÙĪØ§ÙĦ ÙģØ±
ĠØ§ÙĦØ¹ ÙģØ´
ĠØ§Ø° ÙĨ
Ø· ÙĬÙĨ
Ø¯ÙĬ Ùĩ
ĠÙĪÙħÙĨ ØªØ¬Ø§Øª
ĠØ§ÙĦ Ø§Ø¶Ø§ÙģØ©
ÙĪ ÙĬÙĩ
ĠÙħØ³Øª Ø¹ÙħÙĦ
ĠØªØ¹ ØªÙħØ¯
ĠØ§ÙĦØ²Ø± Ø§Ø¹ÙĬØ©
ĠØ§ÙĦØ§ÙĨ ØªØ®
ĠØ§ÙĦÙħØ³ÙĬ ØŃ
ĠØ§ÙĦØª Ø§ÙħÙĬÙĨ
ĠÙĤ ÙĪÙĬ
ĠÙĨÙħ Ø§Ø°Ø¬
ĠØ§ÙĦØ³Ø¯ Ø§Ø³ÙĬ
Ø° Ø§Ø¡
ĠØªÙĨ ÙħÙĬØ©
ĠÙĬÙĨ Ø¨ØºÙĬ
ĠÙĪØ§ÙĦ ØªÙĤ
ĠØ´ Ø§ÙħÙĦØ©
Ø² Ø²
Ø§Ø· ÙĬÙĦ
Ø±ÙĬ Ø¨ÙĬ
ĠØ§ÙĦØ± ÙĪØ§
ĠØ° ÙĪÙĬ
ØªØ¨ Ø§Ùĥ
ĠØ¨Ø¯ ÙĦØ§
ĠØ§ÙģØ± Ø§Ø¯
ĠØ§ØªØ® Ø§Ø°
ĠÙģ Ø±ÙĤ
ĠØ¨Ø§Ø³ Øª
ĠØ§ÙĦÙħØ§ÙĦ ÙĥÙĬ
ĠØ§ÙĦÙħ Ø³Ùħ
ĠØ§ÙĦÙħØ¬ Ø§ÙĨÙĬØ©
Øº ÙĦØ§ÙĦ
ĠØ® Ø§ÙĦÙĬØ©
ĠØ¨Ø§ÙĦÙĤ Ø§ÙĩØ±Ø©
ĠØªÙĦ ÙĤÙĬ
ĠÙĬØ· Ø§ÙĦØ¨
ĠÙĥØª ÙĦØ©
ĠÙĩ ÙĥØ°Ø§
ĠØ³Ø¨ Øª
Ø¯Ø± Ø§ÙĨ
Ø³Øª Ø§ÙĨÙĬ
Ø¦ ÙĨØ§Ùģ
Ø¶Ø± ÙĪØ±Ø©
ĠÙħ Ø¬Ø±Ø¯
ĠØ§Ø±Ø¨ Ø¹
ÙĪØ§Ø± Ø¦
Ø« ÙĬÙĤ
ĠÙĪØªØŃ ÙħÙĬÙĦ
Ø§ÙĩÙħ Ø©
ÙĪØ§Ø¬ Ùĩ
Ø· Ø§Ø¹
ÙĪÙħ ÙĬÙĨ
Ø¹Ø¯ Ø©
ĠØ² Ø¨
ĠØ§Ø® ÙĬ
ÙĬØ² Ø§ÙĨ
ĠÙģØ± ÙĨ
ĠØªØ³ ÙĪÙĬÙĤ
ĠÙģ ÙĦÙħ
ĠØ¨ÙĦ Ø§Ø¯
ĠØŃØ¨ ÙĪØ¨
ĠØ§ÙĦØ³ÙĬÙĨ Ùħ
ĠØ§ÙĦÙħÙĥØª Ø¨Ø©
ĠØ¬ Ùĩ
ĠØ§ÙĦÙĤ ÙĨØ¨
ĠÙģ Ø§ØµÙĦ
ĠÙĪØ§ÙĦ ÙħØ¯
ĠÙģ Ø¦Ø©
ĠØªØ¬ Ø§Ø±Ø©
ĠØ§Ùĩ ÙĦØ§
ĠØµØ¯ ÙĪØ±
ĠØ§ÙĦØ´ Ø§Ø¹Ø±
ĠØ§ÙĦÙĩ ÙĨØ¯ÙĬ
ĠØ§Ø³ØªÙĤ Ø¨Ø§ÙĦ
ĠØ§ÙĦØ³ Ø±Ø¹Ø©
ĠØ§ÙĦÙĦ ØºØ§Øª
Ġ9 2
ĠØŃ Ø¶ÙĪØ±
Ø±ÙĪ ÙĬØ¬
ĠÙħ ÙĤØ¯
Ø§Ø² ÙĪÙĨ
ĠØ§ÙĦÙħØ¬ Ø§ÙĦØ§Øª
ĠØ§ÙĦØ§Ø« Ø§Ø±
ĠØ± ÙĪØ¨
ÙĥÙĦ Ùħ
ĠØ§ÙĦÙĦ ÙĪ
ĠØ§Ø¬ Ø¹ÙĦ
ĠØ¯ÙĪØ± Ø§Øª
ĠØ®Ø¨Ø± Ø§Ø¡
ĠØ´Ø±Ùĥ ØªÙĨØ§
ĠÙħ Ø³ÙĦÙħ
Ø±ÙĪ Ø±ÙĬ
ĠØ§ÙĦÙħØ® ØªØµ
ĠØ§ÙĦÙĥ Ùģ
ÙĨØ¯ Ø³ÙĬÙĨ
ĠÙĨØ³ Ø®
Ø§ÙĪ ÙĬÙĨ
ĠØ§Ø¬Ùħ Ø§ÙĦÙĬ
Ø± Ø§Ùħ
ĠØ§ÙĦÙĦ Ø§Ø¬
ĠØªØ¬ Ø±Ø¨
ĠØªØ® Ø²ÙĬÙĨ
ØªÙĤ Ø¨Ø§ÙĦ
ĠÙģØ± Ø¶
ĠÙĥ Ø¨Ø§Ø±
Ø§Ø± Ø¯Ø©
ĠÙĪÙħ Ø¹Ø¯Ø§Øª
ĠÙħØ³Øª ÙĪÙĬØ§Øª
ĠØ§ÙĦØ·Ø¨ÙĬ Ø¹Ø©
ĠØ¨ Ø·ÙĦ
Ø³ÙĬ ÙĬØ±
Ø· ÙĨØ©
ĠØ§ØªØ¬ Ø§Ùĩ
ĠÙħØª Ùĥ
ĠÙĥ Ø±Ø§Øª
ĠØ¯ ÙĬÙĪØ§ÙĨ
ĠÙĦØ§ ÙĬÙģ
ÙĦ ÙĪ
ĠÙĪØ§ÙĦ ØªÙħ
Ø¹Ø¯ ÙĬØ¯
Ø±ÙĪ Ø§Øª
ĠØ§Ø³Ø§Ø³ ÙĬØ§Øª
ĠØ§ÙĦØ´ Ø¤ÙĪÙĨ
ĠÙĪØ§Ø³ ØªØ®Ø¯Ø§Ùħ
ĠØ§ÙĨ Ø¬ÙĦ
ĠØ³ ØªØŃ
ĠÙĨ ÙĬØ³Ø§ÙĨ
ĠØ§ÙĦØŃÙĤÙĬÙĤ ÙĬ
ĠØ§ÙĦØ§Ø³ ØªØŃ
ĠÙĬ Ø¨ÙĦØº
ĠØ³Øª ÙĥÙĪÙĨ
ĠØ§ÙĦØ¹ Ø¸ÙĬÙħ
Ø´Ø± ÙĪÙĨ
ĠØ³ ÙĬØª
ĠÙĪØ§ÙĦÙħ Øµ
ĠÙĪØ§ÙĦØ« ÙĤ
ĠÙĬ ØªÙģ
Ø± Ø³
ĠØ¬ Ø°
Ø· ÙĪØ·
ĠÙĬ ÙĦØ§
ĠØ§ÙĦØªØº Ø°ÙĬØ©
ĠÙħ ÙĥÙĪÙĨØ§Øª
ĠØ§ÙĦØ¹ÙĤ Ø§Ø±ÙĬ
ĠÙĦÙĨ ÙĤÙĦ
ĠÙĦ ØŃÙħ
ĠØ§ÙĦØ§Ùħ ÙĦ
ØªØ± Ø¶
ÙĬØ¨ ÙĬØ¯ÙĬØ§
Ø§ ÙĩØ§
ĠÙĨ ÙħÙĪ
ĠØ§Ø¶ Ø·Ø±
ĠØª Ø§ÙħÙĬÙĨ
ĠÙĪØ§ ÙĬØª
ĠÙĬØŃ ÙħÙĦ
Ø° Ø§Ø±
Ø« Ø±Ø©
ĠØ§ÙĦÙĪ Ø§ÙĨ
ØªÙĩ Ø§Ø¡
ØŃÙĤ Ø§Øª
ĠØ§Ø¨ Ø¯
ĠØ¯ Ùī
ÙĬØ± ÙĪ
ĠÙģÙĦ ÙĦ
ĠØªØ® ÙģÙĬ
ĠØ§ÙĦÙģ Ø³
ĠØ§ÙĦØ¯ ÙĤÙĬÙĤ
ĠÙħÙĤ Ø§ÙĦ
Ġ18 0
Ø§Ø¨ ÙĬØ¹
ĠØ§ÙĦÙħÙĨ Ø²ÙĦÙĬ
ĠØ¹ Ø§Ø¦ÙĦØ©
ĠÙĪØ® Ø§ØµØ©
Ø¬ Ø§Ùħ
ĠØ§ÙĦÙĬÙħ ÙĨÙĬ
ĠØ§ÙĦ ÙĬØ©
ØªØ¨ Ùĩ
ĠÙħ Ø§Ø¡
ĠÙĦÙĦØ¹ Ø§Ùħ
ĠØ§ÙĦØº Ø±Ø¨
ĠØ§ÙĦØ¹ÙĨ Ùģ
ÙĪÙģ ÙĬ
Ø®Ùģ Ø¶Ø©
ĠØ¯ ÙĤÙĬÙĤ
Ùģ Ùī
ĠÙħ ÙĬØ³ÙĬ
Ġ14 82
ĠØ§ÙĦØªØ§Ø±ÙĬØ® ÙĬØ©
Ø±ÙĬ Ø´
ĠØŃ Ø§Øµ
ĠØ´ Ø¹Ø§Ø±
Ø¹Ø± Ø§ÙĤ
ĠØ« ÙĪØ±Ø©
ĠØŃ Ø±ÙĬÙĤ
ĠØ§ÙĦÙħØ³Øª Ø´ÙģÙī
ĠØ§Ø· Ø¨Ø§ÙĤ
ÙģÙĦ Ø§Øª
ĠØ§ÙĦÙĤ Ø§Ø±Ø¦
ĠÙĬØ¹ ÙĬØ´
Øª Ø§Ùħ
ĠØŃ Ø¸
ĠØªØ¹ ÙĪØ¯
ÙĨ ÙĪØ¨
ĠÙĦ ÙĬÙĦ
Ø¬Ø± Ø§Ùħ
ĠØ§ÙĦØ¨Ø±Ø§Ø² ÙĬÙĦ
ĠØ§ÙĦØŃ Ø§Ø¬
ĠÙħØ¸ ÙĦØ§Øª
ĠØ±ØŃÙħ Ùĩ
ĠØŃ ÙĤÙĤ
ĠØŃ ÙĬØ¯Ø±
ĠØ§ÙĦØ¹ Ø¶ÙĪÙĬØ©
ĠØ§ÙĦØ± Øº
ĠØ®Ø· Ø§Ø¨
ĠØ§ÙĤÙĦ ÙĬÙħ
ĠØ§ÙĦÙĨ Ø§Ø¯ÙĬ
ĠØ§ÙĦØ® Ø´Ø¨
Ġ200 5
ĠØ§ÙĦÙĨ ÙħÙĪØ°Ø¬
ĠØµØŃ ÙģÙĬ
ĠØ§ÙĦØ²Ø± Ø§Ø¹Ø©
ĠØ§ÙĦØ¬ Ø¯Ø¯
ĠØ§ÙĥØª Ø´Ø§Ùģ
ĠØ§ÙĦØ±ÙĪØ³ ÙĬ
ĠØŃ Ø¶Ø±
ĠØ¯ ÙĬØ¨
ĠØ· ÙĪØ§ÙĦ
Ø§Ùĥ ÙĬ
ĠØ§ÙĦÙħØ³ Ø¬Ø¯
ĠÙģ ÙĩØ¯
ĠØ¨Ø± Ø§Ø¨Ø·
ÙģØ± Ø§Øª
ĠØ§Ø³ Ø±Ø§Ø±
Ø§Ø° ÙĨ
ĠÙģÙĬØ¯ÙĬÙĪ ÙĩØ§Øª
Ø§Ùħ ÙĨØ©
ĠÙģ Ø´ÙĦ
ĠØ§ÙĦØª ÙĦÙĤ
ĠØ² ÙĬØ§Ø±
ĠÙħÙĪØ³ ÙĪØ¹Ø©
ĠØ§ÙĦØ®Ø¨ Ø«
Ġ76 94
ĠØµ Ø±
Ùģ Ø§ÙĨ
ĠÙĥØ³ Ø§Ø±Ùĩ
ÙĤÙĦ Ø§ÙĦ
ĠÙĬØ³Ùħ ØŃ
Ø¨ÙĬ Ø§ÙĨ
ĠØ§ÙĦÙĪÙĦ Ø§Ø¯Ø©
ĠØ§ÙĦÙĪØŃ ÙĬØ¯
Ø§Ø¯ ÙĦØ©
ĠØªÙħ ÙĪÙĬÙĦ
ĠØ§ÙĤ Ø³Ø§Ùħ
Ø±Ø¨ Øª
Ġ32 0
ĠÙħØŃ ÙĦØ§Øª
ĠØ§Øº Ø§ÙĨÙĬ
Ø§ÙĦ ÙģØ©
ØªØ§Ø¨ Ø¹
Ø§Ø¨ Ø®
ĠÙĦÙĦ Ø§Ø®
ÙĬÙĨ Ø¬
ĠØ´ Ø§Ø¡
ĠØ§ÙĦÙħØ³Ø¤ÙĪÙĦ ÙĬØ©
ĠØ§Ø±Ø¯ÙĪ ØºØ§ÙĨ
ĠØ¹ Ø¯ÙĬØ¯Ø©
ĠÙħ ØªÙħ
ĠØ®Øµ Ø§Ø¦Øµ
ĠØ§ÙĦÙħØ¯ ÙĪÙĨØ©
ĠÙĬØ³Øª ÙĤØ¨ÙĦ
Ø¶ Ùģ
ĠØ§ÙĦØ§Ø· Ø¨Ø§Ø¡
ĠØªÙĪ Ø¶ÙĬ
ĠØ§ Ø¯ÙĬØ¯
ĠØ§Øµ ÙĪÙĦ
ĠØ§ÙĦÙħÙĦÙĥ ÙĬ
ĠØ§ÙĨ ØªÙĤ
ĠØ§ØŃ Ø¨
Ø§Ùĩ ÙĬ
ĠØ§ÙĦÙħØŃ Ø§ÙģØ¸Ø©
ĠØ§ÙĦØµ ØŃÙĬØŃ
ĠØªÙĤ ÙĨÙĬØ§Øª
ĠØªØ´ Ø§Ø±Ùĥ
Ø§Ø² ÙĬØ©
ĠØ§ÙĦØ§Ø¬ Ø§Ø¨Ø©
ĠØ§Ø¯ÙĬØ¯ Ø§Ø³
ĠØ§ÙĦÙħÙĨ Ø§Ø®
ĠØ³ÙĬÙĨ Ø§Ø¡
ĠÙĪÙĬÙĥ ÙĬØ¨ÙĬØ¯ÙĬØ§
ĠØªÙħ Ø«ÙĦ
Ø§Øº Ø±Ø©
ØŃ Øµ
ĠØ±ÙĪÙħ Ø§ÙĨ
ĠÙĨØ¸ Ùħ
ÙĩØ¯ Ø§Ø¡
ĠØ§ÙĦÙħ Ø°Ùĥ
Ø±ÙĬ Ùĩ
ĠÙĪÙħ Ùħ
ĠØªÙĪÙĤØ¹ Ø§Øª
Ø² Ùĩ
ĠØ§ÙĦØµÙĬÙĨ ÙĬ
ĠØª Ø²ÙĬØ¯
ĠØ§ÙĦÙħØ¹ÙĦ Ø¨Ø©
ĠØ§ÙĦØ§ÙĦ ÙĪÙħÙĨÙĬÙĪÙħ
ĠØª Ø¶Ùħ
ĠØ¬ ÙĬØ¯Ø§
ĠØ§ÙĦØ¹Ø§ÙħÙĦ ÙĬÙĨ
ĠØ§ÙĦØ§Ùħ ØªØŃØ§ÙĨ
Ø§ØŃ Ùĩ
4 4
ĠØ¨ Ø§Øµ
ĠØ§ÙĦØª Ø¶
ĠØ§ÙĤ Ø±Ø¨
Ø· ÙĬÙĦ
ĠØ¨ÙĬÙĨ ÙĩØ§
ĠØ´Ø¹Ø¨ ÙĬØ©
ĠØ§ÙĦÙĨÙĩ Ø§Ø¦ÙĬ
ĠØ³ ÙĦØ©
ÙĦÙģ ÙĦ
ĠØ§ÙĦØ§ØµØ·ÙĨØ§Ø¹ ÙĬ
ĠØ§ÙĦØ¬ÙĨ ÙĪØ¨
ĠØ§Øª Ø´
ÙģØ± Ø¯
ØºØ± Ø§Ùħ
ĠÙģØ¶ÙĦ Ø§
ĠØ§ÙĦØ¯ ÙĪØ§Ø¡
ĠØ§ÙĦØªØ¯ Ø±ÙĬØ³
Ø´ Ø³ØªØ±
ĠÙĪÙĦ ÙĦ
ĠÙĬÙĪÙħ ÙĬ
ĠØ§ÙĦÙĨÙģ Ø³ÙĬ
Ø§Ø± ÙĬÙĪ
ĠØªØµ Ø±ÙĬØŃØ§Øª
ĠÙħ Ø§Ø±Ø¨
ÙĪÙĦ Ùī
ĠÙĤ Ø±ÙĬØ¨Ø§
ĠÙħØ¯ Ø±Ø¨
ĠØ§ÙĦØªÙĨÙģÙĬ Ø°ÙĬ
ĠØ§ØªØ¨ Ø§Ø¹
ĠØŃ ÙĦÙĤØ§Øª
ĠÙħØŃ ÙĦÙĬØ©
ĠØ§ÙĦÙħØŃ Ø±Ùĥ
ĠØ§ÙĦÙĥØ± ÙĪÙħ
ÙĪ Øº
ĠØ§ÙĦØ®Ø· ÙĪØ·
Øµ ÙĬ
ÙĩØ± Ø³
ÙĪ Ø°
ĠØª ÙĪØ¬ÙĬÙĩ
ĠÙĥØ±Ø¨ ÙĪÙĨØ§Øª
Ø± Ø§ÙĦ
ĠÙĬ ÙĪØ±ÙĪ
ĠØªØ¬ Ø§ÙĪØ²
ĠØ¹ÙĦÙħ Ø§Ø¡
ØªÙħ Øª
ĠØ§ÙĦØªÙĥ ÙĦÙģØ©
ĠÙĤ ÙĪØ§ÙĨÙĬÙĨ
Ø§Ø¹ Ø¯Ø§Øª
ĠØ§ÙĦÙħØª Ø§ØŃØ©
ĠØ¹ Ø¶
ĠØ¹ÙħÙĦ Ø§Ø¡
ĠÙģÙĦ Ø§Ø´
7 0
ĠÙĦØ§ØŃ Ø¯
ĠØ§ÙĦØ§Ø³ØªÙģ Ø§Ø¯Ø©
ĠØ§ÙĦÙĩ ÙĬØ¯
ĠÙħ Ø±ÙĬÙħ
ĠØ§ÙĦØµØŃ Ùģ
ĠÙħØ² ÙĪØ¯
ĠØ¨ Ø¶
ĠØ§ÙĦØ¹ ÙĦØ§Ùħ
ĠØ® ÙĬ
Ø§ÙĤ Ùħ
ĠØ§ÙĦØ´ Ùģ
ĠØ§ÙĦÙħ Ø§Ø±ÙĥØ§Øª
ĠÙĨ Ø³ØªØ®Ø¯Ùħ
ĠØ± ÙĬÙģ
ĠØ§ÙĦØ· Ø§Ø¦Ø±Ø©
ĠÙĦ Ø¨ÙĬØ¹
ĠÙĦ Ø§Øº
Ø§Ø¬ ÙĬ
ĠØ§ÙĦØ§Ø® ØªÙĬØ§Ø±
ĠØªØªÙħ ÙĥÙĨ
ĠÙĦÙħ ÙĥØ§ÙģØŃØ©
ĠÙģ ÛĮ
ÙĬØª Ùĥ
ĠØ§ÙĦÙĨ ÙĪØ±
ĠÙĪØ§ÙĦØ§Ø¬ ØªÙħØ§Ø¹
ĠØ¨ÙĨ Ø§Ø·ÙĬÙĦ
ĠØ§ÙĦÙħ ÙĩÙħ
ĠØ§ÙĦØ³ Ø§ØŃÙĦ
Ø§Ùĩ ÙĬØ©
ĠØ§ÙĦÙħØ® Ø¯Ø±Ø§Øª
Ġ25 54
ĠØ§Øº Ø³
2 2
ĠÙĦÙĦ Ø§Ø¨
ĠØ§ÙĦØ§Ø± Ø²
ĠÙĥØ§Ùħ ÙĬØ±Ø§Øª
ÙĬÙħ Ø§Øª
ØºÙĨ ÙĬØ²
ĠØ§ÙĦØŃ Ø§ÙĦ
ÙĪ ÙĩØ±Ø§Øª
Ø§Ø¶ ÙĦ
ÙĪØ³ ÙĬ
ĠØ¨ÙĬÙĨ Øª
ĠØ§ÙĦØ³ÙĦØ§Ùħ Ø©
ĠØ±ÙĪ Ø§Ø¯
ĠØº Ø§ÙĨØ§
ĠÙĪ Ø±Ø¨
ØªØ± ÙģÙĬÙĨ
ĠØªØ¬ Ø§Ø±ÙĬ
ÙħÙĬ ÙĪÙħ
ĠØ§ÙĦØª ÙĩØ§Ø¨
ĠØ¨Ø§ÙĦ ÙĦÙĩ
ĠØ§ÙĦÙħØ·ÙĦ ÙĪØ¨
Ùģ Ùģ
ĠØ± Ø¶Ø§
ĠØ§ÙĦÙģ ÙĪØ²
ÙĬØ´ Ø©
ĠØ¯Ø¹ Ø§Ø¡
ĠØ¨ Ø¬ÙħÙĬØ¹
ĠØ§ÙĦØ³ÙĪ ÙĬØ¯
ĠÙħØ± Ø§ØŃÙĦ
ĠØ±Ø³Ùħ ÙĬØ§
ĠØªØ· ÙĪØ±
ĠÙĦØ¯ÙĬ ÙĩÙħ
ĠØªØ¯ Ø¹ÙĪ
ÙĪ ÙĬÙģ
ĠØ§ÙĦÙħ ÙĪÙĦØ¯
ĠØªÙĤ ÙĪÙĦ
ĠØ¨Ø§Ùħ ÙĥØ§ÙĨ
ĠÙĦÙĦ Ø²
ĠØ®Ø¨Ø± Ø©
ĠØ§ÙĦÙĥ ÙĬÙħÙĬØ§Ø¡
Ø¯Ø§Ùħ Ø©
ĠØ§ÙĦØ§ÙĪØ± Ø§ÙĤ
ĠØ§ÙĦØ¬ÙħÙĬÙĦ Ø©
ĠØŃØ§Øµ Ø¨Ø§ÙĨÙĬ
ØªØ± Ø§Ùģ
ĠÙĦ Ø¶ÙħØ§ÙĨ
Ø« ÙĬÙĦ
Ø¹ÙĦ Ø§Ùħ
ØŃ Ùģ
ĠÙĥ Ø§Ùģ
ĠØ§ÙĦÙĨÙģØ· ÙĬØ©
Ø§ ÙĬÙģ
ĠØ§ÙĦØ§ÙģØ±ÙĬÙĤ ÙĬØ©
ĠÙĪØ§ÙĦ Ø±ÙĬØ§Ø¶
ĠÙĩ Ø¯
ĠØ§ÙĦÙĥÙĨ ÙĬØ³Ø©
ĠØ§ÙĦØµ Ø¯Ø±
Ġ9 8
ĠÙħÙĤ Ø§ÙĪÙħØ©
ĠÙĤ ÙħØ©
ĠÙĥÙĦ ÙĩØ§
ĠØ§ÙĦÙħØª Ø¬Ø±
ĠÙĦÙĪ ØŃØ§Øª
ĠÙĬØµ Ø¯Ø±
ĠÙĬ Ø®Øµ
Ø¦ Ø§Ø¨
ĠØ§ÙĦÙģ Ø§Øª
ĠØ§ÙĦÙĨ Ø§ÙĤÙĦØ©
ĠÙĬØŃ Ø¨
ĠØ§ÙĦØª Ø±Ùħ
ĠØ§ÙĦØ§ ÙĬÙħØ§ÙĨ
ĠØ§ÙĦØ§Ø¯ ÙĨÙī
ĠÙħÙĦØ§ØŃ Ø¸Ø©
ĠØ³Ø§Ø® ÙĨ
Ùħ ÙĪÙĨ
ĠØ§ÙĦØªØµ ÙĪÙĬØ±
ĠÙĬ Ø±Ø¯
ĠØ§ÙĦØ¯ Ø±Ø¬Ø©
ĠÙĦÙĦ ØªØ±
ĠØ§Ø³ØªØ®Ø¯Ø§Ùħ Ùĩ
ĠÙĪØ§ÙĦØ§ÙĤ ØªØµ
ĠÙĥ ÙĪØ±Ø©
ĠØ§ÙĦÙĦ ÙĬÙħÙĪÙĨ
ĠØ§ÙĦØ§ØŃ Ø¬Ø§Ø±
ĠØ§Ø³ Ø±Ø©
ĠØŃ Ø¬
ĠÙħØ¯ÙĬØ± ÙĬØ©
ĠØ¹ÙĤ Ø¨
ĠÙĤ Ø§Ø¨ÙĦØ©
ÙĤ Ùģ
ĠØ§ÙĦØµÙĨØ§Ø¹ Ø§Øª
ĠØ± Ø§ÙĬØª
ĠØ§ÙĦØ´Ùĩ ÙĬØ¯
ĠÙĪØ¨ Ø¹
Ùĩ ÙĪÙĦ
ĠÙĪØ§ ÙĩÙħ
ĠØ§ÙĦØ«Ø§ÙĨ Ùī
ĠØ´ Ø§Ø±
ĠØ§ÙĦÙĨ Ø´Ø±Ø©
ĠØ§ÙĦØ§Ø¯ Ø§Ø¨
ĠÙħ ÙĩÙħØ§
ĠÙħØ· Ø±ÙĤØ©
ĠØ§ÙĦØ§ØŃ ÙĥØ§Ùħ
ĠØ¨ Ø²
ĠØ¬ Ø±Ø§Ø¡
ĠÙĤØ¨ ÙĪÙĦ
ĠØªØªÙħ ÙĬØ²
ĠÙĨ Ø¹ÙħÙĦ
ĠØªØ® Ø·ÙĬØ·
ĠØ§ÙĦØªÙĪ Ø¸ÙĬÙģ
ĠØ§ÙĦØª ÙĤÙĬÙĬÙħ
ĠÙĪÙĥÙĬÙģ ÙĬØ©
ĠØ¶ØŃ Ø§ÙĬØ§
ÙĪ ÙĩØ§
ĠØª Ø§ØªÙĬ
ĠÙĪÙħ Ø¤
ĠÙĪØ§ÙĦ Ø¬Ø±
ĠÙĪØ² ÙĨ
ĠØ§Ø« ÙĬÙĪØ¨ÙĬØ§
Ø§ÙĦ ØªÙĩ
ĠÙĦ Ø§Ø±
Ø´ Ø§Ø¯
ĠØ§ÙĦÙĥ ÙĬÙħÙĬØ§Ø¦ÙĬØ©
ĠÙħØŃÙħ ÙĪÙĦØ©
ĠÙĦÙĦ ØªØ¬Ø§Ø±Ø©
ĠØ§ÙĦØªØ· ÙĪÙĬØ±
ĠØ¹ÙĤ Ø§Ø±Ø§Øª
ĠØ± Ø¹Ø§ÙĬØ©
ÙĬØ¨ Ø§
ĠØµØŃ ÙģÙĬØ©
ĠØ§ÙĦØ§Ø² ÙĩØ±
ĠØ¯ÙĬÙĥ ÙĪØ±
Ġ8 3
ĠØ® Ø±ÙĪØ¬
ĠØ§ÙĦÙģ Ø¶Ø§Ø¡
ĠØ§ÙĦØ· ÙĬ
ĠØ§ÙĦØ´ Ùħ
ĠØªØ³ Ø¬ÙĦ
Ø® ÙĬÙĨ
ĠÙĪÙĬ Ø³Øª
ÙĬØ² Ø§ÙĨÙĬØ©
ĠØ¹ ÙĪ
ĠØ§ÙĦØ§Ø³Ø±Ø§Ø¦ÙĬÙĦ ÙĬØ©
Ø§Ùģ ÙĦØ©
ĠØ®Ø· Ø·
ĠØ§ÙĦÙģ ÙĥØ±ÙĬØ©
Ùħ Ø§Ø·
ĠØ§ÙĦÙģ Ø·Ø±
ĠØ§ÙĦØ¬Ø²Ø§Ø¦ Ø±ÙĬØ©
ĠØª ÙĬØ´
ĠØ§ÙĦØ§Øª ØŃ
ĠØ³Ùħ ÙĬØ±
ĠÙĥÙĩØ±Ø¨ Ø§Ø¦ÙĬØ©
ÙħØª Ø¹
ĠØ§ÙĦÙĦ Ø¹Ø¨
ĠÙĪ ÙĬÙĪ
ĠØªØ« Ø¨ÙĬØª
ĠÙĦ Ø´Ø±Ø§Ø¡
ĠØ±ÙĪ Ø§Ø¨Ø·
ĠØ§ÙĦØ¹ÙĦØ§Ùħ Ø§Øª
Ø² ÙħØ©
ĠØ§ÙĦØ¬ Ø§Ùĩ
ÙĬ Ø°
ĠÙĪØ¨ ØŃ
ÙĪÙģ ÙĬØ©
ĠÙħØª Ø®ØµØµØ©
ÙģÙĪ Ø¶ÙĬØ©
ĠØ¬ Ø±Ø§Ø¦Ùħ
ĠØ¯ Ø¨
ĠÙĬÙħ Ø«ÙĦ
ĠÙħ ØªØ¬
ĠØ§ÙĦØ®Ø¨Ø± Ø©
ĠØ§ÙĦÙĤ ÙĪÙī
ĠØ§ÙĦØ§ÙħÙĬØ± ÙĥÙĬ
ĠÙĩ ÙĪØ§
ĠØ´ ÙĬØ±
ĠØ§ÙĦØ¨ÙĪ ÙĥØ³
ĠØ§ÙĦØ± Ø¨
ĠÙĪÙĤ Ø§ÙĦØª
ĠØªÙĥ ÙĪÙĬÙĨ
ĠØ¹ ÙĩØ¯
ĠÙĪ Ø¬Ø±
ĠØ§ÙĦÙħØ³ Ø§Ø±
ĠØ§ÙĦØ§Ø³ Ø¨
ĠÙħÙĩ ÙĨØ¯Ø³
ĠØªÙĪÙĥ ÙĬÙĦ
ĠÙħÙĨ Ø§Ø¬Ùħ
ĠØ§ÙĦÙĨ Ø®
ĠØ² Ø§Ø¦Ø±
ØªØ¯ Ø¦ÙĬÙĨ
ĠØ± Ø©
Ø§ÙĪ Ø¶Ø§Øª
Ø§Ø²ÙĦ Øª
ĠÙħØ§ÙĦ Ùĥ
ĠØ¶Ø¹ Ùģ
ĠÙĪØ§ÙĦ Ø¨ØŃ
ĠØ§ÙĦØ³ ÙĬØ¯Ø©
ĠØ§ÙĦØ§Ø² Ø±ÙĤ
ĠØª Ø±Ø¨ÙĬØ©
ĠÙĪØ§ÙĪ Ø¶ØŃ
ÙĪØ² ÙĬØ±
Ġ35 0
ÙĬØª ÙĬÙĨ
ĠØ§ÙĦÙħØª Ø§Ø¬Ø±
ĠØ§ÙĦØ¨Ø±ÙĬØ· Ø§ÙĨÙĬ
4 9
Ø§Ø· Ø§Øª
ĠØŃ Ø¨ÙĬØ¨
ĠÙĥÙĦ Ø§
ĠØ¨Ø±ÙĬ ÙħÙĬÙĪÙħ
ÙĪØ±ÙĬ Ø¯
ĠØ§Øµ Ø¯Ø§Ø±Ø§Øª
ĠÙĪÙħÙĨ ÙĩØ§
ĠØ¹ÙĨ Ø§ÙĪÙĬÙĨ
ĠØ² Ø§ÙĬØ¯
ĠØ§ÙĦØ§Øµ Ø¯Ø§Ø±
ĠØ§ÙĦØªÙĤ Ø¯Ùħ
ÙĨ ÙĪØ§Øª
ĠØ´ Ø§Ùĩ
Ø§Øº Ø©
ĠØ§ÙĦØ³Ø§Ø¯ Ø³Ø©
1 3
ĠØ¶ Ùħ
ÙħÙĨ ÙĬ
ĠØ§ÙĦØ§Ø¨ Ø¹Ø§Ø¯
ĠØ¨Øª ÙĤØ¯ÙĬÙħ
Ø§ÙĦ ÙĦÙĩ
ĠØ§ÙĦØ³ÙĬØ± Ø§ÙħÙĬÙĥ
ÙĬÙĥ Ùħ
ĠØ§ÙĦØ±ØŃ ÙĦØ§Øª
ĠÙĪØ§ÙĦ Ø°
ĠÙħÙĦ Ø¹Ø¨
Ø± Ùĩ
ĠØ§ÙĦØ¨Ø· ÙĪÙĦØ©
ĠØ§ÙĦØ§Ø³Ùħ Ø§Ø¡
ĠØ§ÙĦÙħ ÙĤØ±
ĠØ¨ØŃ Ø¶ÙĪØ±
ĠØ§ÙĦÙĤ ØµØ©
ĠØ¨ÙĪØµ Ø©
ĠÙĪ Ø¬ÙĦ
ĠØ§Ø® Øµ
ĠØ§Ø¹Ø¯ Ø§Ø¯ÙĬ
ĠØ¹ ÙĪØ¯
ĠÙħÙĨ Ø§ÙĤØ´Ø©
Ø§Ø¨ ÙĬØ¨
ÙĪÙģ Øª
ĠØ§ÙĦÙħ Ø§Ùĥ
Ø§Ø¦ ÙĩÙħ
ĠØªØ¤ ÙĥØ¯
ĠÙ± ÙĦ
ĠØŃ Ø±Ùģ
ĠÙħØ§ ÙĬÙĥ
ĠØªØµ Ø¨ØŃ
ĠÙĪÙħ Ø®
ĠØ§ÙĦØ§Ø· ÙĦØ§ÙĤ
ĠØ§ÙĨ ÙģØ³
ĠØ¨Ø§ÙĦ Ø§Ø¹
ĠØ§ÙĦØ¨ Ø®
ĠØ´ Ø¤ÙĪÙĨ
ĠØ§ÙĦØª Ø²Ø§Ùħ
ĠØ§ÙĦÙģ Ø¬
ĠÙĨØ¯ ÙĪØ©
Ø· Ùī
ĠÙĪØ§ÙĦ Ø§Ø´
ĠØ§ÙĦØ« Ø§ÙħÙĨ
Ø§Ø¹Ø¯ Ø§Ø¯
Ùģ Øª
ĠØ§ÙĦÙħØŃ Øª
ÙħØ§ÙĦ ÙĬ
ĠØ§ÙĦÙħÙĨ Ø§Ùģ
ĠØ§ÙĦÙħÙĨ ØºÙĨÙĬØ²
Ġ67 9
ĠÙĪ ÙĬØ¯
5 5
ĠØ§ÙĦØ« ÙĤØ©
ĠÙĥÙĦ ÙĬÙĨ
ĠØ§ÙĦØ§Øª Ø¬Ø§Ùĩ
ĠØ§ÙĦØ§Ø¯ Ø§Ø±ÙĬ
ÙĪØ± Ùī
ÙĦÙĥ ÙĬØ©
ĠÙĪØ§ÙĦØª Ø´
ĠØ§ÙĦÙĨÙĬ Ø§Ø¨Ø©
ĠØ¨Ùģ Ø¶ÙĦ
ĠØ§ÙĦØªÙĤÙĦ ÙĬØ¯ÙĬØ©
ĠÙħØŃ Ø±ÙĥØ§Øª
ĠØ§ÙĦÙģÙĨØ§ÙĨ Ø©
ĠØª Ø§ÙĬÙĦ
ĠØ§ÙĦÙĦØ§Ø¬ Ø¦ÙĬÙĨ
ĠØ§ØŃ ØªÙĬØ§Ø¬Ø§Øª
ĠØ§ÙĦØŃÙĪØ« ÙĬ
ĠØ§ÙĦÙĨ Ø§Ø´
Ġ7 00
ĠØ§Ø¯ Ø§Ø±ÙĬØ©
ĠØ²Ø± Ø§Ø¹Ø©
ĠØ¨Ø§ÙĦØª Ø¹Ø§ÙĪÙĨ
ĠÙĪØ§ÙĦ Ø¹ÙĦÙĪÙħ
ĠÙĪÙĩ ÙĦ
Ø§Ùħ Ùĩ
ĠÙħØªÙĪ Ø³Ø·Ø©
ĠØ§ÙĦØ¨ÙĦØ¯ Ø§ÙĨ
ĠØ§ÙĦÙħØ³ Ø¦
ĠØ¯Ø§ ÙĪØ¯
Ø§ÙĦ ÙĬØ§Øª
ĠÙĪØ§ÙĦ ØªØ®
Ø² ÙĤ
ĠØ§ÙĦÙħÙĪ Ø§ÙģÙĤØ©
ĠÙĪØ§ÙĦ Ø§Ø«
ĠØ§ÙĦØ§ÙĨ Ø´Ø·Ø©
ĠØ§ÙĦØ¶ ÙĪØ¡
ĠØ§ÙĦØ§Ùĥ Ø³
ĠØ§Ø³Øª Ø¶Ø§ÙģØ©
ĠØ§ÙĦØ§Ø² ÙĬØ§Ø¡
ĠØ§ÙĦØŃ Ø²Ø¨
ĠØ§ÙĦÙĪ Ø³ÙĬØ·
ĠÙĬÙĦ ØªÙĤÙĬ
ĠÙħØ³ Ø§Ø±
ĠÙĪØ² ÙĬØ±Ø©
ĠÙħØ¬ Ø§ÙĦØ§Øª
ĠÙĨÙĤ Øµ
ĠØ¨ ØªØ±
ĠØª Ø¨ÙĦØº
ĠÙĦÙĦØª Ø¹ÙĦÙĬÙħ
Ø§Ø±Ø¯ ÙĨ
Ø§ÙĨ ÙĪ
ĠØ§ÙĦØ¬Ùħ Ø¹
ĠÙĨØ¸ Ø±Ø©
ĠØ§ÙĦÙĤ Ø³
ĠÙĥÙĩØ±Ø¨ Ø§Ø¡
ĠØ§ÙĦØ§Ø³ Ø§Ø³
ĠÙħÙĨ Ø³
ĠÙĤ Ø§Ø±
ĠØ§ÙĦÙħÙĩ Ø¯ÙĬ
ĠØª ÙĪØµ
ĠÙħØ´ Ø§ÙĩØ¯
ĠØ ¤
ĠÙģÙĩ Ø°Ø§
ĠØ§ÙĦØ· Ø±Ùģ
ĠØ§ÙĦÙĤ ÙĪÙħÙĬ
ĠÙĦØª Ø¶Ùģ
Ùĩ ÙĬÙĦ
ĠØ¹ Ø§Ø¦ÙĦ
ĠÙħØ¯ ÙĨ
ĠØ§Ø³Øª ÙĩÙĦ
Ġ19 0
ĠØªØ³Ùħ ØŃ
ĠÙĪØ§ÙĨ Ùĩ
ĠØªØ® ØªÙĦÙģ
ĠÙħØ² Ø§ÙĬØ§
ĠØ§ÙĦØ§ÙĤ ØªØ±
ĠØ§ÙĬÙĤ Ø§Ùģ
ĠÙħØ¬Ø§ÙĦ Ø³
ĠØ§ØŃ Ø³ÙĨ
ĠÙĬØªØŃ Ø¯Ø«
ĠØ§ÙĦÙĨÙĩ Ø§Ø¦ÙĬØ©
ĠÙĬØ² Ø§ÙĦ
ĠÙħØ¬Ùħ ÙĪØ¹Ø§Øª
ĠØ® Ø¨
ÙĦÙģ Ø§Øª
ĠØ§Ø®Ø± ÙĬÙĨ
ÙĤ ÙĪÙĦØ©
ĠÙĪ Ø§Ø¦ÙĦ
ĠÙħØ¹ ÙĬÙĨ
ĠÙĪØ§ÙĦ ØªØ¬
ĠÙħÙħØ§Ø± Ø³ØªÙĩØ§
ĠÙĪ Ø¨ÙĦ
ĠØ³ ÙħÙĪ
ĠØ§ÙĦØª Ø³Ùħ
ĠÙĪÙħ Ø¯
ĠÙĪØ§ÙĦØª Ø·ÙĪÙĬØ±
ĠÙĪØ§Ø¶ ØŃ
ĠÙĤ Ø±ÙĬØ¨
ĠÙĤ ØµØ±
ĠØ³ÙĨ Ú¯
ĠÙĪØ§ÙĦØ¹ ÙĨÙĪØ§ÙĨ
ĠØ§ÙĦØŃÙĬÙĪ ÙĬØ©
ØªØµ Ø§Ø¨
ÙĬØ±ÙĬ Ø³Øª
Ø§ÙĦ Ø±
ĠØ§ÙĦØªØ® Ø·ÙĬØ·
ĠØ¯Ø§Ø® ÙĦÙĬØ©
ĠÙĦØªØ¬ ÙĩÙĬØ²
ĠØ¨ÙĦ Ø§Øº
ĠÙĤ ÙĬØ§Ùħ
ĠÙĪÙĤ Ø¹
Ø· ÙĬÙģ
Ø¹Ø± Ø¨ÙĬ
Ø§ÙĪ ØŃ
ĠÙĬØ¹ ØªÙħØ¯
ĠØ³ÙĬ Ø§Ø³ÙĬ
ĠÙĪØ§Øª Ø³
ĠØ§ÙĦÙħ ÙĩÙħØ©
ĠØ§Ø® ØªØ¨Ø§Ø±Ø§Øª
ĠØ§ÙĦØ¬ ÙħÙĦØ©
ĠÙħØª Ø·ÙĦØ¨Ø§Øª
ĠÙĬÙħÙĥÙĨ ÙĨÙĬ
ĠØ§ÙĦÙĦÙĤ Ø§Ø¡
ĠØ§ÙĦÙĪ Ùĥ
ĠÙĦÙĦÙħ Ø²ÙĬØ¯
ĠØ§ÙĦÙħØ±ÙĥØ² ÙĬØ©
ĠØºØ± Ø§ÙħØ©
ĠØ³ Ø¹Ø©
ĠØ§Ùĥ ØªØ¨
ĠØªÙħ ÙĪØ²
ĠÙĦÙĦ Ø¬ÙħÙĬØ¹
ĠÙĪ ÙĪÙģ
Ø§ÙĨÙĬ Ùĩ
ĠÙħÙĪ Ø«
Ø³ ÙĪ
ĠØª Ø±Ø¨
6 6
ĠØ§ÙĦÙħØ¹Ø¯ Ø©
ĠØ® Ø´
ĠØ§ÙĦÙħÙĪ Ø¸ÙģÙĬÙĨ
ĠØ§Ø· Ø¨Ø§Ø¡
ĠØ§ÙĦØª Ø¬ÙħØ¹
ĠØª ØªØ®
ĠØ§ÙĦØ®Ø· ÙĪØ©
4 7
ĠØ¹ÙĦ ÙħÙĬØ©
ØªÙĩØ§ ÙĥØ§Øª
ĠØ¬Ø¯ ÙĪÙī
ÙĬ ÙĩØ§
ÙĬØª Ø¯
ÙĨ ÙĪ
ĠÙĤ ÙĬØ¯
ÙĬÙĪ Ø§ÙĨØ§Øª
ĠØ¨Ø§ÙĨ Ùĥ
Ġ ÙĬØ©
ĠØ³ ÙĩÙĦ
Ø§Ùħ Ø±Ø©
ĠÙĬÙĪÙħ ÙĬØ§Øª
ĠØ§ÙĦØ¬ ÙĪÙĦØ©
ĠØ§ÙĦÙĤ Ø§Ø¦Ùħ
ĠØ§ÙĦØ§Ø¯ Ø¨ÙĬØ©
ĠØ·ÙĨ Ø¬Ø©
ĠØ§ÙĦÙĬÙħ ÙĨÙĬØ©
Ø° ÙĬØ±
ĠØŃØ¯ÙĬØ« Ø©
ĠØ§ÙĦØ§Ø³ Ø¨Ø§ÙĨÙĬ
ĠØ§ÙĦØ§Ø± ÙĤØ§Ùħ
ĠØ§ÙĦØ¹ÙĤ Ø§Ø±ÙĬØ©
ĠÙĥØ§Ùħ ÙĬØ±Ø§
Ùģ Ø§Ø±
ÙĨ Ùħ
Ø¹ Ø§Ùģ
Ġ14 42
ĠÙĦÙĦÙħ Ø¨
Ø¯ Ø§Ø¡
ĠØ§ÙĦØ³ ÙģÙĬØ±
ĠÙĬÙħÙĥÙĨ ÙĨØ§
ĠØ§Øº ÙĦØ¨
ĠØ§Øµ Ø§Ø¨Ø§Øª
ĠØ¨Ø²ÙĬ Ø§Ø±Ø©
ĠØ§ÙĦÙĪÙĤ ÙĪØ¯
ĠØ§Ø³Øª Ø«
ĠØ§Ø¶ Ø±Ø§Ø±
ĠØ§ÙĦÙħÙĩ ÙĨÙĬ
ĠÙĦÙĦØ¨ Ø´Ø±Ø©
ĠØ¨ÙĬÙĨØª ÙĬØ±ÙĬØ³Øª
ĠØ§ÙĦØ· ÙĪ
ĠØ± Ø¶
ĠØ§ÙĦØ¯ Ø§Ø®ÙĦ
ĠÙĤØ¯ ÙĬÙħ
ĠÙģ Ø§Ø·
ĠØªØ¹ÙĦÙĬÙħ ÙĬØ©
ĠÙĪØ§Øµ Ø§Ø¨Ø©
ĠØ¨ØŃ Ø±
Ø«ÙħØ± ÙĬÙĨ
ĠÙĩÙĨØ¯ Ø³Ø©
ĠØ· Ø¹Ø§Ùħ
ĠØ§ÙĦÙĨÙģ Ø§ÙĬØ§Øª
ĠØ§ØŃ ÙĬØ§Ø¡
ĠØ§ÙĦØ¨ØŃ ÙĪØ«
ĠÙĦ ÙĬØª
Øº ÙĪØ·
ĠØ§ÙĦÙģ Ø¶Ø©
ĠØ®ÙĦ ÙĬÙģØ©
Ø·Ø¨ Ø§Ø¹Ø©
ĠØ¨Ø§ÙĦØ´ Ø¹Ø±
ĠØ¨ Ø³ÙĬØ·
ĠØ§ÙĦØ¬ ÙĬØ±
ĠØ§ÙĦØ§ÙĦ ØºØ§Ùħ
ĠÙĤØ¨ ÙĬÙĦØ©
ĠØ§ÙĦØ¯ Ø§Ø±
Ġ12 5
ĠØ§ÙĦØ· Ø¨Ø¹
ĠÙĪÙģ ÙĬØ§Øª
ĠØªØ±Ùĥ ÙĬ
ĠØ§ÙĨ Ø¨ÙĪØ¨
ĠØ§ÙĦÙħØ¹ ÙĩØ¯
ĠØ´Ø¨ ÙĥØ§Øª
ĠØŃ Ø¯Ø¯
ĠØ§ÙĦØ§Ø· Ø¹ÙħØ©
ĠÙĦ ÙĪÙĦ
Ø§Ø¯ Ø§
ĠØªØ± Ø¯Ø¯
Øº Ø§
ĠØ§Ø³ Ø§Ø³ÙĬ
ĠØ§ÙĦØ§ÙĬØ· Ø§ÙĦÙĬØ©
ĠÙģÙĬØª Ø§ÙħÙĬÙĨ
ĠØ§ÙĦØ´ Ø§Ùħ
ĠØŃÙħ Ø§Ø³
Ø°ÙĥØ± Ùī
Ø§Ø´ ÙĬ
ĠØ§ÙĦÙħØŃ ÙĬØ·
ĠØ§ÙĦØ¯Ø± Ø³
ĠØ¨ÙħÙĨ Ø·ÙĤØ©
ĠØªÙĦÙģ Ø²ÙĬÙĪÙĨ
ĠÙħØ±Ø§Ø¬ Ø¹Ø§Øª
ĠÙħÙĤ Ø¯Ùħ
Ġ76 5
ĠØ³ ÙĥØ±
ĠØ³ Ø§Ø¹Ø¯
ĠØŃ Ø§Ø¬
ĠÙħØ³ ÙĬØ±Ø©
ĠÙħ Ø¨ÙĬØ¹
ĠÙĥØ³ Ø±
ĠÙĦÙĦÙħ Ø±Ø©
ĠØ§ÙĦØªÙĦÙĤ Ø§Ø¦ÙĬ
ĠØ§Ø± Ø¯
ĠÙĦÙĥÙĨ Ùĩ
ĠÙħÙĪ Ø§Ø¹ÙĬØ¯
ÙĬØ¬ ÙĬ
ĠØ§ÙĦØ§Ø¬ Ø§ÙĨØ¨
ĠØ§ÙĦØ¹ Ø°
ĠØ§ÙĦÙģÙĬØª Ø§ÙħÙĬÙĨØ§Øª
ĠØ§ÙĦØ§Ø· ÙĦØ§Ø¹
ĠØ§ÙĦÙĨÙĪ ÙĪÙĬ
ĠØ§ÙĦØ¹ ÙĤØ¯
ĠØ§ÙĦØ· Ùģ
ĠÙħØ³ Ø±ØŃ
ĠØ§ÙĦØ¨ÙĦ Ø§Ø³ØªÙĬÙĥ
ĠÙĨ Ø§ØŃÙĬØ©
ĠØ§Ø® Ø¨Ø±
ĠÙĬ Ø¹ÙĦÙħ
ĠØº ÙĦ
ĠÙĪ Ø®Ø¯ÙħØ§Øª
Ø³ ÙĪÙĤ
ĠØ§ÙĦØ¬Ø§Ùħ Ø¹ÙĬØ©
ĠØ§ÙĦÙĤ Ø·Ø±ÙĬØ©
ĠÙħÙĨ Øª
ĠØª ÙĪÙħÙĬ
ĠØ® Ø±Ø¬
ÙĪØ±ÙĬ ÙĪØ³
ĠØªØŃ Ø§ÙĪÙĦ
ĠÙĪØ§ÙĨ ÙħØ§
ĠØ³Øª Ø§Ø±
ĠØ§ÙĦØª ÙħØ±
ĠØ¨Ø§ÙĦ ØªÙģ
Ø³ ÙĪÙħ
Ø² ÙĪ
ĠØ´Ø®Øµ Ø§
Øµ ÙĦØ©
ĠØ¨Ø§ÙĦ ØªÙĪ
ĠØ§ÙĦÙĤ ÙĪØ§ÙĨÙĬÙĨ
ĠØ§ÙĦØªØ§Ø³ Ø¹
Ø§ ÙĪØ©
ĠÙģ ØŃÙħ
ĠØ±ÙĪØ§ ÙĬØ§Øª
ĠÙĪØ§ÙĦ Ø¹ÙĦ
ĠØ¨Ø± ÙħØ¬Ø©
Øº Ø±ÙĤ
ĠÙĬÙĨ Ø§
ĠØ±Ø³Ùħ ÙĬØ©
ĠØº ÙĬØ§Ø¨
ÙģØ± Ø¶
ĠÙĨ Ùĥ
ĠØ§ÙĨ Ø¬Ø§Ø²
ĠØ§ÙĦÙħØ± Ø¬
ĠØªÙĨ ÙģÙĬ
ĠØ§ÙĦÙĤ Ø¶ÙĬØ©
ĠØ§ÙĦØ« ÙĨØ§Ø¦ÙĬØ©
ĠÙħØ· Ø§ÙĦØ¨
2 00
ĠØ¬ ÙĬØ¨
ĠØŃØ± Ø§Ø±Ø©
ĠØ§ÙĦØªÙģ ÙĥÙĬØ±
ĠØµÙģ ÙĤØ©
Ø³ÙĬ Ø¬
ĠÙĦ Ø§Ø¯Ø§Ø±Ø©
ĠØ§ÙĦØ´ Ø§ÙħÙĦ
ØªÙħ Ø§ÙĦ
Ø§Ø² Ø§ÙĨ
ĠØ§ØŃ ÙĦÙī
ĠÙĬÙħÙĥÙĨ ÙĥÙħ
ĠØ®ÙĦ Ø·
ĠØ§ÙĦÙĨ ÙĩØ§ÙĬØ©
ĠØ´Ø±Ùĥ Ùĩ
ĠÙĬØ¯ Ø¹Ùħ
ĠØ® ÙĦÙĬÙĦ
ĠØ¨ ÙħØ¯
ĠØ´ÙĬ Ø¦Ø§
ĠØ§ÙĦÙĪØ³Ø· Ùī
ĠÙħ Ø¨ÙĦØº
ĠØ§ÙĦØ´ ØªØ§Ø¡
ĠÙħÙĪ Ø¸Ùģ
ÙĥØª ÙĪØ±Ø©
Ø¶ Ø¨
ĠØ¨Ø§ÙĦØ¶ ØºØ·
Øª ÙĥÙħ
ĠØ¹ Ø§ÙĦ
ĠÙħÙĨ ØªØµÙģ
ĠÙħØ³ Ø¬ÙĦ
87 79
ĠÙĦØª ÙĤ
Ø§Ø¯ÙĬ Ø´
ĠØ²ÙĪØ¬ ØªÙĩ
ØªØ¨ Ø§Ùĩ
ĠØ§ÙĦØ§ØŃ ÙĬØ§ÙĨ
Ø³Øª ÙĪÙĨ
ĠÙĪÙĨ ÙĤÙĦ
ĠØ§ÙĦØ§ÙĦÙħ Ø§ÙĨÙĬ
Ø¨ÙĤ Ùī
99 8779
ĠØ§ÙĦØ¨ØŃ Ø±ÙĬ
ĠØ§ÙĦÙħØ³Øª Ø´ÙģÙĬØ§Øª
ĠØ§ÙĦØŃØ± ÙħÙĬÙĨ
ĠÙģ ÙĤÙĩ
Øµ ÙĪØ±Ø©
ĠÙģ Ø±ÙĬØ¯
ĠÙĤ Ø§Ø¯Ø±
ĠØ§Ùħ Ø§Ø²ÙĪÙĨ
ĠØªØ± Ø¯
ĠÙħÙħØª Ø§Ø²
ĠØ³Ùĩ ÙĪÙĦØ©
ĠÙħ ÙĥÙĪÙĨ
ĠÙģÙĬ ÙĦØ§
ĠØ§Ø³ Ø±
ĠØ§Ø³Øª Ø¨Ø¯
ĠØ§ÙĦØ´ Ø§ÙħÙĦØ©
ĠÙħÙĨØ² ÙĦÙĥ
ĠØ§ÙĦÙģÙĬØ³ Ø¨ÙĪÙĥ
ĠÙģ Ø§ÙĬØ±
ĠÙĨ ÙĪÙĨ
ĠØ¯ ÙĪØª
Ġ14 0
ĠØ§ÙĦØ§Ø¨ Ø¯
ĠØ§ÙĤ ØµÙī
ĠØ§ÙĦØ´Ø¨ ÙĥØ§Øª
ĠØ² ÙģØ§Ùģ
ĠÙĦÙĦØ´ ÙĬØ®
ÙĤ Ø§Ø¡
ĠØ§ÙĨ ØªØ±
ĠØ§ÙĦÙħØ® Ø§Ø·Ø±
ĠÙĦÙĦØª Ø§ÙħÙĬÙĨ
ĠØ§ÙĦØ¹Ùħ ÙĪÙħÙĬØ©
Ġ66 998779
ĠÙģÙĬ Ùħ
ĠØ§ÙĪÙĦ Ø§Ø¯
Ø¬ÙĦÙĬ Ø²ÙĬ
ĠØŃÙħØ¯ ÙĪÙĥ
ØªØ§ ÙĪÙī
ĠØ§ÙĦØ§Ø¹ Ø¯Ø§Ø¯
ĠÙħØ§ÙĨ Ø´Ø³ØªØ±
2 9
ĠØ¨Ø§ÙĦÙħ ØºØ±Ø¨
ĠÙĨÙĪÙģ Ø±
ĠØ¹ Ø¯ÙĨ
ĠØ´ Ø±Ø·
ĠØ§ÙĦØª ÙĤØ¯ÙĬÙħ
ĠÙĨ Ø§Øª
ĠØ§ÙĦØªØ± Ø§Ø«
ĠØ§ÙĦØª ÙĪÙĨØ³
ÙĬÙħ Ø¨Ø§Ø¨
ĠØ§ÙĦØ° Ø±Ø©
ĠØ¹ ÙĬ
ĠØªØ± Ùī
ĠØ§ ÙĬØ³
ĠÙĬ ØªØµ
ĠÙĦØ§Ø¨ ÙĨ
ĠÙĪØ±ØŃ ÙħØ©
ĠÙĥ Ø§ÙĦÙģ
Ø§Ø¹ Ø¨ÙĬÙĨ
ĠØ§ÙĦÙĦ Ø§Ø¹Ø¨
ĠØ§ÙĦØ§Ø¹ Ø±Ø§Ø¶
ĠØ§ÙĦØ§Ø¨ Ø¯Ø§Ø¹
ĠØ§ÙĦÙĩ ÙĪ
ĠÙģ Ø§Ø¹
ÙĪÙĤ Øª
ĠÙħØ³Øª ØŃØ¶Ø±Ø§Øª
ĠØ§ÙĦØµØŃ Ø±Ø§Ø¡
ĠÙĨÙģ Ø³ÙĬ
ĠØ§Ø³Øª ÙĦØ§Ùħ
ĠØ§ÙĦÙħØµ Ø±Ùī
ĠÙĪ Ø§Øº
ĠÙĦØµ ÙĨØ§Ø¹Ø©
ĠØ´ Ø§ØºØ±Ø©
ĠØ³ÙĨ ØªØ±
ĠÙģ ÙĪØ±ÙĬ
ĠØ§ÙĦØº Ø±
ĠØ§ÙĦØ¹Ø¯ Ø§ÙĦØ©
ĠØ³ Ø§ØŃØ©
ĠØ§ÙĦØ§ØŃ ØªÙĬ
ĠØ§ÙĦÙĬØ¯ ÙĬÙĨ
ĠØ§ÙĦØ¯Ø¹ ÙĪØ©
ĠØ§ ÙĪÙĤØ§Øª
ĠØª ÙĥØ³
ĠØ§Ø® ØªÙĬ
ĠÙ ¾
ĠØ´ Ø¯ÙĬØ¯
ĠØ±Ø¦ÙĬØ³ ÙĬ
ĠØ§Ø³ØªÙĩÙĦ Ø§Ùĥ
ĠØ¹ Ø¬ÙħØ§ÙĨ
ĠØ± ÙĬØ¨
Ø¨ÙĬ Ø§Ø¡
ĠÙĦ Ø®Ø§Ùħ
ĠÙĥØªØ¨ ÙĩØ§
ØªØ¨ Ø§Ø³
ĠØªÙħ Ø§Ø±ÙĬÙĨ
ĠØ§ÙĦØ§ÙĦ ØªØ²Ø§Ùħ
ĠØ§ÙĦØµÙĪØª ÙĬØ©
ĠÙĪ Ø§Ø¯ÙĬ
ÙĬØ± ÙĪÙĨ
Ø§Ùĥ Ø´
ĠÙħÙĥ Ø§ØªØ¨
ĠØ§ÙĦØ§Ø· Ø±Ø§Ùģ
ĠÙĦÙĦ ÙħØ¯
Ø´Ø± ØŃ
ĠØ§ÙĦÙħØª Ø®ØµØµØ©
ĠÙħ Ø§Ø¬Ø³ØªÙĬØ±
ĠÙĪÙħ Øª
ĠÙĦÙĦ Ø§
ĠÙģ ÙĥØ±
ĠÙĨ Ø³Ø¨
ĠØ§ÙĦÙĤ Ø¶Ø§ÙĬØ§
ĠØ¬Ø± Ø§Ùħ
ĠØ§ÙĦØŃ Ø¨ÙĬØ¨
ĠØ®Ø· ÙĬØ±Ø©
ÙĬ Ø§Ø©
ĠØ³ Ø¹
ĠØªÙĬØ´ ÙĬØ±ØªØ§Øª
Ùģ Ø²
ĠÙħØ· Ø§ÙĦ
ĠØ§ÙĦØµÙĦ Ø¨Ø©
ĠÙĪØ§ÙĦØªÙĨ ÙħÙĬØ©
ĠØ§ÙĦØ¨ Ø±ÙĬ
ĠØ§ÙĦÙħØª ÙĤØ¯Ùħ
ĠØ§Ø¬ ÙĨØ¨ÙĬØ©
ĠØªØ¤ Ø«Ø±
Ùĥ ÙĬÙħ
ĠØ§ÙĦÙħÙĪ Ø§ØµÙģØ§Øª
ĠÙĦÙĦØŃ Ø¯
ĠÙħØŃ Ø§ÙħÙĬ
Ġ12 00
ĠØ§ÙĦØ®Ø¶ Ø±Ø§Ø¡
Øµ Ø¨
ĠÙĪØ§ÙĦ ÙĬ
ĠØ§ÙĦØªÙĬ Ø§Ø±
ĠØ§ÙĦÙĬÙĪÙħ ÙĬ
ĠØ¨Ùħ Ø¬Ø±Ø¯
ĠØ§ÙĦ ÙĪØ¯
ĠØª Ø±ÙĬ
ÙĦÙĬ Ùĩ
ÙĪØª Ø³
ĠÙĤ ÙĪ
ĠØ´ Ø±ÙĬÙĥ
ĠØ§ÙĦÙĦ ÙĬØ²Ø±
Ø§Ø¹ ÙħØ©
ĠØ§ÙĦØ§ÙĬØ· Ø§ÙĦÙĬ
ĠØ¨ ÙĬØ³
ĠØ§ÙĦØª Ø±ÙģÙĬÙĩ
ĠØ³ Ø§Ø¦ÙĤ
ĠÙģ ÙĨÙĬØ©
Ø¨ÙĬ Ø¨Ø©
ĠØ§Ùģ ØªØ±
ĠØ§Ø° Ø§Ø±
ĠØ§ÙĦØµ Ø§ÙĦØŃ
Ø¬ÙĦ Ø¯
Ø± Ø§ÙĨ
Ø´ Ø§
ĠØ¨ÙħØŃ Ø§ÙģØ¸Ø©
ĠØ¹Ùħ ÙĪØ¯ÙĬØ©
ĠÙĪØ§ÙĦ Ø§Ùģ
ĠØªØŃ ÙĪÙĦ
ĠØ§ÙĦÙģØ³ Ø§Ø¯
ĠØ§ÙĦØ°ÙĩØ¨ ÙĬØ©
ĠØ§ÙĦÙĨØ³ Ø§Ø¦ÙĬØ©
3 3
ĠØ¨ Ø§Ø±Ø¯
ĠØ§ÙĦÙħ ØªØ¨
ĠØ§ÙĦÙħÙĨ Øª
ĠØ± Ø§Ùģ
ĠÙĦÙĦÙħ Ø¤
ĠÙĦÙĦÙħ Ø¹Ø¯Ø§Øª
ĠÙĪ ÙĤÙĦ
ĠØ§ÙĦØ´ Ø§Ø¦Ø¹Ø©
ĠØ§ÙħÙĨ ÙĬØ©
Ùĩ ÙĦØ©
ĠØ§ÙĦÙħ Ø³ÙĦØ³ÙĦ
ĠÙħÙĨ ÙĬ
ĠÙĥ Ø±Ø¯
ÙĬÙĪØª ÙĬÙĪØ¨
Ø§Ø¹ÙĦ Ø§ÙĨ
ĠØªÙħØª ÙĦÙĥ
ĠØ§Ø³Øª Ø¹Ø¯Ø§Ø¯
ĠØ§ÙĦØŃÙĥ ÙĪÙħÙĬ
ĠÙĬ Ø·ÙĦØ¨
ĠÙĪØ§ÙĦ Ø¨ÙĨ
ÙĩØ± Ø§Ø¡
ÙĬØ¬ ÙĬØ§Øª
Ø¨ ÙĥØ©
ĠÙħÙĨ Ùģ
ĠØ¯ÙĬÙĥ ÙĪØ±Ø§Øª
ĠØªØ±Ùĥ ÙĬØ©
ĠÙĦÙĦÙħØ± Ø§Ø©
Ġ14 96
ĠÙĪØ¨Ø± ÙĥØ§Øª
ĠØ´ Ø§Øª
ĠØ§ÙĦØªØ±Ø¨ ÙĪÙĬØ©
ĠØ§ÙĦÙħØ³Øª Ø¬Ø¯
ĠØ§ÙĦØ§ØŃ ÙĪØ§ÙĦ
ĠÙģ Ø±ÙĪØ¹
ĠØ§Ùĩ ØªÙħØ§Ùħ
ĠØ§ÙĦØ·ÙĬ ÙĪÙĨØ©
ĠÙħØ¹ Ø±ÙĥØ©
ØªÙĩ ÙĦØ§Ùĥ
ĠÙĪ Ø§ÙģØ¶ÙĦ
ÙĬÙĨ Øª
ĠÙĪ Ø¨ÙĬ
ĠØ§ÙĦÙĤØ· Ø¹
ĠØ®Ùģ ÙĬÙģØ©
ĠØ¹ Ø¬
ĠØ§Ø® Ø·Ø§Ø¡
ÙĦÙĬ ÙĪÙĨ
ĠØ§ÙĨ ØµØ§Ø±
ĠØ§ÙĦÙĥÙĪÙĬØª ÙĬØ©
ĠØ² Ø§Ø¯
ĠØ³ ÙĪØ±ÙĬ
ĠØ§ÙĦØ® Ø±ÙĪØ¬
ĠØ³ÙĦ Ø·Ø§ÙĨ
ĠØ§ÙĦØ¹ÙĤ ÙĪØ¯
ĠØ§ÙĦØ¹ÙĤ Ø§Ø±Ø§Øª
ĠÙħØ® ØªØ¨Ø±
ĠÙĪ ÙĥÙĨ
ĠØ§ÙĦÙħÙĨØ´ ÙĪØ±Ø©
Ø± Ø´
ĠØŃÙĬØ§Øª Ùĥ
ĠØ§ÙĦØ· Ø§Ø¦Ùģ
ĠÙĪÙĦ Ø°ÙĦÙĥ
ÙĪ Ø§Ø·Ø±
ĠÙħ ÙĬØ²Ø©
ĠØ³Øª Ø§ÙĬÙĦ
ĠÙĦÙĦØ§Ø³ ÙħÙĨØª
ĠÙĦÙħ Ø¬ÙĦØ³
ĠÙħØª ÙģØ±
Ø³ Ø§ÙĨÙĬØ©
ĠØ§ÙĦÙħØ± Ø¶
ĠØ§ÙĦØ¯Ø³Øª ÙĪØ±
ĠØ§ÙĦÙħ Ø±ÙĬØ¶
ĠÙħÙĨ Ø·ÙĤ
ĠØ¨ÙĬ Ø¦Ø©
ĠÙħ Ø¨ÙĨÙī
ĠØ§ÙĦØ¬ ØºØ±
ĠØ§ÙĦÙĨ Ùħ
ĠØ§ÙĦÙħÙĦ ØŃ
ĠØ§ÙĦÙħ ÙĥÙĪÙĨØ§Øª
ĠÙģÙĬ ÙĨ
Ø¯ÙĬ Ø§ÙĦ
ĠØ¨Ø¹ Ø¯ÙħØ§
ĠØ§ÙĦÙģÙĥ ÙĬØ©
ĠØ§ÙĦÙħÙĨ Ø¸ÙħØ©
ĠØ§ÙĦÙĦÙĬ Ø¨ÙĬ
ĠØ§ÙĦÙĨ ÙħÙĦ
ĠØ§ÙĦØ§Ø® ÙĦØ§ÙĤ
ĠØ§ÙĦÙħØ¹ Ø§Ø±Ø¶Ø©
ĠØ§Øµ Ø¯Ø±
ĠÙĪØŃ Ø¯
Ùģ Ø¶
ĠØ¯ ÙĪØ§Ø¡
ÙĬÙĥ Ø§Øª
ĠØ§ÙĦÙħØ³ Ø±ØŃ
ĠØŃØµÙĦ Øª
ĠØªØª Ø¹ÙĦÙĤ
ĠÙĪØ· Ø±ÙĤ
ĠØºØ¶ ÙĪÙĨ
ĠÙĦÙĦÙĨ Ø´Ø±
ĠØ§ÙĦØ¨ ÙĪÙħ
ĠØªØ¬ ÙĨØ¨
ĠØ§ÙĦØ³ Ø§Ø¨Ø¹Ø©
ĠØ§ÙĦÙĥ ÙĪ
ĠÙħÙģ ØªÙĪØŃØ©
ØªÙĪ ÙĬØ§Øª
ĠØªÙĤØ¯Ùħ ÙĩØ§
ĠÙħØ²Ø¯ ÙĪØ¬Ø©
ĠØ¨Ø± Ø§
ĠÙħØ«ÙĦ Ø§
ĠÙĬØ¹ Ø¨Ø±
ĠÙĦÙĦØ³ÙĬ Ø§Ø±Ø§Øª
Ø· Ø¨Ø©
ĠØ§ÙĦÙħÙĪØ¶ÙĪØ¹ Ø§Øª
ĠØ·Ø§ÙĦØ¨ Ø§ÙĨ
ÙĦ Ø³
Ø§Ø® ÙĬØµ
ĠØ§ÙĦ Ø¸ÙĩØ±
ĠØ§ÙĦØµ ÙĦØ©
ĠØ§ÙĦÙħÙĤ Ø§ÙĦØ©
ĠØ§ÙĦØºØ° Ø§Ø¦ÙĬ
ĠÙĪØ· ØŃÙĨ
ĠÙĦ Ø§ÙĦ
Ø§Ø¶ Ø±
ĠØ§ÙĦØªØ¹ Ø±ÙĬÙģ
ĠÙĬØª Ø¹Ø±Ø¶
ĠØ§ÙĨØª ÙĤÙĦ
ĠÙĥÙĦ Ø§ÙĬÙĨ
ĠÙĩØ§ØªÙģ Ùĥ
ĠØ§ÙĦØ±Ùħ Ø²
ĠØ§ÙĦØ°ÙĥØ± Ùī
ĠØ¨ÙĦ Ø³
ĠÙĬ Ø³Ø¨Ø¨
ĠØ§ÙĦØ¨ Ø§ÙĦØº
ĠØ§ÙĦØ§Ø´ Ø§Ø±Ø©
ĠØ§ÙĦØªÙĪÙĨØ³ ÙĬØ©
ĠÙħ Ø®ØµØµ
ĠØ§ÙĦÙĤ ÙĬÙħ
ĠØ³ ÙĨØª
ĠØŃ Ø¸Ø±
Ø§Ø¸ Ø§ÙģØ±
ĠØ§ÙĦØŃØ¨ ÙĪØ¨
ĠØ§ÙĦØ² ÙĬÙĪØª
Ø¬ ÙĬØ¹
ĠÙĦÙĦ Ø³ÙĦ
ĠØ± Ø¨Ø·
ĠØ§ÙĦØ°Ùĩ Ø¨ÙĬ
ĠØ¨ÙĦ Ø¯ÙĬØ©
ÙĤÙĬ Ø§Ùħ
ÙĪÙĤ Ø¹Ø©
ĠÙĦ ÙħÙĦ
ÙĦÙĬ Ø·
ĠØ²ÙĪØ¬ ÙĩØ§
ÙĬÙģ ÙĬØ©
ĠØ§ÙĦØ³ÙĬÙĨÙħ Ø§Ø¦ÙĬ
ĠØ¹ÙĨ ØµØ±
ĠÙħÙĪÙĤØ¹ Ùĥ
ĠØ§ÙĦØ§Ùĩ ØªÙħØ§Ùħ
Øª ØªØŃ
ĠØ¨ Ø°ÙĪØ±
ĠØ§ÙĦØºØ° Ø§Ø¡
ÙĥØ± Ø±
ĠØ§ÙĦØªØŃ Ø¯ÙĬØ«
ĠØ§ÙĦØ®Ø¨ Ø²
ĠÙħÙĥ Ø¹Ø¨
ĠØµÙĨØ§Ø¹ ÙĬØ©
ĠØ§ÙĦØ§ÙģØªØ± Ø§Ø¶ÙĬØ©
Ùĩ ÙĬÙĪÙĨ
Øµ Ø§Ø¯
ĠÙħØ® ØªØµ
ØºÙĬØ± Ø§Øª
ÙĦ Ø¹
Ùħ ÙĤ
ĠØ§ÙĦØ§Ø³ ÙģÙĦ
ĠÙĩ Ø±
ĠØ§ÙĦÙħØ¹ Ø±ÙĪÙģ
ĠÙĦ Ø§Ø·
ĠØ¬ Ø§Ø¨Ø±
ĠØ§ÙĦÙģ Ùħ
ĠØ§ÙĦØ§ØŃ ØªÙĬØ§Ø¬Ø§Øª
ÙĪÙĨØ§ ÙĬØªØ¯
ĠØ§ÙĦØ¯ Ø¨ÙĦÙĪÙħ
ĠÙħØ· Ø§Ø¹Ùħ
ĠÙħØ¤ Ø³Ø³Ø§Øª
ĠØ§ÙĦÙĤÙħ ØŃ
ĠÙĦ Ø¨Ø¹Ø¶
Ø® Ø±Ø§
ĠØ§ÙĦÙħØª ÙĪÙĤØ¹
ĠÙĬØ´ Ø§Ø±Ùĥ
ĠØ§ÙĦØ®Ø· ÙĪØ§Øª
Ġ51 2
ĠØ§ÙĨ Ø¬
ÙĬØ² ÙĦ
ĠØªÙģ ÙĤØ¯
ĠÙĦÙĦ Ø®Ø¯ÙħØ§Øª
ĠØ§Ø´ Øª
ĠØ§ÙĦØ« Ø§ÙħÙĨØ©
Ø·ÙĦ Ø§Ø¹
Ġ22 0
Ø§ÙĦ ÙĨ
ĠÙĦÙĬØ³ Ø§ÙĨØ³
ĠØ§ÙĦØµØŃÙĬ ØŃØ©
ĠØ§ÙĦØ·ÙĦ Ø¨Ø©
ÙĬÙĪ Ø¨ÙĬØ©
ĠØ¨Ùħ ÙĪ
Ø®ÙĦ ÙĤ
ĠÙĦØ§ÙĨ Ø´Ø§Ø¡
ĠÙģ Ø§Ø±Ø³
Øµ Ø±ÙĬ
ĠÙħØ³Øª ÙħØ±
ĠÙĦØª Ø·ÙĪÙĬØ±
ĠÙĪØ§ÙĦØª Ø³
ĠØ§ÙĦØ´ Ø§Ø¨
ĠØ§ÙĦØ®Ø¨Ø± Ø§Ø¡
ĠØ¨Ø¹Ø¯ ÙĩØ§
ĠØ§ÙĦÙĪÙĥ Ø§ÙĦØ©
ĠÙħ ÙĬØ³
ĠØ¹ Ø´Ø±Ø§Øª
ĠÙĥÙĦ Ùĩ
Ø§ØªÙģ Ø§ÙĤ
ĠÙĬØ¬ Ø±ÙĬ
ĠÙĬØµ Ø¨ØŃ
ĠØ¨Ø± Ø³
ÙħØ§Ø± Ø³Ø©
Ø§Ø¨ Ø§
ĠØ§ÙĦØ³Ùħ Ø§ØŃ
ĠÙĬØ² ÙĪØ±
ØŃ ÙĪÙĦ
ĠÙĩ Ø¯ÙĬØ©
ĠØ§ÙĦØ±ÙħÙĦ ÙĬ
ÙĦ Ø§ÙĨ
ĠÙĪ Ø¹Ø¯
ĠÙĪ Ø¬Ùħ
ĠÙĨØ¸ Ø§ÙģØ©
ĠÙĪ ÙĬÙĥÙĪÙĨ
ĠØ§ÙĨ Ø³Ø§ÙĨ
ĠÙĪØ§ÙĦÙħ Ùĥ
ÙĤ Ø§Ø°
ĠØ§ÙĦØ§ØµÙĦ Ø§ØŃ
ĠÙĪØ¨Ø¹ Ø¶
Ùģ ÙĬØ²
ĠÙĬ ÙĪØ§Ø¬Ùĩ
ØªÙĪ Ø³
ĠØ§ÙĦÙħØº ÙĨØ§Ø·ÙĬØ³ÙĬ
Ø¬ ÙĪÙĨ
ĠØ¨ÙĨ Ø¯Ùĩ
ĠØ§ÙĦÙħØ³Øª Ø´Ø§Ø±
ĠØ§ÙĦØ¨ÙĬ Ø¶
ĠØ§ÙĦØªØ±Ùĥ ÙĬØ²
ĠØª ÙĪØ¬Ùĩ
ĠØª Ø¬ÙħÙĬÙĦ
ĠØ§ÙĦØ¹ Ø§Ø´Ø±
ĠØ¬ Ø§Ø¦ØŃØ©
ĠØ§Ø± Ø§Ø¯
ĠÙĬÙħÙĨ Ø¹
ĠÙĥØ¨ ÙĬØ±Ø§
Ø§ÙĦ Ø§Ø³
ĠØ§ÙĦØŃØ± Ø§Ùħ
7 6
ĠØ¬ ÙĪÙĦØ©
ĠØ±Ø¬ Ø§ÙĦÙĬØ©
ĠÙĬØ¤ Ø«Ø±
ĠØŃÙĬØ§Øª Ùĩ
ĠÙħ Ø§ÙĦÙĬ
ĠØ§ÙĦØ§ÙĨ ØªÙĩØ§Ø¡
ĠÙĦ ØªØ®
ĠØ§ÙĦØª Ø¹Ø±Ùģ
ĠØ®ÙĦÙģ ÙĬØ©
ĠØ§ÙĦÙĪ Ø§Ø±Ø¯Ø©
ĠØ§ÙĦØ³ÙĦ ÙĪÙĥ
ĠÙħ ÙģØ±
ĠÙħÙĨ Ø®ÙģØ¶Ø©
ĠÙħØ³Øª Ø´Ø§Ø±
ĠØ§Ø¨ Ø§Ø¯
ĠØ§ÙĦÙħØ³Øª ÙħØ±
ĠØ§ÙĦØ¬Ùħ ÙĩÙĪØ±
ĠÙĪØ§ÙĦØª ÙĥÙĨÙĪÙĦÙĪØ¬ÙĬØ§
ĠÙĨ Ø§Ø´
ĠØ§ÙĦØ´ Ø±Ùĥ
ĠØ§ÙĦØ± Ø§Ø¦Ø¹Ø©
ĠØ² Ø¬Ø§Ø¬
ĠØ§ÙĦÙħØ¹ÙĦ Ùħ
ĠØ§ÙĦÙħÙĪØ¬ ÙĪØ¯
ĠØ§ÙĦÙĦ ÙĪØ§Ø¡
ÙĤ ÙĪØ¯
Ø±ÙĪ Ùĥ
ĠÙĪÙĥ Ø°Ø§
ØªØ± Ø¨
ĠØ¨ÙĦ Ø§ÙĬ
ĠØ¨Ø¯ ÙĦ
ĠØº Ø±ÙĬØ¨
ĠÙĪØ§ÙĦØ¹ ÙĨØ§ÙĬØ©
ĠÙĪØ§Ùĥ Ø¯
ĠØ¨ Ø§ÙĪØ±
Ø· Ùĩ
ĠÙĦÙĦØ· Ø§ÙĤØ©
ĠÙĦÙĬ Øµ
ĠØ§ÙĦØªØ¹ ÙĪÙĬÙħ
ĠØ§ÙĦØªÙģ ØªÙĬØ´
ĠØ§ÙĦØµ Ø±
Ø±Ø¨ ÙĬÙĨ
ĠØŃ ÙĦØ¨
ĠÙħÙĨ ØµÙĪØ±
ĠØ§ÙĦØª Ø§Ø¨Ø¹
ĠÙĪØ¨Ø±ÙĥØ§Øª Ùĩ
ĠÙĪ Ø¬ÙħÙĬØ¹
Ø§Ø¯ ÙĬØ±
Ġ200 3
ĠØ§Ø³Øª Ùģ
ĠÙĦÙĦØ§Ø³ ØªØ®Ø¯Ø§Ùħ
ĠØ§ÙĦØ¨Ø§Ø± ÙĬØª
ĠÙĪØ§ÙĦÙħ Øª
ĠÙĦ Ø°
ĠÙĥ ÙħØ§ÙĦ
ĠØªØµ Ø§ÙħÙĬÙħ
ĠÙħÙĪØ¬ ÙĪØ¯
ĠØ³Ø¨ Ø§ØŃØ©
ĠØ§ÙĦÙĩ Ø¬ÙĪÙħ
ĠØ§ÙĨ ÙħØ§
ĠÙħØªÙĪ ÙģØ±
ĠØ§ÙĦØ³Ùħ Ø§Ø¡
ĠØ§ÙĦØª ØµÙģ
ĠØªØ³ Ø¹Ùī
ĠØ¨Ùĥ Ø§ÙĦ
ĠØ§ÙĦØ¹Ø§Ùħ ÙĦØ©
ÙĬØ§Øª ÙĬ
ĠÙħØ¬Ø¯ Ø¯Ø§
ĠØª Ø¶Ø¹
ĠØ® Ø°
ĠÙĪØªØ±Ùĥ ÙĬØ¨
ĠØµÙĬØ¯ ÙĦÙĬØ©
ĠØ§ÙĦØ§Ø³Ø¨ Ø§ÙĨÙĬØ©
ĠØª Ø°
ĠÙĦÙĦ Ø§ÙĪÙĦØ§Ø¯
Ø§ÙĤ Ùĩ
ĠØ§ÙĦØªÙĦÙģ Ø²ÙĬÙĪÙĨ
ĠÙĥÙĦ Ø§Ø³
ĠØªÙĤ Ø±ÙĬØ¨Ø§
ĠÙĦ ØºÙĬØ±
ĠØ¹Ø§ÙĦÙħ ÙĬ
ĠØ§ÙĦØ´Ùĩ Ø§Ø¯Ø©
ĠÙĬ Ø¶Ùħ
ĠØ¨Ùħ ÙĪØ¬Ø¨
ĠØ¬ ÙĪØ§ÙĦ
ĠÙĦØº Ø§Øª
ĠØ§ÙĦØº Ø±Ø¨ÙĬ
ĠØ§ÙĦØ² ÙģØ§Ùģ
ĠÙĥ Ø§Øª
ĠÙĥÙĩØ±Ø¨ Ø§Ø¦ÙĬ
ĠÙĦÙĦ Ø¨Ø±
ĠØ§ÙĦØº Ø¨Ø§Ø±
ĠÙĨØ¬ Ø¯
ĠØ§ÙĦØ´ÙħØ§ÙĦ ÙĬ
ĠÙĦÙĦ Ø§ÙĦ
ĠØ§ÙĦØ¬ Ø§ÙĨ
ĠÙĪØ¬ Ø¯Øª
ĠÙħØŃØ§Ø¶ Ø±Ø©
ĠÙĬØŃÙĬ Ùī
Ø§Ø¯ÙĬ Ø«
ĠØ¨Ø§ÙĨ ÙĩØ§
ÙĨØ§Ø¹ Ø§Øª
ĠØ²ÙĪØ¬ Ø©
ĠØ§ÙĦØª Ø§ÙĥØ¯
ĠØ§ÙĦØ§ÙĨ ÙĪØ§Ø¹
ĠØ§ÙĬØ¬ Ø§Ø¯
Ø§ÙĦ ÙĬØª
Ø±Ø¨ ÙĪÙĨØ§Øª
ĠÙħÙĪ Ø¸
ĠØ§ÙĦØ®Ø§Ø±Ø¬ ÙĬ
ĠØªØ¤ Ø¯ÙĬ
ĠØ§ÙĤØªØµ Ø§Ø¯ÙĬØ©
ĠØ¹ Ø³ÙĥØ±ÙĬ
ĠÙĩØ´ Ø§Ùħ
ĠØ§ÙĦØ³ ÙĦÙħ
ĠØ¨Ø§ÙĦØ¨ Ø±ÙĬØ¯
Ùħ Ø§Ø¡
ĠØ§Ø¯ Ùī
ĠØ³Ø¹ÙĪØ¯ ÙĬØ©
Ø§Ø¨ ÙĬØ±
ĠÙħØ³ Ø¦
ĠÙħØ³ Ø¨ÙĤ
ĠØ§ÙĦÙĦ Ø§Øª
ĠÙĦÙĦ ÙĪØµÙĪÙĦ
Ø¨ÙĬ Ø³
ĠÙĦØµ Ø§ÙĦØŃ
Ø§ ÙĪÙģ
Ø§ÙĦ ÙģØ§Øª
Ø´ ÙĬØ±
ĠØ§ÙĦÙĩ ÙĬØ¯Ø±ÙĪÙĦÙĬÙĥÙĬØ©
ĠÙħØ± Øª
ĠØ§ÙĦØ¹ Ø§Ø¦ÙĦØ©
ÙĥØ± Ùħ
ĠÙĪØ§ÙĦÙħ Ùĩ
Ø§ÙĨÙĬ ÙĬÙĨ
ĠØ¨Ùħ Ø´
ĠÙħØ¨ Ø§Ø¯Ø¦
ĠÙģ Ø§Ø¦ÙĤØ©
ĠØ³ Ø§
ĠØ¨Ø§ÙĦ ØªØŃ
ÙĪØ§ ÙĬ
ĠØ§Ø¯ ÙĨÙī
ĠØ§ÙĦÙĩ Ø±Ùħ
ĠÙĪØ² Ø±Ø§Ø¡
ĠØŃ ØªÙĬ
ĠØ± Ø¦Ø§Ø³Ø©
ĠØ¨Ùħ Ø³Øª
ĠØ§ÙĦÙĨ Ø§Ø¬
ĠÙħØŃ Ø¯Ø¯
ĠØ§ÙĦÙħØª Ø·
Ø§ÙĦØ¯ ÙĪ
ĠØª Ø¯Ùħ
ĠÙĨ Ø²ÙĦ
ĠØ§ÙĦÙĦ Ø§Ø¹Ø¨ÙĬÙĨ
ĠÙĪØ± Ø¦ÙĬØ³
ĠØ§ÙĦØ¹ ÙĪ
ĠØ± Ø§Ø¯
ØªØ¨ Ø¯
ĠØªØ¯ Ø¹Ùħ
ĠØ§ÙĦÙĥØ±Ø¨ ÙĪÙĨ
Ùĩ Ùī
ĠÙħ Ø§Ø²
Ø³ Ø§Ø³
Ø¨Ø± Ø§Ø·
ĠØ« Ø§Ø¨Øª
ĠØ±ÙĪ Ø¶Ø©
ĠÙĩ Ø§ÙħØ©
ĠØ§ÙĦØ¶ ÙħØ§ÙĨ
ĠØ§ÙĦØ³ Ø¹ÙĬØ¯
ĠØ§ÙĦØªØŃ ÙĪÙĬÙĦ
ĠØ§Øµ Ø¯ÙĤ
ĠÙĬÙĪ Ø§ØµÙĦ
ĠØ¯ ÙĬÙģ
ĠÙĪØª Ùĥ
ĠÙĤ ÙĦÙĤ
ĠØ¬Ø± Ø§ØŃØ©
ÙĬÙħ ÙĬÙĨ
ĠÙħÙĤ Ø§Ø³
ĠØ§ÙĦØ¹ÙħÙĦ Ø©
ĠØ§Ø± Ø§Ø¡
ĠÙħÙĨ ÙĪØ¹Ø§Øª
Ø¹ÙĦ Ùĩ
ĠÙħØ± Ø¬Ø¹
ĠÙħØ¹ Ùĥ
ĠØªØ´ ÙĥÙĬÙĦØ©
ĠØ´Ø¨ Ø§Ø·
ĠØ§ÙĦØªØ´ ÙĥÙĬÙĦ
ĠÙħ Ø°Ùĩ
ĠÙĪØ· ÙĨÙĬØ©
Ø¨Ø± Øª
ĠØº Ø§Ø²
ĠØ¸ Ø±ÙĪÙģ
ĠØ§ÙĦ ÙĬÙĨØ§
ĠØ§ÙĨ ØªØ®
ĠØ§ÙĦØ® Ùģ
ÙĪØ¹ Ùĩ
ĠØ§ÙĦÙģ Ø¦Ø§Øª
Ø§Ø±Ø³ Ø§Øª
ĠÙĪÙĬØ¬ Ø¨
ĠÙĥØ§ÙĦÙģ ÙĨ
ĠØ§ÙĦÙħØ¶ Ø§ÙģØ©
ĠØ§ÙĦØ§ ÙĩÙħ
ĠØ§ÙĦØ§ ÙĪÙĤØ§Øª
ĠØ¨Ø® Ø·
Ø§ÙĪ ÙĬØ§Øª
Ø¹ ÙĤØ©
Ø¨ ÙĪØ±
ĠØª ØªÙĬØŃ
ĠØ³ Ø§Ùĥ
ĠØ§ÙĦØ«ÙĦØ§Ø« Ø©
Ø§Øª Ùĥ
ĠØ´ Ø±Ø§Ø¦
ĠØ§Ø¦ ØªÙħØ§ÙĨ
ĠØ§ÙĦÙĨ ØµÙĪØµ
ĠØ§ÙĦÙĤØµ Øµ
ØŃ ÙĬÙĦ
Ø® ØªÙĦÙģ
ĠØŃ Ø§ÙħÙĦ
ĠØ§ÙĦØ¯ ÙĦÙĬÙĦ
ĠÙĪØ§Ø¹ Ø§Ø¯Ø©
ĠÙĪÙĨ ÙĤ
ĠØ§ÙĦØªØ§Ø³ Ø¹Ø©
ĠØ±Ø³ ÙĬÙģØ±
ĠØªØ® ÙģÙĬÙģ
ĠÙħ ÙĬØ²Ø§Øª
ØªÙĪ Ùĥ
ĠØŃ ÙĦØ§
ÙĦÙĥ ÙĬ
ĠÙħÙģ ØªÙĪØŃ
ĠØ§ÙĦÙħ Ø´Ø±
ĠØ§ÙĦØ¹ Ø·
ĠØ§ÙĦÙĪ Ø§Ø¬
ĠÙĩ ÙĪØ¯
ĠÙħØ± Ø´ØŃ
ĠØªØ® Ø±Ø¬
ÙĬÙĪ ÙĬ
Ø¤ Ø§Ø¯
ĠØ§Ùħ Ø¨ÙĬØ±
ÙĬÙħØ¨Ø§Ø¨ ÙĪÙĬ
ĠØ§ÙĦÙħØª ÙĩÙħ
ĠÙĪØµ ÙĬØ§ÙĨØ©
ĠØ§ÙĦÙĥÙĦ ÙħØ©
ĠØªØ· Ø§ÙĦØ¨
ĠØ§ÙĦØ· Ø§ØŃÙĨ
ĠØ§ÙĦØ§Ùħ ØªØŃØ§ÙĨØ§Øª
ĠØ§ÙĦØ§ÙĦ ÙĬÙģØ©
ĠØ³ ØªØ¬
Ġ16 5
ĠØ§ÙĦØªÙħÙĪ ÙĬÙĦ
Ø« Ø¨ÙĬØª
ĠÙħØ³ Ø¨
ØªÙģ Ø¸
ĠØªØ³ÙĦ ÙĬÙĥ
ÙĨ ÙĬÙģ
ĠØµ Ø§ØŃ
ĠÙģ Ø§Ø®Ø±Ø©
ĠØ§ÙĦØ³ Øª
ĠØ§ÙĦØ³ Ø¬ÙĨ
ĠØºØ±Ø¨ Ø§ÙĦ
ĠØ§ÙĦÙħØ³ÙĬ ØŃÙĬ
ĠØ§ÙĦÙĪ Ùģ
ĠÙĦÙħ Ø¹
ĠØ§Ø· ÙĤÙħ
Ø§ØŃ ÙĨØ©
ĠØ³ ÙģÙĬØ±
ÙĤÙĬ ØŃ
ĠÙĪØ§ÙĦØ§Ø¹ ÙĦØ§Ùħ
ĠØ§ÙĦÙĤ Ø§Ø¨
ĠØ¨Ø± ÙĦÙħØ§ÙĨÙĬØ©
ĠØªØ¨ Ø§Ø¯ÙĦ
ĠØ³ Ø±Ø·Ø§ÙĨ
ĠØ¨ÙĨ Ø¸Ø§Ùħ
ĠØ§ÙĦØ¯Ùħ Ø§Øº
ĠÙĪ Ø³Ùħ
ÙĪÙĤ Ø§Ùģ
Ø§Ø² ÙĨØ©
ĠØ§ØŃ ÙĦØ§Ùħ
ĠØªÙĨ Ø¸Ùħ
ĠÙħØ® Ø§Ø·Ø±
ĠØ§ÙĦÙħØªÙĪ Ø§Ø¬Ø¯
ĠÙĪÙħÙĦ Ø§Ø¨Ø³
Ø§ÙĦ Ø²
Ø§ÙĤ Ø·
ĠØ§ÙĦØ§Ø¨ ØŃØ§Ø«
ĠÙĦÙĦ Ø¨ÙĬ
ĠØ§ÙĦØµ ÙĨØ¯ÙĪÙĤ
ÙĬØ· Ø§ÙĨ
Ø§ÙĦ Ø®
ĠÙĬØªÙħ ÙĬØ²
Ùĩ Ø±ÙĬ
ĠÙħØ¯ Ùģ
ĠÙĨØ³ Ø§Ø¡
ĠØ§ÙĦÙĪØ³ Ø§Ø¦Ø·
ØªÙħØª Ø§Ø¹
ĠØ± ÙĪÙĥ
ĠØ§ÙĦØ³ ÙĦÙģ
ÙĪÙĦÙĪØ¬ ÙĬ
ĠØ³ÙĦ Ø·Ø©
ĠØ§ÙĦÙĥ Ø±ÙĬÙħØ©
ĠÙĦÙħ Ø¹Ø§ÙĦØ¬Ø©
ĠØ§ÙĦÙģ ÙĨØ¯ÙĤ
ĠØ§ÙĦÙħØŃ Ø§ÙģØ¸Ø§Øª
ĠÙħØ¨ÙĬØ¹ Ø§
ĠØ§ÙĦØ¬ Ø¨ÙĦ
ĠÙĬ Ø«
ĠØ§ÙĦØ¨Ø± Øª
ĠØ§ ÙĬØª
ĠÙħ ÙģØ§ØªÙĬØŃ
ĠØª ÙĩÙħ
Ø§ØŃ Ùģ
ĠØ§ÙĦØŃÙĦ ÙĪÙĦ
ĠÙĤ Øª
Ø§Ùģ ÙĬÙĥ
Ġ9 3
ĠØ¨Ø± Ø¦Ø§Ø³Ø©
ĠØ³ ÙĬØ¯ÙĬ
ĠØ§ÙĦØ³ ÙĥØ§ÙĨ
ĠØ§ÙĦØªÙĨ ÙģÙĬØ°
ĠØªÙģ ØªØŃ
ĠØªØ§Ø¬ ÙĬÙĦ
ĠØ§ÙĦÙħÙģ ØªÙĪØŃØ©
ĠÙĥØ±ÙĬ Ø³Øª
ĠÙģØ§ÙĨ Øª
ĠÙĦØ²ÙĬ Ø§Ø¯Ø©
ĠØ§ÙĦÙĤÙĨ Ø§Ø©
ĠØ§Ø³ ÙĦÙĪØ¨
ĠÙĦÙħ ØµÙĨØ¹
ĠØŃØ¯ Ø§Ø¦ÙĤ
ĠØ§Ø¯ ÙĦØ¨
ÙĪØ§ÙĨ Ø¨
ĠØ§ÙĦØ§Ùģ ÙĥØ§Ø±
ĠÙĦÙĦ ÙħÙĦ
ĠÙĤ Ø±Ø·
ĠÙĨØ¸ Ø±Ø§
ĠØ§ÙĦØ¸ Ø±ÙĪÙģ
ĠØªÙĥÙĬÙĬÙģ Ø§Øª
ĠØ¨ Ø§ÙĤÙĬ
ĠØ§ÙĦØ¹ ÙĪØ§ÙħÙĦ
ĠØ§ÙĦØ³ Ø§Ø¦ÙĦ
Ø¨Ø® Ø§Ø±
Ø¨Ø§Ø± Ùĥ
ĠØª Ø¨Ø±
ĠØ± Ùĩ
9 5
ĠØ³ ÙĬÙħØ§
ĠØ¯ Ø©
ÙĬØª Ø§Øª
ĠÙĪ Ø°ÙĥØ±
ĠÙĩ ÙĬÙĥÙĦ
ĠÙģ Ø®
ĠØ§ÙĦÙħ ÙĬØ¯
ĠÙĪØ§ÙĦ Ø¶
ĠÙĦÙĦ Ø§Ø±
ĠØ§ÙĦÙħÙĨ ÙĩØ¬
Ø±Ø¬ ÙĬ
ĠØµ Ø®ÙĪØ±
ĠØ¨Ø¹ Ø¯Ùħ
ĠØ§ÙĦØ¹ Ø§Ø¯ÙĬØ©
ĠØ³ÙĪ ÙĬÙģ
ĠØ§ÙĦÙħ ÙģØ±
ĠØ³ Ø¬ÙĨ
ĠØ§ÙĦØ¨Ø¯ Ø¡
ÙĪÙħ Ùĩ
ĠØ¨Ø¯ ÙĤØ©
ĠÙĦÙħØ´ Ø§ÙĩØ¯Ø©
Ùħ Ùĩ
ĠÙĦ Ø§Ø¯
ĠÙĦÙĦ Ø¬Ùħ
ĠÙĩ Ø§ÙĬØ¨Ø±
ĠØ³ ÙĬØ¯Ø©
ĠØ§ÙĦÙħÙĪ Ø¶Ø©
ĠÙĨØ³ ÙĬØª
ĠÙĦ Ø²
ĠØ§ÙĦÙģØ¶ Ø§Ø¦ÙĬØ©
ĠÙĪØ§ÙĦÙħ Ø®
Ø¬ Ø§ÙĦ
Ø· ÙĨ
ĠÙĦØª Ø¹Ø²ÙĬØ²
ĠÙĬ Ø¹Ø±Ø¶
ĠØ§ÙĦØª Ø³ÙĦÙĬÙħ
ĠØ§ ØªÙħØ§Ùħ
ĠØ¨ÙĨ Ø¬Ø§ØŃ
ĠÙĤ Ø§ÙĦØ¨
ĠÙĦØŃ ÙĦ
ĠØ§Ø¸ ÙĩØ§Ø±
Ġ36 0
ĠÙĥØ¨ Ø³
ĠÙĨÙĤ Ø§Ø¨Ø©
ĠØ§Ùħ ØªØŃØ§ÙĨ
4 6
ĠØªÙĨ Ø´Ø±
ÙĪ Ø§Ø³
ĠØ§ÙĦØª ÙĨØ³ÙĬÙĤ
ĠØ§ÙĦØ· ÙĬÙĨ
ĠØºÙĬØ± ÙĩØ§
ĠÙħØŃ Ø§ÙĥÙħØ©
ĠØ³Øª Ø©
ĠÙĤ Ø§Ø¦ÙĦ
ĠØ¬Ø¹ ÙģØ±
Ø¸ Ø§ÙĩØ±
ĠØ§ÙĦØ° ÙĥÙĬ
ĠÙħÙħØª Ø§Ø²Ø©
ĠØ¨ ÙħÙĦ
Ø² Ø¦Ø©
ĠØ® Ø¨ÙĬØ±
ĠÙĨØ§ ÙĬÙĥ
ĠØ§ÙĦØ¹ Ø³ÙĦ
ĠØ§ÙĦÙħØ³Øª ÙĩÙĦÙĥ
ĠØ¨ ØªÙĤ
ĠØ§ÙĦØ² ÙĪØ§Ø±
ĠØ§ÙĦÙħØ¬ Ø§ÙĨÙĬ
ÙĬØ² ÙĬ
ĠØ§ÙĦÙħÙĪ ØµÙĦ
ĠØ§ÙĦÙĬÙĥ Ùħ
Ø´ ÙĬÙĨ
ĠØ´ ÙĩÙĪØ±
ĠØªØ¬ Ø§Ø±Ø¨
ÙĨØ§Ùĩ Ø¬
Ø´ Ùī
ĠØ§ÙĦØ¶ ÙĪ
ĠØªØ§Ø±ÙĬØ® ÙĬØ©
ĠØŃÙĤÙĬÙĤ ÙĬØ©
Ø¨ÙĬ Ø§Øª
Ø±ÙĪ Ø´
ĠØ¹ Ø§Ø¯
ØªÙĪ Ø¨Ø©
ĠØ¨ Ø³Ùħ
Ø¯Ø± Ø³
ĠÙĬØ´ Ø§ÙĩØ¯
ĠÙĪØ§ÙĦØ³ÙĦ Ø§Ùħ
ĠØ§ÙĨ ØªØ±ÙĨØª
ĠØ§ÙĦØ¨ Ø§Ø²ÙĦØª
ĠØ§ÙĦØ§Ùĥ Ø§Ø¯ÙĬÙħÙĬØ©
ĠØ³ Ø§Ø¦ÙĦ
ĠØ§Ø³ Ø§Ø¨ÙĬØ¹
ĠØ§ÙĦØ° Ø§ÙĥØ±Ø©
ĠØ¨Ø¹Ø¶ ÙĩØ§
ĠØ§ÙĦØªÙĤ ÙĨÙĬØ§Øª
Ø¨Ø· ÙĬØ©
ĠØ± Ø¨Ø¹
ĠØ§ÙĦÙħØ± Ø¶Ùī
Ø§ÙĪÙĦ ÙĬÙĨ
ĠØ§ÙĦÙħØµØ±ÙĬ ÙĬÙĨ
ĠØ¹ Ø³
ÙĪØ± Ùĥ
ĠØ§ÙĦØ¯ Ø¬Ø§Ø¬
ÛĮ Ø¯
ĠÙħØ¤ Ùĥ
ĠØ§ÙĦÙĨÙĤ Ø§Ø´
ĠØ·Ø± Ø§Ø¨ÙĦØ³
ĠØ¬ Ø§ÙĦ
ĠØ§ÙĦØ§ØŃ Ø³Ø§Ø¡
ĠØ§ÙĦÙħØ¯ Ùī
ĠØ±Ø¬ Ø§ÙĦÙĬ
ĠØ§ÙĦØ¬ Ø§ÙģØ©
ĠÙĪØ§Ùĥ Ø³Ø³ÙĪØ§Ø±Ø§Øª
ĠØ§ÙĦØ§ÙĪÙĦ ÙĬ
ĠØ· Ø§ÙĤØ©
ØªÙħ ÙĬ
ĠØ§ÙĦØ§Ùħ Ø§ÙĨØ©
ĠØ¨ÙĦ Ø¬
ĠØ§ÙĦØ¬ÙĦ Ø³Ø©
ĠÙħØŃ Ø§Ø±Ùħ
ĠØ§ÙĦÙĤØ¶ Ø§Ø¦ÙĬØ©
ĠÙģ ÙĩÙĦ
ÙĨØ§Ùĩ ÙĬØ©
ĠØ§Ø³Ø¨ÙĪØ¹ ÙĬÙĨ
ĠÚ ¤
ĠÙĪØ§ÙĦ Ùī
ĠÙĬØª Ø¶ÙħÙĨ
ÙĪÙĦÙĪØ¬ ÙĬØ§
ĠØ¨Ø§Ø¹ ØªØ¨Ø§Ø±
ĠÙħ ÙĥØ³
ĠÙĪØ§ÙĦ Ø¨ØŃØ«
ĠÙĦÙħ Ø³Øª
ÙĤØ± Ø§
ĠÙĦÙĦÙħØ¨ ØªØ¯Ø¦ÙĬÙĨ
ĠØ§ÙĦØ³ Ø±Ø·Ø§ÙĨ
ĠØ§Ø³ Ø·ÙĪØ§ÙĨØ©
ĠØ§ÙħÙĨ Ø©
ĠØ¹ ÙĪÙĨ
ĠÙĬ ÙĪÙĨØ§ÙĬØªØ¯
Ø±Ùģ ÙĬ
ĠØ§ÙĦÙħØª ÙĤØ¯ÙħØ©
Ø§ÙĦ ÙĪØ¬
ĠØ´ ÙĬÙĪ
ĠØ· Ø¨ÙĬ
ĠÙĪÙĪ Ø¶Ø¹
ĠÙĦ ÙĬÙħ
ĠØ§ÙĦÙģØ¬ ÙĬØ±Ø©
ĠÙģØ§Ø· ÙħØ©
ĠØ¹ÙĦ Ø§Ø¡
ĠØ§ÙĦØŃ Ø§Ø³ÙĪØ¨
ĠÙħØ« ÙĬØ±Ø©
ĠÙĤÙĦÙĬÙĦ Ø§
ØŃ Ø§
ĠØ§ÙĦØ± ØµØ§Øµ
ĠØ¬ÙħÙĬØ¹ Ø§
ĠØ§Ø² ÙĩØ±
ĠØ§Ø¬ØªÙħØ§Ø¹ ÙĬØ©
ĠØ§ÙĦØ® Ø´
ĠÙĬØ¯ ÙĦ
ĠÙĪØº Ø±Ø¨
Øª Ø¦Ø§Ø¨
ĠØµ Ø¹Ø¨
ĠØ¨Ø§ÙĦ Ø¹ÙħÙĦ
ĠÙĪØª ÙĤØ¯ÙĬÙħ
Ø·ÙĦ Ø¨Ø©
Ø§Ø¬ ÙĦØ©
Ø§Ø· ÙĬØ©
ĠÙĬ Ø¶Ø¹
ĠØ´ ÙĤØ±Ø§Ø¡
ĠØ¶ Ø±ÙĬØ¨Ø©
ĠÙĥØ± ØªÙĪÙĨ
ĠØ®ÙĦ Ø§Ùģ
ĠÙħÙĨ Ø¯
Ø¹Ø¯ Ø¯Ø©
ĠÙħÙĪ Ø³ÙĥÙĪ
ØªÙĩ Ø¯
ĠÙĦØ¨ÙĨ Ø§Ø¡
ĠÙĪØ« Ø§Ø¦ÙĤ
ĠÙĦÙĦ Ø¨ØŃØ«
ĠØ§ÙĦØ± Ø¤ÙĬØ©
ĠØ§ÙĦØ§ØŃ Ø²Ø§Ø¨
ĠÙĪØ« ÙĬÙĤØ©
ĠØ§ÙĦØ§ÙģØ± Ø§Ø¯
ĠØ¨Ø§ÙĦ ÙħØ¯
Øª ÙĬØ©
ĠØªÙĥ Ø§ÙĦÙĬÙģ
ĠØ§Ø±Ø¨ Ø§ØŃ
ĠÙĦ Ø¹Ø±Ø¶
ĠØ§ÙĦÙģ ÙĪØªÙĪ
ĠØ§ÙĦØ®Øµ Ùħ
ĠØ± Ø§Ø´Ø¯
ĠÙĦÙĦØª Ø¹Ø¯ÙĬÙĨ
ĠØ§ÙĦØ³ÙĬÙĨ ÙħØ§
Ø° Ø§Ø°
ĠÙħØ³Øª ÙĤÙĦØ©
ĠØ§ÙĦÙħØ¹ Ùħ
ĠÙĦÙĦÙħÙĨ ØªØ¯Ùī
ĠÙĦ Ø§Ø¦ØŃØ©
ĠØ§ÙĦØ¨ÙĪÙĥØ³ ÙĬØª
Ø¯ Ø§ÙĨ
ĠÙĬ Ø°ÙĥØ±
ĠÙĦÙĥÙĨ ÙĩØ§
Ø´ Ø§ÙĨ
ĠÙħØ´ ÙĩØ¯
ĠØ¨Ø¬ Ø§ÙĨØ¨
Ø·Ø¨ÙĬÙĤ Ø§Øª
ĠØ§ÙĦØ³ Ø±ÙĬØ¹Ø©
ĠØ§ÙĦ ÙĬÙĪØªÙĬÙĪØ¨
ĠØ§ÙĦØ§Ø±Ø¯ ÙĨÙĬ
ĠØŃ Ø±ÙĬØ©
Ø§ØŃ ÙĬÙĨ
ĠØª ØªØ¬Ø§ÙĪØ²
ĠØŃ Ø§Ùħ
ĠØ§ÙĦØ´ ÙĩØ¯Ø§Ø¡
ØªÙģ Ø§Ø¡
Ø¬Ø² Ø§Ø¦Ø±
ĠÙħÙĪØª ÙĪØ±
Ø¨ ÙĪØ·
ÙĤ ÙĬÙĨ
ĠØ¯ Ø³Øª
Ġ14 20
ĠÙĦÙĦØ¹ ÙĨØ§ÙĬØ©
ĠØ³ ØŃ
ĠØ¹ÙĤ Ø§Ø±
ĠØ§ÙĦÙħØ¯ Ùģ
Ø² ÙĬÙħØ©
ĠÙĦÙħ Ø²ÙĬØ¯
Ø¨ ÙĬÙĦ
ÙĪÙĨ Ø¯
ĠØ§ÙĦÙħØ¨ Ø§Ø´Ø±Ø©
8 6
ĠØ´ Ø±ÙĬØ·
ĠØ§ÙĦÙħÙĥØ³ ÙĬÙĥ
ĠØ¨ÙĪÙĦ ÙĪ
ĠÙĦÙħ Ø¤
ĠÙħÙĪ Ø±ÙĬØª
ĠÙĬØ³Ùħ Ùī
Ø±ÙĪ ÙĬ
ĠØ§ÙĦØ® ÙĬØ§Ø±
ĠØ§Ø´ ÙĬØ§Ø¡
ÙĬØ¯ Ø²
ĠØ§ÙĦØªÙĥ ÙĪÙĬÙĨ
Øº Ø§Ùģ
ĠÙĬØ¹ Ø§ÙĨÙĬ
ĠÙģÙĦ Ø³
ĠØ§ÙĦØª Ø§Ø«ÙĬØ±
ĠØ§Ø´ ØªØ±ÙĬ
ĠØ§ÙĦØªÙĪ Ø§ÙĦÙĬ
ĠØ§ÙĦÙħØŃ Ø§Ø¶
ĠÙħÙĬÙĥ Ø±ÙĪ
Ø±ÙĬ Øº
ĠØ§ÙĦØ± Ø§Ùģ
ĠØ§ÙĦÙĪ Øµ
ĠØªØŃ Ø¨
ĠÙĪØª Øª
ĠØ§ÙĦÙĤØ¨ ÙĪÙĦ
ĠØ§ÙĦÙĪ ØµÙģ
ĠØ§ÙĦØ§ÙĨ Ø¸ÙħØ©
ĠØªØ´ ÙĥÙĦ
ĠÙģØ± Ø´
ĠØ¸ Ø§ÙĩØ±Ø©
ĠÙĥ Ø±Ø§Ø¬
ĠØ§ÙĦØ® ÙĬØ±ÙĬØ©
ĠÙĪ ÙĥØ³Ø§Ø±Ø©
ĠØ¹ ÙĬÙĪÙĨ
ĠØº Ø²
ĠØ§ÙĦØ· ÙĪØ§Ø±Ø¦
Ġ14 41
ĠØªØ² Ø§ÙĦ
ĠØµÙĨØ§Ø¯ ÙĦ
ĠØ§ÙĦØ§Ø± Ø«
ĠØ§Øµ Ø§Ø¨
ĠÙģ Ø¬
ĠØµ ÙĦØ©
ĠÙħØ¹ ÙħÙĦ
ĠØ§ÙĦÙĤ ÙĪØ§Ø¹Ø¯
ĠØ§ÙĨÙĩ Ø§Ø¡
ĠØ§ÙĦÙħØ± ØŃ
ĠØ§ÙĦÙĨ Ø§Ùģ
ĠÙģÙĦ Ø³Ø·ÙĬÙĨÙĬ
ĠØ¬ Ø³
ĠØ¬ ÙĬØ´
ĠØ§ÙĦÙĦ Øº
ĠØ§Ø± ØªØ¯Ø§Ø¡
ĠØªØ¹ Ø§ÙĨÙĬ
ĠØ¨Ùħ Ø´Ø§Ø±ÙĥØ©
ĠØ¨Ø§Ø³ ØªÙħØ±Ø§Ø±
ĠØ¨ÙĬØª Ùĥ
ĠØ§ÙĦÙĩ Ø§Ø´
ĠØ§ÙĦØ¨ Ùĩ
Ø§ÙĪ Ø¶
Ùģ ÙĨ
ĠØ§ÙĦØ§ÙĨ Ø¨ÙĬØ§Ø¡
ĠÙĦ ØªÙģ
ĠØ§Ø³Øª ÙĬØ±Ø§Ø¯
ĠÙħØ¤ Ø®Ø±Ø§
ĠØ² Ùĥ
ĠÙħÙĨØ¸ ÙĪÙħØ©
ĠØ§Ø³ ÙĬÙĪØ·
ĠØªÙģ Ø¬ÙĬØ±
ĠØ§ÙĥØ³ ÙĬØ¯
ĠØª Ø§ÙĥÙĬØ¯
Ø´ ÙĬØ·
ĠÙĬ Ø±Ùī
ĠÙĪØ§ÙĦØ¹ Ø´Ø±ÙĪÙĨ
ØŃ ÙĬÙģØ©
ĠØ§ÙĦÙĨØ¨ ÙĪÙĬØ©
Ùħ Ø¨ÙĬ
ĠØª ÙħÙĦÙĥ
ĠØ± Ø§Ø¬
ĠØ§ÙĨ ÙĨÙĬ
ĠØ§ÙĦÙĬØ§Ø¨ Ø§ÙĨÙĬØ©
ĠØ§ ÙĬÙħØ§ÙĨ
ĠØ¬ Ø§Ø±
ĠÙĦÙĦØªÙĨ ÙħÙĬØ©
ĠØº ÙĬÙĨÙĬØ§
ĠØ§ÙĦØ§Ø± Ø¶ÙĬØ©
ØªÙĦ ÙĤÙī
ĠØ§ÙĦÙħÙģ ØªÙĪØŃ
ĠØ§ÙĦÙģ ØªØŃ
ĠØ§ÙĦÙģÙĦØ³Ø·ÙĬÙĨÙĬ ÙĬÙĨ
ĠØ§ÙĦØ§ØŃ ÙĦØ§Ùħ
ĠØ§ÙĦØ³ ÙĦØ©
ĠØªÙĨ Ø§Ø³Ø¨
ĠÙħÙģ ØªØ§ØŃ
ĠÙĦ Ø§Ø´
Ø§ØŃ Ø¸
ĠØ§ÙĦØ¬ ÙĪÙĬ
ĠØ§ÙĦØ´ ÙĬÙĪ
ĠØ§ÙĦØ¨Ø· ÙĨ
ĠØ§ÙĦØ´Ø¹ ÙĪØ±
Ø¶ Ø§Ø±
ĠØ§ÙĦÙĩ ÙĪÙĬØ©
ĠØ« ÙħÙĨ
ĠØ³ÙĪ ÙĬØ³
ÙĪ ÙĬØ¨
Øª Ø§Ø¯
ĠØ§ÙĦØŃØ³ Ø§Ø¨Ø§Øª
ĠÙĬ ÙĪØ¬Ùĩ
ĠØ¨Ø§ÙĦ Ùĩ
Ø¦ ÙĬØ§Øª
ĠØ§ÙĦÙħØ±Ø§Ùĩ ÙĤØ©
ĠØ§ Ø±Ùĥ
Ø§Ø® Ø¨Ø§Ø±
Ø´ Ø§Ø¯Ø§Øª
ĠØ§ÙĦÙĥ ÙĪÙħ
ĠØ³Ø¨ Ø§ÙĤ
ÙĪ ÙĥØ³
ĠØ§ÙĦÙħ Ø§Ø¦ÙĬØ©
ĠÙĦØ§Ø¨ Ø¯
ĠØ¨ÙĪØª Ø§Ø¬
ĠØ§ØªØµ Ø§ÙĦØ§Øª
ĠØŃ ÙĪØ§Ø¯Ø«
ĠØ§ÙĦØ§Øµ Ø§Ø¨Ø§Øª
ĠÙĦÙĦØŃ ÙģØ§Ø¸
ĠØ§ÙĦØªØ¹Ø¨ Ø¦Ø©
Ø§Øª ÙĩÙħ
ĠÙĥ Ø§Ø²
ĠØ§ÙĦÙĨ ÙħÙĪ
ĠØ§ÙĦØ¨ Ø«
ĠÙĪØ³ ÙĬÙĦØ©
ĠØ§ÙĦØ³ÙĨ ÙĪÙĬ
ĠÙĤØªÙĦ Ùī
ĠØ¨Ø§ÙĦ Ø¨Ø®Ø§Ø±
ĠØ§ÙĦÙĦ ÙĬØ¨ÙĬØ©
ĠØ§ÙĦÙħ Ø±ÙĬ
ĠØ¬Ùħ Ø¹Ø©
ĠÙĬØŃ Ø¯Ø¯
Ø§Ø± ÙĬØ§Øª
ĠØ± Ø®ØµØ©
ĠÙĪØ¨Ø± Ø§ÙħØ¬
ĠØ§ÙĦØ´ÙĬ Ø¹Ø©
Ø³ Ø§Ø±Ø©
ĠØ§ÙĦØ§ ÙĬØ©
ĠÙĦÙħÙĨ Ø¹
Ø´ ÙĪØ¨
ĠÙĦÙĦ Ø§Ø¯
ĠÙĤÙĦ ÙĬÙĦØ©
Ø§Ø¹ ÙĬÙĦÙĬØ©
ĠÙħØµ ÙĦØŃØ©
ĠØ² ÙĪØ§Ø±
ÙĪÙģ Ø§
ĠØ§ÙĦØŃØµ Ø±ÙĬØ©
ĠØª Ø¬ÙħÙĬØ¹
ĠØ§ÙĦÙĥØ± Ø§Ùħ
ĠÙģØ±ÙĬ Ø²Ø±
ØªØ± Ø§Ùħ
ÙĪØ¯ Ø¹
ĠØ¨ÙĪØ± ØµØ©
ĠÙħØ¯ Ø®ÙĦ
ĠØ± Ø®Ø§Ùħ
ĠØ§ÙĦØ´ Ø±ÙĬØ¹Ø©
ĠÙĤÙĦ Øª
ĠØ§ÙĦØ· Ø¨Ø®
ĠØ´Ø®Øµ ÙĬØ§Øª
ÙĤ ÙĬØ¨
Ø¶ Ø§Ø¦Ø¹
ĠØ§Ø¹Ø¯ Ø§Ø¯Ø§Øª
ĠØªØ¹Ø¨ Ø¦Ø©
ĠØ¬ÙĪ Ø§Ø²
ÙĪÙĨ ÙĩØ§
ĠØ§Ø³ Ø³
ĠØ§ÙĦØ§ØŃ ÙĬØ§Ø¡
ĠØ§ÙĦÙħÙĪØ³ ÙĬÙĤÙī
ĠØ§ÙĦØ¨ÙĪ Ø§Ø¨Ø©
ĠÙģ ÙĥØ§ÙĨ
ĠØ§ÙĪ Ùģ
ĠØ¬Ø§Ùĩ Ø²Ø©
ĠØ· ÙĩØ±Ø§ÙĨ
ĠÙĦ ÙĥØ³Ø§Ø±Ø©
Øµ ÙĬØ¨
ĠÙħØ³ Ø§ÙĦØ©
ĠØ³ÙĦ Ø·ÙĨØ©
ĠØŃØ¯ÙĬØ« Ø§
ĠØ§ÙĦØ§ÙĤÙĦ ÙĬÙħÙĬ
ĠØª Ø§Ø¬Ø±
ĠØ§Ø¬ Ø§Ø¨Ø©
ĠØ± Ø§ØŃ
ĠØ§ÙĦØ³ ØŃ
ĠØ§ÙĦØ§Ø¨ Ø±Ø§Ø¬
ĠØ§ÙĦÙħØªØŃ Ø±ÙĥØ©
ĠØ§Ùĩ Ø§ÙĦÙĬ
ĠØ§ÙĦÙħØ¤ÙħÙĨ ÙĬÙĨ
8 1
ĠØ± Ø¨ØŃ
ĠÙĤ ÙĪÙī
ĠØ§ÙĦÙģ ÙĨÙĪÙĨ
ĠØ§ÙĦØµ ØºØ±
ĠØ§ÙĦØ¹Ø¯ ÙĪ
Ġ17 80
ĠØ§ÙĦØŃ Ø¯Ø«
ĠØ§ÙĦÙģ Ø§Ø±
ĠØ§ÙĦÙģÙĪÙĦ Ø§Ø°
ĠØ§ÙĦØ§Ø³ØªØŃ ÙħØ§Ùħ
ĠÙĪØµ ÙģØ©
ĠØ§ Ø´Ø±Ùģ
ĠØªÙĪÙĦ ÙĬØ¯
ĠÙħ Ø³Ùħ
ĠÙĪØ§ÙĦ Ø¨ÙĦ
Ġ10 1
Ġ30 60
ĠØ§ÙĦÙĨ Ø§Ø·ÙĤ
ĠÙĪØª Ø³Øª
ĠØ§ÙĦØµ Ø¹Ø¨
ÙĪ Ø§Ø±ÙĬØ®
ĠØ§ÙĦØ¯ ÙĬÙĨÙĬ
ÙĪÙĥ ÙĪÙĦØ§Øª
ĠÙĬÙĪÙħ ÙĬÙĨ
ĠØ§ÙĦØµ Ø±Ø§Ø¹
ĠØ®ØµÙĪØµ Ø§
ĠÙĬ ØªØ®
ĠØ¹ ÙĤÙĦ
ĠØ¹ÙĦ ÙħÙĬ
ĠØ§ÙĦÙĤ ÙĦÙĤ
Ġ15 00
ĠÙħØªØµÙģ ØŃ
ĠØ§ Ø¯ÙĬ
ÙĪØ¨ ÙĦ
ĠØ² ÙĬÙħØ¨Ø§Ø¨ÙĪÙĬ
ĠÙĬÙĨ ÙĬÙĥ
ĠÙĬØ´ ÙħÙĦ
ÙĪØ¶ Ø§Ø¹
ĠØ§ÙĦÙħØ³ÙĬ ØŃÙĬØ©
ĠØ§ÙĦÙģ Ø¹Ø§ÙĦ
Ø§ÙĨ Ùħ
ĠÙĬ ØŃÙĤÙĤ
Ø§Ø® ÙĬØ±
Ø´Ø§Ø± ÙĬØ¹
ĠØªØ§Ø³ Ø³Øª
ĠØ§ Ø·Ø±
ĠØ§ÙĦØŃ ÙģØ±
Ø§Ùĩ ØªÙħØ§Ùħ
ĠØ§ÙĦØ²ÙĪØ¬ ÙĬØ©
ĠØ¨ ÙĬÙĪ
Ø§Ùħ Ø¨ÙĬØ§
ĠØ§ÙĦØ¹ Ø«Ùħ
ĠØªØŃ Ø¯Ø¯
ÙĥØ³ Ø±
ĠØ¨Ùħ Ø«
ĠØªØ® ØªØ§Ø±
Ø· Ø§ÙĦØ¨
Ø§Ø¸ Ùħ
ĠØ§ÙĦØ§Ø³ ÙĥØ§ÙĨ
9 1
ÙĬÙħ Ø²
ĠØ§ÙĦÙģ Ø§
ĠØªÙĪÙģ ÙĬÙĤ
ĠØª Ø°ÙĥØ±
ÙĪÙĨ ÙĬØ©
Ø§ÙĨ Ùĥ
Ø§Ø¨ ÙĦØ§Øª
ĠÙĦÙħ Ø¯
ĠØ¹Ø¯ Ø¯Ø§
ĠØ§ÙĦØ¯ ÙĤØ©
ĠØ¯ÙĪÙĦ ÙĬ
ĠØµ Ø§Ø¯ÙĤ
ÙĬÙĥ Ø©
ĠØªØ´ ÙĬØ±
ĠÙĪØ§Ø³ Ø¹Ø§Ø±
Ø§ØŃÙĨ Ø§Øª
ĠØ§ÙĦØ± Ø¨Ø¹
Ġ24 80
Ùħ Ø´
Ø±ÙĪØ³ ÙĪÙģØª
ĠØ§ÙĦØ¬Ø¯ ÙĪÙĦ
ĠÙĦ Ø¬Ùħ
ĠØ¬ ÙĬÙĦ
Ø§Ø¶ Ø©
ĠÙĪÙĦ ÙĬØ¯
ĠÙĦ Ø®Ø¯ÙħØ§Øª
ĠÙĦÙģ ØªØ±Ø©
ĠØ§ÙĦØµ Ø¨
ĠØªØ¯ ÙĪØ±
ÙĬØª Ø´
ĠØ§Ø¨ Øª
ÙĪØ§Øª Ø±
ĠÙĪØ§ÙĦØ¯ ÙĥØªÙĪØ±
Ø§Ùħ Ø¹Ø§Øª
ĠÙĬ ØªØ¬
ĠØªÙħ ÙĥÙĬÙĨ
Ø²Ø§ ÙĬØ¯
Ø§Ø³Ùħ ÙĬÙĨ
ĠØ§ Ø¸ÙĩØ±
ĠÙħØ¬ Ø§ÙĨ
ĠØ§ÙĦØ§Ø¹ ØªÙħØ§Ø¯
ĠØ§ÙĦØ¨ ÙĨØª
ĠØ§ÙĦØ¨ ÙĥØ§ÙĦ
ĠÙĬØª Ø·ÙĦØ¨
ĠÙħÙģ ÙĬØ¯Ø©
Ø¬Ø¨ Ùĥ
ĠØ§ Ø°ÙĩØ¨
ĠÙĤ Ø§Ø³Ùħ
ĠØ§ÙĦØ² ÙĬ
ĠØ§ÙĦØ§ÙħØ§Ø±Ø§Øª ÙĬ
ĠØ§ÙĦØ´Ø®Øµ ÙĬØ§Øª
ĠØ§Ùħ ÙĪØ±
ĠØ§ÙĦØ´ÙĬ Ø¡
ĠØ§ÙĦØ¯ Ø±ÙĪØ³
ÙĤ Ø§Ø·
ĠØ³ ÙĬØ±Ø©
ĠÙħÙĨØµ Ø§Øª
ØªØ¨Ø§Ùĥ Ø§Øª
ĠØ§ÙĦÙĤ Ø§Ø¹Ø¯Ø©
ĠØ§ÙĦØ² ÙĬØ§Ø±Ø§Øª
ĠØ¨ÙĦ Ø¯Ø©
ĠØ¬ ÙĩØ¯
ĠØ§ÙĦÙħÙĪØ³ ÙĪØ¹Ø©
ĠØ ¡
ĠØ§ÙĦØ³ Ø¹Ø§Ø¯Ø©
ĠØ§ÙĦØªØ¬ Ø§Ø±
Ø³ Ø¹
ĠÙĨØ¸ Ø±ÙĬØ©
Ú© ÙĨ
ĠØ§ÙĦØ§Ø´ØªØ±Ø§Ùĥ Ø§Øª
ÙĤ Ø§ÙĨ
ĠØ§ÙĦÙĤØ± Ø§Ø±Ø§Øª
ĠØ§Ø³ØªØ¨Ø¯ Ø§ÙĦ
ĠØªØ± Ø®ÙĬØµ
Ġ1780 94
ĠØ³ ÙĪØ§Ø±
Ø§Ø¦ Ø³
ĠÙħØªØ¹Ø¯ Ø¯
ĠÙĥÙĪÙĦ ÙĪÙħ
ĠØ¹ ÙĬØ§Ø±
ĠØ§ÙĦÙĩÙĨØ¯ Ø³ÙĬØ©
ĠØ§ÙĦ Ø¶Ø¹
ĠÙĬÙĤ ØªÙĦ
ĠØ§ÙĦØµ Ø¯Ùħ
Ġ3060 98
Ġ2480 85
ĠÙĬ Ø±ÙģØ¶
ĠÙĦØª ÙĥÙĪÙĨ
ĠÙħØ¹ ÙĩÙħ
Ġ7 50
ĠÙĪØ§Ø´ Ø§Ø±
ĠØ§ ØªÙĩ
ĠØ§Ø³Øª Ø«Ùħ
Ø¨Ø¯ Ø¡
ĠÙħÙĤ Ø·Ø¹
ÙĨ Ø¹Ø©
ĠØª ÙĦØ§
ĠØªØµ ÙģÙĬØ§Øª
ĠØªØ´ ÙĩØ¯
ĠØ§ÙĦØ§ ÙĪØ¶Ø§Ø¹
ĠÙĦÙħ Ø±
ĠÙģÙĤØ¯ Ø§ÙĨ
ĠØ§ÙĦÙħØ´ Ø§Ø±Ùĥ
ĠÙĪØ¨ ÙĨØ§Ø¡
ĠØ§ÙĦÙĨÙĩ Ø§Ø±
ĠÙĪØ§ÙĦ Ø´Ø±
Ø§Ø¯ ÙĬÙħÙĬ
ĠØ§ÙĦØ§Øµ ÙĪÙĦ
ĠØ±ÙĬØ§Ø¶ ÙĬØ§Øª
ĠØ¨ÙĬÙĨ ÙĩÙħØ§
ĠØ§ÙĦÙĨ ÙħØ³
ĠÙĪØªØŃ ÙĤÙĬÙĤ
ĠÙħØ« Ø§ÙĦ
ĠØ§ÙĦÙģØª Ø§Ø©
ĠØ§ÙĦÙħØ· Ø§Ø±
ĠØ§ÙĦØ® ÙĬ
ĠÙĥØ´Ùģ Øª
ĠÙģ Ø¤Ø§Ø¯
ĠØ§ÙĦÙĤ Ø¯Ø±Ø§Øª
ĠÙĦØ§Øµ ØŃØ§Ø¨
Ø±ÙĬÙĥ Ø§
ĠØ¯ÙĬ Ø§Ø¨
ĠÙĦÙĦØ³ ÙģØ±
ĠÙĪÙĦÙĥÙĨ Ùĩ
ĠØ¯ Ø¨ÙĦ
ĠØ§ÙĦØµ ÙĨØ¹
ĠØªØ¯ ÙĦ
Ùĥ Ø¨
ĠÙħØµ ÙħÙħ
ĠÙĦÙĦÙħ ÙĪØ§Ø¯
Ġ30 1
ĠØ§ÙĦØŃ ÙħÙĦØ©
ĠØ³Ø§Ø¨ÙĤ Ø§
ĠØ§ÙĦØ³Ùĥ Ø±ÙĬ
ÙħØ¬ ÙĬØ§Øª
ĠÙĪØ§ÙĦ ØªÙģ
ĠØ§ÙĦØ¹ Ø¬
ĠØ¹ÙħÙĦ Ùĩ
ĠØ§ÙĦÙħØ³ ØŃÙĪÙĤ
ĠØ§Øº Ø±Ø§Ø¶
ĠØŃØµ Ø±ÙĬ
ĠØ§ÙĥØ³Ø¨ ÙĪ
ĠØ±Ùħ ØŃ
ĠØ§ÙĦÙģÙĦØ³ ÙģØ©
ĠØ§ÙĦÙĥ ÙĪØ¯
ĠØ§ÙĦØ§ÙĨ Ø¯ÙĦ
Ø¤ ÙĥØ¯
ĠÙĪØ§ÙĦØ§ÙĨ ØªØ§Ø¬
ÙĦÙĬ Ø¬ÙĬ
Ø¨Ø¹ Ø§Øª
ĠØ¨Ø§ÙĦÙħ ÙĪ
Ø²Ø± Ø§Ø¹Ø©
ĠØ§ÙĦØŃ Ø§Ø±
ĠØ§Ø± ØªÙĥ
ĠØªØ¹ ÙĤÙĬÙħ
ĠÙĬÙħ Ø§Ø±Ø³
ĠÙħÙĥ Ø§Ùģ
ĠØ¹ ÙĪØ§ÙħÙĦ
ĠØ§ÙĦÙĤ ØªÙĦ
ĠÙĦÙĦÙħ Ø¹
ĠÙĪÙĨ Ø¸
Ø§Ø¯ ÙĬÙĦ
ĠØ¶ Ø±Ø¨
ĠÙĦØª Ø¹Ø¯ÙĬÙĨ
ÙĨ ÙĬÙĩ
ĠØŃ Ø¯ÙĬÙĤØ©
ĠÙĦÙĦ ÙĪØ¬Ùĩ
ÙĨØ¯ Ø³Ø©
ĠÙĬØ´ Ø¹Ø±
ĠØ´Ø§Ùĩ ÙĬÙĨ
ĠØ¨Ø§ÙĦÙħ ÙħÙĦÙĥØ©
ĠÙģØ¹ Ø§ÙĦÙĬØ©
ĠØ¨ÙĨÙģØ³ Ùĥ
ĠØ± ØµØ¯
ĠÙĨ Ø±
ĠØ§ÙĦØ°Ùĥ Ø§Ø¡
ĠÙģ Ø§ÙĬ
ĠØªØ³ Ø¹
ĠØ¨Ùħ ÙĤ
ĠØ§Ø®Ø¨Ø§Ø± ÙĬØ©
ĠØ§ÙĦØ§Ø³ØªÙģ Ø³
ĠÙĪ Ø´Ø±Ø§Ø¡
ĠØ§ÙĦÙħ ÙĪÙĤÙģ
ĠØ§ÙĦÙĦÙĤ Ø§ØŃ
ÙĬ ØºØ©
ĠÙĤ Ø§Ø¯
ĠØ§Ø´ ØªØ±Ø§Ùĥ
ĠÙĦÙĨ Ø¸Ø§Ùħ
ĠØ§ÙĦØ¯ÙĬÙħÙĤØ±Ø§Ø· ÙĬ
ĠØ§ÙĦØ§Ø¹ Ø´Ø§Ø¨
ĠØ¹ ÙħØ§
ĠÙĦÙĦØªÙĪ Ø§ØµÙĦ
ĠØŃ ØµÙĪÙĦ
ĠØ§ÙĦØ·Ø¨ Ø§Ø¹Ø©
ĠØ±ÙĪÙĨ Ø§ÙĦØ¯ÙĪ
ĠØ§ÙĦØ¹ Ø¶ÙĦØ§Øª
ĠØ±Ø¦ÙĬØ³ ÙĬØ©
ĠÙħØªØŃ Ø±ÙĥØ©
Ø´ Ø§Ø±Ø§Øª
ÙĬ ØŃØ©
Ø· Ø¨ÙĤ
ĠØ« ÙĨØ§Ø¦ÙĬ
ĠÙħØ¤ Ø´Ø±Ø§Øª
ĠØ¹Ø§ÙĦÙħ ÙĬØ§
ĠØ¨ÙħØ« Ø§Ø¨Ø©
ĠØ§ÙĦØªÙģ Ø§ØŃ
ĠØ¨Ø§ÙĦÙħ ØŃ
ĠØ§ÙĦÙĨØ§Øª Ø¬
ĠØ¨Ø¹ ÙĬØ¯Ø§
Ø¹ÙĬ ÙĬÙĨ
ĠØ§ÙĦØ¨Øµ Ø±Ø©
ĠØ³ Ø§Ø±Ø©
ØªØ¯ Ø®ÙĦ
ÙĬÙĪ ØªØ§
ĠØ§ÙĦØªØ¹ÙĦÙĬÙħ ÙĬ
ĠÙĬØ± ØºØ¨
ĠØ´ Ø§ÙħØ¨ÙĪ
ĠØ§ÙĦØ± Ø§Ø¬
ĠÙħØŃ Ø§Ø¬Ø±
ĠØ³ ÙĬØ³
Ø§Øµ ÙĬ
Ø§Ø´ ÙĬØ±Ø©
ĠÙģÙĨ ØŃÙĨ
5 7
ĠØ¬ ÙĦØ¨
ĠØ§ÙĦÙĥÙĦ Ø§Ø³
ĠØ´ Ø±ÙĬÙģ
ĠØ§ÙĦØŃØ± Ø³
ĠÙĦÙĦØ§Ø³Øª Ø«ÙħØ§Ø±
ĠØ· Ø¨ÙĬØ¹Ø©
ĠØ§ÙĦÙħØª Ø§Ø¨Ø¹Ø©
ĠØ³ÙĦ ÙĪÙĥ
ĠØ¨Øª Ø´
ĠØ§ÙĦÙĨÙĪ ÙĪÙĬØ©
ØºØ· ÙĬ
ĠØ§ÙĦØ§Ùħ Ø§ÙĨ
ĠØ§ÙĦØ¯ÙĪ ØŃØ©
ĠÙĦ ÙĪØ²Ø§Ø±Ø©
ĠÙħØ¨ Ø§ÙĦØº
ĠØªØ®Øµ ÙĬØµ
Ùħ ÙĬØ±ÙĬ
ĠØ§ÙĦØ´ Ø§ÙĬ
ĠØ° Ø±ÙĪØ©
ĠØ§ÙĦØ® ÙĦØ§ÙĬØ§
ĠØ§Ø¨ ØªØ¯Ø§Ø¡
ÙĬÙĤ ÙĬØ©
ÙĤØ± Ø§ÙĨ
Ø§Ø¯Ø« Ø§Øª
ĠØ§ÙĦÙĪØ« Ø§Ø¦ÙĤ
ĠÙĬ ÙĪÙģ
ĠØ§ÙĦØ¯ ÙĥØªÙĪØ±Ø©
ĠØ§ÙĦÙĩ Ø¯Ø§ÙĬØ§
ĠÙĬØŃ Ø§ÙĪÙĦ
ĠØµÙĨØ¹ Ø§Ø¡
ĠÙĤØ§ÙĨÙĪÙĨ ÙĬ
ĠØ§ÙĦØ³Ùģ Ø§Ø±Ø©
ĠØ§ÙĦÙħØª Ø¹Ø¯Ø¯Ø©
ĠØµÙĦ Ø§ØŃÙĬØ©
ĠØª ÙĩØ¯Ùģ
ĠØ´ Ø§ÙĦ
ĠØ´ ÙĬØ±ØªØ§Øª
ĠØ§ÙĦ ÙĩÙħ
ĠØ¹ ÙĥØ³
ĠÙĦÙĦ ØªÙģ
ĠØ§ÙĦØ³ÙĪØ±ÙĬ ÙĬÙĨ
ĠÙħÙĨ Ø®ÙģØ¶
ĠØ§ÙĦØ´ ÙĪ
ĠØ§ÙĦØ§ÙĨ Ø¨Ø§Ø¡
ĠØ§ÙĦÙħØ¯Ø± Ø³ÙĬØ©
ÙĪØ³ ÙģØ§Øª
Ø¶ÙĪ ØŃ
ĠØªØ± Ø§Ø®ÙĬØµ
ĠØ§ÙĦÙĥÙĩØ±Ø¨ Ø§Ø¦ÙĬ
ÙĬ Ø¡
ĠØ§ Ø±ÙĪØ¹
ĠÙĪ ÙĪØ±
ĠÙĦÙĦ Ø·Ø¨Ø§Ø¹Ø©
ĠØ§ÙĦØ§Ø· Ø§Ø±
ĠÙĦØ¹ Ø¯Ùħ
ĠØ§ÙĦØªØ¯ Ø®ÙĦ
ĠÙĥ Ø§ÙģÙĬØ©
ĠØ§ÙĦØ¬ Ø±ÙĬÙħØ©
ĠØ§ÙĦØµ ÙĩÙĬÙĪÙĨ
ÙĬØ² ÙĪ
ĠØ² ÙĩØ±Ø©
ĠØ§ÙĦÙĩ ÙĬ
ĠØ§ÙĦÙħØ¹ Ø§ÙĦ
ĠÙĬÙĤ ÙĪØ¯
ĠØ§ÙĤ ÙĪÙĦ
Ø§Ø³Øª ÙĬÙĥÙĬØ©
ĠØ§ ÙĬÙģ
ĠØ¨ÙĦ ÙĪ
ĠØ§ÙĦÙģ ÙĩØ±Ø³
ØªÙĬ Ø§Ø²
ÙĨØª Ø§Ø¦Ø¬
ĠÙħÙĪØ¬ ÙĪØ¯Ø©
ĠØ§ÙĦØ§ÙĨØªØ® Ø§Ø¨ÙĬØ©
ĠÙħØ¹ Ø±ÙĪÙģ
ĠÙħÙĪ Ø§ÙģÙĤ
ĠØ§ÙĦÙģØ± Ø²
ĠØ¹Ø¨ Ø§Ø±Ø§Øª
ĠØ§ÙĦÙħÙĤ Ø§ÙĪÙħ
ĠØ§ÙĦÙĥØ§Ùħ ÙĬØ±Ø§
ĠØ± ÙĬØ¯
ĠØ´ ÙĤÙĬÙĤ
ĠØ³ÙĬ Ø§Ø±
ĠØ¬ÙĪØ±Ø¬ ÙĬØ§
Ø³ ÙĪÙĦ
ĠØ¬ ÙħÙĦØ©
ĠØ§ÙĬ Ø¬ÙĬ
ĠØ§ÙĦÙĩ ÙĪÙĦ
ĠØ§ÙĦÙħØµ Ø§Ø¯Ø±
ĠØ³ ÙĬÙĪ
ĠÙĨ Ø´Ø±Ø©
ĠØ§ÙĦØ³ Ø§Ø¹Ø§Øª
ĠØ§ÙĦÙĪ Ø§Øª
ĠØ¨ÙĪ Ø¶Ø¹
ĠÙħ Ø§Ø¯
ĠÙħ ØªÙħÙĬØ²
ĠØ§Ø³Ùħ Ùĩ
Ø¬ ÙĬÙĩ
ĠØµ ÙĬÙĨÙĬØ©
ÙĪØª Ø´
ĠÙģØ¶ ÙĦÙĥ
ØªÙģ Ø§Ø¯Ø©
ĠØ§ÙĦØªØ®ØµØµ Ø§Øª
ĠØ§ÙĦØ± Ø¯ÙĪØ¯
ĠÙħÙĪ Ø§ÙĤÙģ
ĠØ§ÙĦÙĩÙĨØ¯ ÙĬØ©
ĠÙĬØ® Ø±Ø¬
ĠØŃÙĥ ÙĪÙħÙĬØ©
ĠØ§ÙĦØŃØ± ÙĬØ±ÙĬ
ĠØ§ÙĦØ³ÙĨ ÙĪÙĬØ©
ĠØ¨Ø§ÙĦ ÙħØ±
ĠØ· ÙĦØ§Ø¡
ĠÙħÙĬÙĥ Ø§ÙĨ
ĠØ§ÙĦØ± ØŃÙĦØ©
ĠØ§ÙĦÙħÙĨ ØµØ©
ĠØ¨ÙĦØ¯ Ø§ÙĨ
ĠØ§ÙĦÙħ ÙĤØ±Ø±
ĠØ§ÙĦÙħØ³Øª Ø¯Ø§ÙħØ©
ĠØ§ÙĦÙħØ± ØªØ¨Ø·Ø©
ĠØ§ÙĦÙĤØ§ÙĨÙĪÙĨ ÙĬ
ĠÙħØ§Ø³ Ùĥ
ĠØ±Ø¤ ÙĬØ§
ĠØ§ÙĦØ´ÙĩØ± ÙĬØ©
ĠÙĪÙĨ Ø´
ĠØ§ÙĦØªØ¹ÙĦÙĬÙħ Ø§Øª
ÙĥØ§ÙĨ ÙĬØ§Øª
Ø´ ÙĬØ±ÙĬ
ĠÙĪØ§ÙĦ ÙĪ
ĠØ§ÙĦÙĨ Ø¬Ùħ
ĠØ§ÙĦØµ Ø§Ø¯Ø±Ø©
ÙĤÙĦ ÙĬÙĦ
ĠÙħØª Ø§ØŃ
ÙĪÙĦÙĪØ¬ ÙĬØ©
ĠØ§ÙĦÙħÙħØª Ø§Ø²
ĠØ³ ÙĬÙĤ
Ø§Ùģ Ø±ÙĬÙĨ
ĠÙħØŃÙħ ÙĪÙĦ
ÙĪØ° ÙĥØ³
ĠØ§ÙĦØª ÙĥÙĨÙĪÙĦÙĪØ¬
ĠÙĩÙĪÙĦ ÙĨØ¯Ø§
ĠØ§ÙĦØªØ± ØªÙĬØ¨
ĠÙĪØ§ÙĦÙħ Ø¹Ø¯Ø§Øª
ĠØ§ÙĦØ± Ø¨Ø§Ø·
ĠØ§ÙĦÙħÙĪ ØŃØ¯
ĠØ§ÙĦØ§Ø¨ ÙĦ
ĠÙģÙĬ Ùĥ
Ùħ ÙĪØ±
ĠÙĬØŃ Ø°Ø±
ĠØ§ÙĦØ§ÙĥØ³ Ø¬ÙĬÙĨ
ĠØ¨ Ø³Øª
ĠØ¨ Ø§Ùģ
ĠØ® ÙĦÙĬØ¬
ĠØ¬ÙĨ Ø±Ø§ÙĦ
ĠÙĦÙĤ Ø¨
ĠØ§Ø´Ø± Ø§ÙĤ
ĠÙĥ ÙĨØ¨
ĠØ§Ø® ÙĦØ§ÙĤ
ĠØ§ØŃ ØªÙĬ
ĠØ¨Ø· Ø§Ø±ÙĬØ©
ĠØªØ¹ÙĦÙĬÙħ Ø§Øª
ĠÙĦÙħØ³ Ø§Ø¹Ø¯
ĠÙģ ÙģÙĬ
ĠÙĨØ³ Ø§Ø¦ÙĬ
ĠØ§ÙĨ ÙĤÙĦØ§Ø¨
ÙĪØ§ÙĦ Ø¨
ĠØ§ÙĦÙħÙģ Ø¶ÙĦ
ÙĪØ§Ø¬ ÙĨ
ĠÙĪØ§Ø¯ Ø§Ø±Ø©
ĠÙĬØª Ø¹
ĠØ§ÙĦÙħ Ø¬Ø±
ĠÙĤ Ø¶Ø§Ø¡
ĠØ´ ÙĪØª
ĠØªØ¹ ÙĨÙĬ
Ø±Ø¬ ÙĪ
ĠØ§ÙĦØ³ÙĦ Ø·Ø§ÙĨ
ĠØªÙĤÙĦ ÙĬÙĦ
ĠÙĬ ØªÙĬØŃ
Ø±ØŃ Ø¨
ĠÙĪØ· ÙĨ
ĠØ³ ÙĤØ·
ĠØ§ÙĦØ¹ Ø´Ø±ÙĬÙĨ
Ø§Ø´ Ùī
Ø§Ùĥ ÙĩØ©
ĠÙĬÙĪÙĨ Ø³
ĠØ§ÙĦØŃÙĤÙĬÙĤ ÙĬØ©
ĠØ§ÙĦ Ø§ÙĩØ¯Ø§Ùģ
ĠØ§ÙĦÙħ ÙĬÙĥØ§ÙĨ
ĠØ§Ø³ Ø§Ø³ÙĬØ©
Ø¨Ø§ØŃ Ø«
ĠØ³Ø§ÙĨ Øª
ÙĤÙĦ Ø¨
ĠÙģØ± Ø¯
ĠØ¨ ÙĬÙĪØª
ĠØªØ´ Ø¹Ø±
ĠØªØ§ÙĬÙĦ Ø§ÙĨØ¯
ÙĪÙĨ Ø¯Ø§
ĠØ§ÙĦØ¬ ÙĨØ©
ĠØ· ÙĬØ¨
ĠØ§ÙĦØ° ÙĩØ§Ø¨
ĠØ§Ùħ Ø¨
ĠØ§ÙĦÙħØªØŃ Ø¯Ø«
ÙĪÙĤ Ø§ÙĬØ©
ÙĬÙĪ ÙĬÙĨ
Ùĥ ÙĦÙĬ
ĠØ§Ø³Øª Ø«ÙħØ§Ø±
ĠØ«ÙĦØ§Ø« ÙĬØ©
Ø§ ÙĬØ²
ĠÙĬ Ø¬ÙħØ¹
ĠÙĨ Ø¬ÙĦ
ĠØ¨Ø§ÙĦÙĦ ÙĪÙĨ
ĠØ§ÙĦÙħØ°Ùĥ ÙĪØ±Ø©
ĠØ§ÙĦÙĨ ØŃÙĪ
ĠÙĪØ§Ø¶ ØŃØ©
ĠØª Ø§Ø¨Ø¹Ø©
ĠØ§ÙĦØŃ ÙĦÙħ
ĠØ¬ÙĩØ§Ø² Ùĥ
ĠÙĥØ§Ø± Øª
ĠÙĪØ§ÙĦÙħ Ø¹ÙĦÙĪÙħØ§Øª
Ø¨Ø§Ø± Ø§Ø©
ĠØ§ÙĦØ§ÙĦ Ùĩ
ĠÙħÙĬØ¯ Ø§ÙĨ
ĠØ§ÙĦÙħØ³Ø¦ ÙĪÙĦÙĬØ©
ĠÙĬØ´ ÙĬØ±
ĠØ¸ÙĩØ± Øª
ĠÙĦ ØªÙħ
ĠÙĥÙģ ÙĪØ±ÙĬ
ĠØ§ÙĦØªØ¹Ø¨ ÙĬØ±
ĠØ¯ Ø§Ùħ
Ø¯Ø± Ø¬Ø©
Ġ17 0
Ø³ Ø§
ĠÙĪ Ø¹Ø¯Ø¯
ĠØ®ÙĦØ§ÙĦ Ùĩ
ĠÙĥ ÙĨØ§
ĠÙĥ Ø¬Ùħ
ĠØ§ÙĦØ· ÙĬØ¨
ĠÙĦÙĦØ¹ Ø±Ø¨ÙĬØ©
ĠØ§ÙĦØ§ÙĤÙĦ ÙĬÙħÙĬØ©
ĠØ¬Ø¨ ÙĩØ©
ÙĨ Ø§Ø©
ØŃ Ø§ÙĨÙĩ
ĠØ§ÙĦÙħ ØµÙĦ
ĠØ§Ùħ Ø§ÙĨ
ĠØ§ÙĦØ¹ Ø²ÙĦ
ĠÙħØŃ Ø¯Ø¯Ø©
ĠØ§ÙĦØ§ØŃ Øµ
ĠÙĪØ¹ ÙĨØ¯
ĠØ¨Ùĥ Ø«ÙĬØ±
ĠØ§ÙĦØ§Øº Ø°ÙĬØ©
ĠÙĬÙĪ Ø¶ØŃ
ĠØŃ Ø±Ø§Ø¬
ĠØ§ÙĦÙħÙĥØ± ÙħØ©
ĠØ´ Ø¦
ĠØªØ¯ Ø±ÙĬØ¨ÙĬØ©
ĠØªØ±Ùĥ ÙĬØ²
20 21
ØŃ ÙĪÙĨ
ĠØ§ÙĦØ§Ø± Ø¬
ĠØ§ÙĦØ´Ùĩ ÙĬØ±Ø©
Ø§ÙĦ Ø§ÙĨ
ĠØ¨ ØªØ¬
Ġ10 5
ĠØ³ÙĦ Ø§ØŃ
ĠÙĦÙĦØ´ Ø±ÙĥØ§Øª
ĠØ§ÙĦØ¨Ø¯ ÙĨÙĬØ©
ÙĦ ÙĬØ§Øª
ĠÙĦ Ø®Ø¯ÙħØ©
ĠØ§Ø³Øª ÙĩØ¯Ø§Ùģ
ĠÙģ Øµ
ĠØ³ ÙĬÙħ
ĠØŃ Ø¨ÙĬ
ĠØ§ÙĪ Ø¨
ĠÙĩÙĬÙĦ ÙģÙĬ
ĠØ§ÙĦØ§ØŃØªÙģ Ø§ÙĦ
Ø§ Ùī
Ø¦ Ùĥ
ĠÙĩ Ø§Ø±
ĠÙĪØ¯ Ø¹Ùħ
ĠØ§ÙĦØ·ÙĦØ¨ Ø§Øª
6 8
Ùĩ ÙĬØ²Ø§Øª
ĠØ§ÙĦÙħ ÙĬØª
ĠØ§ÙĦÙģ Ø§Ø¦Ø¯Ø©
ĠØ§ÙĦÙĩÙĬØ¯ Ø±ÙĪÙĥ
ĠØ¹ Ø°
ĠØ§ÙĦÙħØ· Ø§Ø¹Ùħ
ĠØ¯ÙĬØ³ Ùĥ
ĠØ¨ Ø°
ĠØ§ ÙĬÙħ
ĠÙģØ¹ÙĦ Ø§
ĠØµØ§ÙĦ ÙĪÙĨ
Ø³ Ø§ÙĦØ©
ĠØ§Ø³ ÙĩÙĦ
ĠØ§ÙĦÙĪ Ø¸ÙĬÙģ
ĠÙĩÙĬÙĦÙģÙĬ ØºØ±
ĠØ§ ØªØ±Ùĥ
ĠØª Ø¶ÙħÙĨ
Ø§Ø¤ ÙĩØ§
ĠØ§ÙĬØ¬ Ø§Ø¨ÙĬØ©
ÙĪØ± ÙĩØ§
ĠØ§ÙĦØ§Ø³ Ø±Ùī
ĠØ§ÙĦÙħ Ø§Ø¬Ø³ØªÙĬØ±
ĠØ§ÙĦØ¯ÙĬÙĥ ÙĪØ±
ĠØ§ÙĦÙħØ± Ø§Ø¬
ĠÙĦØªÙĪ ÙģÙĬØ±
ĠØ§Ø®Øµ Ø§Ø¦ÙĬ
ĠØ§ÙĦ ÙĬØ§Øª
ĠÙħØ´ ØªØ±ÙĥØ©
ĠÙĪØ§ÙĦÙħ Ø·
ĠØ§ÙĦØ®Ø· Ø§Ø¨
ĠÙĨ Ø§ÙĤ
ĠØ§Ø± Ùħ
ĠØ± ØµÙĬØ¯
Ø§Øª Ø°Ø©
ÙĪØ±Ø¯ ÙĬÙĨ
ĠØ§ÙĦØ§Ø³Øª ÙĤÙĦØ§ÙĦ
ĠÙĤØµ ÙĬØ±
ĠØ® ØªÙħ
Ø±ÙĤ Ø§Ø¡
ĠØ§ÙĤ Ø§Ùħ
ĠØ¨Ø§ÙĦØ¬ Ø³Ùħ
ĠØ§ÙĦØ³ Ø§ØŃ
ĠØªØµ ÙĨØ¹
ĠØ§ÙĦØ´ Ø±Ø¨
Ø§Ùĥ Ø§
ĠÙĦÙħ ØªØ§Ø¨Ø¹Ø©
ĠØªÙħ Ø¯ÙĬØ¯
ĠÙħØ§Ùĩ ÙĪ
ĠØ§ÙĦÙĥÙĪÙĥ ÙĬØ²
ÙĪÙĤ ÙĬØ¹
ĠØ§Ø· ÙĪÙĦ
ĠØ§ÙĦØ¯ Ùģ
ĠØ§ØŃ ÙĬØ§ÙĨØ§
ĠØ§ÙĦØ¶ Ø±
ĠØ§ÙĦÙħØŃ Ø±
ĠØ§ÙĦÙħØ´ ÙĩØ¯
ĠØ§ÙĦØ¨Ø¯ ÙĬÙĦ
ĠØ³ÙĥÙĨ ÙĬØ©
ĠÙĪÙĦÙĩ Ø°Ø§
ĠØ¹ÙħÙĦ Ø©
ØªÙĦ Ø·Ø©
ĠØŃÙĤ Ø§Ø¦Ø¨
ĠØ§ÙĦÙĬØ¯ ÙĪÙĬØ©
ĠÙħØ¯ ÙĨÙĬ
ĠØ¬ÙĦ Ø¯
Ø¬ÙĪ ÙĩØ±Ø§Øª
ĠÙĦÙħ Ø¬ÙħÙĪØ¹Ø©
ÙģÙĦ ÙĪÙĨ
ĠØ§ÙĦÙĪ Ø¹ÙĬ
ĠÙĬÙħ ØªÙĦÙĥ
ĠØ§ÙĦØ¹ÙĤÙĦ ÙĬØ©
Ø§ÙĦ Ø·
ĠØªÙĪ ÙĬÙĪØªØ§
ĠØ³Ùħ Ø¹
ĠØ± Ø§Ø¨Ø·Ø©
ĠØ§ÙĦÙĥ Ø±ÙĬ
ÙĬÙĥ Ø±Ø²
ĠÙĬØªØŃ ÙħÙĦ
ĠØ§ÙĦÙĨ ÙĩØ±
ĠØ§ÙĦØ± Ùģ
ĠØª ÙĤØ¯ÙĬØ±
ĠÙħÙĨ ØŃØ©
Ø§Ø¦ Ø±ÙĬ
ĠÙħØµ Ø·ÙĦ
Ø±Ø§Ø¦ Ø·
ĠØ§ÙĦØ§ÙģØªØ± Ø§Ø¶ÙĬ
ĠØ¨ Ø¨Ø¹Ø¶
ĠÙħÙĦ Ø¹ÙĤØ©
ĠÙĬØ¯ ÙģØ¹
ĠØ§ÙĦØ¯Ø³Øª ÙĪØ±ÙĬØ©
ĠÙĤ Ø¨Ø±
Ø§ÙĬØ± Ø§ÙĨ
ĠØ§ÙĦØŃ Ø´Ø¯
ĠØ¹ÙĨ Ø¯ÙĬ
Ø§Ùĩ Ø©
Ġ01 0
ĠØ§ÙĦÙħ ÙĪØ¯
ĠØµØ¹ ÙĪØ¨Ø©
ĠÙĪØ§ÙĦØ§Ø¬ØªÙħØ§Ø¹ ÙĬØ©
Ø´ ÙĥÙĦ
ĠØ§ÙĦÙħØ¹ ØªÙħØ¯Ø©
ĠØ§ÙĦÙĥØªØ±ÙĪÙĨ ÙĬØ§
ĠØªØ¹ Ø·ÙĬÙĦ
ĠØºÙĬØ± Ùĩ
ĠØ§Ø¹ÙĦ Ùħ
ĠØ§ÙĦØªÙĨ ÙĤÙĦ
ĠØ§ÙĦÙĨØµ Ø§Ø¦ØŃ
ĠØ§ÙĦÙħØ¹Ø§ÙĦ Ø¬Ø©
ĠØŃ Ø±ÙĪÙģ
ĠØ§ÙĦÙģ Ø§Ø¦ÙĤØ©
ĠÙħÙĪ Ø¶Ø©
ĠÙĬØ¹ ØªÙĤØ¯
ĠØ§Ø¶ Ø§Ùģ
ĠØ§ÙĨÙĩ ÙĬØ§Ø±
ĠØª ÙĤØ¯
ĠØ³ Ø§Ø¹
ĠØ§ÙĦØ° Ø§ØªÙĬ
ĠÙħØª ÙĩÙħ
ĠØ§ÙĦØ§Ø¶ ØŃÙī
ĠØ§ÙĦÙĤ ÙĬÙĪÙĬÙĨ
ĠØ§ÙĦØ± ØŃÙħ
ĠØ¨Ùħ ØµØ±
ĠØ§ÙĦÙĤØ· Ø±ÙĬ
ĠØ§ÙĦØ±ÙĪ Ø§Ø¨Ø·
ÙĪÙĤ ÙĬ
ĠÙħØµ Ø§ÙĦØŃ
ĠØ§ÙĦØªØ¯ Ø±ÙĬØ¨ÙĬØ©
ÙĪÙĨ Ø¬
Ø°ÙĥØ± Ø§Øª
ĠØ¹Ø±Ø¨ Ùī
ĠØ´Ø®Øµ ÙĬ
ĠØ§ÙĦØ¹ÙĤ ÙĪØ¨Ø§Øª
ĠÙĥØ§Ø± ÙģÙĪØ±
ĠÙĤÙĦ Ø¨ÙĬ
ĠÙĨÙħ Ø·
ĠÙĤ Ø§Ø¯Ø©
ĠØ´ Ø±Ùģ
ĠØ§ÙĦØ¨ÙĬ Ø¦ÙĬØ©
ĠØ¹ Ø¶ÙĪÙĬØ©
Ø§ÙĪ ÙĬÙĦ
ĠØ§ÙĤØ± Ø§Øµ
ĠØ§ÙĦØ¨ÙĤ Ø§Ø¡
ĠØ¬ ÙĩØ§Øª
ĠØªÙģ Ø¶ÙĦ
ĠØ§ÙĦÙĥÙĦ ÙĨÙĥØ±
ĠÙĪØ§ÙĦØµ ØŃØ©
Ø³ Ø¹ÙĬØ¯
ĠØ§ÙĦØª ÙĪÙģ
ĠØ¬ ÙĬØ¬Ø§
ĠØ§ÙĦÙħØ¹ ØªÙħØ¯
Ø« Ùģ
Ø¨ Ø§ÙĬ
ĠØ¬ Ø±Ø¹Ø©
ĠØ§ÙĨ Ø¶Ùħ
ĠØ§ÙĦØ±ØŃ ÙĬÙħ
ĠÙĦÙĦØ³ ÙĨØ©
ĠÙĦØªÙĨ Ø¸ÙĬÙģ
ÙĦ ÙĬÙĨÙĬ
ĠÙħÙĨ ØªØ¯ÙĬ
ĠØ§ÙĦØ¹ Ø¸Ø§Ùħ
ĠØ± Ø§Ø¦ØŃØ©
ĠØ§ÙĦÙĩ Ø§Ùħ
ØŃ Ø¯Ø©
ĠÙĦ Ø©
Ø· ÙĪ
ĠØ§ÙĦÙĨ Ø¯
ĠØ§ÙĦØ§Ø´ ÙĥØ§ÙĦ
ĠÙħÙĨØµ Ø¨
ĠØ§ÙĦÙĬÙĪÙĨ Ø§ÙĨ
Ø² Ø§ÙĨ
ØºØ§Ùģ ÙĪØ±Ø©
ĠÙĦÙĦ Ø¹ÙĦÙĪÙħ
ĠÙĪØ§ÙĦÙħ ÙĪØ§Ø¯
Ġ200 1
ĠÙĦØ§ÙĨ ÙĥØ§
ĠÙĬÙģ ÙĪØ²
ĠØ¨ÙĦØº Øª
ĠØ§ÙĦÙħ ÙĪØ¨Ø§ÙĬÙĦ
ĠØ§Ø¹ÙĦ Ø§Ùĩ
ĠÙĨØ´Ø± Øª
ĠÙĦÙĦØ¨ÙĨ ÙĬÙĨ
ĠØ§ÙĦÙħØ¬Ùħ ÙĪØ¹Ø§Øª
ĠØªÙĪ Ø¶ØŃ
ĠØ§ÙĦØ¬Ø§ÙĨ Ø¨ÙĬØ©
Ø¹ Ùĥ
ĠÙĩ Ø²Ø§Ø²
ĠØ´ ÙĪØ±Øª
ĠØ¹ Ø¬ÙĦØ©
ĠÙħ Ø§Ø±ÙĥØ©
Ø¨ Ø¶
ĠÙĥ Ø±ÙĬÙħØ©
ĠØ§ÙĨ Ø¬ÙĦÙĬØ²ÙĬØ©
ĠØ§Ø³Øª Ùħ
ÙĪØ¹ ÙĬ
ÙĪØ§Ø± Ø¯
ĠØºØ° Ø§Ø¦ÙĬØ©
ĠØ§ÙĦØª Ø³ÙĬÙĬØ±
ĠØ¯ ÙĤØ©
ĠØ¨Øª ÙĨØ³ÙĬÙĤ
ĠÙĦØªØŃ ÙħÙĬÙĦ
ĠØª ÙĥØª
Ø« ÙĬ
ĠØµ Ø§Ø¯Ø±
Ø¦ ÙĪÙĬØ©
ĠØªÙĨ ØªØ¬
ĠØ´ Ø±Ø¨
ĠØ±Ø¦ÙĬØ³ Ø§
Ø° ÙĬÙĨ
ĠØªØ¯ ÙģØ¹
ĠØ§ÙĦØŃØ¯ÙĬØ¯ ÙĬØ©
ĠØªØ¨ ÙĦÙĬØº
ĠØ¨Øª Ø³Ø¬ÙĬÙĦ
ĠÙĬ Ø¨ÙĤÙī
ĠØ¬ ÙĬÙħ
ĠØ§ÙħÙĬØ± ÙĥØ§
ĠÙĬØ§Ø³ Ø±
ĠÙĪ ÙĪØ³
Ø¦ ÙĨ
Ø³ ÙĥÙĬ
ĠØ³ÙĪ Ø¡
ĠØ¨ Ø³ÙĦ
ĠØ¬ÙĪ Ø§Ø¦Ø²
ĠÙĪ Ø§ÙħØ§
ĠØ§ÙĦÙħ Ø®ÙĦ
ĠØªØªÙĪ ÙģØ±
ĠÙĪØ§ÙĦ Ø¯Ø±Ø§Ø³Ø§Øª
ĠØ§ÙĨØ¬ÙĦ ØªØ±Ø§
ĠØ§ÙĦÙħ ÙĪØ±
Ø±ÙĪØ³ ÙĬØ§
ĠØ¬Ø¯ÙĬØ¯ Ø§
ĠÙĥ Ø¨Ø±Ùī
ĠØ± ÙĪÙĦ
ÙĦÙĬ Ø´
ĠÙħØª Ø§ØŃØ©
ĠÛ ©
Ø±ÙĬ Ø§ÙĨ
ĠØ§ÙĦÙģ ØŃØµ
ĠØ¨Ø§ÙĦØ§Ø³ ÙĥÙĨØ¯Ø±ÙĬØ©
ĠØ³ Ø±ÙĬØ±
ĠØ§ÙĦØ¶ ÙģØ©
ĠØ§ÙĦØ² ÙĨ
Ġ11 5
Ø±ÙĪØ¶ Ø©
ĠØŃ ÙĨ
ĠØ§ÙĦØ¹ Ø§Ø¯ÙĬ
ĠØ§Ø¨ ØŃØ§Ø«
ĠØ§ÙĦÙĨØ¨Ø§Øª ÙĬØ©
ĠØ§ÙĦÙĩÙĬØ¯Ø±ÙĪÙĥ Ø±Ø¨ÙĪÙĨØ§Øª
Ø® Ø§Ø¡
ÙĬØ¯ ÙĬÙĨ
ĠÙĪØª Ø§Ø±ÙĬØ®
ĠØ³ÙĬ Ø§ØŃÙĬØ©
ĠØ§ÙĦØ¨ÙĦ Ø¯ÙĬØ©
ĠØ±Ø§ Ùī
ĠØ§ ÙĬØ¯ÙĬ
ÙĪ Ø§Ø²
ĠØ§ÙĦÙħ Ø¹Ø±Ø¶
Ø´ÙĬ ØŃ
ĠØ´ÙĩØ¯ Ø§Ø¡
ĠØ®Ùģ Ø¶
Ø« Ùī
ĠØ§Ùĥ ÙĦ
ĠØ§Ø³Øª ØºÙĦØ§ÙĦ
ĠØ§ÙĦØ± Ø¶
ĠÙĦÙĦÙħ ÙĪÙĤØ¹
ĠØªÙĤ ÙĪÙĬÙħ
ÙĥØª ÙĬØ±ÙĬØ§
ĠØ§ÙĦØ±ÙĪØ§ ÙĬØ©
ĠØ§ÙĦØµ Ø¹ÙĬØ¯
ĠØ§ÙĦÙħØ³Øª Ø«ÙħØ±ÙĬÙĨ
ĠÙģÙĪØ± Ø§
ĠØ§ÙĦÙħ Ø°
ÙĦØ§Ùħ ÙĬØ°
ĠÙĦÙĦØµ ØŃØ©
ĠØ§Ø³Øª Ø±Ø¯
ĠØ¨ØŃ ÙĦÙĪÙĦ
ĠØ§ÙĦØ±ÙĤ Ø§Ø¨Ø©
ĠØ¯Ø§Ø® ÙĦÙĬ
ÙĨ ÙĬØ§Ùĩ
ĠØ¨ Ø§Øº
ĠØ§ÙĦÙħ Ø³Ø¨
ĠØ· Ùĩ
Ø¹Ø¯ ÙĦ
ĠØ§ÙĦØ§Ø³ Ø±
ĠØ§ÙĦØº Ø±Ùģ
ĠÙħØ³Øª ÙħØ±Ø©
ĠØ§ÙĦÙħØ± Ø´ØŃ
Ġ59 9
ĠÙĪÙĬÙħÙĥÙĨ Ùĥ
ĠÙĦØ§Ùĥ Ø«Ø±
ĠØ§ÙĦØ¨ÙĨ Ø§Øª
ĠØ§Ø³ØªØ´ Ø§Ø±Ø©
ĠÙĬÙĦ Ø²Ùħ
ĠØ§ÙĦÙħØªÙĪØ§Ø¬Ø¯ ÙĪÙĨ
ĠÙĪ ÙĥÙħ
ĠØº Ø¯
ĠÙĪØ§ÙĦÙħØ¹ Ø§Ø¯ÙĨ
ĠØ§ÙĦØ¨Ø§Ø¨ Ø§
ĠØ§ÙĦØ¬ ÙĩØ©
ĠÙħØŃ Ø¯ÙĪØ¯Ø©
ĠØ² ÙħØ§ÙĨ
6 4
ĠÙĤ ÙĬØ³
ĠØªØ¹ ÙĬØ´
ĠØ§ÙĦÙħØª Ø®ØµØµ
ĠÙĬØª ÙĥÙĪÙĨ
ĠØ§Ø® ØªÙĦØ§Ùģ
ĠØ¨ Ø·Ø±
ĠØ³Ø¨ ØŃØ§ÙĨÙĩ
ĠØ§ ÙĪØ¯
ĠÙĥÙĦ ÙĪØ¨
ĠØ§ÙĦØªÙĪ ØªØ±
ĠØ§ÙĦØŃ Ø´
ĠØ§ÙĦØ® ÙħØ³
ĠÙħØµØ± Ø¹
ĠØ§Ø´ Ø§Ø±Ø©
ĠØ¨ Ø±Ø¨
ĠØª Ø¬Ùħ
ĠØ§Ø³ ÙĩÙħ
ĠØ§Ø² Ø±ÙĤ
ĠØªÙĦÙħ ÙĬØ¹
ÙĪ Ø§Øµ
ĠÙĥ ÙĬØª
ĠÙħÙĦ ØŃ
ĠØ§ÙĦØ§Ø¨ Ø·Ø§ÙĦ
ĠØ¨Ø§ÙĦ Ø¹Ø±Ø¨ÙĬ
ĠØ§ÙĦÙĥ Ø§Øª
ĠÙĪØ· Ø±ÙĬÙĤØ©
Ġ58 5
ĠØ¹ Ø§Øµ
ĠÙĤ Ø§Ø¹Ø©
ĠØ² Ø§ÙĪÙĬØ©
ĠØªØµ Ø±Ùģ
ĠÙħÙĤ Ø§Ø·Ø¹Ø©
ĠØªÙĤ Ø¨ÙĦ
ĠÙĬÙģ ØªØŃ
ĠÙĬ Ø§Ø¨
ĠØ§ÙĦØª ÙĪØ¬ÙĬÙĩ
ĠØ§ÙĦØ§Ø® Ø·Ø§Ø¡
ĠÙĪØ§ÙĦ Ø«ÙĦØ§Ø«
ĠØ§ÙĦÙĤ Ùģ
ĠØªØ§ ÙĬÙĪØ§ÙĨ
ĠØŃ Ø¯Ø§Ø¯
ĠØ§ÙĦØ² ÙĩÙĪØ±
ĠØ§ÙĦÙĨÙĤ Ø¯ÙĬ
Ø§Øª Ø§
ĠØ§ÙĦØ± Ø§ØŃØ©
ĠØ§ÙĦØ± Ø¶Ø¹
ĠØ¶ ÙĪ
ĠÙĪØ¬ Ø¨Ø©
ĠØ§ÙĦØŃÙħ ÙĬØ¯
ÙģÙĦÙĪÙĨ Ø²Ø§
ĠÙĪØ² ÙĬØ§Ø¯Ø©
ĠØ¬Ø§Ø¡ Øª
Ùĥ ÙĪÙħ
Ø¹Ø§Ø± Ùģ
ĠØ§ÙĦÙĪØ³ Ø§Ø¦ÙĦ
ĠØ§ÙĦØ³ Ø¹Ø¯
ĠØ§ÙĦÙĨÙĤ Ø§Ø·
ĠÙĪØªØµ ÙħÙĬÙħ
ĠÙħÙģØ§Ø¬ Ø§Ø©
ĠØ§ÙĦØ§Ø±Ø« ÙĪØ°ÙĥØ³
ĠÙħ Ø¦Ø§Øª
ĠÙĪØ§ÙĦ Ø¹Ùħ
ĠØ® ÙĦÙĬØ©
ĠØ§Ø¹ ØªÙĤØ¯
ĠØ¨ØŃ Ø¬Ùħ
ĠØ§ÙĦØ¯Ùħ ÙĪÙĬØ©
ĠØ¬ ÙĦØ§ÙĦ
ĠØ§Ø³ØªØ´ ÙĩØ§Ø¯
ĠØ§ÙĦÙĬÙĩ ÙĪØ¯
ĠØ´ Ø±ÙĪØŃØ§Øª
ĠÙħØ´ ØºÙĦ
ĠÙħØ® Ø§ÙĦÙģ
ÙĬØ¬ Ø§Ø¨
Ø§ÙĦÙĬÙģ ÙĪØ±
ÙħØ§ÙĦ Ø©
ĠØªØ¨ ÙĪÙĥ
ĠØªÙĩ Ø¯ÙĬØ¯
ĠÙĪØ§Øµ Ø¨ØŃ
ĠÙĬØ¹ ÙĤØ¯
6 9
ÙĨ ÙĩØ§
ĠÙĩ Ø§ÙĨÙĬ
ĠØ§ÙĦÙħØ³ Ø§ÙģØ±
ĠÙħØ¹Ø¯ ÙĦØ§Øª
ĠØ³ Ø§ÙħÙĬ
ĠØ§ÙĦØ§Ø® ØªØ¨Ø§Ø±Ø§Øª
ĠÙĩ ÙħØ§
ĠØ§ÙĦØ¨Ø· Ø§ÙĤØ©
ÙĬØ¯ Ø³
ĠÙģØ§ÙĨ Ùĥ
Ø²Ø§ ÙĬØ§
ĠØ§ÙĦØªÙĨÙģÙĬ Ø°ÙĬØ©
ĠØ§ÙĦØ¬ Ø¯ÙĦ
ĠØ§ÙĦÙħØ³ Ø§ÙĦØ©
ĠØ± Ø§Øª
ĠØ¨Ùĥ Ø§ÙģØ©
ĠØ±ÙĬ Ø§Ø¶ÙĬ
ØªØ±Ùĥ ÙĬØ¨
ĠÙħØŃ ÙĪØ±
ÙĥØ± Ø§
ĠØ§ÙĦØ³ÙĦ Ø§ØŃ
ĠØ§ÙĦØ¹ÙĤ ÙĬØ¯Ø©
Ø§Ø¯Ø« Ø©
ĠÙĦÙĦ Ø§Øµ
ĠØ§ÙĦØ· ÙĪÙĬÙĦ
ĠÙħØŃØ§ÙģØ¸ Ø§Øª
ĠØ§ÙĦÙĨØ¸ Ø§ÙģØ©
ĠÙĪ Ø±ÙĪ
Ø« ÙĨØ§Ø¡
ĠØŃ ÙĦÙĬØ¨
ĠØ¨Ø§ÙĦ ØªÙĤ
ĠØ§Ø® ØªØ§Ø±
ĠØ§ÙĦÙħÙħ ÙĬØ²
ĠÙĦÙĦÙĥ Ø§ØªØ¨
ĠÙħØµÙĨ ÙĪØ¹Ø©
Øµ Ø§Ø¨
ĠØ´ Ø¹Ø¨Ø©
ĠÙĪØ§ÙĦØ§ØŃ ÙĥØ§Ùħ
ĠØ·Ùģ ÙĦÙĥ
ĠØ§ÙĦÙģÙĦØ³ Ø¨Ø§Ø±
Ø§ÙĦ ÙĦ
ĠØ§ÙĦÙĨ ØµÙģ
Ø¬Ø± Ø§ÙĨ
ĠØ¨Ø§ÙĦÙħ Ø¹
ĠÙĤØµ ÙĬØ¯Ø©
ĠØ§ÙĦØ§Ùĩ ØªØ²Ø§Ø²
ĠØ³Ø¯ ÙĬÙħ
ĠÙĦ ÙĬØ¨
ĠÙĬ Ø«ÙĬØ±
Ø³ÙĬ Ø·Ø±
ĠÙĦØ± Ø¦ÙĬØ³
ĠØ§ÙĦØŃ ÙĦÙĬØ¨
ĠØ§Ø³ ÙĨØ§ÙĨ
ĠØ§ÙĦØ§Ø® ØªØ¨Ø§Ø±
ĠØ¨Ø¯ ÙĬÙĦ
Ø·ÙĪØ§ÙĨ Ø§Øª
ĠØ¨Ø§ÙĦ Ø²
ĠØ§ÙĦØ· Ø§Ø¦Ø±Ø§Øª
ÙĪØ§ ÙĬØ§
ÙĪÙħØ§Øª ÙĬÙĥ
ĠØ§ÙĦØ³ÙĪØ¯ Ø§ÙĨÙĬØ©
ĠØ§ÙĦÙĥ Ø§Ø±
ĠØ§ÙĦØµ ÙģØ±
Ø§ÙĦ ÙħØ©
ĠØ§ÙĦÙħ Ø®ØµØµØ©
Ø· ÙĬØ©
ĠØ§ÙĦÙģ Øµ
Ø±Ø§Ø¦ ÙĤ
ÙĩØ±Ø¨ Ø§Ø¡
ĠØªØ¨ ÙĤÙī
ĠÙĬÙĥ ÙģÙĬ
ĠØª Ø±ÙģØ¶
ĠØ§ÙĦÙħØ± Ø§ÙĥØ²
ĠØ¨ÙĤÙĬ Ø§Ø¯Ø©
Ø§Ø¹ ÙĬØ§Øª
ĠØµ Ø§ÙĨØ¹
ĠØ§Øµ ØºØ±
ĠØ§ÙĦÙħÙĦ Ø§ØŃ
ĠØŃØ± Øµ
ĠØ¨ Ø§Ø²
ĠÙĥ Ø§Ø±ÙĬ
ĠØ¨Ø§ÙĦ Ø¶Ø±ÙĪØ±Ø©
ĠØ§ÙĦØ§Ø³Øª Ø¹ÙĦØ§Ùħ
ĠØ¨ÙħØ¹ ÙĨÙī
Øª ÙĨÙĬ
ĠÙĦÙĦ Ø§ÙĤ
ĠØ®Ø³ Ø§Ø¦Ø±
8 8
Ø§ØŃ ÙħØ¯
ÙĬØª Ø§ÙĦ
ĠØ§ÙĦØ« Ø§Ø¨ØªØ©
ĠØ§ÙĦÙģÙĪ Ø§Ø¦Ø¯
ĠØ³ ÙĬØ¨
ĠØ§Ùħ ÙĬ
ĠØ§ÙĦØªØŃ ØªÙĬØ©
ĠØ¹Ø´ ÙĤ
ĠØ§ÙĦÙħ Ø¨ÙĦØº
Ġ39 6
ĠØ§ÙĦØ¯ Ø§Ø¦Ø±Ø©
ĠØ²ÙĬØ¯ ÙĪÙĨ
ĠÙħØª ÙĨØ§ÙĩÙĬØ©
ĠØ³ÙĬ ØŃ
ĠØ§ÙĦØ´Ø±ÙĤ ÙĬ
ĠÙĦÙĦ Ø¨ÙĦ
ĠØ§Øº ØªÙĬØ§ÙĦ
ĠÙĥÙĦ ÙħØ§
ĠØ¶ Ø®ÙħØ©
ĠØ¹Ø§Ùħ Ø±
ĠÙħØ§Ùĥ Ø³
ĠÙĦÙħØ´ Ø±ÙĪØ¹
ĠÙħØ§ÙĬÙĥ Ø±ÙĪØ³ÙĪÙģØª
ĠÙĪ ØŃÙĤ
ĠÙĦ ÙĤÙĬ
ĠØª ØªØ¬
ĠØµÙģ ÙĪÙģ
ĠØŃØµ Ø±ÙĬØ§
ĠÙħÙĪØ±ÙĬØª Ø§ÙĨÙĬØ§
ĠØª Ø±ÙģÙĬÙĩ
ĠÙĤ Ø¯Ø±Ø§Øª
ĠØ§ÙĦØŃ ÙģØ¸
ĠØ§ÙĦÙĨ ØªÙĬØ¬Ø©
ĠØ§ÙĦÙħØ¹ ÙĨÙĬØ©
ĠÙĪÙĦÙĥÙĨ ÙĩØ§
ĠØªÙĤ Ø³ÙĬÙħ
ĠÙĪØ§ÙĦ ØµÙĦ
Ø§Ùģ Ø°
ĠØ§ÙĦÙĤ ÙħØ©
ĠÙĪØ§ÙĨ ÙĪØ§Ø¹
Ø¬Ø² Ø±
ĠÙħÙĪØ³ ÙĬÙĤÙī
ĠØ§ÙĦØ¬ ÙĩÙĪØ¯
ĠÙĪØªØŃ Ø³ÙĬÙĨ
ÙĤ ÙĪØ·
ĠØ§Ø¹ Ø·
ĠÙĪØ¬ Ø§Ø¡
ĠØ« ÙĨØ§Ø¦ÙĬØ©
ĠØ¨Ø¯ Ø¹Ùħ
ĠÙĪØ§ÙĦØ¹Ø§ÙĦÙħ ÙĬØ©
ĠÙĪ ØŃÙĤÙĪÙĤ
ĠØª Ø¨Ø¹
ĠØ§ÙĦØ´ Ø§Ùģ
ĠØ§ÙĦØªÙĨ ÙģØ³
ĠÙĥÙħ ÙĬØ§Øª
ĠØ³Ø¬ Ø§Ø¯
ĠØ§ ØªÙħÙĨÙī
ĠØ§ÙĦØ§ÙĤ ØµØ±
ĠÙĬØ® ØªÙĦÙģ
ĠØ¹Ø²ÙĬØ² ÙĬ
ĠØ§ÙĦØ¬ÙĨ Ø³ÙĬ
ÙĨ Ø§Ùħ
ĠØ§ÙĦÙħØª Ø¹
Ø±Ø§ ÙĪÙĬ
ĠØ§ÙĦÙħ ØªØ¬
ĠØ¸ Ø¨ÙĬ
ĠÙĦ ÙĬØ²Ø±
ĠÙĥ ÙĬØ³
ĠØ§ÙĦØ§Ø³ ÙĦØŃØ©
ĠØŃØµ ÙĬÙĦØ©
ĠÙĪØ§ÙĦØº Ø§Ø²
ĠØ§ÙĦØ§Ø¹Ø¯ Ø§Ø¯ÙĬ
ĠÙģ Ø³ØªØ§ÙĨ
ĠØ§ÙĦÙģ Ø¬Ø±
ĠÙĨÙĩ Ø§Ø¦ÙĬØ§
Ø§ ÙĪØ±Ø©
ĠØ§ÙĦØ± Ø§Ø³ÙĬ
ĠØ§ÙĦÙĤØµ ÙĬÙħ
ĠÙĦ Ø¨ÙĦ
ĠØ§ÙĦÙģ Ø®
ĠÙĦÙĦØ§Ùħ Ùħ
ĠÙħ Ø©
Øµ Ø±ÙĬØ©
ĠØ§ÙĦÙħØŃ Ø§ÙħÙĬ
ÙĥØ³ Ø§Ø±Ø§Øª
ĠÙĪÙĩ ÙĨØ§
ĠØŃÙĤ Ø§
ĠÙĦ Ø§Ø²Ø§ÙĦØ©
ĠÙģ Ø±Ø¬
ĠÙĪØ§ÙĦ Ø§Øµ
Øª Øª
ĠØ§ÙĦÙħØª Ùĥ
ĠÙĪØ³ ÙĪÙĬØª
ÙģÙĬ ÙĪÙħ
ĠØ§ÙĦÙĤØ§Ø¨ Ø¶Ø©
ĠÙħÙĨ Ø§Ùĩ
ĠÙħÙĩ ØªÙħ
Ø§Ø¸ Ø±
ĠÙĬÙģ Ø¹ÙĦ
ĠØªØªÙħ ØªØ¹
ĠØ§ÙĦØµØŃÙģÙĬ ÙĬÙĨ
Ġ200 2
ĠÙħØªÙĪ ÙģØ±Ø©
ØªÙħ Ø±Ø§Øª
ĠØ§ÙĦØ§Ø± Ø¨Ø§ØŃ
ĠØ§ÙĦØ®Ùģ ÙĬÙģØ©
ĠÙħ Ø¯Ùħ
ĠØ§ÙĦØ®Ø· ÙĬØ¨
ĠÙħØº Ø±Ø¨ÙĬØ©
ĠÙĬÙĩ Ø¯Ø¯
ĠØ§ÙĦÙħØŃ Ø§Ø³Ø¨Ø©
Ø§ÙĦÙĬÙģÙĪØ± ÙĨÙĬØ§
ĠØ§ÙĦØµ Ø¯ÙĬÙĤ
ÙħÙĬ Øµ
ĠÙĦØ¹ÙħÙĦ ÙĬØ©
ĠØ®Ø³ Ø§Ø±Ø©
ĠØ§Ø³ØªØ±Ø¯ Ø§Ø¯
ĠØ¬ Ø±Ùī
ÙĦÙĬ Øµ
ĠØ¨Ø¹ ÙĨØ§ÙĬØ©
ĠØ§ÙĦÙĤÙĬ Ø§Ø³ÙĬØ©
ĠØªÙĪØ¶ÙĬ ØŃ
Ø§Ø¶ Ùī
ĠØ±ÙĪÙħØ§ÙĨ Ø³ÙĬØ©
ĠÙĩÙĪØ¯ ÙĬØ§Øª
ĠÙĨ Ø¶
ĠØ° ÙĥÙĬØ©
ĠØ³Øª Ø®Ø¯Ùħ
ĠØ§ÙĨ Ø¨Ø§Ø¡
ĠÙĪÙĨ Ø¸Ø§Ùħ
ĠÙĬØ´ ÙĩØ¯
ĠÙĦØ¯ Ø®ÙĪÙĦ
ĠÙĬØ³ Ø¹Ùī
Øª Ø³Ø§Ø¨
ĠØ§ÙĦÙħØ« Ø§ÙĦÙĬØ©
ĠØ§ÙĦØº Ø±Ø¶
ĠØ¹Ø¨ ÙĬØ¯
ĠØ°Ø§Øª Ùĩ
ĠÙĪØ§ÙĦØµ ÙĪØ±
Ø§ÙĨ Øº
ĠØ§ÙĦØ² ÙĨÙĥ
ĠÙĪÙĨ Ø´Ø±
ĠØ§ÙĦØª ÙħÙĬ
ØªØ® Ø±Ø§Ø¬
ĠØ§ÙĦØªØŃ Ø¯ÙĬØ§Øª
ĠØ§ÙĦØ¶ Ø±ÙĪØ±ÙĬ
ØªÙģØ¹ ÙĬÙĦ
ĠÙģÙĬ ÙĦ
ĠØ§Ø³Øª Ø·Ø§Ø¹
ĠÙĨØ¬ ÙĬØ¨
ĠØ§Ùħ Ø§Ø±Ø§Øª
ĠØ§ÙĦÙħØŃ ØªØ±ÙģÙĬÙĨ
ĠÙĦÙĦØ§Ø¹ ÙĦØ§Ùħ
ĠØ§ÙĦØ§Ø³ ÙĬØ±
ĠÙĪØ§Ø¬ ÙĩØ©
ĠÙĩÙĪØ§ ÙĪÙĬ
ĠØ¨ÙĪ Ø³Øª
ĠØ§ÙĦØ§Ø¦ ØªÙħ
ĠØ§ÙĦØ³ Ø±ÙĬØ©
ĠÙĪØ§Ø® Ø±
ĠØª Ø®ÙĦ
Ø§Ø± ÙĬØ§
ĠØ§ÙĦØ¨ ÙĨØ¯
ĠÙĪØª ÙĦ
ĠÙĦÙĨ ÙģØ³
ĠÙĪØªÙĨ Ø¸ÙĬÙģ
Øµ ÙĬØ±
ĠØ§ÙĦØ´ Ø¯ÙĬØ¯
ĠØªØµ Ø¯ÙĬØ±
ĠØ§ÙĬ ÙĩØ§
ĠØ§ÙĦÙħØ´ ÙģØ±Ø©
ĠØ¨ÙĦØ¬ ÙĬÙĥØ§
ĠØ§ÙĦØªØŃ ÙĪÙĦ
ĠÙĬØª Ø¹ÙĬÙĨ
ĠÙĥÙĪØ± Ø³
ĠÙħØ§Ùĥ Ø±ÙĪÙĨ
ĠØ§ÙĦØªØ® Ø²ÙĬÙĨ
ĠØ§ÙĦØ§Ø±ÙĩØ§Ø¨ ÙĬØ©
ĠÙĨ Ø§ÙĤÙĦØ©
ĠØ§ÙĦÙģÙĬØ¯ÙĬÙĪ ÙĩØ§Øª
ĠÙħØ¬ ÙĪÙĩØ±Ø§Øª
ĠÙĪØ§ÙĦØª Ø¹
Ø² Ø§ÙĦ
ĠØ§ÙĦÙħÙĨ ØŃ
ĠÙħÙĬÙĨ Ø§Ø¡
ĠØ¬ Ø¨Ø±
ĠØ¨ØªØµ ÙħÙĬÙħ
ĠØ¨ ÙĬØ¬
ĠØ´ Ø¬Ø±Ø©
ĠØªØŃ Ø¯ÙĬ
ĠØ§ÙĦÙĥÙĪÙĬØª ÙĬ
ĠÙĦ Ùī
ĠØ´ Ø§ÙĥØ±
ĠÙĪÙĬÙĤ ÙĪÙĦ
ĠØ§Ø³ Ø§ÙĦÙĬØ¨
ĠØ§ÙĦØ¨ÙĬ ØªÙĥÙĪÙĬÙĨ
ĠÙĦÙĦØµ Ø¯Ø§
ĠÙĨØ¨ Ø°Ø©
ĠØ§ÙĦÙħÙĤØ¯ Ø³Ø©
ĠØŃÙĤÙĬÙĤ ÙĬ
Ùħ ÙħØ©
ÙĨ Ø§Ø³
ĠØ¨Ø§Ùĥ Ø«Ø±
ÙĤØ¯ Ø§Ùħ
ĠØ§ÙĦÙħØ± Ø§ÙĤØ¨Ø©
ĠØ§ÙĦÙħÙģ Ø§ØµÙĦ
ĠÙħ ÙĤÙĦ
ĠÙħ ÙĬØ´
ĠØ§ÙĦÙħØ´ Ø±ÙĪØ¨Ø§Øª
ĠØ¹Øµ Ø§Ùħ
ĠØª Ø«ÙĬØ±
ĠØ§Ø± Ø¬ÙĪ
Ġ24 0
ĠØ§ÙĦØ§Ø° ÙĨ
Ø§Ø³ Ùĥ
ĠÙħØ² ÙĬØ¬
ĠØ§ÙĦØ¬ÙĨ ÙĪØ¨ÙĬ
ĠÙĦÙĦØ´ Ø¨Ø§Ø¨
ĠÙĦØµ ÙĨØ¹
ĠØ§ÙĬÙĨ Ø´ÙĬØ±ÙĬ
6 3
Ø³ Ùĩ
ÙĦÙĥ Ùħ
ĠÙħ ÙħÙĦÙĥØ©
ĠÙĪ Ø¹ÙĦÙħ
ĠØ§Ùĥ Ø´ÙĨ
ĠØŃØ³ Ø§Ùħ
ØªØ±Ùĥ Ø§Ø±Ø¯
ĠØ¨Ø§Ø¹ ÙħØ§ÙĦ
ĠØ§ÙĦØ§Ø¹Ø¯ Ø§Ø¯ÙĬØ©
ĠØ³ Ø¹Ø§Ø¯Ø©
ĠØ§ÙĦØŃ Ø¬Ø²
ĠÙħØµ Ø¨Ø§ØŃ
ĠØ¬ÙĨ Ø¨
ĠØ³ Ø§ÙĩÙħ
Ø§Ùĩ ÙĨ
ĠØªÙĨ Ø§Ùģ
ĠØ§ÙĦÙĦØ¬ ÙĪØ¡
ĠÙĦÙĦ ÙĪ
ĠÙĩ Ø§Ø¯ÙĬ
ĠØ§ÙĦØ¹ÙĤ Ø§Ø±
ĠØ§ÙĦØ³Ø¬ Ø§Ø¯
ĠÙĪ Ø§ÙģÙĤ
ĠÙĤ ÙĬØ±
ĠÙħÙĦ ØŃÙĤØ§Øª
ĠÙħØ´Ø±ÙĪØ¹ Ø§Øª
ĠØª ÙĪØ±ÙĬØ¯
ĠØ¬ ÙĦÙĬ
ĠØ§ÙĦÙħØµ Ø±ÙģÙĬØ©
ĠØ¨Ø§ÙĦØª Ø³Ø¬ÙĬÙĦ
ĠÙĦÙĥ Ø§ÙģØ©
ĠØ§ÙĦØ´ ÙĬØ¹
ĠÙĨØ´Ø§Ø· Ø§Øª
ĠØ§ØŃØªØ¬ Ø§Ø¬
ĠÙħ ÙĪÙĦØ¯
ĠØ§ÙĦØ§Ø³ ØªÙĩÙĦØ§Ùĥ
ĠØ´ÙĩØ± ÙĬÙĨ
ĠØ§ÙĦØ´Ùĩ ÙĬØ±
ĠØ§ÙĦØ§Ø¦ ØªÙħØ§ÙĨ
ĠÙĦ ÙĬÙĥÙĪÙĨ
Ùī Ø¡
ĠØ§Ø¬ Ø§Ø²Ø©
ĠØ§ÙĦÙħÙĥ ÙĬØ§Ø¬
ĠÙĪØªØŃ Ø¯ÙĬØ¯
ĠØªÙĪÙĤ ÙĬÙģ
Ø§Ùģ Ø§
ĠØ¹Ø¨ Ø§Ø¯
ĠÙĪØ§ÙĦÙĦ ØºØ§Øª
ĠÙħ Ø®ØµØµØ©
ĠØ§ÙĦÙģ ÙĬ
ĠØªØ¬Ø§Ùĩ ÙĦÙĩ
ĠÙĪ ÙĪÙĦ
Ø¹Ø§Ø± Ø¶
ĠÙħØ²Ø¯ ÙĪØ¬
Ø¹ Ø§Ø´
ĠÙħØ³Øª ÙĤÙĦ
ĠÙħ Ø§Ø±Ùĥ
ĠÙħ ÙĬÙĪÙĨ
ĠØ§ÙĦÙģ ÙĤØ±
ĠØ§ÙĦØ¯ ÙĪØ§Ø±
ĠØ§Ø³ ÙĪØ§ÙĨ
ĠÙħØ§Ø³ ØªØ±ÙĥØ§Ø±Ø¯
ĠØ§ÙĦÙħÙĨ ÙĬØ§
ĠÙĦ Ø§ÙĦØ©
ĠØ´ Ø¯ÙĬØ¯Ø©
ĠØ· Ø§ÙĪÙĦØ©
ĠØªÙħ ÙĬØ²
ĠØ§ÙĦØ¬ Ø±ÙĬ
ĠÙħØ¹ Ø§ÙĦÙħ
ĠØ§ÙĦØ± Ø§Ø¦Ø¹
ĠØº Ø§ÙĬØ©
ĠØ§ÙĦØ¨Ø± ÙĬØ©
ĠÙĩ ÙĬØª
ĠØ§ÙĦØ³ Ø¨Ø¹
ĠÙģ Ø§ÙĦÙħ
Ø±Ø¶ Ùī
ĠÙĦÙĦ Ø¶
ĠÙħØ³ Ø§ØŃ
ĠØªØ¯ Ø±ÙĬØ³
ĠØ¯Ø± Ø§ÙħØ§
ĠÙĦ Ø³Øª
ĠÙĨØ¯ Ø§Ø¡
ĠØ§ÙĦØ· ÙĦØ§ÙĤ
ĠØ« Ø§Ø¨ØªØ©
ĠØ§Ø± Ø¬Ø§Ø¹
ĠØ§ÙĦØ§Ø¬ ÙħØ§ÙĦÙĬ
ĠØ¹Ø´ Ø§ÙĨ
ĠÙĦ Ø¶
ĠÙĬ ÙĥØª
ĠØªÙĪ Ø«ÙĬÙĤ
ĠØ§ÙĦÙħØ® Ø§Ø¨
ĠØ¯ Ø§Ùģ
ĠØ® Ø§Ø¯Ùħ
ĠØ§ÙĦØ¯ ÙĪØ±Ø§Øª
ĠØ§ÙĦØªÙĤ ÙĨÙĬ
ĠØµ Ø±Ø§Ø¹
ĠØ· Ø±Ø¯
ĠÙĪÙģ Ùī
ĠÙĦØ¬ ÙĩØ§Ø²
ĠØ§ÙĦÙħÙĩ Ø§Ø±Ø§Øª
ĠÙĦÙĦØ´ Ø±ÙĥØ©
Ø§Ø³ ÙĬØ³
ĠØ§ÙĦÙĤ ÙĪÙħÙĬØ©
ĠÙĪØ¬ Ø¹ÙĦ
ĠÙĪØ¹ÙĨ Ø¯ÙħØ§
ĠØ¬ Ø³Ø±
ĠØ¨ÙĪØªØ§Ø¬ Ø§Ø²
ĠØ§ÙĦØªÙĪ ØŃÙĬØ¯
ĠÙĬ ÙĩÙħ
ĠØ§Ø³ØªÙĥ ÙħØ§ÙĦ
ĠØ§ÙĦÙģ Ø¹
ĠØ§ÙĦØ§ ÙĪÙĤØ§Ùģ
ĠØ§ÙĦÙħØ± Ø§Ø¯
ĠØªØª Ø·ÙĦØ¨
Ùģ Ùĩ
ĠÙĪØ¬ Ø¨Ø§Øª
ĠØªØ³Øª Ø¹Ø¯
ĠØªØªØ± Ø¯Ø¯
ĠÙĪ Ø¹Ùħ
ĠØ§ÙĦØ¬ Ø±Ø¹Ø©
Ø±ÙĪ ØŃØ©
ĠØ§ÙĦÙħØ¹ÙĦ ÙħÙĬÙĨ
ĠØ§ÙĦÙħØµÙĨ ÙĪØ¹Ø©
ĠÙĦØªØŃ Ø¯ÙĬØ¯
ĠØ§ÙĪ Ø¶ØŃ
Ø±Ø¨ÙĬ Ø¬Ø§ÙĨ
ĠØ§ÙĦØ¬Ø§Ùĩ Ø²Ø©
1 00
ĠØª ØºÙĦÙĬÙģ
ĠØ¯ ÙħÙĬ
ĠØªÙĥ Ø±ÙĬÙħ
ĠØª ØºØ·ÙĬØ©
ĠÙĩ Ø±Ùħ
ĠØº Ø·Ø§Ø¡
ĠØ§ÙĦÙģÙĬØ±ÙĪØ³ Ø§Øª
ĠØ§Ø³ØªÙģØ³ Ø§Ø±Ø§Øª
ĠÙĥ Ø±Ùħ
ĠØªØŃ Ø§ÙĦÙģ
ĠØ§ÙĦØ¹ÙĦ ÙĪÙĬ
ĠØ³ Ø±ÙĬØ©
ĠØ³ Ø§Ø¨ÙĤØ©
ĠØ§ÙĦØ¨ ÙĨÙĬØ©
ĠØ§ÙĦØ§Ø¬ ÙĨØ¨ÙĬ
ĠØ§ÙĦØ¹ Ø¸Ùħ
ĠØ§ÙĦÙħØ² Ø¹
ĠØ§ÙĦØ¨Ø® Ø§Ø±ÙĬ
ĠÙħØª Ø§Ø¬Ø±
ĠØªØ¹ ÙĤØ¯
ĠØ§ÙĦØ¬ÙĨ ÙĬÙĩ
ĠØ¨ Ø¨Ø·
ĠÙģ ÙĨØ§ÙĨ
ĠÙĬØ¹ Ø§ÙĨÙĪÙĨ
ĠØ§ Ø·ÙĦØ¹
ĠÙĦ Ø¨Ø±
ĠØ§ÙĦÙĩ Ø§ÙħØ©
ĠÙĤÙħ ØµØ§ÙĨ
ĠÙĦÙĦ Ø§Ø·
ĠØ® Ø§ÙĨ
ĠØ· ÙĤØ³
ĠØ§ÙĦÙħÙĩ ÙĨØ¯Ø³ÙĬÙĨ
ĠÙĨ Ø¹Ø±Ùģ
Ø§Ø´ ÙĬØ©
ĠØ§Ùĥ ÙĦØ§Øª
ĠÙĪØª Ø§Ø¨Ø¹
ÙĨÙĬ ÙĩØ§
ĠØ§ÙĦÙĨØ§Ùģ Ø°Ø©
ĠÙĬ Ø§Ø®Ø°
ÙĪÙħ Ø§ÙĨ
ĠÙħÙĪ Ø§ÙĦÙĬØ¯
ĠÙĤØ¯ ÙĬÙħØ©
ĠØ±Ø¬ Ø¨
ĠÙĤ Ø±ÙĬØ¨Ø©
ĠØ§ÙĦØ® ÙĦÙĬÙĦ
ĠØ§ÙĦÙħØªÙĨ ÙĪØ¹Ø©
Ø§Ø³ Ùĩ
ĠØŃ Ø±ÙĬ
ĠØ§Ø¹ ÙħØ§Ø±
ĠØŃÙĤ Ø§Ø¦ÙĤ
ĠØ§ÙĦÙĪØ± ÙĤÙĬØ©
ĠØ§ ÙĬÙħÙĬÙĦ
ĠØªØ· ÙĦØ¨
ĠÙĪ Ø§ÙĪÙĦ
ĠØª ÙĥÙĦ
ĠØ§ÙĦÙħ Ø¸
ĠØªØª ÙĥÙĪÙĨ
ĠØ³ Ø§ÙĦ
ĠØ§ÙĦØ² ÙħØ§ÙĨ
ĠØ¨Ø§ÙĨ Øª
ĠÙĪØ· ÙĦØ¨
ĠÙģÙĬ Ø±
ĠØ§ÙĦØ¹ Ø§Ø´Ø±Ø©
Ø§Ø« ÙĦØ©
ĠÙħØ¬ Ùģ
ĠÙĦØ§ÙĨ Ø¯
ĠØªÙĪ Ø§ÙĦÙĬØª
ĠØµÙģ ØŃ
ĠØ§Ø° Ø§Ø¹Ø©
ĠØ§ÙĦØ¹Ø±Ø¨ Ùī
ĠØ§ÙĦØ¨ÙĪØ± ØµØ©
ĠØ¨ Ø§ÙĪÙĦ
ĠØ¯ Ø¨ÙĦÙĪÙħ
ĠÙħ Ø§Ø¬
ĠÙĥØ§ÙħÙĦ Ø§
ĠØ¨ÙĪÙĦ Ø§ÙĬØ©
ĠÙĩØ§Ø´ Ùħ
ĠØ§ÙĦÙħØ¬ØªÙħ Ø¹Ø§Øª
ÙĨ ÙĪØ´
ĠØ§ÙĦÙĥ Ø¨Ø§Ø±
ĠÙĪØ§ÙĦÙħ Ø¬ØªÙħØ¹
ĠÙħÙĩ Ø¯ÙĬ
ĠØ§ÙĦÙģØ± ØµØ©
ĠØ§ÙĨØª Ø¸Ø§Ø±
ĠÙĤØ§Ø¦ÙĦ Ø§
Ø§Ø¨ ØŃ
ĠØ¹ÙĨ Ø§ÙĬØ©
ĠÙħØŃ Ø¯ÙĪØ¯
ĠØ§ÙĦØ§ ÙĬÙģÙĪÙĨ
ĠÙħØ¤ Ø³Ø³
ĠØ§ÙĦÙģØª ÙĬØ§Øª
ĠÙĦÙħ ÙĤ
ĠØ§ÙĦØ§Ø± Ø¨Ø¹Ø©
ĠØ¦ ÙĦ
Ø± Ø®
Ø´ Ø±ÙĥØ©
ĠÙĥ Ø§ÙĦÙĬÙģÙĪØ±ÙĨÙĬØ§
ĠØ§ÙĦØŃ ÙĪ
ÙĨØ§ ÙĪÙĬÙĨ
Ġ9 94
ĠÙĦÙĦÙħ Ø®
ĠÙĪØ¨ ÙĨ
Ùĩ ÙĪØ±ÙĬ
ĠÙĬØªÙħ ØªØ¹
ĠÙĦÙĦ ØªØ¬
ĠØ§ÙĦÙģ ÙĦÙģÙĦ
ĠÙħÙĤ Ø§ÙĦØ©
ĠØ§ÙĦÙĪØŃ Ø¯Ø§Øª
ĠØ§ÙĦØ³ÙĥÙĨ ÙĬØ©
ĠÙĪØ±Ø¨ ÙħØ§
Ø¯ Ø¹
ĠØ§ÙĨ Ø¯Ø±
ĠÙħØ§Ùĩ ÙĬ
ĠÙħÙĥ ØªÙĪØ¨
ĠØ§ÙĦØ§Ø¨ ÙĪØ§Ø¨
ĠØ§ÙĦØ´Ø± ÙĪÙĤ
ĠØ³ Ø¯Ø§Ø¯
ĠØ· ÙĬØ²
ĠÙħØ³ Ø¤
ĠØ³ ÙĪÙĦ
ĠØŃ Ø§ÙģØ¸
ĠÙĩ ÙĦØ§ÙĦ
ĠØ§ÙĦØ¨ Ø§Ø¦Ø¹
ĠØ² Ø¹ÙĬÙħ
ĠØªØ± ÙĬÙĨ
Ø¯ Ø§Ø«
ØªØ± Ùħ
ĠØº Ø±ÙĬØ¨Ø©
ĠØ§ÙĦØ¯ÙĪ Ø§Ø¦Ø±
ĠØ§ÙĦ Ø±ÙĬÙģ
ĠÙĦ Ø³ÙĬ
Ø´ Ø§ÙĦ
ĠØ¨Ø§ÙĦ Ø§Ø´
ĠÙħ ÙĬØ¬Ø§
ĠÙĪ ÙĬØ®
ĠØªØŃ Ø°Ø±
ĠØªÙĨ ÙĤÙĦ
ĠØ§Ø· ÙĦØ¨
ĠÙħØ« Ø§ÙĦÙĬ
ĠØ¨ÙĪØª ÙĬÙĨ
ĠØ§ÙĦ ÙĪØ±Ø¯
ĠØ¨ Ø±Ùĥ
Ø§ÙĨ Ø§Ø©
ĠØ§ÙĨ Ø¸Ø±
ĠØ§ÙĦØ³ Ø±ÙĬØ±
ĠØ§ÙĦÙĤ Ø§Ø¦Ø¯
ĠÙĪØŃ Ø¯Ùĩ
ĠØ§ÙĨ ØªØŃ
ĠØ§ÙĦÙĨ ÙĤØ±
ĠØºØ³ ÙĪÙĦ
ĠÙħØ¹Ø±Ùģ ØªÙĩ
ĠÙĩ Ø§ÙĬ
ĠØ² Ø§ÙħØ¨ÙĬØ§
ĠØ¨Ø§ÙĦØ· Ø¨Ø¹
ĠØ§ ÙĬØ§
Øº Ø°ÙĬØ©
ĠÙĩ Ø§Øª
Ø§Ø² ÙħØ§
ĠÙĪØŃ ÙħØ§ÙĬØ©
ĠØªÙģ Ø§ÙĩÙħ
ĠÙĪØ§ÙĦ ØªÙī
ĠØ´ Ú©ÙĨ
ĠÙĬÙĩ ØªÙħ
ĠØ§ÙĦØ§ÙĨØ³ Ø§ÙĨÙĬ
ĠØ³ Ø§ØŃ
Ø¨Ø± ÙĬØ©
ĠØ§ÙĦØµ ÙĪÙĬØ§
ĠØªÙĨ Ø²
8 3
ĠÙĦ ÙĪØ³
ĠØ¹ÙĦ Ø¨Ø©
ĠØ§ÙĦØ§Ø¹ Ø§ÙĤØ©
ĠØ§ÙĦØ² ÙĪØ¬Ø©
ĠÙĨØ¨ ÙĬÙĦ
ĠÙĬ Ø±ÙģØ¹
ĠØ§ÙĦØ¯ Ø®ÙĦ
ÙģÙĬ Ø¸
ĠØ¨ÙĦ Ø§Ø¯Ùĩ
ĠØª ØªØµ
ĠØ§ÙĦØ¹ Ø²
ĠØ§Ø³Øª ÙĩØ¯Ùģ
ĠØ§Ùĥ ÙħÙĦ
ÙĪÙĥ ÙĬ
Ġ17 4
ĠØ§Ø¨ Ø¹Ø§Ø¯
ĠÙħØ· ÙĦÙĤ
ĠÙħØ± Ùĩ
ĠÙħ ÙħÙĦ
ĠÙĨ ÙĥÙĪÙĨ
ĠØ§ÙĦØ± Ø§Ø¯
ĠØ§ÙĦØªØµ ÙĪÙĬØª
ĠØ³ ÙħØ±Ø§Ø¡
ĠÙĩ Ø§Ø¯
ĠØ§ÙĦÙĪ Ø§Ø³
ĠÙĬÙģ Ø¶ÙĦ
ĠØ§ÙĦØ¨ÙĦØ¯ ÙĬÙĨ
Ø§Ø¬ Ø±ÙĬÙĨ
Ø§Øµ Ø¨
ĠØªØ¹ÙĦ ÙĤ
ĠØ´Ùĩ Ø§Ø¯Ø§Øª
ĠÙħÙĦÙĥ ÙĬØ©
ĠÙģØ¹ Ø§ÙĦØ©
ĠÙĥ ÙĬÙħ
ĠØ¬ Ø§Ø²Ø§ÙĨ
ĠÙĦÙĦØ§ÙĨ ØªØ®Ø§Ø¨Ø§Øª
ĠØ¯ Ø§ÙĨ
ĠØ§ÙĦÙĥ Ø«
Ġ4 50
ĠØ§ÙĦØ® ÙĪÙģ
ĠØ¯Ø¹ ÙĪÙī
ĠØ¹Ø· ÙĦØ©
ĠØ§ÙĨÙģØ³ ÙĩÙħ
ĠØ§ Ø©
ĠÙĪ ÙĬÙģ
ĠÙģÙĦ ÙĨ
ĠØ¨ ØªÙģ
Ġ10 7
ĠØ§ÙĦØ¬Ùħ Ø§Ø¹Ø©
Ø²ÙĬ ÙĬÙĨ
ĠØµØŃÙĬ ØŃØ©
ĠÚ¤ Ø§ÙĬØ¨Ø±
ĠØ§ÙĦÙĥ ÙĬØ§ÙĨ
ĠØ§ÙĦÙħØ¨ Ø§ÙĨÙĬ
ĠØ±ØŃ ÙħØ©
ĠØ§ÙĦØ§Ø³Ùħ Ø§Ùĥ
ĠØ¬ÙĬÙĨ Ø²
ĠÙĪ Ø¹Ø±Ø¶
ĠØ§ÙĦÙħ Ø«ÙĦ
ĠÙĪ Ø±ÙģØ¹
ÙĬØ¯ Ùĩ
ĠØ§ÙĦÙħÙĨØ§Ùģ Ø³Ø©
ĠØ§ÙĦØª ÙħÙĬÙħ
Ø« ÙĪØ±
ĠØ¨Ø¹Ø¶ ÙĩÙħ
ĠÙĬ ÙĩØ¯Ùģ
ĠØ¨Ø§ÙĦ Ø§Ø±
ĠØ§ÙĦØ§Ø³ ØªÙħØ±Ø§Ø±
ĠØ§ÙĦØº Ø¯
ĠØ¨ÙĦ Ø¯ÙĬ
ĠØ¯Ùģ Ø¹Ø©
ĠØ· Ø§Ø¦Ø±Ø§Øª
ĠØ¹ÙħÙĦ ÙĩØ§
ĠØª Ø§Ø®Ø°
ĠØ® Ø´Ø¨
ĠÙħÙĦ ØŃÙĪ
Ø´ Ø§Ø·
ĠØº Ø§Ùħ
ĠØ³ÙĨ ÙĬÙĥØ±Ø²
ĠØ±Ø¬ Ùī
ĠÙħØ¶ Ø§Ø¯
Ùħ ÙĬØ±
ĠØª ÙĤØ±Ø±
Ø§Ø¯ ÙĤØ©
ÙĪÙħ ØªØ±
ĠØ§Ø¬ ÙĪØ§Ø¡
ĠØ¨ØŃ Ø±ÙĬÙĨ
ĠÙĬÙĤ Ø¨ÙĦ
ĠØ¨ Ø¹ÙĦ
ĠÙħØ¹ Ø§Ø±Ø¶
Ø§Ø· ÙĨØ©
ĠØ§ÙĦÙĪ Ø§ÙĤ
ĠÙħØ³ Ø±
ØªØµ Ø§Ø¯
ĠØ³ÙĬ Ø§Ø³Ø§Øª
ĠØ§ÙĨØ³ Ø§ÙĨÙĬØ©
ĠÙĬØ´ ÙĥÙĦ
Ø¨Ø³ Ø§Ø·Ø©
ĠØ´ÙĪØ±Øª Ø§Øª
ĠØªØµ ØŃÙĬØŃ
ĠÙĤØ· Ø§Ø±
ĠØ§ÙĦØªÙĦ ÙĤÙĬØŃ
ĠØ§ÙĦØ¨ ØªØ±ÙĪÙĦ
ĠØ§ÙĦØ§ÙĨ ÙħÙĬ
ĠØ§Ø³Øª ÙĤØ±Ø§Ø±
ĠØ§ÙĦØº Ø§Ùħ
ĠØ§Ø¨Ø± Ø§Ø¬
ĠÙĤØ¶ ÙĬØ¨
