{"<|endoftext|>":0,"<QUESTION>":1,"<ANSWER>":2,"[PAD]":3,"!":4,"\"":5,"#":6,"$":7,"%":8,"&":9,"'":10,"(":11,")":12,"*":13,"+":14,",":15,"-":16,".":17,"/":18,"0":19,"1":20,"2":21,"3":22,"4":23,"5":24,"6":25,"7":26,"8":27,"9":28,":":29,";":30,"<":31,"=":32,">":33,"?":34,"@":35,"A":36,"B":37,"C":38,"D":39,"E":40,"F":41,"G":42,"H":43,"I":44,"J":45,"K":46,"L":47,"M":48,"N":49,"O":50,"P":51,"Q":52,"R":53,"S":54,"T":55,"U":56,"V":57,"W":58,"X":59,"Y":60,"Z":61,"[":62,"\\":63,"]":64,"^":65,"_":66,"`":67,"a":68,"b":69,"c":70,"d":71,"e":72,"f":73,"g":74,"h":75,"i":76,"j":77,"k":78,"l":79,"m":80,"n":81,"o":82,"p":83,"q":84,"r":85,"s":86,"t":87,"u":88,"v":89,"w":90,"x":91,"y":92,"z":93,"{":94,"|":95,"}":96,"~":97,"¡":98,"¢":99,"£":100,"¤":101,"¥":102,"¦":103,"§":104,"¨":105,"©":106,"ª":107,"«":108,"¬":109,"®":110,"¯":111,"°":112,"±":113,"²":114,"³":115,"´":116,"µ":117,"¶":118,"·":119,"¸":120,"¹":121,"º":122,"»":123,"¼":124,"½":125,"¾":126,"¿":127,"À":128,"Á":129,"Â":130,"Ã":131,"Ä":132,"Å":133,"Æ":134,"Ç":135,"È":136,"É":137,"Ê":138,"Ë":139,"Ì":140,"Í":141,"Î":142,"Ï":143,"Ð":144,"Ñ":145,"Ò":146,"Ó":147,"Ô":148,"Õ":149,"Ö":150,"×":151,"Ø":152,"Ù":153,"Ú":154,"Û":155,"Ü":156,"Ý":157,"Þ":158,"ß":159,"à":160,"á":161,"â":162,"ã":163,"ä":164,"å":165,"æ":166,"ç":167,"è":168,"é":169,"ê":170,"ë":171,"ì":172,"í":173,"î":174,"ï":175,"ð":176,"ñ":177,"ò":178,"ó":179,"ô":180,"õ":181,"ö":182,"÷":183,"ø":184,"ù":185,"ú":186,"û":187,"ü":188,"ý":189,"þ":190,"ÿ":191,"Ā":192,"ā":193,"Ă":194,"ă":195,"Ą":196,"ą":197,"Ć":198,"ć":199,"Ĉ":200,"ĉ":201,"Ċ":202,"ċ":203,"Č":204,"č":205,"Ď":206,"ď":207,"Đ":208,"đ":209,"Ē":210,"ē":211,"Ĕ":212,"ĕ":213,"Ė":214,"ė":215,"Ę":216,"ę":217,"Ě":218,"ě":219,"Ĝ":220,"ĝ":221,"Ğ":222,"ğ":223,"Ġ":224,"ġ":225,"Ģ":226,"ģ":227,"Ĥ":228,"ĥ":229,"Ħ":230,"ħ":231,"Ĩ":232,"ĩ":233,"Ī":234,"ī":235,"Ĭ":236,"ĭ":237,"Į":238,"į":239,"İ":240,"ı":241,"Ĳ":242,"ĳ":243,"Ĵ":244,"ĵ":245,"Ķ":246,"ķ":247,"ĸ":248,"Ĺ":249,"ĺ":250,"Ļ":251,"ļ":252,"Ľ":253,"ľ":254,"Ŀ":255,"ŀ":256,"Ł":257,"ł":258,"Ń":259,"Ø§":260,"ÙĦ":261,"ÙĬ":262,"ĠØ§":263,"Ùħ":264,"ĠØ":265,"ĠØ§ÙĦ":266,"ÙĪ":267,"Ø§Ø":268,"ÙĨ":269,"Ø±":270,"Ø©":271,"Øª":272,"Ùģ":273,"Ø¯":274,"Ùĥ":275,"Ø¹":276,"ĠÙħ":277,"Ø¨":278,"ÙĤ":279,"Ø³":280,"Ùĩ":281,"ĠÙĪ":282,"ØŃ":283,"Ø§ÙĦ":284,"Ø¬":285,"ĠØ¨":286,"Ø§Øª":287,"ÙĬØ©":288,"ĠÙĦ":289,"ĠØª":290,"ĠÙģ":291,"ĠØ§ÙĦÙħ":292,"ĠØ¹":293,"Øµ":294,"Ø§Ø±":295,"Ø·":296,"Ø§ÙĨ":297,"Ùī":298,"Ø´":299,"Ø§Ùħ":300,"ĠÙģÙĬ":301,"Ø®":302,"ÙĬÙĨ":303,"Ø²":304,"ĠÙħÙĨ":305,"ĠÙĥ":306,"ĠÙĬ":307,"Ø¶":308,"ÙĬØ±":309,"Ġ1":310,"ĠØ³":311,"Ġ2":312,"ĠØ§ÙĦØª":313,"Ø§Ø³":314,"ÙĪÙĨ":315,"Ø±ÙĬ":316,"ÙĪÙĦ":317,"Ø«":318,"Ø°":319,"ĠÙĪØ§ÙĦ":320,"ĠØŃ":321,"Ø§Ø¨":322,"Ġ0":323,"ĠØ¹ÙĦ":324,"Ø§Ø¯":325,"ĠÙĨ":326,"ĠØ§ÙĦØ¹":327,"ĠÙĦÙĦ":328,"ÙĪØ±":329,"Ø§Ø¡":330,"ĠØ¬":331,"Øº":332,"ĠÙĩ":333,"ĠÙĤ":334,"Ø§Ø¹":335,"ĠØ±":336,"ÙĬÙĦ":337,"ĠØ§ÙĨ":338,"ÙĩØ§":339,"Ø§Ø¦":340,"ÙĬØ¯":341,"ĠØ§ÙĦØŃ":342,"ĠØ´":343,"ĠØ¹ÙĦÙī":344,"ĠØ§ÙĦØ³":345,"Ø³Øª":346,"ĠØ¯":347,"Ø¨ÙĬ":348,"ÙĪÙħ":349,"Ġ20":350,"Ø§Ùģ":351,"Ø§ØŃ":352,"ĠØ®":353,"Ø§Ø¬":354,"Ø¸":355,"ÙĬÙħ":356,"Ø§ÙĤ":357,"ĠØµ":358,"ĠØ¨Ø§ÙĦ":359,"ØªØ±":360,"Ġ3":361,"ĠØ§ÙĦØ¬":362,"ÙħÙĦ":363,"ĠÙħØ¹":364,"ĠØ§ÙĦÙģ":365,"Ø§Ø±Ø©":366,"Ø¨Ø±":367,"ĠØ§ÙĦÙĥ":368,"ÙĪÙĤ":369,"Ø±Ùĥ":370,"ĠØ§ÙĦØ´":371,"ÙĪØ¯":372,"ĠØ·":373,"ĠØ§ÙĦÙĨ":374,"ĠØ§ÙĦÙĤ":375,"ĠØ§ÙĦØµ":376,"ĠØ§ÙĦØ¯":377,"Ø¹ÙĦ":378,"Ø±Ø©":379,"ĠØ¹ÙĨ":380,"ĠØ§ÙĦØ±":381,"ÙĬØ§":382,"ĠØ§ÙĦØ¨":383,"ĠÙħØŃ":384,"Ø¯Ùħ":385,"ÙĬÙģ":386,"Ø±Ø¨":387,"Ø§Ùĥ":388,"Ø§Øµ":389,"Ø¹Ø¯":390,"Ø±ÙĪ":391,"Ġ4":392,"ĠØ§ÙĦØ®":393,"ØªÙħ":394,"Ø¦":395,"Ø¹Ø©":396,"ĠØ§ÙĦØ§Ø³":397,"Ġ5":398,"ÙĩÙħ":399,"ÙĬØ³":400,"ĠØ§ÙĦÙī":401,"ÙĨØ§":402,"ÙĤØ©":403,"ÙĦØ©":404,"ĠØ§ÙĦÙĦ":405,"ÙĬØ¹":406,"Ø§Ø·":407,"ÙĬØª":408,"Ø§Ùĩ":409,"Ø§Ø¶":410,"Ø¯Ø©":411,"ÙĬØ§Øª":412,"ĠØ§ÙĪ":413,"Ø§Ø®":414,"ÙĬÙĪ":415,"ĠÙĥØ³":416,"Ø¹Ø±":417,"ÙħÙĨ":418,"ÙĬÙĥ":419,"ĠØ§Ø³":420,"ÙĥÙĨ":421,"Ø§Ø²":422,"Ø¬Ø±":423,"ĠØº":424,"Ø¨Ø©":425,"Ø¯ÙĬØ¯":426,"ØŃÙĨ":427,"ÙħØ©":428,"Ġ202":429,"Ø§Ø±Ø§Øª":430,"ÙħØ§":431,"Ø°Ø§":432,"ØªÙĪ":433,"ĠØ§ÙĦØ§ÙĨ":434,"ĠÙħØµ":435,"ĠØ§ÙĦÙĪ":436,"Ġ6":437,"ĠØ§ÙĦÙħÙĨ":438,"ĠØªØŃ":439,"ĠØ§ÙĦØ·":440,"ØªØŃ":441,"Ø§Ø´":442,"ĠØ§Ø®":443,"Ø¤":444,"ĠÙĥØ³Ø§Ø±Ø©":445,"ÙĦÙĬ":446,"ÙĦÙĥ":447,"ĠØ§ÙĦØ§":448,"Ġ201":449,"Ø³ÙĦ":450,"ĠØ§ÙĦØ§Ùħ":451,"ĠØ§ØŃ":452,"ĠØ§Ùĥ":453,"ĠØ§ÙĦØ°":454,"ĠØ§Ø³Øª":455,"Ø¬Ùħ":456,"Ġ7":457,"ĠØ§Ùħ":458,"ĠÙĦØ§":459,"ĠØ¨ÙĨ":460,"Ø´Ø±":461,"ÙĪØ¨":462,"ĠÙĦÙħ":463,"ĠÙħØ§":464,"Ø³Ùħ":465,"Ø¯ÙĬ":466,"ØŃØ©":467,"ĠØ§ÙĦØ«":468,"Ø§ÙĨÙĬ":469,"Ġ8":470,"Ø§Ø©":471,"ØªØ¨":472,"ÙĬØ²":473,"ĠØ²":474,"ĠØ§Ø¨":475,"ÙĬÙĤ":476,"Ø§Ø«":477,"ĠØ§Ùģ":478,"ÙĦÙģ":479,"ÙĦØ§Ùħ":480,"Ø±ÙĥØ©":481,"ÙĬÙĩ":482,"ĠØ§ÙĦÙħÙĪ":483,"ĠÙħØ·":484,"Ø§ÙĦÙħ":485,"ĠØ°":486,"ĠÙĥÙĦ":487,"ĠÙĪØª":488,"ĠÙĪÙħ":489,"ĠØ§ÙĦØªÙĬ":490,"ĠÙħÙĪ":491,"ÙĤØ¯":492,"Ġ10":493,"ĠØ§ÙĬ":494,"Ø¨ÙĬØ¹":495,"Ø¨ÙĦ":496,"ĠÙħØ´":497,"Ø·Ø©":498,"ĠÙĪÙĦ":499,"ÙħØ¯":500,"ĠØ§ÙĦÙĩ":501,"ÙĪØ¹":502,"ÙĬØ±Ø©":503,"ĠØ§ÙĦÙħØŃ":504,"Ø¯Ø§":505,"Ġ2021":506,"ØµÙĦ":507,"ØªÙĬ":508,"ÙĤÙĦ":509,"ĠØ¬Ùħ":510,"Ø¬ÙĦ":511,"Ġ9":512,"ÙĪÙģ":513,"ĠØ«":514,"Ø§Ø¯Ø©":515,"ĠØ§Ø±":516,"ØªØ¬":517,"ÙĨÙĬ":518,"ØªØ¯":519,"ĠØ§ÙĦØ§ÙĦ":520,"ÙĪÙĤØ¹":521,"Ø¯Ø±":522,"ÙĥØ±":523,"ĠØ¨Ø±":524,"ÙĩØ±":525,"ÙħØ§ÙĦ":526,"ÙĪØ³":527,"ÙĦØ§ÙĦ":528,"ÙĪØ¬":529,"ÙĬØ¨":530,"ĠØ§ÙĦÙĬ":531,"Ø±Ùģ":532,"ĠÙħØª":533,"Ø°Ùĩ":534,"ĠÙĪØ§ÙĦÙħ":535,"ÙĥÙĦ":536,"ĠÙħØ³":537,"Ø¨Ø§Ø±":538,"ĠÙĩØ°Ø§":539,"ÙĪØ±Ø©":540,"ÙĨØ¯":541,"Ø§ÙĨÙĬØ©":542,"Ø®Øµ":543,"ÙĨØ¹":544,"ĠØªÙĨ":545,"ÙĪÙĬ":546,"ÙĥØ©":547,"Ø§Ø±ÙĬ":548,"ĠØªØ¹":549,"Ø§ÙĦØ©":550,"ĠØ¶":551,"ØªÙĩ":552,"ÙĦÙħ":553,"ÙĨØ©":554,"ÙĥØ³":555,"ÙĪØ§Øª":556,"ĠØªØµ":557,"Ø¨Ø¯":558,"Ø³ÙĬ":559,"ĠÙħØ±":560,"ØªØµ":561,"Ø§Ø¹Ø©":562,"ÙĪØ§":563,"ÙģØ±":564,"Ø¶ÙĦ":565,"ÙħØ±":566,"ĠØ§ÙĦØ§Ø¹":567,"Ø±Ø¨ÙĬØ©":568,"ÙĦØ¨":569,"ÙĪØª":570,"Ø±ÙĬÙĤ":571,"ÙĤØ±":572,"ØŃÙĨØ©":573,"ĠØ§ÙĦØº":574,"ÙĪÙĦØ©":575,"Ø³Ø¨":576,"ĠØ¨ÙĬÙĨ":577,"Ø®Ø¯Ùħ":578,"ĠØ§ÙĦØ§Ø±":579,"ĠØ§ÙĦÙĦÙĩ":580,"ÙģÙĬ":581,"Ø±ÙĤ":582,"Ø§ÙģØ©":583,"ĠØ¨Ø¹Ø¯":584,"Ø¦ÙĬØ³":585,"ÙĨÙĬØ©":586,"Ø«Ø±":587,"ĠØ§ÙĦØ²":588,"ĠØ§Ø¯":589,"ĠÙĥØ§ÙĨ":590,"ĠØ§ÙĦØ§Ø®":591,"ĠÙĬÙħ":592,"ĠÙħØ¬":593,"ØªÙģ":594,"ĠØ´Ø±ÙĥØ©":595,"ÙĥÙħ":596,"ĠØ¹ÙħÙĦ":597,"ØªØ®":598,"ĠØªÙħ":599,"ÙĤÙħ":600,"ĠÙħØ¯":601,"ĠÙħØ·ØŃÙĨØ©":602,"ĠØ§ÙĦØŃØ¬Ø±":603,"ĠØ§Ø¹":604,"ØªØ±ÙĪÙĨ":605,"ĠÙĩÙĪ":606,"Ø§ÙĬ":607,"Ø¹ÙĪØ¯":608,"Ø§ÙĦÙĬØ©":609,"ØŃÙĤ":610,"ÙĪØ±ÙĬ":611,"ĠÙħÙĤ":612,"ÙĪÙĥ":613,"Ġ14":614,"ÙĬØ§ÙĨ":615,"ĠÙħØ®":616,"00":617,"ĠÙĩØ°Ùĩ":618,"ĠÙĦÙĦÙħ":619,"ĠØ§ÙĦÙħØµ":620,"ÙĪØ§ÙĨ":621,"Ø·Ùħ":622,"ĠØ³ÙĬ":623,"Ø§ÙħÙĦ":624,"ĠÙĦÙĦØ¨ÙĬØ¹":625,"ÙĪÙĬØ©":626,"ÙĬÙĨØ©":627,"ÙĥÙĪÙĨ":628,"ĠØ§ÙĦÙħØ³Øª":629,"ĠØªÙĤ":630,"ĠÙħØ³Øª":631,"Ø¯Ø§Øª":632,"Ø¡":633,"ĠØ§ÙĦÙħØ±":634,"ĠØ¬ÙħÙĬØ¹":635,"Ġ19":636,"ĠØ§ÙĦØ©":637,"ÙĨØª":638,"ĠØ§ÙĦØ§ØŃ":639,"Ø¯Ø§Ùħ":640,"ĠÙĪÙĩ":641,"Ø§Ø°":642,"Ø±Ø§Ø¡":643,"Ø§ÙĦÙĬ":644,"ÙĪØ²":645,"Ø±ÙĬØ¯":646,"ĠØªØ³":647,"ĠØ¬Ø¯ÙĬØ¯":648,"Ø§ÙħØ©":649,"ĠØ¹ÙĦÙĬ":650,"ĠØ§Ø®Ø±":651,"Ø¯Ø¯":652,"ĠØ¨ÙĦ":653,"ĠÙħØŃØ·Ùħ":654,"ĠØ§ÙĦÙħØª":655,"ĠÙħÙĥ":656,"Ø§ÙħØ¬":657,"ĠØ§ÙĦØ§ÙĪÙĦ":658,"<|":659,"do":660,"en":661,"ex":662,"ft":663,"|>":664,"Ġ<|":665,"doft":666,"endoft":667,"ext":668,"endoftext":669,"ÙĨØ³":670,"Ø³Ø©":671,"Ø±Ø¬":672,"Ø·Ø±":673,"ĠØ§ÙĦÙħØ´":674,"ĠÙĬÙħÙĥÙĨ":675,"Ø·ÙĦ":676,"ĠØ§Ø¬":677,"ĠØ§ÙĦÙĬÙĪÙħ":678,"ĠØ§ÙĦØ§Ø¬":679,"ĠÙĩÙĬ":680,"ĠØ®ÙĦØ§ÙĦ":681,"ĠØ§ÙĦØ§Øª":682,"ĠØ¨Ø¹":683,"ĠÙģÙī":684,"Ø§Ø¨Ø©":685,"ÙĥØªØ±ÙĪÙĨ":686,"ĠØ¨Ùħ":687,"ĠØ§ÙĦØ¹Ø§ÙĦÙħ":688,"ĠÙĪÙĤ":689,"ÙģØ³":690,"ĠÙĬÙĨ":691,"ĠØªØ±":692,"ĠØ§ÙĦÙħØ¹":693,"Ø§Ø¦ÙĬØ©":694,"ÙħÙĬÙĦ":695,"Ġ12":696,"Ø³Ø·":697,"ĠÙĦØª":698,"ĠØ§ÙĦØ¨ØŃ":699,"ĠØ§ÙĦØ§ÙĦÙĥØªØ±ÙĪÙĨ":700,"ĠØ¹Ø¨Ø¯":701,"ĠØªØ¬":702,"ÙĩØ¯":703,"ĠØ§ÙĦØ°ÙĬ":704,"ĠÙĪØ¨":705,"ĠÙħÙĦ":706,"ÙĤÙĬ":707,"ÙĪÙī":708,"ĠÙħØµØ±":709,"ĠÙĪØ²":710,"ĠØ§ÙĦØ³ÙĬ":711,"Ø¦Ø©":712,"Ø±ÙĥØ²":713,"ĠØ©":714,"ĠØ§Øµ":715,"ĠÙĪØŃ":716,"Ø¹Ø§Ø±":717,"ĠØ§ÙĦØ¹ÙħÙĦ":718,"ĠØ±ÙĤÙħ":719,"Ø±ÙĬØ©":720,"ÙĩØ¨":721,"Ġ15":722,"ĠØ§Ø´":723,"ĠØ¨Ø´":724,"ĠØ§ÙģØ¶ÙĦ":725,"ĠÙħØµÙĨØ¹":726,"Ø¹Ø¨":727,"Ø´Ùģ":728,"Ø¹Ùħ":729,"ĠØ§ÙĦØ³Ø¹ÙĪØ¯":730,"ĠØ§ÙĦØ¹Ø±":731,"ĠØªØ·":732,"ÙĦÙĬØ©":733,"ÙĥØª":734,"ĠÙĬØ¹":735,"ØªØ§Ø¬":736,"ĠØŃÙĬ":737,"ĠÙħØŃÙħØ¯":738,"ÙĪÙħØ§Øª":739,"Ø¸Ø©":740,"Ø§Ø¯ÙĬ":741,"Ø«ÙĦ":742,"Ø¬Ø©":743,"Ġ11":744,"ĠØ¨ØŃ":745,"ĠÙĪÙĥ":746,"ĠÙĬØŃ":747,"Ø¨Ø§Øª":748,"Ø¸ÙĬÙģ":749,"ĠÙĪØ¬":750,"ĠØ³Ø¨":751,"ÙĪØ¹Ø©":752,"Ø§ÙĦØ§Øª":753,"Ġ2020":754,"ĠØªØ´":755,"ÙĪØµ":756,"ÙĪØ©":757,"ĠØ·ØŃÙĨ":758,"ØªÙĤ":759,"ĠØ¨Ø¯":760,"ĠØ§ÙĦØ§ÙĤ":761,"ĠØŃØ³":762,"Ø¹Ø¯ÙĬÙĨ":763,"ĠÙĤØ¯":764,"ĠÙħÙĪÙĤØ¹":765,"ĠÙĪÙģ":766,"Ø±ÙĥØ§Øª":767,"Ø¨ÙĨ":768,"ĠØ§ÙĦÙħØ³":769,"ØªÙĥ":770,"ĠÙĪØ§ØŃ":771,"Ø¹ÙĦÙĬÙħ":772,"ÙĤÙĪÙĤ":773,"ĠØ§Ø¶":774,"Ø§Ø±ÙĬØ®":775,"Ø§Ø¦ÙĦ":776,"Ø§ÙĨØ§Øª":777,"ĠØ§ÙĦÙħÙĤ":778,"ĠØ§ÙĦØ¹Ø±Ø¨ÙĬØ©":779,"Ø±ÙĬØ§Ø¶":780,"ĠØºÙĬØ±":781,"ĠØ§ÙĦØ§Ø¨":782,"ØªØ¯Ùī":783,"Ø§ÙĤØ©":784,"Ø±ÙĬÙĥ":785,"ÙĪÙĨØ©":786,"Ø§Ø±ÙĬØ©":787,"ĠØ°ÙĦÙĥ":788,"ØªÙĩØ§":789,"ĠØ¹Ø§Ùħ":790,"ØªÙĦ":791,"ĠØ¨ÙĪ":792,"Ġ25":793,"Ø§ØµØ©":794,"ĠØ§ÙĤ":795,"Ø§Øº":796,"ĠØ¨Ø§Ø³":797,"ĠØªÙģ":798,"Ø§Ø¦ÙĬ":799,"ÙĪØ§Ø±":800,"ÙĪØ¯Ø©":801,"ĠÙĪÙĨ":802,"ĠÙĥÙĬÙģ":803,"ÙĬÙĦØ©":804,"ĠÙĬÙĤ":805,"ĠÙĤØ¨ÙĦ":806,"ĠØ§ÙĦØ§Ø¯":807,"Ġ30":808,"ĠØ§ÙĦÙħØ¯":809,"ØµØ©":810,"Ø²Ø©":811,"ÛĮ":812,"ĠØ§ÙĦÙģÙĥ":813,"ĠØ§ÙĦØ°ÙĩØ¨":814,"ĠØ§ÙĦØ¨Ø±":815,"Ø§Ø±Ùĥ":816,"Ø¨ØŃ":817,"ĠÙģØ±":818,"ØªÙī":819,"Ø¨ÙĬÙĤ":820,"Ø§ØµÙĦ":821,"ÙĬØ¬":822,"ÙģØ©":823,"Ø§Ø³Ø©":824,"ĠØ®Ø¯Ùħ":825,"ĠØ§ÙĦØ¯ÙĪÙĦ":826,"ØªÙħØ§Ø¹":827,"Ø§ØªÙģ":828,"ĠÙħØ¨":829,"ĠØ³ÙĦ":830,"ĠØ§ÙĦØ¨ÙĬ":831,"ĠØ¬ÙĨ":832,"ĠÙĪØ³":833,"ĠØ§ØŃØ¯":834,"ĠØªØ³Øª":835,"ÙĨØ§ÙħØ¬":836,"ĠØ¨Øª":837,"ĠØ§ÙĦØ§ÙĦÙĥØªØ±ÙĪÙĨÙĬ":838,"ØªØ¬Ø§Øª":839,"ĠÙħØ¹Ø¯Ø§Øª":840,"ĠØ§ÙĥØ«Ø±":841,"Ġ200":842,"ĠÙĬÙĪÙħ":843,"ØµÙĪÙĦ":844,"ĠØ§ÙĦØ³Ø¹ÙĪØ¯ÙĬØ©":845,"Ø§ÙĬØ©":846,"ÙģÙĪ":847,"ĠØ§Ø¹ÙĦ":848,"ĠØ®Ø·":849,"ØŃÙħ":850,"ĠÙĬØªÙħ":851,"ÙĤØ·":852,"ĠÙĪØ§ÙĨ":853,"Ø¨ÙĬØ©":854,"ØªØ§Ø¨":855,"ĠÙĪØ¹":856,"ØŃÙĬ":857,"Ø®ÙĦ":858,"Ø±ÙĬÙĨ":859,"Ø°ÙĦÙĥ":860,"ĠØ§ÙĦØµÙĬÙĨ":861,"ÙĬØ´":862,"ĠÙĥÙħØ§":863,"ĠØ§ÙĪÙĦ":864,"Ø¶Ø¹":865,"ĠØ§ÙĦØ¬Ùħ":866,"ĠÙĬØ¬":867,"ĠÙĪØ§ÙĦØª":868,"Ø±ÙĪØ·":869,"ĠØ§Ø°Ø§":870,"Ġ16":871,"ĠØªÙĥ":872,"ĠØ®Ø§Ùħ":873,"ĠØ§ÙĦØ±Ø¦ÙĬØ³":874,"Ø§Ø¹Ø¯":875,"ĠØ§ÙĦØ¬Ø¯ÙĬØ¯":876,"ĠÙĦØ¯":877,"ĠØ§ÙĦÙĥØ±Ø©":878,"ĠÙĦÙĩ":879,"ĠØ§ÙĦÙħØªØŃ":880,"Ġ13":881,"ÙĪÙħØ©":882,"ĠØ³Ø¹Ø±":883,"ÙĦØ§":884,"ĠÙħØ¤":885,"ĠÙĦØ§ÙĨ":886,"ÙĪÙĨØ§":887,"ÙĦÙĤØ©":888,"Ø¨Ø¹":889,"ĠÙĨØ¸":890,"ĠØªØ¯":891,"Ø±Ø§Øª":892,"ØµÙģ":893,"ĠØ³ÙĨ":894,"ØºØ©":895,"Ø¬ÙĦØ³":896,"Ø§ØŃØ©":897,"Ø±Ø¶":898,"ĠØ¨Ø·":899,"Ø±ÙĪØ¹":900,"Ø§Ø³ÙĬØ©":901,"ĠØ§ÙĦØªØŃ":902,"ÙħÙĬÙħ":903,"ØºÙĬØ±":904,"ÙģÙĦ":905,"ĠØ§ÙĦØ¹ÙĦ":906,"Ø±Ø¯":907,"Ø¹ÙħÙĦ":908,"Ø±ØŃ":909,"ĠØ§Ø³ØªØ®":910,"ĠÙħÙħ":911,"ĠØªØŃÙħÙĬÙĦ":912,"ĠØ§ÙĦÙħØ¬":913,"ĠØŃÙĬØ«":914,"ĠÙĦÙĥ":915,"ÙĦÙĬÙĦ":916,"Ø§Ø±Ø³":917,"Ø§ÙĨÙĪÙĨ":918,"Ø²ÙĦ":919,"ØµØ±":920,"ĠØ§ÙĦØ§Ùģ":921,"ĠÙĥØ¨":922,"ĠØªÙĪ":923,"Ø¶Ø§Ø¡":924,"ĠØŃÙĪÙĦ":925,"ĠØ§ÙĦÙĩÙĨØ¯":926,"Ġ100":927,"Ø¶Ø§":928,"ĠÙĪØ§Ø³":929,"ĠØ§ÙĨÙĩ":930,"ĠØ§ÙĦÙħØ®":931,"Ġ00":932,"Ø³Ø§ÙĨ":933,"Ø¯ÙĬØ«":934,"Ø§Ø¨Ø§Øª":935,"ĠØ§ÙĦÙĪØ·":936,"ĠÙĪÙħÙĨ":937,"ĠØ¹Ø¨Ø±":938,"ÙĪÙĬØ±":939,"ÙĨØ§Ø¡":940,"ĠØ§ÙĦØ§Ø³Øª":941,"ĠØ§Øº":942,"ĠÙĬØª":943,"Ø³ÙĦØ³ÙĦ":944,"ĠÙĦÙĬ":945,"Ø²ÙĬØ¯":946,"ĠØ±Ø¦ÙĬØ³":947,"Ø±ÙĪØ¶":948,"Ø¹Ø±Ùģ":949,"ĠØ¬Ø¯ÙĬØ¯Ø©":950,"ÙħØ§ÙĨ":951,"ÙĩØ©":952,"Ø¨Ø§Ø¨":953,"Ø±Ø§Ø¦":954,"Ø§ÙĤØ¹":955,"Ø§ÙħØ¹Ø©":956,"ĠØ¨Ùĥ":957,"ĠØ¨Ùĩ":958,"ĠØŃØªÙī":959,"ĠØ¨Ø§ÙĦÙħ":960,"ÙĪØ±ÙĬØ©":961,"ÙĪØ§ÙĦ":962,"Ġ17":963,"ĠØ§ÙĦØ±ÙĬØ§Ø¶":964,"ĠØªØ±Ùĥ":965,"ĠØ³ØŃÙĤ":966,"ÙģØ¹":967,"ĠÙĤØ·":968,"ĠØ§ÙĦØªØ¬":969,"ÙĪÙĬØª":970,"ĠØ¹ÙĦÙĬÙĩ":971,"ØªÙĪØ¨Ø±":972,"Ġ18":973,"ĠØ§ÙĦØ¹Ø§Ùħ":974,"ÙģØ§ÙĦ":975,"ÙħÙĬ":976,"ÙĦØ§Øª":977,"Ġ24":978,"Ø¬ÙĬÙĦ":979,"ĠØ¹ÙĨØ¯":980,"ĠÙħØ±ÙĥØ²":981,"ĠÙĦÙĨ":982,"ÙĤÙĬÙĤ":983,"Ø«ÙĬØ±":984,"ĠØ§ÙĥØªÙĪØ¨Ø±":985,"ÙĦÙģØ©":986,"ĠØ§ÙĦÙħØªØŃØ¯Ø©":987,"ÙĬÙħØ©":988,"ÙĦÙĤ":989,"ĠØ§ÙĦÙħØº":990,"Ø²ÙĬ":991,"ĠØ§ÙĦØªÙĨ":992,"ĠØ§ÙĦØ§Ø·":993,"Ø§Ø³ÙĬ":994,"ĠÙĤØ³Ùħ":995,"ĠÙĩÙĦ":996,"ĠØ¨Ø§ÙĨ":997,"ĠØªØ¹ÙĦ":998,"ĠØ§Ø¨ÙĪ":999,"Ø±ÙĬÙĤØ©":1000,"ĠØ§ÙĦØ¶":1001,"ÙĬØ§ÙĨØ©":1002,"ĠÙħØ¬Ùħ":1003,"ĠÙĩØ§ØªÙģ":1004,"ĠØ§Ø«":1005,"ĠØ§Ø³ØªØ®Ø¯Ø§Ùħ":1006,"ĠØ§ÙĦØ¬Ø²":1007,"Ø§Ø¨Ø¹":1008,"ÙħÙĪ":1009,"ÙĬØ±ÙĬ":1010,"ĠØ³Øª":1011,"Ø§Ø±ÙĥØ©":1012,"ĠØ§ÙĦÙĤØ±":1013,"ĠÙĥÙĪØ±":1014,"ĠÙģÙĦ":1015,"ĠØ¨Ø±ÙĨØ§ÙħØ¬":1016,"ĠØ§Øª":1017,"Ø§ÙĬØ±":1018,"ĠØ¨Ø¹Ø¶":1019,"ĠÙĦÙĦØª":1020,"Ø§ÙĦØ¨":1021,"ĠØ±Ø³":1022,"Ġ41":1023,"Ø±ÙĬØ¹":1024,"Ø§Ø±Ø¬":1025,"ÙģØ§Øª":1026,"ÙĬÙĨØ§":1027,"ÙĨØ§Ø¹":1028,"ÙĬØ®":1029,"ĠØ§Ø·":1030,"ÙĪØ±Ø¯":1031,"Ø¯Ø«":1032,"ĠØ¸":1033,"ĠÙħØªØ±":1034,"ĠÙĦØ¹":1035,"Ø¨Øª":1036,"ĠØ¯Ø±":1037,"ĠØ§ÙĦØ§Ø´":1038,"ĠÙĦÙĪ":1039,"ĠØ§ÙĦØŃÙĤÙĪÙĤ":1040,"ĠØ§ÙĦØªØ¹Ø¯ÙĬÙĨ":1041,"ĠØ§ÙĦÙħÙĪÙĤØ¹":1042,"Ø¶ÙĪØ¹":1043,"ØºØ·":1044,"ĠØ¯ÙĪÙĦ":1045,"ĠÙħØ«ÙĦ":1046,"ĠÙĨÙĤ":1047,"Ø§Ø¦Ø±":1048,"ĠÙħØŃÙģÙĪ":1049,"ĠÙĬØ³Øª":1050,"ĠØ§ÙĦÙħØ¹ÙĦ":1051,"ĠÙĪÙĦØ§":1052,"ĠØ§ÙĦØªØ¹ÙĦÙĬÙħ":1053,"ØªØ²":1054,"ĠØ§ÙĦØµØŃ":1055,"ĠØ§ÙĦØ§Ø³ÙĦØ§Ùħ":1056,"ĠÙĨØ³":1057,"Ø¹Ø±Ø¶":1058,"ĠÙħÙĨØªØ¯Ùī":1059,"ĠÙĪÙĬ":1060,"ÙħÙĬØ©":1061,"ÙĬÙĨÙĬ":1062,"Ø§Ø®ÙĦ":1063,"Ġ23":1064,"ØªØ®Ø¯Ø§Ùħ":1065,"ĠØªØ·Ø¨ÙĬÙĤ":1066,"Ø¶Ø©":1067,"Ø§ÙĪ":1068,"ĠØ¨Ø´ÙĥÙĦ":1069,"ĠØ±ÙĬ":1070,"Ġ2019":1071,"ĠØ§ÙĦØµÙģ":1072,"ĠØ¹ÙħÙĦÙĬØ©":1073,"ĠØ§ÙĦÙħØ¤":1074,"Ġ22":1075,"Ø±ÙĬÙħ":1076,"ĠØ§Ø®Ø¨Ø§Ø±":1077,"ĠÙħØ³ÙĦØ³ÙĦ":1078,"ĠØªØª":1079,"ĠØ§ÙĦØ¨ÙĦ":1080,"ĠØ§ÙĦØ§Øµ":1081,"ĠØŃØ¬Ø±":1082,"ĠØ§ÙĦØªÙĪ":1083,"ĠÙģØ§ÙĨ":1084,"ĠÙħØŃÙģÙĪØ¸Ø©":1085,"Ø§Ø¦ÙħØ©":1086,"ĠØ§Ø³Ùħ":1087,"Ø±ÙĬÙģ":1088,"Ø·ÙĤØ©":1089,"ĠØ¹Ø¯Ø¯":1090,"ĠØªØ®":1091,"Ġ21":1092,"ĠÙĦÙĦØŃ":1093,"Ġ32":1094,"ÙĦØ§Ø«":1095,"ÙĦÙī":1096,"ĠØ§ÙĦØ®Ø§ØµØ©":1097,"ĠØ§ÙĦØªØµ":1098,"ĠÙĦØŃ":1099,"ĠØ§ÙĦÙħØ·":1100,"ĠØ§ÙĦØ§Ùĥ":1101,"ĠØ¨ÙĬ":1102,"Ø±Ø§Ø±":1103,"ĠÙĪØ§ÙĦØ¹":1104,"ĠÙĬØ¯":1105,"Ø§ÙĦØ«":1106,"ØªØ±ÙĨØª":1107,"Ø±Ùī":1108,"ĠØ§ÙĦØªØ¹":1109,"ØºÙĬØ±Ø©":1110,"ÙħØ³":1111,"ĠØ§ÙĦØ§Ø¬ØªÙħØ§Ø¹":1112,"Ø§ÙĨÙĬØ§":1113,"ĠØµÙĪØ±":1114,"Ø±ÙĬØ¨":1115,"Ø´Ø©":1116,"Ø¹ÙĬØ©":1117,"ÙĨÙĬÙĨ":1118,"ĠÙĪØ±":1119,"Ø§ÙĩØ¯":1120,"Ø¬Ø§Ø±":1121,"ĠØ§ÙĦØ¨ØŃØ«":1122,"ÙĪØ§Ø¡":1123,"ÙĨÙī":1124,"Ø§Ø¦Ùģ":1125,"ÙĪÙĦØ§":1126,"ĠÙĥÙĪØ±ÙĪÙĨØ§":1127,"ĠÙĬÙĥÙĪÙĨ":1128,"ÙĬØ¯Ø©":1129,"ĠØ§ÙĦØªØ³":1130,"ĠØ§ÙĦØŃÙĦÙĤØ©":1131,"Ø³Ø¨Ø¨":1132,"Ø§ÙĪÙĦ":1133,"ÙĪØ§Ø¹":1134,"ĠØ§ÙĦØ¹Ø±Ø§ÙĤ":1135,"ĠØ§ÙĦÙģØ±":1136,"ÙĨÙĤ":1137,"ÙĬØ±Ø§ÙĨ":1138,"ÙħÙĨØª":1139,"ĠØ§ÙĦØŃÙĥ":1140,"ĠÙħÙģ":1141,"ĠØ«Ùħ":1142,"Ø§Ø¦Ø¯":1143,"ÙħÙĦÙĥØ©":1144,"ĠØ¨Ø³":1145,"Ø§Ø¯ÙĬØ©":1146,"ÙĪÙĬÙĦ":1147,"ØŃØ§Øª":1148,"ÙĨØ§Ùĥ":1149,"Ø§ÙĨØ§":1150,"ĠÙĪØ§ÙĦØŃ":1151,"ĠØ§Ø³Ø¹Ø§Ø±":1152,"ÙĪØ·":1153,"ÙĦÙĩ":1154,"Ġ2018":1155,"ØªØ±Ùĥ":1156,"ÙĬØ§Ø±":1157,"ĠØ§ÙĦØ§ÙħØ§Ø±Ø§Øª":1158,"Ø§Ø³Øª":1159,"ĠÙħØ¬ÙĦØ³":1160,"ĠØ§ÙĦÙħÙĩ":1161,"Ø§Ø°Ø§":1162,"ĠØ§ÙĦØ«Ø§ÙĨÙĬ":1163,"ÙĨØ§ÙĨ":1164,"Ø§Ø¨Ø³":1165,"ĠØ¨ÙĪØ§Ø³":1166,"ĠØ´Ø±ÙĥØ§Øª":1167,"ĠÙħØ§Ùĥ":1168,"ĠÙĥØ³Ø§Ø±Ø§Øª":1169,"Ø§Ø¨ÙĦ":1170,"ĠØµÙĬØ§ÙĨØ©":1171,"ĠØ§ÙĦÙħÙĦ":1172,"ĠÙģÙĤØ·":1173,"Ø®ÙĪÙĦ":1174,"Ø§Ø¯Ø±":1175,"ÙĬÙģØ©":1176,"ĠØ§ÙĦØ¯Ø±":1177,"Ø³Ø³":1178,"ĠØ¨ÙĪØ§Ø³Ø·Ø©":1179,"ĠØ§Ø²":1180,"ĠØ§ÙĦÙħØŃÙħ":1181,"ĠØ§ÙĦÙħØ¹Ø¯":1182,"Ø±ÙĪØ³":1183,"ĠÙħÙĦÙĬ":1184,"Ø³ÙĦÙħ":1185,"Ø°ÙĬØ©":1186,"Ø¯ÙĬÙĪ":1187,"ĠØ§ÙĦØŃØ¯ÙĬØ¯":1188,"ĠØ§ÙĦÙħÙĥ":1189,"Ø¹ÙĬ":1190,"ĠØ³Ùħ":1191,"ĠØ¹Ùħ":1192,"ÙĩÙĦ":1193,"ĠØ§ÙĦØ¹Ø§ÙħØ©":1194,"ÙĩØ²Ø©":1195,"ÙĩØ§Ø²":1196,"ĠØ¨ÙĬØ¹":1197,"ĠÙĥØªØ¨":1198,"ĠØ§ÙĦØŃØ±":1199,"Ø§Ø¶ÙĬ":1200,"ĠØ´Ø¨":1201,"ĠØ§ÙĦØ³ÙĦ":1202,"ĠÙĤØ§ÙĦ":1203,"ĠØ§ÙĦØ¹ÙĦÙħ":1204,"Ġ47":1205,"ĠØ§ÙĦØ§ÙĨØªØ±ÙĨØª":1206,"ĠÙħØ¬ÙħÙĪØ¹Ø©":1207,"ĠÙĥØ§ÙĨØª":1208,"ĠÙħÙĨØªØ¬Ø§Øª":1209,"ÙĪØ«":1210,"ĠØ§ØŃÙħØ¯":1211,"ĠÙĦÙĤ":1212,"ĠØ¨ÙĩØ§":1213,"Ø§Ø¯Ø§Øª":1214,"ÙĩØ§Øª":1215,"ÙĪÙĦÙĪØ¬":1216,"ĠØ§ÙģØ±ÙĬÙĤ":1217,"ÙĨØ§Ø¹Ø©":1218,"Ġ05":1219,"ĠÙĪØ´":1220,"ĠØµØŃ":1221,"ĠØ¨Ø¬":1222,"Ø§Ø¨Ø·":1223,"ĠÙħØ®Ø±ÙĪØ·":1224,"ĠØ´Ø®Øµ":1225,"Ø±Ø¨ÙĬ":1226,"ĠØ§Ø®Ø±Ùī":1227,"ÙħØ§Øª":1228,"ĠÙģÙĬØ¯ÙĬÙĪ":1229,"ĠØ§ÙĦÙħÙģ":1230,"ĠÙħØ´Ø§Ùĩ":1231,"ĠÙĨØª":1232,"Ø´Ø±Ø©":1233,"Ø¹Ø§Øª":1234,"ĠÙĬØ¬Ø¨":1235,"ÙĬØ·":1236,"Ø§ÙħÙĦØ©":1237,"ĠØ®Ø¯ÙħØ©":1238,"ĠØ§ÙĨØª":1239,"ĠÙħÙĨØ°":1240,"ĠØ·Ø±ÙĬÙĤ":1241,"ÙĬØ§Ø¡":1242,"Ø§Ø¹Ø§Øª":1243,"ĠØ¹Ø§ÙĦÙĬØ©":1244,"ĠÙĬØ´":1245,"ÙĩØ±Ø¨":1246,"ĠØ§ÙĦÙĪÙĤ":1247,"Ø§Ø¨ÙĤ":1248,"Ø±Ø§":1249,"ĠÙħØ¨Ø§Ø´":1250,"ĠØ¯Ø§Ø®ÙĦ":1251,"ĠÙĥØªØ§Ø¨":1252,"Ø§ÙĤØ§Øª":1253,"ĠØªØµÙħÙĬÙħ":1254,"Ġ2017":1255,"ÙĥØªÙĪØ±":1256,"ĠØµÙģ":1257,"ĠØ§ÙĦØ§Ø«":1258,"ĠØ¨ÙĤ":1259,"ĠØ§ÙĦØªÙģ":1260,"Ø§ÙĦØŃ":1261,"ĠØ±Ùħ":1262,"ĠØªØ³ØªØ®Ø¯Ùħ":1263,"Ø§Ø±Ø¯":1264,"ĠÙĨÙģØ³":1265,"ĠØ§ÙĦØ¬Ø¯ÙĬØ¯Ø©":1266,"ÙĪØ§Ø¬":1267,"Ø§Ø¦ÙĤ":1268,"ĠØ§ÙģØ±ÙĬÙĤÙĬØ§":1269,"ĠØ¬ÙĨÙĪØ¨":1270,"ØºÙĬ":1271,"Ø§Ø³Ø§Øª":1272,"ĠØ§ÙĦØ§ÙħØ±ÙĬÙĥ":1273,"ĠØ§ÙĦÙģØŃÙħ":1274,"ĠØªØ§Ø±ÙĬØ®":1275,"Ġ2016":1276,"ĠØ§ÙĦÙĪØ²":1277,"ØªØ¨Ø±":1278,"ĠØŃØ³Ø§Ø¨":1279,"ĠØ§ÙĦØ«Ø§ÙĦØ«":1280,"ĠÙħÙĩ":1281,"Ø§ÙĪÙĨ":1282,"ĠØ§ÙĦÙģÙĦ":1283,"ĠÙĬØ³":1284,"ĠØ§ÙĦÙĥØ³":1285,"Ø§ÙģÙĬØ©":1286,"ĠÙĨÙĤÙĦ":1287,"ĠÙħØ²":1288,"ĠÙĪÙĦÙĥÙĨ":1289,"Ø§ÙģÙĤ":1290,"ĠØ§ÙĦØªÙĤ":1291,"Ø³ÙĦØ©":1292,"ĠÙĪÙĩÙĪ":1293,"ĠØ¹Ø¨":1294,"ÙĬÙĬÙĨ":1295,"ĠØªØµÙĨ":1296,"Ø¨ÙĪØ¹":1297,"ĠØ§ÙĦØ³Ø¹Ø±":1298,"ĠØ³ÙĥØ³":1299,"ÙħØ¨Ø±":1300,"ĠØ§ÙĦØ¹Ø±Ø¨ÙĬ":1301,"Ø§ÙĩØ±Ø©":1302,"Ġ26":1303,"ĠØ§ÙĦØ±Ø¦ÙĬØ³ÙĬØ©":1304,"ĠØ§ÙĩÙħ":1305,"ĠÙĥÙħ":1306,"ĠÙħÙĦÙģ":1307,"ĠØŃÙĦ":1308,"ÙĬØ§Ø¯Ø©":1309,"ĠØ§ÙĦÙħÙħÙĦÙĥØ©":1310,"ĠÙĬÙĪÙĨ":1311,"ĠØªÙĨØ¸ÙĬÙģ":1312,"Ø¸Ø§Ùħ":1313,"ĠØ§ÙĦØµØŃØ©":1314,"ĠØ§ÙĦØ´ÙĬØ®":1315,"ĠÙĬÙħÙĥÙĨÙĥ":1316,"ĠØ§ÙĦÙħØ¹ÙĦÙĪÙħØ§Øª":1317,"ĠØ§ÙĬØ¶Ø§":1318,"ĠØ¹Ø±Ø¶":1319,"Ø¸Ø§Ø¦Ùģ":1320,"ĠØ§Ø¨Ø±":1321,"ĠØ§ÙĦØ¨Ø±ÙĬØ¯":1322,"ĠØªØ¨":1323,"Ø±Ø§Ø¦ÙĬÙĦ":1324,"Ø±ÙģØ©":1325,"ĠØ§ÙĦØ§ÙĪÙĦÙī":1326,"ĠØ¹Ø±ÙĪØ¶":1327,"Ø¨Ø·":1328,"ĠØŃØ³Ø¨":1329,"ĠÙĦÙĥÙĨ":1330,"Ø§Ø¸":1331,"ÙĩÙħØ§":1332,"ĠÙĪØµ":1333,"ÙĬØ§Ùĩ":1334,"Ġ27":1335,"ĠØ§ÙĦØ®Ø¯Ùħ":1336,"ĠØ®Ø¯ÙħØ§Øª":1337,"ĠÙĪØ¯":1338,"ĠØŃØµ":1339,"ĠØ§ÙĦØ´Ø±ÙĥØ©":1340,"ĠØ§ÙĦØ³Ø±ÙĬØ¹":1341,"ĠØ¬Ø²":1342,"ĠÙĪØ²ÙĬØ±":1343,"Ø²ÙĬØ²":1344,"ÙĤØ¯ÙĬÙħ":1345,"Ġ50":1346,"ĠØ§ÙĦÙĤØ¯":1347,"ÙĨØ¨":1348,"Ġ39":1349,"Ø®ÙĪØ±":1350,"ĠØ·Ø±ÙĬÙĤØ©":1351,"20":1352,"ÙħØ§Ø±":1353,"ĠÙĥÙĬÙģÙĬØ©":1354,"ĠÙĨÙĪØ¹":1355,"ÙĪØ¨Ø§":1356,"ĠÙĪØ²Ø§Ø±Ø©":1357,"ĠÙĦÙĩØ§":1358,"Ø¯Ø§Ø¯":1359,"ĠØ·ÙĨ":1360,"ĠÙĦØ¨ÙĨ":1361,"ÙħØ§Ùħ":1362,"ĠÙĪØ·":1363,"ĠÙģÙĬÙĩØ§":1364,"Ø¯ÙħØ§":1365,"ĠØ§ÙĦØªØ·":1366,"ÙĥØ§ÙĨ":1367,"ĠÙħØ´Ø±ÙĪØ¹":1368,"ĠØ§ÙĦØ®Ø·":1369,"ĠØ§ÙĦØ´Ø®Øµ":1370,"ĠØ¬Ø§ÙħØ¹Ø©":1371,"ĠØ¹Ø¨Ø¯Ø§ÙĦ":1372,"Ø¶Ø±":1373,"ĠØ¬Ø¯":1374,"ÙĥÙĬØ©":1375,"ĠØ§ÙĦØŃØ³":1376,"ĠØ°Ø§Øª":1377,"ÙĬÙĪÙĨ":1378,"Ø§Ø¹Ø¯Ø©":1379,"ĠØ§ÙĦÙĦØºØ©":1380,"Ø§ÙħÙĬÙĨ":1381,"ĠÙĩÙĨØ§Ùĥ":1382,"ĠØ¯ÙĪÙĨ":1383,"ÙħØª":1384,"ØºØ±":1385,"ĠØ§ÙĦÙħØ²ÙĬØ¯":1386,"ĠÙĩÙĨØ§":1387,"ØŃÙĦØ©":1388,"ĠØ§ÙĦÙĨÙģ":1389,"Ø§ØµÙĬÙĦ":1390,"ÙĥÙĬ":1391,"ĠØ§ÙĨØªØ§Ø¬":1392,"ÙĪØ±ÙĬØ§":1393,"ĠØ§ÙĦØ®Ø§Ùħ":1394,"Ø¬ÙĦÙĬ":1395,"ĠØ§ÙĨÙĪØ§Ø¹":1396,"ĠØ§Ø¨ÙĨ":1397,"Ø§Ø³Ø¨":1398,"ÙĥØ³ÙĬØ±":1399,"ØµÙĪØµ":1400,"ĠØ§ÙĦØ¹ÙĤ":1401,"Ġ01":1402,"Ø¸Ø±":1403,"ĠØ¹ÙĦÙĬÙĩØ§":1404,"ĠØ§ÙĦØ§Ø³ÙħÙĨØª":1405,"ĠØ§ÙĪÙĨ":1406,"Ø§ØŃÙĪÙĨØ©":1407,"ĠÙĪÙģÙĬ":1408,"ĠØ§ÙĦÙħØ³ØªØ®Ø¯Ùħ":1409,"ÙĨÙĤÙĦØ©":1410,"ĠØ§ÙħØ§Ùħ":1411,"Ø§ØŃÙĬØ©":1412,"ĠØªÙĩ":1413,"ĠÙħØ¨Ø§Ø±":1414,"ĠØªÙĥÙĪÙĨ":1415,"ÙĤÙĬÙĤØ©":1416,"ĠÙĨØ¸Ø§Ùħ":1417,"ĠÙħØ®Øª":1418,"Ø§Ø¨Ø¹Ø©":1419,"41":1420,"ĠÙĤØµ":1421,"ĠØ§Ø¯Ø§Ø±Ø©":1422,"ĠØ±ÙĪ":1423,"ÙĩØ§Ø¨":1424,"ĠØ§ÙĦÙĥÙĪÙĬØª":1425,"87":1426,"Ø§ÙĨØ¹":1427,"ĠØ¬ÙĪ":1428,"ĠÙħØ¯ÙĬÙĨØ©":1429,"ØµØ§ÙĦ":1430,"ÙĨØ§ÙĬØ©":1431,"ĠØ§ÙĦÙħÙĪØ¶ÙĪØ¹":1432,"ĠØŃØ²":1433,"ĠÙħØŃØ·Ø©":1434,"ĠÙĪØ§ÙĦÙĨ":1435,"ĠÙĪØ§ÙĦØ¯":1436,"Ø¨Ø§ØŃ":1437,"ĠØŃÙĤÙĪÙĤ":1438,"ĠØ§ÙĦØ¯ÙĬÙĨ":1439,"ÙĩÙĪØ±":1440,"ĠØ§ÙĦÙħÙĦÙĥ":1441,"Ø¨ÙĬØ±":1442,"ĠØ§ÙĦØ®Ø§Øµ":1443,"ĠØ§ÙĨØ´":1444,"ÙħÙĦØ©":1445,"Ø§ØªØ¨":1446,"ĠØ¨ÙĬØ§ÙĨ":1447,"ĠØ§ÙĦØ¬ÙĨ":1448,"Ø±Ø§Ø¬":1449,"ØªÙĬÙĨ":1450,"ĠØ§ÙĦØªØ´":1451,"ĠÙħØ¹ÙĦ":1452,"Ø³ØªØ§ÙĨ":1453,"ÙĤØ§Ùħ":1454,"ĠÙĦÙĦØ´":1455,"ĠØ§ÙĨØ¯":1456,"ØºÙĦ":1457,"Ø¹ÙĦÙħ":1458,"ĠÙĪÙĤØ¯":1459,"ĠÙĦØ¬":1460,"ĠØ¨Ø§Ø±":1461,"ÙĬØ¯ÙĬÙĪ":1462,"ĠØ¹Ø§ÙĦÙħ":1463,"ĠØ§ÙĦØ´Ø±":1464,"ĠØ¹ÙĦÙĬÙĥ":1465,"ÙĪÙĬÙĨ":1466,"ĠÙĤØ§Ø¦ÙħØ©":1467,"ĠØ§ÙĦØ«ÙĤ":1468,"ÙĤÙĤ":1469,"ĠÙģÙĬÙĩ":1470,"Ġ28":1471,"Ø§Ø¦Ø¬":1472,"ĠØ§ÙĦØ§Ø®Ø¨Ø§Ø±":1473,"ÙĬØ²Ø©":1474,"Ø§ØŃÙĨ":1475,"ĠØ§ÙĦØ§Ùĩ":1476,"ĠÙĪØ§":1477,"ĠÙĪØ§ØŃØ¯":1478,"ĠØ§Ø°":1479,"Ø¹Ø§ÙĦ":1480,"ĠØ§ÙĦØ³ÙĦØ§Ùħ":1481,"ĠØ¨Ø±ÙĬ":1482,"ĠØ§ÙĦÙħØ¨":1483,"ĠØ§ÙĦØ³ÙĪØ¯":1484,"ÙĪÙĦØ§ÙĬØ§Øª":1485,"ĠÙĨØµ":1486,"Ġ35":1487,"Ø§Ø±ÙĥØ§Øª":1488,"ĠØ³ÙĦØ³ÙĦØ©":1489,"Ġ08":1490,"ĠØ§ÙĦØ§ÙĤØªØµ":1491,"ĠØ§ÙĪØ±":1492,"ĠØ³Ø§Ø¹Ø©":1493,"Ø±Ø§Ø¶":1494,"Ġ29":1495,"Ø±ÙĬÙĦ":1496,"ĠØ·Ø§ØŃÙĪÙĨØ©":1497,"37":1498,"ÙĪÙĤÙģ":1499,"ĠØ§ÙĦØ¨ØŃØ±ÙĬÙĨ":1500,"ĠÙħÙĨÙĩØ§":1501,"Ġ52":1502,"ĠÙĪØªØŃ":1503,"Ø§ÙĦØ¯":1504,"ĠØ§ÙĦØŃØµÙĪÙĦ":1505,"ÙĥÙĨÙĪÙĦÙĪØ¬":1506,"ĠÙĦÙĬØ³":1507,"ØºÙĬÙĦ":1508,"Ø¶ÙĬ":1509,"ØªÙħØ¹":1510,"ĠØ¹ÙĤ":1511,"Ø±Ø¨Ø©":1512,"Ø§ÙĦÙĬØ§":1513,"ĠÙĨØ¬":1514,"Ø¹ÙĬØ¯":1515,"ĠØ§ÙĦÙĥÙĦ":1516,"ĠÙĨØ´Ø±":1517,"ĠØ§ÙĦØŃÙĬ":1518,"ØŃÙĪ":1519,"ĠÙĪØ®":1520,"Ø¸ÙĬÙħ":1521,"Ø§ÙĦÙģ":1522,"Ġ69":1523,"ÙĬØ±Ø§":1524,"Ø¸Ùħ":1525,"ĠØ§ÙĦÙĤØ§ÙĨÙĪÙĨ":1526,"ÙģØ§Ø¡":1527,"ĠØµÙĨØ¹":1528,"Ø¸ÙħØ©":1529,"ĠØŃØ§ÙĦØ©":1530,"Ø§Ø³Ø¨Ø©":1531,"ĠØ¯ÙĪØ±":1532,"ĠØ§ÙĦØµØ®ÙĪØ±":1533,"ØŃÙĪÙĤ":1534,"Ø§ÙĨØ¨":1535,"ĠØ§ÙĦÙĨØ³":1536,"ÙĬØ³ÙĬ":1537,"ĠØ®ÙĦ":1538,"ÙģØŃ":1539,"Ø±Ø¹Ø©":1540,"Ø²Ø§":1541,"ÙĪØ¨Ø©":1542,"ĠØªÙĪÙģ":1543,"Ø§ÙģÙĬ":1544,"Ø³Ùĥ":1545,"ĠØ¶Ø¯":1546,"ÙĪØªØ±":1547,"Ø§Ø¶ÙĬØ¹":1548,"Ø®ØµØµ":1549,"ĠØ¨Ø³Ø¨Ø¨":1550,"ĠØºØ³":1551,"Ø¨ÙĤ":1552,"ĠÙĪÙĩÙĬ":1553,"ĠØ§ÙĥØ¨Ø±":1554,"Ġ40":1555,"ĠØ§ÙĦÙĤØ·":1556,"Ġ31":1557,"ĠØ¬Ø¯Ø§":1558,"ĠØ§ÙĦØªØ¯":1559,"ĠØ§ÙĦØ¨ÙĨ":1560,"Ø§Ø«ÙĬØ±":1561,"ÙģØ¸":1562,"ÙģÙĬØ±":1563,"ÙĨÙĪØ§ÙĨ":1564,"Ø§ØµØ±":1565,"Ø±Ùħ":1566,"ĠØ´ÙĬ":1567,"Ø¤ÙĪÙĦ":1568,"ĠÙģØªØŃ":1569,"ĠØªØ³ÙĪÙĤ":1570,"ĠÙĪØ¹ÙĦ":1571,"ĠØªÙĦ":1572,"Ø¯ÙĨ":1573,"ĠØ§ÙĦØ´Ø¹Ø±":1574,"Ø§ÙĦØª":1575,"ĠØ§ÙĦÙĬÙħ":1576,"Ø§Ø¦Ø¨":1577,"ĠÙħØ´Ø§ÙĩØ¯Ø©":1578,"82":1579,"Ø¬Ø²":1580,"ÙħØ§ÙĬØ©":1581,"ĠØ§ÙĦÙĪØ·ÙĨÙĬ":1582,"ĠÙĥÙĨØª":1583,"ĠÙĦØ´":1584,"ÙĤØ¨ÙĦ":1585,"Ø¶ÙĬØ©":1586,"ĠÙĦØ§Ø³":1587,"Ø¬ÙħÙĬØ¹":1588,"ĠÙĥØ¨ÙĬØ±Ø©":1589,"Ø¸ÙĩØ±":1590,"ØªØ±Ø©":1591,"ĠØ´ÙĩØ±":1592,"ĠÙħØªØ±Ø¬Ùħ":1593,"Ø§ÙĨØ¯":1594,"ĠØ§ÙĦØ¹Ùħ":1595,"Ø§ÙĨØ©":1596,"ĠØ§ÙĦØ°ÙĬÙĨ":1597,"ĠØ·ÙĦØ¨":1598,"ØŃØ¨":1599,"ĠÙĪØ§ÙĦØªÙĬ":1600,"ĠÙĦÙĦØ¹":1601,"Ø±Ø·":1602,"ĠØªØ³Ø¬ÙĬÙĦ":1603,"Ø´Ø±Ø§Øª":1604,"Ø²ÙĬØ©":1605,"ØªÙħØ¨Ø±":1606,"Ø§Ø´Ø©":1607,"ĠÙħØ¹ÙĦÙĪÙħØ§Øª":1608,"ĠØ§ÙĦØ§ÙĨØ³Ø§ÙĨ":1609,"ĠØµÙĦ":1610,"Ø§Ø±Ø¨":1611,"Ø¨ÙĬÙĪØªØ±":1612,"ĠØ«ÙĦØ§Ø«":1613,"ĠÙĥØ§ÙħÙĦ":1614,"ĠØ¨Ø±ÙĬØ¯":1615,"ĠØªØ¹Ø±Ùģ":1616,"Ġ51":1617,"ĠØ§ÙĦÙĪÙĦØ§ÙĬØ§Øª":1618,"ĠØ§ÙĦÙħØ±ÙĥØ²":1619,"ĠØ¯ÙĪÙĦØ§Ø±":1620,"Ø§Ø·ÙĤ":1621,"Ø¨ÙĬØ§":1622,"Ø§Ø¬Ø§Øª":1623,"ĠÙĤØ·Ø¹":1624,"ÙĬØ§Ùħ":1625,"Ø³ÙĬÙĨ":1626,"ĠØ³Ø¨ØªÙħØ¨Ø±":1627,"Ø§Ø¦Ùħ":1628,"ĠØ§ÙĦØ§Ø¹ÙĦØ§Ùħ":1629,"Ġ60":1630,"Ø´ÙĬ":1631,"Ø³Ø§Ø¨":1632,"ĠÙĪØ§Øª":1633,"Ø¯ÙĪØ¯":1634,"ĠÙĨÙĪÙģ":1635,"ÙĨØ§Ø¯":1636,"ĠØªØ¹Ø¯ÙĬÙĨ":1637,"ĠÙĦØ¨ÙĨØ§ÙĨ":1638,"ĠØ§Ùĩ":1639,"ĠØªØŃØª":1640,"97":1641,"Ø§Ø¬Ø±":1642,"ĠÙħØªÙĪ":1643,"ĠØ§Ø¬ÙĦ":1644,"Ø§ÙħØ§":1645,"Ø°ÙĬ":1646,"Ø¬Ø§ÙĨ":1647,"Ø·ÙĦÙĤ":1648,"ĠØ§ÙĦØ±Ø³Ùħ":1649,"ĠØ±Ø¬":1650,"ĠÙĦØ¹Ø¨Ø©":1651,"Ø§Ø²ÙĦ":1652,"ĠØ¨Ø¯ÙĪÙĨ":1653,"ĠØ¨Øµ":1654,"ĠØ§ÙħØ±ÙĬÙĥ":1655,"ĠÙĪØ§ÙĦØ´":1656,"ĠØªØ¹ÙĦÙĬÙĤ":1657,"Ø²ÙĬÙĦ":1658,"ÙĨØ·":1659,"ĠØ§ÙĦØ§Ø¹ÙħØ§ÙĦ":1660,"Ø¬Ø¯":1661,"ĠÙĪØ°ÙĦÙĥ":1662,"ØŃØ§Ø¯":1663,"ĠØ§ÙĦØ¯ÙĥØªÙĪØ±":1664,"ĠÙĪØ§ÙĦØµ":1665,"ĠÙĥØ¨ÙĬØ±":1666,"ĠÙĪÙĤØª":1667,"Ø§ÙģØ¸":1668,"ĠØ§ÙĨÙĩØ§":1669,"ÙĦØ§ÙĤ":1670,"ĠÙĪØ§ÙĦØ³":1671,"ĠØ§ÙĦØ®Ø§Ø±Ø¬":1672,"ĠÙĥÙĨ":1673,"Ø§ÙģØŃØ©":1674,"ÙĪØ¬Ø¯":1675,"ĠØ§ÙĦØ´Ø±ÙĤ":1676,"ĠØ¨Ø§ÙĦÙĥ":1677,"ĠØ§ÙĨØ§":1678,"ĠØ¯ÙĬ":1679,"ĠÙĪØ¸Ø§Ø¦Ùģ":1680,"Ġ36":1681,"ĠÙĨÙĬÙĪ":1682,"ĠÙĬÙģ":1683,"Ø³Ø·ÙĬÙĨ":1684,"ĠØ§ÙĦÙħÙĨØªØ¯Ùī":1685,"Ø¨ÙĬØ¨":1686,"ĠØ§Ø¬Ø±":1687,"ĠØ§ÙĦØ¹Ø§Ø¨":1688,"Ø³Ø³Ø©":1689,"ĠØ§ÙĦØ±Ø³":1690,"ĠÙģÙĩ":1691,"ĠØ§ÙĦØµÙģØŃØ©":1692,"ĠØµØºÙĬØ±Ø©":1693,"ĠØ§ÙĦØ±ÙħÙĦ":1694,"Ø¯Ø§ÙĪÙĦ":1695,"Ø´Ø§Ø±":1696,"ĠÙħØ¶":1697,"ĠØªØµÙĨÙĬØ¹":1698,"ĠØ¹ÙĨØ¯ÙħØ§":1699,"ØªÙĬØ§Ø±":1700,"Ø¨ØŃØ«":1701,"ĠØ¨Ø§Ùĥ":1702,"ĠØ¨ÙĬØ±":1703,"Ø±ÙĬØ±":1704,"ĠØ§ÙĦØ§Ø²":1705,"Ø¬ÙħØ¹":1706,"ĠØ§ÙĦØ«Ø§ÙĨ":1707,"ĠÙĬÙĥ":1708,"ĠØ§ÙĦØŃÙĥÙĪÙħØ©":1709,"ĠØ¨Ø§ÙĦØª":1710,"ĠØ§ÙĦØ§ÙħØ±ÙĬÙĥÙĬØ©":1711,"ĠØ§ÙĦØ´Ø±ÙĥØ§Øª":1712,"ÙĬØµ":1713,"Ø®Ùģ":1714,"ĠÙĬÙĪÙĦ":1715,"Ġ59":1716,"ĠØ§ÙĦØ§Ø·ÙģØ§ÙĦ":1717,"ĠØ§ÙĦØ¹Ø¯ÙĬØ¯":1718,"ĠØ§ÙĦØŃÙĬØ§Ø©":1719,"ĠØ³ÙĨØ©":1720,"ĠÙĬØ§":1721,"ĠÙħØ³ØŃÙĪÙĤ":1722,"ĠÙħÙĨÙĩ":1723,"ĠØ´Ùĩ":1724,"ĠØ§ÙĦÙĪÙĤØª":1725,"ÙĥÙĨÙĪÙĦÙĪØ¬ÙĬØ§":1726,"Ø±ÙĪÙģ":1727,"ĠØ§ÙĦÙħØµÙĨ":1728,"ĠØ¬ÙĦ":1729,"ĠØ¹ÙĦÙħ":1730,"Ġ2015":1731,"ĠØ§ÙģÙĦØ§Ùħ":1732,"Ġ2014":1733,"Ø²Ø§Ùħ":1734,"ĠÙĪØ§Ø¹":1735,"ĠØ³ÙĪ":1736,"ĠØ§ÙĦÙħÙĨØªØ¬Ø§Øª":1737,"ĠØ¯Ø¹":1738,"Ø§Ø¦Ø¹":1739,"ĠØ§ÙĦÙħØ¹Ø¯Ø§Øª":1740,"ØªÙģØ§Ø¹":1741,"ĠØ¯ÙĬØ³":1742,"ĠÙĦØªØŃ":1743,"ĠØ§Ø¶Ø§ÙģØ©":1744,"ĠØ§ÙĦÙħÙĪØ±Ø¯":1745,"ĠÙĤØ§ÙĨÙĪÙĨ":1746,"Ø§ØªÙĬ":1747,"ĠÙħÙĪØ§ÙĤØ¹":1748,"ØªÙĪÙĬ":1749,"Ġ09":1750,"ĠØ§ÙĦØ¯ÙĪÙĦØ©":1751,"ĠØ§ÙĦØ§ÙĪØ±":1752,"ÙĪØ¨ÙĬ":1753,"Ø§Ø±Ø¹":1754,"Ø¬Ùĩ":1755,"ĠØ§ÙĦØ¯ÙĪÙĦÙĬ":1756,"ÙĪØ±Ø§Øª":1757,"ĠØ§ÙĦØ¹Ø§ÙĦÙħÙĬØ©":1758,"ĠÙĦØ§Ø¹":1759,"ĠÙħÙĦÙĬÙĪÙĨ":1760,"Ø¨Ø³":1761,"ĠÙĪØ¶Ø¹":1762,"ĠØ§ÙĦØ«Ø§ÙĨÙĬØ©":1763,"50":1764,"ĠØ§ÙĦØ§ØŃØ¯":1765,"ĠØ§ÙĦØ§ÙĦÙĥØªØ±ÙĪÙĨÙĬØ©":1766,"ĠÙĪØ§ÙĦÙĤ":1767,"Ø§Ø¶Ø§ÙģØ©":1768,"ĠØ®Øµ":1769,"ĠØŃÙħ":1770,"ØºÙĬÙĬØ±":1771,"ĠØµÙĨØ§Ø¹Ø©":1772,"ĠØ§ÙĦØµÙĨØ§Ø¹":1773,"ĠØ®Ø§ØµØ©":1774,"ĠØ§ÙĦØŃØ¬":1775,"Ø¯Ø§Ø±":1776,"ĠØ§ÙĦÙĤØ±Ø§ÙĨ":1777,"ÙģØ§Ø¹":1778,"ÙĬØ¯ÙĬ":1779,"Ø§Ø²Ø§Øª":1780,"ĠÙĬØµ":1781,"ĠØ¹Ø¯Ùħ":1782,"ĠØ§ÙĦÙħÙĪØ§Ø¯":1783,"ĠÙħØ¬Ø§ÙĦ":1784,"ĠØ¯Ø¨ÙĬ":1785,"ĠØŃÙĤ":1786,"ÙĪÙĨØ³":1787,"ĠÙħØ§ÙĦ":1788,"Ø¶ÙĪ":1789,"Ø§ÙĤÙĦ":1790,"ĠØ§ÙĦØ¯Ø§Ø®":1791,"ĠØ¹Ø¯":1792,"ĠØ§ÙĦÙħØªÙĪ":1793,"ĠÙĦØ³":1794,"ØªØ¨Ø§Ø±":1795,"ĠÙĪØ§ØŃØ¯Ø©":1796,"ĠÙħØ¹Ø§ÙĦ":1797,"80":1798,"ÙĨØ³ÙĬØ©":1799,"Ġ06":1800,"ĠØ§ÙĦÙĥØªØ±ÙĪÙĨ":1801,"ĠØ§ÙĦØ¬ÙĬØ±ÙĬ":1802,"ĠØ§ÙĦØ³ÙĬØ§Ø±Ø§Øª":1803,"Ø§Ø¬Ø©":1804,"ĠØ§ÙĦØ¯Ø®ÙĪÙĦ":1805,"ØµÙī":1806,"ØªÙĨØ§":1807,"ĠØ§ÙĦÙĥØ«ÙĬØ±":1808,"ĠØ§ÙĦØ³Ø§Ø¹Ø©":1809,"ĠÙĤÙĨ":1810,"Ø·Ø§Øª":1811,"ĠØ³ÙĨÙĪØ§Øª":1812,"Ø°Ø©":1813,"ĠÙģÙĪ":1814,"ĠÙĪÙĥØ§ÙĨ":1815,"ØªØ®Ø§Ø¨Ø§Øª":1816,"ĠØ¨Ø§Ø¨":1817,"ĠÙĪØ§ÙĦÙģ":1818,"Ø§ÙħÙĬ":1819,"Ø¨Ùĩ":1820,"ĠÙĨØŃÙĨ":1821,"ĠÙħÙĨØ·ÙĤØ©":1822,"ĠÙħØ¬Ø§ÙĨØ§":1823,"ĠØ§ÙĦØªÙĪØ§ØµÙĦ":1824,"ÙĪØ§Ø¯":1825,"ĠÙĬØ®":1826,"ĠØ¹ÙĨÙĪØ§ÙĨ":1827,"ĠÙĬØ¤":1828,"ĠÙĦÙĥÙĦ":1829,"ĠØ§ÙĦØ¹ÙĦÙĪÙħ":1830,"ĠÙĬÙĪÙĨÙĬÙĪ":1831,"ĠØŃÙĥ":1832,"ĠØ§ÙĦÙħÙĨØªØ¬":1833,"ØªÙĪÙī":1834,"Ø°ÙĥØ±":1835,"ĠÙĤÙħ":1836,"ĠÙĦÙĦØ§Ø³":1837,"ĠØ¨ÙĨØ§":1838,"ĠÙħØº":1839,"Ø§Ø¶ÙĬØ©":1840,"ÙĪØ§Ø¨":1841,"ĠØ§ÙĦÙħÙħ":1842,"Ø·ÙĦØ¨":1843,"ĠØ§Ø¹Ø¯":1844,"ĠØ§ÙĦÙĤØ§ÙĩØ±Ø©":1845,"ĠÙĨØ´":1846,"Ø¨Ø®":1847,"ĠÙħØ±Ø©":1848,"ĠØ§ÙĦÙĪØ·ÙĨÙĬØ©":1849,"ĠÙĥÙĦÙħØ©":1850,"ĠØ³ÙĬØ±":1851,"ĠØªÙĦÙĥ":1852,"ØŃØ§Ø¨":1853,"Ú©":1854,"ĠØ´Ø±Ø§Ø¡":1855,"ĠÙħÙĦØ§Ø¨Ø³":1856,"ĠØ¨ÙĬØª":1857,"Ø¶ØŃ":1858,"Ø¬ÙĬ":1859,"ĠØ¬Ø±":1860,"ĠØ¯ÙĦÙĬÙĦ":1861,"Ø®Ø©":1862,"ĠØ§Ø±ÙĤØ§Ùħ":1863,"ĠØ§ÙĦØªØ±Ùĥ":1864,"Ġ33":1865,"ĠÙĪÙģØ±":1866,"ĠØ¹ÙħØ±":1867,"ØµÙĪØ±":1868,"ÙĪÙħÙĬ":1869,"ĠØ§ÙĦØ§Ø³ÙĦØ§ÙħÙĬØ©":1870,"Ø¶Ø§ÙĨ":1871,"ÙĥØ§Øª":1872,"ĠØ§ÙĦØ±ÙħØ§ÙĦ":1873,"ĠØªØ¹Ø¯":1874,"ĠÙĪØ§ÙĦØ§Ø³":1875,"ĠØªØ§Ø«ÙĬØ±":1876,"ĠÙĤØ·Ø±":1877,"Ġ37":1878,"ØªØ§":1879,"ĠØ§ÙĦØ§ÙĨØ¬ÙĦÙĬ":1880,"Ġ07":1881,"Ø§ÙĩÙħ":1882,"ÙĬÙĪØ¨":1883,"ĠØ§ÙĦÙħØµØ±ÙĬ":1884,"ĠÙģÙĬÙĦÙħ":1885,"Ø§Ø¯Ø±Ø©":1886,"Ø§ÙĥÙĦ":1887,"ÙĤÙĩ":1888,"ÙĬÙħÙĬ":1889,"Ø§Ø¦Ø±Ø©":1890,"Ġ02":1891,"Ø±Ø¹":1892,"Ø·ÙĦØ§ÙĤ":1893,"Ø¯ÙĬØ©":1894,"ĠØ§ÙĦÙĨØ§Ø³":1895,"ĠØ§ÙĦØ³Ø¨Øª":1896,"ĠØ¨Ø§ÙĦÙĤ":1897,"ĠÙĪØ§Ø¬":1898,"ĠÙħØ§Ø±Ø³":1899,"ĠÙĦØµ":1900,"ĠØªÙĥØ³ÙĬØ±":1901,"ĠØ§ÙĦÙĨÙĤ":1902,"ĠØ§ÙĦØªØ§Ø±ÙĬØ®":1903,"ĠÙĦÙħÙĨ":1904,"ÙĤØ±ÙĬØ±":1905,"ÙĬÙĪØ·":1906,"ĠØ§ÙĦØ§Ø³Ø¹Ø§Ø±":1907,"Ø§Ø¡Ø§Øª":1908,"ØªØ±Ø§Ùĥ":1909,"Ġ04":1910,"ĠØ§Ø¨ÙĬ":1911,"ĠØ§ÙĦØ«ÙĦØ§Ø«":1912,"Ø§ÙģØ¸Ø©":1913,"ĠØ§ÙĦØ¨Ø·":1914,"ĠÙħØ§Ø±":1915,"Ø´Ø±ÙĬÙĨ":1916,"Ø³Ø§Ùħ":1917,"ĠØ§ÙĦØŃØ¯ÙĬØ«":1918,"Ø·ÙĬØ¹":1919,"ĠØ§ÙĦØ§ØªØµØ§ÙĦ":1920,"ĠØ§ÙĦØ¹Ø±Ø¨":1921,"ÙĪÙĩ":1922,"ĠØ¬ÙĩØ§Ø²":1923,"ĠØ¨ÙħØ§":1924,"ÙħØ¯ÙĬÙĨØ©":1925,"ØºÙħ":1926,"ĠØ§ÙĦÙĥÙĩØ±Ø¨":1927,"ĠÙĦØ§ÙĬÙĨ":1928,"ĠÙĨÙģ":1929,"Ø§Ø¦ØŃ":1930,"ÙħÙĬØ³":1931,"ĠØ§ØŃØ¯Ø«":1932,"ĠØ§ÙĦÙĨÙģØ·":1933,"ĠØ§ÙĦÙħØ§ÙĦ":1934,"Ġ03":1935,"ĠØ±ØŃ":1936,"ĠÙĪØºÙĬØ±":1937,"Ø¨Ø§Ø¡":1938,"ĠØ§ÙĦØ¹Ø¯":1939,"ĠÙĥØ±":1940,"ĠØ§ÙĦØªØ¬Ø§Ø±ÙĬØ©":1941,"ĠÙĥØ§Ø±":1942,"ĠØ¨Ø§ÙĦÙģ":1943,"ĠÙĬØ±":1944,"ĠÙĦØ¯Ùī":1945,"Ø¯Ùĩ":1946,"ĠØ§ÙĦÙħØºØ±Ø¨":1947,"Ġ2013":1948,"ĠØ§ÙĦØ¹ÙĨØ§ÙĬØ©":1949,"ĠÙħØŃÙħ":1950,"ÙĪÙĨØ§Øª":1951,"ĠÙħÙĦÙģØ§Øª":1952,"ĠØªØ±ÙĥÙĬØ§":1953,"ĠÙĦÙĦÙĨ":1954,"ÙĪØ§Ø±Ø§Øª":1955,"ĠÙģÙĤØ¯":1956,"ĠÙĪØ§ÙĦØ§ÙĨ":1957,"ĠØ§Ø¹ÙħØ§ÙĦ":1958,"ÙĬÙĨØ§Øª":1959,"ĠØ§ÙĦØªØ±":1960,"61":1961,"ĠÙħØ´Ø§Ø±ÙĥØ©":1962,"ĠØ®Ø§Øµ":1963,"Ø§ÙĩÙĬÙħ":1964,"ĠØ§ÙĦØ³ÙĨØ©":1965,"ĠÙĪÙħØ§":1966,"ĠØ§ÙħØ±":1967,"ĠÙĤØ±":1968,"ĠÙģØ¨Ø±":1969,"Ø·ÙĪØ±":1970,"ĠØªÙĤØ¯Ùħ":1971,"ĠÙĦÙģ":1972,"ÙĪØ§ÙĤ":1973,"ÙģØ³ÙĬØ±":1974,"ØªØ¯ÙĬØ§Øª":1975,"ĠØ§ÙħÙĨ":1976,"ØªØ§ØŃ":1977,"ĠØ¨Ø§Ø³ØªØ®Ø¯Ø§Ùħ":1978,"ĠÙĬÙĦ":1979,"ĠÙħØ«":1980,"ØªÙħØ±":1981,"Ø¨Ø§ÙĦ":1982,"ĠØ§Ø¬ØªÙħØ§Ø¹":1983,"ĠØ§ÙĦØ¬ÙħØ¹Ø©":1984,"Ø§ÙħØ§Øª":1985,"ĠÙĪØ§Ø®":1986,"ĠØ§ÙĤÙĦ":1987,"ĠØ§ÙĦØµØºÙĬØ±Ø©":1988,"Ø¶Ùħ":1989,"ĠÙī":1990,"ĠØ¨ÙĨØ§Ø¡":1991,"ĠØ§ÙĦØ±Ø¬":1992,"ĠØ¨Ø±Ø§ÙħØ¬":1993,"Ø³Ø§ÙĦ":1994,"Ø§Ø¨ÙĬ":1995,"21":1996,"ÙĬÙħÙĪÙĨ":1997,"ĠØ¨ÙħÙĨ":1998,"ĠØ§ÙĦØ§Ø®Ø±Ùī":1999,"ÙĪØŃ":2000,"ÙĥØ¯":2001,"ĠÙħØ§ÙĬÙĪ":2002,"Ø±Ø¬Ø©":2003,"ĠØ§ÙĦÙĨØŃ":2004,"ĠÙħØ¹Ø§ÙĦØ¬Ø©":2005,"ĠØ§ÙĦØ§Ø¹ÙĦ":2006,"ÙĪÙĬØªØ±":2007,"ĠØªÙĥÙĦÙģØ©":2008,"Ø§Ø¯ÙĦ":2009,"Ø§Ø¹ÙĬ":2010,"ÙĥØ±Ø©":2011,"ĠÙĬÙĪÙĦÙĬÙĪ":2012,"Ø§ÙĬØª":2013,"ĠÙĪÙģÙĤ":2014,"Ø§Ø¯ÙĨ":2015,"Ø¹ÙĦÙĬÙĤ":2016,"ĠØ´Ø§ÙĩØ¯":2017,"ĠÙĥØ§ÙģØ©":2018,"ĠØ§ÙĦØ®Ø¯ÙħØ§Øª":2019,"ĠÙĨØªØ§Ø¦Ø¬":2020,"Ø§ÙģØ±":2021,"ĠØ§ÙĬØ§Ùħ":2022,"Ġ45":2023,"ĠØ§ÙĦÙħØŃÙħÙĪÙĦ":2024,"Ø®Ø§Øµ":2025,"ĠØ§ÙĦÙħÙĨØ²ÙĦ":2026,"ÙĪÙĦØ§Øª":2027,"ĠØ´Ø¨ÙĥØ©":2028,"ĠØ§ÙĦØŃÙĤ":2029,"ĠÙĬÙĨØ§ÙĬØ±":2030,"ĠÙħØ¨Ø§Ø´Ø±":2031,"ÙĩØ¯Ùģ":2032,"ĠØ§ÙĦÙħØŃÙħÙĪÙĦØ©":2033,"ĠÙĥØª":2034,"ĠØ¨Ø¯Ø§":2035,"ĠØ§ÙĦÙħØµÙĨØ¹Ø©":2036,"Ø·Ø¨":2037,"ĠØŃØ³ÙĨ":2038,"ĠØ±ÙħØ¶Ø§ÙĨ":2039,"ĠØ³ÙĬØ§Ø±Ø§Øª":2040,"ĠØ°ÙĥØ±":2041,"27":2042,"Ø±ÙĪÙĬØ¯":2043,"ĠÙģØ±ÙĬÙĤ":2044,"ĠØ§ÙĦØ§Ø¬ØªÙħØ§Ø¹ÙĬØ©":2045,"Ø±Ø¯Ø´Ø©":2046,"Ġ56":2047,"ĠØ§ÙĦØ¯ÙĪÙĦÙĬØ©":2048,"ĠØ·Ø¨":2049,"ĠØ§ÙĦØ¯Ùħ":2050,"ÙĥØ§":2051,"ĠØ§ÙĦØ§Ø±Ø¶":2052,"ĠØ§ÙĦÙħØ§ÙĦÙĬØ©":2053,"ĠØ§ÙĦØ³ÙĨ":2054,"ĠÙħÙħØ§":2055,"ĠØ¨Ø§ÙĦØ¬":2056,"ĠØªØªÙħ":2057,"ØµØ¯":2058,"ĠØ§Ø¨Ø±ÙĬÙĦ":2059,"ĠØ±Ø§Ø³":2060,"ĠØ§ÙĦØµØŃÙĬØ©":2061,"ĠÙħØ¯ÙĬØ±":2062,"ĠØ§ÙĤØ±":2063,"ĠØ³ÙĪÙģ":2064,"ĠØ§ÙĦØ´Ùĩ":2065,"ĠØ³ÙĬØ§Ø³Ø©":2066,"Ø§ÙĥØ³":2067,"ĠØ§ÙĦØªØ±Ø¨ÙĬØ©":2068,"ĠÙĪØ§Ø´":2069,"ĠÙĦÙĦØ³":2070,"Ø±Ø§Ø¡Ø©":2071,"Ø·Ùģ":2072,"Ø§ÙĬØ§":2073,"Ø³ÙĬØ©":2074,"Ø§ÙģØ§Øª":2075,"ÙĬÙĥØ§":2076,"ØªØ¹":2077,"ĠØ²ÙĬØª":2078,"Ø¸ÙĬÙģØ©":2079,"Ø·Ø§ÙĦ":2080,"ĠÙħÙĥØ§ÙģØŃØ©":2081,"ĠØ§Ø¹Ø§Ø¯Ø©":2082,"ÙĪÙħÙĬØ©":2083,"ĠØ§ÙĦÙĨÙĩ":2084,"ØŃÙĬØŃ":2085,"ĠÙĤÙĦ":2086,"ĠØ§ÙĦØ§Ø¬ØªÙħØ§Ø¹ÙĬ":2087,"ĠÙĪØ§ÙĦØ¬":2088,"ĠØ³ÙĪØ±ÙĬØ§":2089,"ÙĩÙĪØ±ÙĬØ©":2090,"ĠÙĦÙĥÙħ":2091,"ĠØ§ÙĦØ§Ø³Ø¨ÙĪØ¹":2092,"94":2093,"ĠØ§Ø¬ÙĩØ²Ø©":2094,"ĠØ§ÙĦÙħÙĬØ§Ùĩ":2095,"Ġ80":2096,"ÙĥØ§Ø±":2097,"ĠØŃØ¯":2098,"ĠØ§ÙĦØ³ÙĬØ¯":2099,"ÙĩØ§ÙĬØ©":2100,"ÙĪØ±Øª":2101,"ĠÙħÙĥØ§ÙĨ":2102,"ĠÙĦØ¯ÙĬ":2103,"ĠÙĪØ§Ø¶":2104,"Ø³ÙĨ":2105,"ĠØ§ÙĦØ±ØŃ":2106,"ĠÙħØªÙĨ":2107,"ĠØ§ÙĦØ±ÙĤÙħ":2108,"ĠØ§ÙĦØ§ÙħÙĨ":2109,"ĠØ§ÙĦØŃÙĦ":2110,"ÙĬÙħØ§ÙĨ":2111,"ÙĨØ§ÙĪÙĦ":2112,"ĠØ§ÙĦØ·Ø§ÙĤØ©":2113,"ĠØ§ÙĦÙħØ±Ø§Ø©":2114,"ĠÙĪØ§ÙĦØ®":2115,"ĠØ§ÙĦÙĨØ¨Ø§Øª":2116,"ĠØ§Ø±Ø¨":2117,"ĠØ§ÙĦØ¬Ø±":2118,"ÙĪØ¨ÙĬØ©":2119,"ĠÙģÙĨ":2120,"ĠØªØ±ÙĥÙĬØ¨":2121,"ĠÙħØªÙĨÙĤÙĦØ©":2122,"Ø´ÙģÙī":2123,"ÙĥØ§Ùħ":2124,"ĠØ¹Ø±Ø¨ÙĬ":2125,"Ø¯ÙħØ©":2126,"ĠÙħØ§Ø³":2127,"ĠØ§ÙħØ§":2128,"ÙģÙĬØ°":2129,"ĠØ§Ø®ØªØ±":2130,"Ø§ÙĤÙĬØ©":2131,"ÙĥØ±ÙĬØ©":2132,"Ø³Ø§Øª":2133,"ĠÙħØ¨Ø§Ø±Ø§Ø©":2134,"Ø§ÙĬÙĦ":2135,"ĠØ±Ø³Ø§ÙĦØ©":2136,"ĠÙĪØ¬ÙĪØ¯":2137,"ĠØ§ÙĦØ§ØªØŃØ§Ø¯":2138,"ĠØ§ÙĦØªØµÙĨ":2139,"Ġ253":2140,"ĠØ§Ø«ÙĨØ§Ø¡":2141,"ĠÙĪØ§Ùĥ":2142,"Ġ65":2143,"ÙĬÙĥÙĬØ©":2144,"ĠØ«ÙĤ":2145,"ÙĥÙĦØ©":2146,"ĠØ§ÙĦØ³ÙĪ":2147,"ĠØªÙĤØ¯ÙĬÙħ":2148,"ĠØªØ¹Ø±ÙĬÙģ":2149,"ĠØŃØ±":2150,"Ø°Ø±":2151,"ĠØ§Ø³Ø±Ø§Ø¦ÙĬÙĦ":2152,"ĠØ§ÙĦØ§Ø¨ØªØ¯":2153,"ĠÙģØŃ":2154,"ĠØ§Ø¹ÙĦØ§ÙĨ":2155,"ĠÙĤØ¨":2156,"Ø¨ÙĦØº":2157,"ĠÙħØ¯Ø±":2158,"Ø´ÙĦ":2159,"Ø¹Ø§Ùħ":2160,"ĠØ§ÙĦÙħØ·Ø±":2161,"ÙĬØ²Ø§Øª":2162,"ĠØ§ÙĦØ¹ÙĨ":2163,"ĠØªÙĪÙĬØªØ±":2164,"ÙĥÙĬÙĦ":2165,"ĠØ§ÙĦØµÙĪØ±":2166,"Ø§Ø¦Ø¯Ø©":2167,"ĠØ§ÙĬØ±Ø§ÙĨ":2168,"ĠØ±Ø¤":2169,"ĠØ§ÙĦØ¬ÙĦ":2170,"ĠØ§ÙĦÙĨØ¸Ø§Ùħ":2171,"ĠØ§ÙĦØ§ÙħØ±":2172,"ÙĬÙĥÙĪÙĨ":2173,"Ø§Ø³Ùħ":2174,"Ø§ÙħØ¨":2175,"ĠØ´Ø±":2176,"ØªÙĤØ§ÙĦ":2177,"ĠØ¬Ø±ÙĬ":2178,"ÙħÙĪØ°":2179,"ĠØ¶ÙħÙĨ":2180,"ĠØ§ÙĦÙģÙĬØ¯ÙĬÙĪ":2181,"ĠØ§ÙĦØºØ°":2182,"Ø³Ø³ÙĪØ§Ø±Ø§Øª":2183,"Ġ500":2184,"Ø§Ø¨ÙĤØ©":2185,"ĠÙħØ³Ø§Ø¡":2186,"Ø§ØŃÙĦ":2187,"Ø§ÙĦÙī":2188,"Ø¹ÙħÙĦØ©":2189,"Ø±ÙĬØ³":2190,"ĠÙħØ¨Ø§Ø´Ø±Ø©":2191,"ĠØ§ÙĦÙĥØªØ§Ø¨":2192,"Ø§Ø¨ÙĬØ©":2193,"ĠØªØ¹ÙĦÙĬÙħ":2194,"ĠØ§ÙĦØ®ØµÙĪØµ":2195,"Ø±ÙĬØ§Øª":2196,"Ø³Ø·Ø³":2197,"Ø³Ø¨ÙĪÙĥ":2198,"ĠØ¹Ø´Ø±":2199,"ĠØ§ÙĬØ¶":2200,"ĠØ¹ÙĦÙĪÙħ":2201,"Ø§ÙĥÙĨ":2202,"ĠØ§ÙĦÙĦØ¨ÙĨ":2203,"ĠØ§ÙĦÙĥØ±":2204,"Ø§Ø¯Ø«":2205,"ĠØ¨ÙĥÙĦ":2206,"ĠØŃØ¨":2207,"Ø®Ø¯ÙħØ§Øª":2208,"ĠØ§ÙĦØ¬Ø²Ø§Ø¦Ø±":2209,"ĠØ§ÙĦØ³Ùħ":2210,"ĠØ§ÙĦØ´Ø¹":2211,"Ø¯ÙĤ":2212,"ĠÙģÙĬØ³Ø¨ÙĪÙĥ":2213,"ĠØ´Ø±ØŃ":2214,"ĠØ±Ø³Ùħ":2215,"Ġ2012":2216,"ĠØ§ÙĦÙĥØ±ÙĬÙħ":2217,"ÙĪØ¶":2218,"ĠØ§ÙĦÙĨØ´Ø±":2219,"Ø·ÙĪØ§ÙĨ":2220,"Ø¹Øª":2221,"ĠØ§ÙĥØª":2222,"Ø¦ÙĦØ©":2223,"ÙĪÙĨÙĬ":2224,"ĠØ§ØºØ³Ø·Ø³":2225,"ÙĩÙħØ©":2226,"ØªØ¨Ø©":2227,"ĠÙĦÙĦØ¯":2228,"ĠØ±ÙĪØ³":2229,"ÙĪÙĬÙĤ":2230,"ĠÙĨÙĪÙģÙħØ¨Ø±":2231,"ĠØ§ÙĦÙģØµÙĦ":2232,"ĠØ§ÙĦØªØ·Ø¨ÙĬÙĤ":2233,"ÙĪØ¡":2234,"ĠØ²ÙĬ":2235,"ĠØ§ÙĦØ®ÙħÙĬØ³":2236,"ĠØ±Ø¨":2237,"ĠØ§ÙĦØ§ÙħØ§Ùħ":2238,"ĠÙģØ¨Ø±Ø§ÙĬØ±":2239,"Ø§ÙĪÙĬ":2240,"ĠØ§ÙĦØ¬Ø§Ùħ":2241,"Ø²ÙĬÙĨ":2242,"ĠØ¹ÙĦØ§Ø¬":2243,"15":2244,"ĠØ¨ÙĪÙĦ":2245,"ĠØªØ¹ÙħÙĦ":2246,"ĠØ§ÙĦØ¨ÙĨØ§Ø¡":2247,"ÙĦÙħØ§ÙĨ":2248,"ĠØ¯ÙĬØ³ÙħØ¨Ø±":2249,"ĠÙĪØµÙĦ":2250,"ĠÙĨØŃÙĪ":2251,"43":2252,"Ø§ÙħÙĨ":2253,"ĠØ§ÙĦÙħÙĪØ³Ùħ":2254,"ÙĬØ±Ø§Øª":2255,"ÙħÙĪØ°Ø¬":2256,"Ø®Ø§Ùħ":2257,"ĠØ¹ÙĬØ¯":2258,"ÙĥØ§ÙĦ":2259,"Ġ87":2260,"ĠØ²ÙĪØ¬":2261,"ĠÙħÙĥØªØ¨":2262,"ĠØ§ÙĦØ§Ø±Ø¯ÙĨ":2263,"ØºØ§ÙĨ":2264,"ĠÙĨÙĩ":2265,"Ø´ÙĨ":2266,"ĠØªÙĤÙĪÙħ":2267,"ĠØ§ØµÙĦ":2268,"ĠØ§ÙĦØ´Ø®ØµÙĬØ©":2269,"ĠØ§ÙĦØ®Ø§Ø±Ø¬ÙĬØ©":2270,"ĠÙĦØº":2271,"ĠØ¨Ùģ":2272,"ĠÙĬÙĩ":2273,"ĠÙĤØ§Ùħ":2274,"93":2275,"ĠØ±ÙĬØ§ÙĦ":2276,"ĠØ§ÙĦÙħØµØ±ÙĬØ©":2277,"ÙģØ´":2278,"ÙģÙĬÙĨ":2279,"ĠÙĦØ§ØŃ":2280,"ÙĨØ§Ùĩ":2281,"ĠÙħØ³ØªÙĪÙī":2282,"ĠØ§ÙĦØ§ÙħÙĬØ±":2283,"ĠØ§Ø«Ø±":2284,"ĠÙĪÙĩØ°Ø§":2285,"Ø§Ø¹ÙĬØ©":2286,"Ġ2022":2287,"ĠØ·Ø±ÙĤ":2288,"ĠØ¯ÙĪÙĦØ©":2289,"ĠØ§Ø±ØªÙģØ§Ø¹":2290,"ĠÙĤÙĬ":2291,"ĠØ§ÙĦÙħÙĨÙĪØ±Ø©":2292,"ĠØ§ÙĦÙħØ³ØªØ®Ø¯ÙħØ©":2293,"ĠÙĦÙĦØµ":2294,"ĠØ§ÙĦÙħØ²":2295,"ĠØ§ÙĦØ³ÙĪØ¯Ø§ÙĨ":2296,"ĠØ§ÙĦØµÙĦ":2297,"ÙĦØ§Ø¡":2298,"ĠØ§ÙĦØ®Ø±":2299,"ÙĬÙĦÙĬ":2300,"ĠØ®Ø§Ø±Ø¬":2301,"ĠØ¨Ø®":2302,"ĠÙģØ¹ÙĦ":2303,"Ø·Ø§Ø¡":2304,"ĠØªÙģØ§ØµÙĬÙĦ":2305,"ĠØ§ØŃØµÙĦ":2306,"Ø§Ø´Ø±":2307,"ĠØŃØ¯ÙĬØ«":2308,"Ø¬Ø§Ø¬":2309,"ÙĬØ¯Ø±":2310,"Ġ300":2311,"ĠØŃØ¬Ùħ":2312,"Ġ73":2313,"ĠÙĦÙĦÙģ":2314,"ĠØ¨Ø§Ø³ÙĬÙĪØ·":2315,"ĠØ§ØªÙģ":2316,"ĠØ§ÙĦØ·Ø¨ÙĬØ¹":2317,"Ġ49":2318,"ĠØ§ÙĦÙĪØŃ":2319,"ĠÙĪÙħØ¹":2320,"Ø·Ø§Ø±":2321,"Ø²Ø§Ø¡":2322,"ĠÙĪÙĦØ§ÙĬØ©":2323,"ØªÙĬØ¬Ø©":2324,"Ø¬Ø¨":2325,"ĠØ§Ø´ÙĩØ±":2326,"ĠØ§ÙĦØ´Ø¹Ø¨":2327,"ĠØ¯ÙĬÙĨ":2328,"Ġ38":2329,"ĠØ§ÙĦØ¹Ø§ÙĦÙħÙĬ":2330,"ĠÙĥØ´Ùģ":2331,"Ø§ÙĪÙĦØ©":2332,"ĠØ§ÙĦÙĥÙħ":2333,"ĠØ§ÙĦÙħØ¯ÙĬÙĨØ©":2334,"ÙĪØ¯ÙĬ":2335,"ĠØ§ÙĦØ§Ø³Ùħ":2336,"Ø¯Ùģ":2337,"ĠÙħÙĪØ³":2338,"ĠÙģØª":2339,"ÙĬØ¯ÙĬØ§":2340,"ĠØ¨Ø§ÙĦØ±ÙĬØ§Ø¶":2341,"Ø¹ÙĦÙĤ":2342,"ĠØ´ÙĬØ¡":2343,"Ø§ÙĨÙĬØª":2344,"Ġ85":2345,"ÙĦÙĬØ¬":2346,"ĠØ§Ø¯ÙĪØ§Øª":2347,"ĠØ¨Ø±ÙĬØ¯Ùĥ":2348,"Ø¬ÙĨ":2349,"ĠØªÙĦÙģ":2350,"ĠØ§ÙĦØ¯Ø§Ø®ÙĦÙĬØ©":2351,"Ø§Ø·Ø±":2352,"ĠØ§ÙĦÙĬÙĩ":2353,"ĠØ§ÙĦÙĥØ³Ø§Ø±Ø§Øª":2354,"Ø«ÙħØ§Ø±":2355,"ĠØ§ÙĦØ®Ø¨Ø±":2356,"Ø¶ÙħÙĨ":2357,"ĠØ§ÙĦØ®ØµÙĪØµÙĬØ©":2358,"ĠÙĥØ§ÙħÙĦØ©":2359,"Ø§ØŃØ§Øª":2360,"Ø§Ø¦Ø¹Ø©":2361,"ĠØ§ÙĦØ³Ø§Ø¨ÙĤ":2362,"Ø§Ø·ÙģØ§ÙĦ":2363,"ĠØ§ÙĨØ´Ø§Ø¡":2364,"ÙĬÙĦØ§Øª":2365,"ĠØ§ÙĦÙħÙĪØ§Ø¶ÙĬØ¹":2366,"ØªÙĩÙħ":2367,"ĠØ§ÙĦÙħØ«":2368,"ĠØ§Ø¨Ø±Ø§ÙĩÙĬÙħ":2369,"Ø´ÙĬÙģ":2370,"ĠÙĤØ¯Ùħ":2371,"ĠØ³ÙĪÙĤ":2372,"ĠÙħØ´Ø§Ø±":2373,"ĠÙĪÙĩÙħ":2374,"Ø¹Ø¨Ø©":2375,"ØªÙħØ¯":2376,"ĠÙħØ¤Ø³Ø³Ø©":2377,"ĠØ§ÙĦØªØ¹ÙĦÙĬÙĤ":2378,"ĠÙĪØªÙĪ":2379,"ĠÙħÙĬÙĦ":2380,"ĠØ±Ø¯":2381,"Ø³ÙĬØ·":2382,"ÙĪÙĦÙĬ":2383,"ĠØ§ÙĦÙĤÙĬ":2384,"ĠØªØ·ÙĪÙĬØ±":2385,"ĠØ§ÙĦØ¯ÙĪØ±ÙĬ":2386,"ÙĪÙĬØ§Øª":2387,"ĠÙĦÙĤØ¯":2388,"ĠØ¨Ø´Ø§ÙĨ":2389,"ĠØ§ÙĦÙĥØ³Ø§Ø±Ø©":2390,"ĠÙĪØ§ÙĦÙĥ":2391,"ĠØ§ÙĦÙħÙĨØ·ÙĤØ©":2392,"ØªÙĦØ§ÙĦ":2393,"Ø§Ø¬Ø¯":2394,"ĠØ§ÙĦÙĬÙĩØ§":2395,"ÙĪØ§ØªÙģ":2396,"ĠØªÙĨØ²ÙĬÙĦ":2397,"ĠØ§ÙĦØ§ÙĥØ«Ø±":2398,"ĠØ§ÙĦØ´ÙħØ§ÙĦ":2399,"ĠÙħÙĪØ¶ÙĪØ¹":2400,"40":2401,"Ø¬Ø±Ø©":2402,"ØªÙĨ":2403,"ÙĦÙĪØ¨":2404,"Ø§ÙĩØ±":2405,"ĠØµÙĪØ±Ø©":2406,"Ø·Ø§ÙĤ":2407,"ĠØ´Ø¹Ø±":2408,"ĠÙħØ§ÙĥÙĬÙĨØ©":2409,"Ø«Ùħ":2410,"Ø¨ÙĬØ¹Ø§Øª":2411,"Ø¹ÙĬÙĨ":2412,"ĠØ§ÙĦØ¹Ø¨":2413,"ĠÙĦÙĦÙĤ":2414,"ĠØµØ¨Ø§ØŃ":2415,"ĠØ§ÙĦØ§Ø±Ø¨Ø¹":2416,"ĠÙĥØ«ÙĬØ±":2417,"ĠØ§ÙĦÙĤØ¯Ùħ":2418,"ĠØ§ÙĦØ·Ø¨":2419,"Ø¹Ùī":2420,"ĠØ¨ÙĪØ±":2421,"ĠØ§ÙĦØ´ÙħØ³":2422,"Ø±ÙĬØ·":2423,"ÙĪÙĬÙħ":2424,"ĠØ§ÙĦØ¨Ø¯":2425,"ĠØ§ÙĦÙĦÙĬ":2426,"ĠØ§ÙĦÙħØ·Ø±ÙĤØ©":2427,"ĠØ§ÙĦØ¬ÙĪØ¯Ø©":2428,"ĠØ¨ØªØ§Ø±ÙĬØ®":2429,"Ø¨ÙĬÙĨ":2430,"ĠØ¨Øº":2431,"ĠØªÙĤØ±ÙĬØ±":2432,"ĠØŃÙĬÙĨ":2433,"ĠÙĥÙĦÙĬØ©":2434,"Ø§ÙĪØ±":2435,"ĠÙĬØ¹ÙħÙĦ":2436,"ĠØ¯Ùħ":2437,"ĠØªØ¹ÙĦÙĨ":2438,"ĠÙĤØ±Ø§Ø±":2439,"ĠØ§ÙĦØ³Ø¨":2440,"ĠØ§ÙĦØ§ÙĦÙħ":2441,"ĠØ¬Ø¯Ø©":2442,"ÙĥÙħØ©":2443,"51":2444,"Ġ76":2445,"ĠØ§ÙĦÙĨØŃØ§Ø³":2446,"ÙĪØ¬Ùĩ":2447,"Ġ2011":2448,"ĠÙĬÙĤÙĪÙħ":2449,"ĠØ§ÙĦØ§ÙĨØ¬ÙĦÙĬØ²ÙĬØ©":2450,"ÙĬØ¦Ø©":2451,"ĠØ®ÙĦÙģ":2452,"ĠØ§ÙĦØªØ³Ø¬ÙĬÙĦ":2453,"ĠØµØºÙĬØ±":2454,"ĠØ§ÙĦØ¨ÙĬØ§ÙĨØ§Øª":2455,"ĠÙĪØ§Ùħ":2456,"ØªØ¨Ø§Ø·":2457,"ĠÙģÙĦØ³Ø·ÙĬÙĨ":2458,"Ø§ÙĬØ¯":2459,"ĠÙĪØ§Ø±":2460,"Ø¦Ø§Øª":2461,"Ø±ÙĬØ¨Ø©":2462,"ĠØ§ØŃØ°ÙĬØ©":2463,"ÙĩØ±Ø¬Ø§ÙĨ":2464,"ĠØ¨ØŃØ«":2465,"ĠØ§ÙĦÙĬÙĥ":2466,"ĠØ¯Ø§Ø±":2467,"ĠØ¯Ø¹Ùħ":2468,"ĠØ§ÙĦØ§Ø³ØªØ±":2469,"ĠØ¨Ø§Ø¹":2470,"ĠØ§ÙĦØ§Øº":2471,"ĠØµÙĦÙī":2472,"ĠÙĦØ°ÙĦÙĥ":2473,"Ø³Ø§ÙĨØ©":2474,"ĠØŃØ§ÙĦ":2475,"ĠÙĬÙĪØ¬Ø¯":2476,"ĠÙħØ¬Ø§ÙĨÙĬØ©":2477,"Ø§Ø¬Ùħ":2478,"ÙĬØ¯Ø§":2479,"ĠØ¨ÙĬØ§ÙĨØ§Øª":2480,"ĠÙĥÙĪÙħ":2481,"ÙĪØ¹Ø§Øª":2482,"Ø§ÙĬØ¬Ø§Ø±":2483,"ĠØ§ÙĥØ³":2484,"ÙĬØ§Ø±Ø§Øª":2485,"ĠØ§ÙĦØ¬Ø§ÙħØ¹Ø©":2486,"Ø§ÙĥØ²":2487,"Ø¹Ø±ÙģØ©":2488,"ĠÙĦÙĦØ¬":2489,"ĠØ§ÙĦØ¸":2490,"Ø¯ÙĦ":2491,"ĠÙĪØŃØ¯Ø©":2492,"ĠØ§ÙĦØ§Ø³Ø§Ø³ÙĬØ©":2493,"ĠØ§ÙĦØ§ÙĤÙĦ":2494,"Ø¹Ø§Ø¨":2495,"84":2496,"ĠØ§ÙĦÙħÙĦÙģ":2497,"Ø¤Ø§ÙĦ":2498,"ÙĨØ³Ø¨Ø©":2499,"ĠØªØ¤":2500,"Ø¬ÙħØ©":2501,"ĠØ§ÙĦØ§Ø¶":2502,"ĠÙħØ³Ø¤ÙĪÙĦ":2503,"ĠØ¯Ø±Ø§Ø³Ø©":2504,"ĠØ§ÙĦÙħØ®Øª":2505,"ĠØ¨Ø§ÙĦØ§Ø¶Ø§ÙģØ©":2506,"ĠØªØº":2507,"ĠØ¨Ø§Ø³Ùħ":2508,"Ġ42":2509,"ĠØ§ÙĦØ³Ø§Ø¯":2510,"ĠØ§ÙĦØŃÙĬÙĪ":2511,"ĠØ§ÙĦØ§ÙĨØªØ§Ø¬":2512,"ÙĬØ¶":2513,"Ġ72":2514,"ĠÙĪØ³ÙĦÙħ":2515,"ØºØ¨":2516,"ĠÙĪÙĤØ§ÙĦ":2517,"ÙģÙĬØ©":2518,"Ø§ÙģØ¶ÙĦ":2519,"ÙĬÙĬÙģ":2520,"Ø§Ø±Ø§":2521,"ĠÙĪØ§ÙĦÙħÙĨ":2522,"ĠØ§Ø¶ØºØ·":2523,"Ø·ÙĬ":2524,"ĠØ§Ø®ØªÙĬØ§Ø±":2525,"Ø³ØªØ®Ø¯Ùħ":2526,"ÙĬÙĪØª":2527,"ĠØ¹Ø´":2528,"ĠÙĦØ¯ÙĬÙĨØ§":2529,"ĠÙĬÙĪ":2530,"ĠØ§ÙĦÙĬØ¯":2531,"ĠØ§ÙĦØ§Ø¯Ø§Ø±Ø©":2532,"ĠØ§ÙĦÙĤØµ":2533,"ĠØ¯ÙĪØ±Ø©":2534,"ĠØ§ÙĦØ³ÙĪÙĤ":2535,"Ġ61":2536,"Ø§Ø²Ùħ":2537,"ĠØ®Ø¨Ø±":2538,"ĠÙģØ§ÙĦ":2539,"Ø²ÙĦÙĬØ©":2540,"Ø¹ÙĪ":2541,"Ø§Ø¡Ø©":2542,"ĠØ§ÙĦØ§ÙĨØ³":2543,"ĠØ§ÙĦØ´Ø¨Ø§Ø¨":2544,"ĠÙģÙĬÙħØ§":2545,"ĠØ§ÙĦÙħØ¯Ø±":2546,"ĠÙĦØ·":2547,"ĠØ§ÙĦØ«Ø§ÙĦØ«Ø©":2548,"ĠØ¨Ø§ÙĦÙħØ¯ÙĬÙĨØ©":2549,"Ø±ÙĬØŃ":2550,"ÙĬÙħÙĬØ©":2551,"Ø¯Ùī":2552,"ĠÙħØ®ØªÙĦÙģØ©":2553,"Ġ63":2554,"ÙĨØ§Ø¯ÙĤ":2555,"ĠØ§ÙĦÙħÙĪØ§ÙĤØ¹":2556,"ĠØ§ÙĦØ¬Ø³Ùħ":2557,"ĠÙĩÙĬØ¦Ø©":2558,"ĠØ¨ÙĬØ±ÙĪØª":2559,"ĠÙĬØ±Ø¬":2560,"ĠÙħØ±Ø§Ø¬":2561,"ĠØ§ÙĦØªØ®":2562,"Ø±ÙĪØ¨":2563,"Ġ413":2564,"ĠÙĦÙĦØ§ÙĬØ¬Ø§Ø±":2565,"Ø§ØŃØ¨":2566,"ĠØ§ÙĦØ¬Ø²Ø¡":2567,"ÙĨØ¯ÙĪÙĤ":2568,"ÙģØ±Ø©":2569,"ÙĤÙĬØ©":2570,"Ø§ÙħØ±":2571,"ØªÙĬØ¨":2572,"ĠÙĪÙĦÙħ":2573,"Ø·Ø·":2574,"ĠØ¬ÙĪØ¯Ø©":2575,"970":2576,"ĠÙĤØµØ©":2577,"ĠØ§ÙĦØ¬ÙĬØ´":2578,"ĠØªÙģØ³ÙĬØ±":2579,"ĠØ§ÙĦÙħØ¬ØªÙħØ¹":2580,"ĠØ§ÙĦØŃØ¨":2581,"Ø¬ÙĪÙħ":2582,"ĠØ¹ÙĨÙĩ":2583,"ĠØ³Ø¹ÙĪØ¯":2584,"Ġ34":2585,"ÙģÙĤ":2586,"ĠØªØ´Ø±ÙĬÙĨ":2587,"ÙĪÙĦÙĩ":2588,"ĠØ¨Ø§ÙĦØŃ":2589,"Ø±ÙĬØª":2590,"ĠØ§ÙĦÙĪØ±":2591,"ØªØ®Ø¨":2592,"ĠØ§Ø³ØªØ±":2593,"ĠØ¨Ø§ÙĦØ¨":2594,"Ø²Ø±":2595,"Ġ77":2596,"ĠØªØŃÙĤÙĬÙĤ":2597,"ĠÙĪØ¬Ùĩ":2598,"ĠØ§ÙĦÙĤØ¨":2599,"ĠØ§ÙĦÙħØ§ÙĨÙĬØ§":2600,"ĠØ³Ùĩ":2601,"ĠÙĪÙģØ§Ø©":2602,"ĠÙĤÙĨØ§Ø©":2603,"ĠÙĪØ«":2604,"Ø¹Ø¯Ø§Øª":2605,"Ø§Ø®Ø±":2606,"ĠÙĪØªÙĨ":2607,"Ø§ØµÙģØ§Øª":2608,"ĠØ§ÙĦØ³ÙĬØ§Ø³ÙĬØ©":2609,"ĠØ§ÙĦØ³Ø¹ÙĪØ¯ÙĬ":2610,"Ø§Ø·ÙĨ":2611,"ĠØ§ÙĦØ¨Ø±ÙĨØ§ÙħØ¬":2612,"ĠÙĪÙĬÙĨ":2613,"ĠØ´ÙĥÙĦ":2614,"ĠØ§ÙĦÙħØ³ØªÙĪÙī":2615,"ĠØªØŃØ¯ÙĬØ«":2616,"ĠÙĪØ³Ø·":2617,"ĠÙħØªØ¬Ø±":2618,"ĠØ§ÙĦØ§Ø®ÙĬØ±Ø©":2619,"ĠØ§ÙĦØ¯ÙģØ§Ø¹":2620,"ĠØªØ´ØºÙĬÙĦ":2621,"ĠØ§ÙĦØ§Ø«ÙĨÙĬÙĨ":2622,"28":2623,"Ø·ÙĪÙĬØ±":2624,"Ø§Ø¬ÙĦ":2625,"ÙĨØ¯Ø§":2626,"ĠÙĥÙĪÙĨ":2627,"ĠØ§ÙĦØ·Ø¨ÙĬØ©":2628,"ĠØ§ØªØµÙĦ":2629,"Ø±ÙĬØ§":2630,"ĠØ§ÙĦÙħØ¹Ø§Ø¯ÙĨ":2631,"Ø³Ø³Ø§Øª":2632,"ĠÙĪØ³Ø§Ø¦ÙĦ":2633,"Ġ75":2634,"Ġ7970":2635,"Ġ66":2636,"Ġ797087":2637,"ĠØªØ±ÙĬØ¯":2638,"ĠØ¨Ø§ÙĦØ³":2639,"ĠØ§ÙĦÙĬÙħÙĨ":2640,"ĠØ§Ø±Ø³Ø§ÙĦ":2641,"ÙĪØ¯ÙĬØ©":2642,"ĠØ§ÙĦØ§ÙĪØ³":2643,"ĠÙģÙĪÙĤ":2644,"ĠÙĪØ§Ø¯":2645,"Ø·ÙĪØ§ÙĨØ©":2646,"ĠØ§ÙĦØ¬ÙĨØ³":2647,"Ġ54":2648,"ĠØªÙĥÙĬÙĬÙģ":2649,"ÙĬÙħØ§":2650,"ĠØ§ÙĦÙħØµÙĨØ¹":2651,"ĠØµÙģØŃØ©":2652,"ĠØ¨Ø§ÙĦÙĦ":2653,"ÙĩÙĬØ²":2654,"ĠØ§ÙĦØ¨ÙĦØ¯":2655,"Ø¯ÙĬÙĤ":2656,"ĠØ§ÙĦØ«Ø§ÙĨÙĪÙĬØ©":2657,"Ġ58":2658,"ĠÙħØ§ÙĨ":2659,"ÙĬÙģÙĪÙĨ":2660,"ĠØ§ÙĦØ®Ø¯ÙħØ©":2661,"ĠÙħÙĤØ§Ø¨ÙĦ":2662,"Ø³Ø·ÙĬÙĨÙĬ":2663,"Ø¹Ø§Ø¯Ø©":2664,"ĠØŃÙĬØ§Øª":2665,"ĠÙĦÙĦÙħÙĨ":2666,"ĠÙĪØ§ÙĦØ±":2667,"Ġ400":2668,"ĠØ§Ø¹ÙĦÙī":2669,"ĠØ¬ÙĨÙĬÙĩ":2670,"ĠÙĪÙĬÙħ":2671,"Ø§Ø¦ÙĦØ©":2672,"ĠØ¹Ø±Ø¨ÙĬØ©":2673,"ĠÙĦÙĦØ¨ÙĨ":2674,"ĠÙĦÙĦØŃØµÙĪÙĦ":2675,"ĠØ¨Ø§Øª":2676,"ĠØ³Ùĥ":2677,"ĠÙĪØ§Ø¨":2678,"Ø³ÙĪÙĨ":2679,"Ø²Ùħ":2680,"ĠØ²ÙĬØ§Ø¯Ø©":2681,"Ø§Ø¦ØŃØ©":2682,"ĠØ³Ø§Ø¹Ø§Øª":2683,"ĠØ§ÙĦØµØŃÙĬ":2684,"Ġ48":2685,"Ø¤ÙĪÙĨ":2686,"ĠØ§ÙĦÙħØªÙĨÙĤÙĦØ©":2687,"ÙĬÙĪÙħ":2688,"ĠØµØ§ÙĦØŃ":2689,"ĠØ§ÙĪØ±ÙĪØ¨Ø§":2690,"ĠØ§ØµØ¨ØŃ":2691,"ĠØ§ÙĦÙħÙĪØ¬":2692,"ĠØ±Ùģ":2693,"ÙħÙĬÙĨ":2694,"ØªØ©":2695,"ĠÙĪØ¹ÙĦÙī":2696,"Ø¹Ø§ÙĬØ©":2697,"ĠÙĦØ§Ø¨":2698,"ĠØ§ÙĦØªÙī":2699,"Ø§Ø±Ùĩ":2700,"Ø´Ø§Ø±ÙĥØ©":2701,"ĠØ¹ÙħÙĦÙĬØ§Øª":2702,"ĠÙģÙĬØ±ÙĪØ³":2703,"ĠØ´Ø±ÙĪØ·":2704,"ĠØ§ÙĦÙħØ´Ø§Ø±ÙĥØ©":2705,"ĠØ§ÙĦØ·ÙĦ":2706,"ĠÙĪØ§Øµ":2707,"ĠØ§ÙĦØªØµÙĨÙĬÙģ":2708,"ĠØ§ÙĦÙĪØ²Ø±Ø§Ø¡":2709,"ÙĨØ³Ø§":2710,"ĠØ§ÙĦÙħØ³ÙĦÙħ":2711,"ĠØ³Ø±":2712,"ĠØ§Ø³Ø¨ÙĪØ¹":2713,"ĠØ¨Ø±ÙĪ":2714,"ĠØªØ²":2715,"Ø¶ÙĪØ±":2716,"ĠÙĤØ±Ø§Ø¡Ø©":2717,"ÙĬÙĦØ§":2718,"ĠØ§ÙĦØªØ¹Ø§ÙĪÙĨ":2719,"ĠÙģÙĪØ±":2720,"Ġ4737":2721,"ĠØ¹Ø¯Ø©":2722,"Ø°ÙĩØ¨":2723,"ĠØ§Ø³Ø§Ø³":2724,"ĠØ§ÙĦØ§Ø¹ÙĦÙī":2725,"ĠØ¹ÙĤØ¯":2726,"ÙĪØ´":2727,"Ø¬ÙħÙĪØ¹Ø©":2728,"ĠØ§ÙĦÙĥÙħØ¨ÙĬÙĪØªØ±":2729,"ÙĬØªÙĬ":2730,"ĠØ§ÙĦØ§Ø´ØªØ±Ø§Ùĥ":2731,"ÙĬÙĥÙĬ":2732,"ĠØ§ÙĦÙħØ´Ø±ÙĪØ¹":2733,"Ø§Ø¹Ùħ":2734,"ÙģØ§Ø¡Ø©":2735,"ĠÙĪØµÙģ":2736,"ĠØªØŃØ¯ÙĬØ¯":2737,"ĠÙħØ·Ø§ØŃÙĨ":2738,"ĠØ§ÙĦØ§ÙĨØªØ®Ø§Ø¨Ø§Øª":2739,"ĠØ·ÙĪ":2740,"ÙĬØ¬ÙĬØ©":2741,"ĠØ¯Ø±Ø¬Ø©":2742,"Ġ64":2743,"ĠÙĨØ·Ø§ÙĤ":2744,"ĠØ±ÙģØ¹":2745,"Ġ2010":2746,"30":2747,"ĠØ§ØµØ§Ø¨Ø©":2748,"ĠØ§ÙĦØ·ÙĦØ¨":2749,"Ø§ÙĨØ³":2750,"ØŃÙĬØ©":2751,"ĠÙĪØ¨Ø±":2752,"ĠØ§ÙĦØ·Ø¨ÙĬ":2753,"ĠØ§ÙĦØ§Ø³Ø±Ø§Ø¦ÙĬÙĦ":2754,"ÙĦÙĬØ¨":2755,"60":2756,"Ø±ÙĬØ¹Ø©":2757,"ĠØ§ÙĦØ§Ø±Ø¨Ø¹Ø§Ø¡":2758,"ĠÙĪÙĥÙĦ":2759,"ĠØ§ÙĦØ²Ø±":2760,"ĠØ¹Øµ":2761,"ĠØªÙĪÙĨØ³":2762,"ĠØ±Ø¬ÙĦ":2763,"ĠØªØºÙĬÙĬØ±":2764,"Ġ70":2765,"ĠÙħØµØ§ÙĨØ¹":2766,"ĠØ§ÙĦØ¬ÙĩØ§Ø²":2767,"ĠÙĦÙĦØ·":2768,"ĠØ§ÙĩÙĦ":2769,"ĠÙħØ®ØªÙĦÙģ":2770,"ĠÙĦØ¯ÙĬÙĥ":2771,"ĠÙĪØº":2772,"ĠØ¹Ø¨Ø¯Ø§ÙĦÙĦÙĩ":2773,"Ø®ÙĬØµ":2774,"Ø§ØªÙĩ":2775,"ØªÙħØ§Ùħ":2776,"ĠØ§ÙĦØ§Ø³ØªØ®Ø¯Ø§Ùħ":2777,"ĠØ§ÙĦÙĨØª":2778,"ĠÙĦÙħØ§Ø°Ø§":2779,"ĠÙĦÙĦÙĩ":2780,"ĠÙĩÙħ":2781,"ÙĪÙĦØ¯":2782,"ĠÙĩØ§":2783,"ĠØ§ÙĦÙħØ§Ø¶ÙĬ":2784,"Ø§Ø¨ÙĪÙĨ":2785,"ĠÙĥØ§Ø³":2786,"Ø§Ø¯Ùĩ":2787,"ÙĬØ±ÙĬØ§":2788,"ĠØ¨Ø«":2789,"ĠÙĬØ¨":2790,"ĠØ±ÙĬØ§Ø¶":2791,"ĠØ¨Ø§ÙĦØ´":2792,"ĠØ§ÙĦØ®ÙĦ":2793,"ĠØ§ÙĦÙħÙĪØ±Ø¯ÙĬÙĨ":2794,"ĠØ§ÙĦÙħØ¬ÙĦØ³":2795,"Ø´Ø§Ø¡":2796,"Ø§Ø·Ø¹":2797,"Ø§ÙĦÙĥ":2798,"ĠÙĬÙĤØ¯Ùħ":2799,"Ø³ÙĥØ±ÙĬØ©":2800,"ĠØ§ÙĦÙĨØµ":2801,"ØªØ§Ø±":2802,"ĠÙħÙĪØ¹Ø¯":2803,"ĠÙĨÙĩØ§ÙĬØ©":2804,"ĠØ³ÙĬØ§Ø±Ø©":2805,"ĠÙħØ®Ø±ÙĪØ·ÙĬØ©":2806,"ĠØ®ØµÙħ":2807,"Ġ90":2808,"ĠØ§ÙĦØ§ÙĤØªØµØ§Ø¯ÙĬØ©":2809,"ĠØ´ÙĨØ·":2810,"ĠÙĪØ§ÙĤ":2811,"ĠØ´ÙħØ§ÙĦ":2812,"Ø±Ø§Ø¡Ø§Øª":2813,"Ø±ÙĪØ¬":2814,"Ġ44":2815,"ĠØŃÙĥÙħ":2816,"ÙģØ§ÙĤ":2817,"ĠØ§ÙĦØ´Ø¨":2818,"ĠØ§ÙĦØ§ØŃØªÙĦØ§ÙĦ":2819,"ĠØ§Ø³ÙħØ§Ø¡":2820,"ÙĩØ§Ø±":2821,"ĠÙĪØ§ÙĦØ«":2822,"ĠØ¯ÙĪ":2823,"ĠØ§ÙĬÙĨ":2824,"ĠØ¨Ø§ÙĦÙĨØ³Ø¨Ø©":2825,"Ø®ØµØµØ©":2826,"ĠÙħØµØ§Ø¯Ø±":2827,"Ø¶Ùī":2828,"ĠÙĦÙħØ¯Ø©":2829,"ĠÙĦÙĨØ§":2830,"Ø§Ø¯Ùħ":2831,"ĠØ§ÙĦÙħØ¶":2832,"ĠÙħØ¬Ø§ÙĨÙĬ":2833,"ĠØ§Ø·ÙĦØ§ÙĤ":2834,"ĠÙĬØ³ØªØ®Ø¯Ùħ":2835,"ĠØ§ÙĦÙħØªØµ":2836,"ĠØ§ÙĦÙħØ±ØŃÙĦØ©":2837,"ĠØ§ÙĦØªÙĥ":2838,"ĠØ§ÙĦØªØŃÙĤ":2839,"ĠØªØ§Ø¬":2840,"ĠØ§ÙĦÙĤÙĨ":2841,"ĠØ³ÙĬÙĨ":2842,"Ø§Ø²ÙĬ":2843,"ĠÙĦØ¬ÙĨØ©":2844,"Ø¨Ø§":2845,"Ø§Ø¹Ø±":2846,"Ø¬Ø¹":2847,"ĠØ´Ø±Ùĥ":2848,"ĠØ§ÙĦØ§ÙĬØ±":2849,"ĠÙĬÙĤÙĪÙĦ":2850,"ĠÙĥØ±ÙĬÙħ":2851,"ĠØ§ÙĦØ¹Ø¯Ø¯":2852,"Ġ55":2853,"ĠØ¨Ø§ØŃ":2854,"Ø§ØµÙħØ©":2855,"Ø³ØªØ±":2856,"ĠÙħØ§Ø¯Ø©":2857,"ÙģÙĬÙģ":2858,"ÙģØ§Ùģ":2859,"ÙģØ§Ø¸":2860,"Ø®Ø±":2861,"ĠÙģÙĪØ§Ø¦Ø¯":2862,"ĠÙĦÙħØ§":2863,"ÙĬØ±ÙĬØ©":2864,"ĠØ§ÙħØ±ÙĬÙĥØ§":2865,"Ø¹ÙĦÙĨ":2866,"ĠØ§ÙĦØŃØ¬Ø§Ø±Ø©":2867,"ÙĨØ¯ÙĬ":2868,"ĠØ¬Ø§ÙĨØ¨":2869,"96":2870,"ÙĨÙĬØ§":2871,"ĠØ±ÙĪØ³ÙĬØ§":2872,"ĠØ§ÙĦÙģÙĨØ§ÙĨ":2873,"ĠÙĦÙĦÙĥ":2874,"ĠØ§ÙĦØ³ÙĪØ±ÙĬ":2875,"ØªØ¯Ø§Ø¡":2876,"Ø§ÙĪØ²":2877,"Ø¯Øª":2878,"ĠØ§ÙĦÙħØ¨Ø§Ø±":2879,"ĠØµØ§ÙĦ":2880,"ĠÙĪØ§ÙĦØ·":2881,"Ġ250":2882,"ĠØ§ÙĦÙĨÙĤÙĦ":2883,"ĠØ§ÙĦØ«ÙĦØ§Ø«Ø§Ø¡":2884,"ĠØ§ÙĦØ§Ø±ØªØ¨Ø§Ø·":2885,"ĠÙĦÙĦØ§ÙĨ":2886,"ĠÙĪØ§ÙĬ":2887,"ĠØ§ÙĦØ±Ø§Ø¨Ø¹":2888,"ĠØ§ÙĦØ®Ø§ÙħØ³":2889,"ĠÙĨØ¯":2890,"ĠØ§ÙĦÙħØ·ÙĦ":2891,"ĠØ¬Ø²Ø¡":2892,"ĠØ§ÙĦØµÙĨØ§Ø¹ÙĬØ©":2893,"ĠØ§ÙĦØ§Ø³ÙĦØ§ÙħÙĬ":2894,"ĠØ§ÙĦÙħØ±ÙĪØ±":2895,"ÙĨØ¬":2896,"ÙĥØ³Ø§Ø±Ø©":2897,"Ø´Ø±Ø§Ø¡":2898,"ĠØºØ±ÙģØ©":2899,"Ø§ÙħÙĬØ©":2900,"ĠÙĤÙģ":2901,"ĠØ§ÙĦØ³ÙĬØ³ÙĬ":2902,"ĠÙĪØªÙĤ":2903,"Ø±Ø²":2904,"ĠØ·ÙĦ":2905,"ĠÙħÙĪØ§Ø¯":2906,"ĠØ§ÙĦÙĦØ¬":2907,"ÙĬÙĪØ§ÙĨ":2908,"Ø§Ø¬Ø¹":2909,"Ø¶Ø§Øª":2910,"ÙĪØ§Ø¹Ø¯":2911,"ĠÙĪÙĬØª":2912,"ĠØ¨ÙĨØ§Øª":2913,"ĠÙĦÙĩØ°Ø§":2914,"ĠÙĬØ¹ÙĨÙĬ":2915,"Ø°Ùģ":2916,"ØªØ¨Ø¹":2917,"ĠØŃØ³ÙĬÙĨ":2918,"ĠØ§ÙĦØ¨Ø´Ø±":2919,"ÙĪØµÙĬÙĦ":2920,"ĠÙĦÙĩÙħ":2921,"ÙĪØ³Ùģ":2922,"ĠÙĪÙħØŃ":2923,"ĠÙĨÙĬÙĪØ²":2924,"ĠØ¨Ø§ÙĦØ¹":2925,"ĠØ·Ø¨ÙĬØ¹":2926,"98":2927,"Ø¸Ø¨ÙĬ":2928,"Ø¯Ø±ÙĬØ©":2929,"ĠÙĬØŃØªÙĪÙĬ":2930,"ØªÙĦÙģ":2931,"Ø«Ø©":2932,"Ġ68":2933,"ĠØ¨Ø±Ø¬":2934,"ÙĪÙĤØ§Øª":2935,"ÙĨØ¯ÙĤ":2936,"ĠØ®Ø§ÙĦØ¯":2937,"ĠØ§ÙĦÙħØŃÙĦÙĬØ©":2938,"ĠÙĬØªØŃ":2939,"ĠØºØ³ÙĬÙĦ":2940,"Ø±ÙĬØ¶":2941,"ÙĦØ§ÙħØ©":2942,"ĠØ§ÙĦØ¹ÙħÙĦØ§Ø¡":2943,"Ø§ÙĬØ§Øª":2944,"ĠÙħØ´ÙĥÙĦØ©":2945,"Ø§Ø´Ø§Øª":2946,"ĠÙģÙĥÙĬØ©":2947,"ĠÙĪØ§ØªØ³Ø§Ø¨":2948,"Ø²Ø¨":2949,"ĠØªÙĤÙĬ":2950,"Ø§ÙĥØ¯":2951,"ĠÙħÙĨØªØ¯ÙĬØ§Øª":2952,"ĠØ§ÙĦÙĥØªØ±ÙĪÙĨÙĬ":2953,"ĠÙħØ§Ø°Ø§":2954,"ĠØ§Ø·ÙģØ§ÙĦ":2955,"ĠÙĪØªÙħ":2956,"Ġ67":2957,"ÙĩÙĪØ¯":2958,"ĠØŃØ²Ø¨":2959,"ÙĪØ¬Ø©":2960,"ĠØµÙĦØ§ØŃ":2961,"ĠØµØŃØ©":2962,"Ø¯Ø±Ø§Øª":2963,"ĠÙħÙĩØ±Ø¬Ø§ÙĨ":2964,"ĠØ§ÙĤØ±Ø§":2965,"Ø³ÙĥØ±ÙĬ":2966,"ĠØ³Ø¹ÙĬØ¯":2967,"Ø§Ø¹ÙĦ":2968,"ĠÙĨØ³Ø¨Ø©":2969,"ØªØ´":2970,"ĠØ¬Ø¹ÙĦ":2971,"ĠØ§ÙĥØ³Ø³ÙĪØ§Ø±Ø§Øª":2972,"ĠÙħØ¹ÙĨØ§":2973,"ÙĬØªÙĩ":2974,"ĠÙĪØ§ÙĦØ¨":2975,"ĠØ§ÙĦØ¯ÙĪ":2976,"ĠØ§ÙĦØ§Ø¬ÙĩØ²Ø©":2977,"ĠØ§ÙĦØ¨ÙĦØ§Ø¯":2978,"ĠØ§ÙĦÙĥØªØ¨":2979,"ĠØ¨Ø¯Ø§ÙĬØ©":2980,"ĠØ§ÙĦØ§ÙĩÙĦÙĬ":2981,"Ø¯Ø§ÙĬØ§":2982,"ĠØŃÙĬØ§Ø©":2983,"Ø°Ø¨":2984,"ĠÙ":2985,"ĠØ§ÙĦØ§Ø¹Ø¶Ø§Ø¡":2986,"ĠÙĨÙħÙĪØ°Ø¬":2987,"ĠØ¨Ø·Ø§ÙĤØ§Øª":2988,"ĠÙĨÙħ":2989,"ĠØªØµÙģØŃ":2990,"ĠÙĥØ±Ø©":2991,"ØŃÙĤÙĪÙĤ":2992,"ĠØ§ÙĦÙĨÙģØ³":2993,"ĠÙĥÙĩØ±Ø¨":2994,"ĠØ±ÙĪØ§":2995,"ĠØ§ÙĦÙħÙĨØ´":2996,"Ġ510":2997,"ĠØ¬ÙĬ":2998,"ĠØ¨Ø±ÙĬØ·":2999,"ĠÙĨØªÙĬØ¬Ø©":3000,"ÙĦØ²":3001,"ĠÙĪØªØ±":3002,"ĠØ¹ÙħØ§ÙĨ":3003,"ÙĬÙĨÙĬØ©":3004,"ĠÙħÙĦÙĥ":3005,"ĠÙĬØ±Ø¬Ùī":3006,"ĠØ§ÙĦØªØ§ÙĦÙĬ":3007,"Ø³Ø·Ø©":3008,"Ø§Ø±ÙĨØ©":3009,"ĠØ±Ø§Ø¨Ø·":3010,"ĠÙĥÙĦÙħØ§Øª":3011,"ĠÙĨØ¨":3012,"ĠØ§ÙĦÙħØ§Ø¡":3013,"ĠØ§ÙĦÙħØ®ØªÙĦÙģØ©":3014,"ĠÙħØ´Ø§Ø±ÙĥØ§Øª":3015,"71":3016,"ĠÙĨÙģØ³Ùĩ":3017,"ĠØ§ÙĦÙħÙĦØ§Ø¨Ø³":3018,"Ø¬ÙĪ":3019,"ĠØ§ÙĦØ¹ÙħÙĦØ§Øª":3020,"ĠÙĦÙĬÙĨ":3021,"ĠÙĦØ±":3022,"ÙĬØŃ":3023,"ĠÙĬØ²":3024,"ĠØ§ÙĦØ¹ÙĦÙħÙĬ":3025,"ĠØ¹ÙģØ´":3026,"ĠØ³ÙĪØ§Ø¡":3027,"Ø³Ø§Ø¡":3028,"ĠÙħØŃÙħÙĪØ¯":3029,"ĠÙģÙĬØ²Ø§":3030,"ĠØ«ÙĦØ§Ø«Ø©":3031,"ĠÙĦÙĦØ§Ø·ÙģØ§ÙĦ":3032,"ĠØ§ÙĦÙĪØµÙĪÙĦ":3033,"ĠØ§ÙĦÙĨØ¨":3034,"ĠØŃÙģ":3035,"ĠØ§ÙĦØ®ÙĦÙĬØ¬":3036,"ĠØ§ÙĦØ±ÙĪØ³":3037,"ĠØµÙĪØª":3038,"ĠØ¸ÙĩØ±":3039,"ĠØ²Ø±":3040,"ĠÙģÙĨÙĬ":3041,"ĠØ¬Ø§Ø¡":3042,"Ø¦ÙĬÙĨ":3043,"ĠØ§ÙĦØ®Ø±Ø³Ø§ÙĨØ©":3044,"ĠÙĦÙĦØº":3045,"ĠÙĪÙĩÙħÙĬØ©":3046,"ĠØ·Ø§ÙĦØ¨":3047,"ĠØ¨Ø§Ùħ":3048,"ØªÙĤØ¯":3049,"ĠÙĬØµÙĦ":3050,"ĠÙĪÙħÙĦ":3051,"ĠØ¨Ø§ÙĦÙĨ":3052,"ĠØ§Ø³ÙĦØ§Ùħ":3053,"ĠØ§ÙĤØªØµ":3054,"ĠØ¹ÙĨÙĩØ§":3055,"ĠÙħÙĬÙĥ":3056,"Ø§ÙĤÙĬ":3057,"ĠØ§ÙĦØ¨ØŃØ±":3058,"ÙĬÙĨÙĬØ§":3059,"ĠØ§ÙĨÙĥ":3060,"ĠØ§ÙĦØ´Ø§Ø´Ø©":3061,"ÙĬÙĦÙĬØ©":3062,"ĠØªØŃØªØ§Ø¬":3063,"ĠÙĪØªØ¹":3064,"ĠØ§ÙĦÙĩØ§ØªÙģ":3065,"ĠØ§ØµØ¯Ø§Ø±":3066,"ĠØªØ¹Ø±":3067,"ĠØºØ±Ø¨":3068,"ÙĬØ²ÙĬØ§":3069,"ĠØ±ÙĪÙħ":3070,"ÙĬØ«":3071,"ĠÙĤØªÙĦ":3072,"ØºØ§ÙĦ":3073,"ĠÙĨØ§Ùģ":3074,"ĠÙĪØºÙĬØ±ÙĩØ§":3075,"ĠØ§ÙĦÙĤØ³Ùħ":3076,"ĠÙĥØ§Ùħ":3077,"ÙĤÙī":3078,"ĠØ§ÙĦÙħØ³ÙĬ":3079,"ĠØ§Ø±Ø¶":3080,"ĠØ§ÙĦÙħÙĪØ³":3081,"ĠÙĬÙĪØ³Ùģ":3082,"ĠÙħØ¬ÙĦØ©":3083,"ĠØ§ÙĦÙĥØ¨ÙĬØ±":3084,"ĠØªÙĤÙĦ":3085,"ĠØ§ÙĨÙģ":3086,"Ø·ØŃ":3087,"ĠÛ":3088,"ĠÙĪØ§ÙĦØ§Ø¬":3089,"Ø¨ÙĬØª":3090,"Ø§Ø·ÙĨÙĬÙĨ":3091,"Ø§Ø¬ÙĩØ©":3092,"ĠÙĦÙĦØ¹ÙħÙĦ":3093,"ĠØ§ÙħÙĬØ±":3094,"ĠØªÙĨØ§ÙĪÙĦ":3095,"Ø§ÙĤØ¨Ø©":3096,"ĠÙģÙĤ":3097,"ĠØ§ÙĦÙĪØ·ÙĨ":3098,"ĠØ§ÙĦØŃÙħÙĦ":3099,"ĠØ§ÙĦØ·Ø±ÙĤ":3100,"ĠÙĪØ§ÙĦØ§ØŃ":3101,"ĠØªÙĨØ¸ÙĬÙħ":3102,"ĠØªÙĪÙģÙĬØ±":3103,"ĠØ§ÙĬØ©":3104,"Ø§ÙĦØ³":3105,"ĠÙĥØªØ¨Øª":3106,"ĠØ¯Ø®ÙĪÙĦ":3107,"Ġ89":3108,"ĠÙģØªØ±Ø©":3109,"ĠØ§ÙĦØ¹ÙĦØ§Ø¬":3110,"ĠØ³ÙĬØ¯":3111,"Ġ57":3112,"ĠØ³Ø§Ùħ":3113,"Ġ43":3114,"ĠØ´Ø±ÙĤ":3115,"ĠØµØŃÙĬÙģØ©":3116,"ĠØ²ÙĬØ§Ø±Ø©":3117,"ĠØ¨Ø·Ø§ÙĤØ©":3118,"ĠØ§ÙĦØªÙħ":3119,"ÙĪÙĨÙĬØ³":3120,"Ø±Ø¬ÙħØ©":3121,"ĠØ§ÙĦØ±ÙĬØ§Ø¶ÙĬØ©":3122,"ĠÙĪØ§ÙĦØ§Ùħ":3123,"ĠØ§ÙĦØ§ÙĪØ³Ø·":3124,"Ø°Ùĥ":3125,"ĠÙħØ§ÙĥÙĬÙĨØ§Øª":3126,"ĠØŃÙĪ":3127,"ĠØ¨Ø¯Ø¡":3128,"ĠØ¬ÙĪØ¬ÙĦ":3129,"ÙĩÙĨ":3130,"Ġ99":3131,"ĠØ§ÙĦØ¯Ø¹":3132,"ĠØ§ÙĦØªØ¹ÙĦÙĬÙħÙĬØ©":3133,"ĠÙĥÙĪØ¨":3134,"ĠÙĪØ§ÙĦØ°ÙĬ":3135,"ĠØ§ÙĦÙĪØ³":3136,"Ø§ÙĪÙħØ©":3137,"ĠØºØ³ÙĦ":3138,"ØªÙĪÙĨ":3139,"Ø¬ÙĬÙĨ":3140,"ĠØ§ÙĦØ§Ø±ÙĩØ§Ø¨":3141,"ÙĤØ±Ø§Ø·":3142,"Ø¨Ø±Ùī":3143,"Ġ46":3144,"ĠØ§Ø³Ø¨Ø§Ø¨":3145,"ĠØ§Ø¨ÙĪØ¸Ø¨ÙĬ":3146,"ĠØªÙĪÙģØ±":3147,"ĠÙħØªØ¹Ø¯":3148,"Ø§Ø·Ø©":3149,"ĠØªØ¹Ø§ÙĦÙī":3150,"ĠØ§ÙĦØ³Ø§Ø¯Ø³":3151,"ÙĨØ³Ø§Ø¡":3152,"ÙĥÙĨØ¯Ø±ÙĬØ©":3153,"Ø§ÙĦÙĩ":3154,"10":3155,"ĠØ§ÙĦØŃØ±Ø¨":3156,"ĠØ¯Ø§Ø¦":3157,"Ø´Ø±Ùģ":3158,"ĠØ³Ø§ÙĨ":3159,"ĠØ¯ÙĤÙĬÙĤØ©":3160,"Ø§Ø²Ø©":3161,"ĠØ§ÙĦØºØ°Ø§Ø¦ÙĬØ©":3162,"ĠØªØ¶":3163,"Ø§ÙĦØº":3164,"ĠØ§ÙĦØ§Ø¨ÙĬØ¶":3165,"ĠØŃÙħØ§ÙĬØ©":3166,"ĠÙħØ·Ø¹Ùħ":3167,"ĠÙĦÙĦØµÙģ":3168,"ĠÙĤÙĪØ§Øª":3169,"ĠÙĪØ§ÙĦÙĦ":3170,"Ø¬Ø§ØŃ":3171,"ĠØ§ÙĦØ±Ùħ":3172,"ÙĪÙģØ±":3173,"ĠÙģØ±ÙĨØ³Ø§":3174,"ĠØ§ÙĦØ³ÙĬØ§Ø³ÙĬ":3175,"ØªØŃØ§ÙĨØ§Øª":3176,"ĠØ¹Ø§ÙħØ§":3177,"ÙĨÙĪÙĨ":3178,"ĠÙĦØªØµ":3179,"ĠÙĤØ·Ø§Ø¹":3180,"ĠØ§ÙĦØªÙģØ§ØµÙĬÙĦ":3181,"ĠØ§ÙĦÙĨØ³Ø§Ø¡":3182,"Ø³Ø¬ÙĬÙĦ":3183,"ĠØ§Ø¬ÙħÙĦ":3184,"Ø±Ø¬Ø§ÙĦ":3185,"ĠØ§ÙĦØŃØ¯":3186,"ĠÙħØ³ØªØ´ÙģÙī":3187,"ĠØµØ§ØŃØ¨":3188,"Ø§Ø²ÙħØ©":3189,"ĠÙģØµÙĦ":3190,"ĠÙħÙĨØ²ÙĦ":3191,"ĠÙĪÙĬØ¹":3192,"ĠÙħÙĨØ¸":3193,"ĠØ§ÙĦØªØ³ÙĪÙĤ":3194,"ĠØ´Ø¹Ø¨":3195,"Ø§Ø¤":3196,"ĠØ§ÙĦÙģØ±ÙĤ":3197,"ĠØ§ÙĦÙĤÙĦØ¨":3198,"Ø¶Ø§ÙĬØ§":3199,"ĠØ«Ø§ÙĨ":3200,"ĠØ§ÙĦÙħØŃØ¬Ø±":3201,"Ø¨Ø§ÙĨÙĬ":3202,"ĠØ§ÙĦÙħÙĤØ¯":3203,"ĠØ§ÙĦÙĦØŃ":3204,"ÙĬÙħÙĤØ±Ø§Ø·":3205,"ĠØ§ÙĦÙħÙĨØ§Ø·ÙĤ":3206,"ÙĬÙĥÙĦ":3207,"ĠØ§ÙĦØ¨Ø¹":3208,"ĠØ±ØŃÙĦØ§Øª":3209,"ĠÙĤÙĬÙħØ©":3210,"ĠØªØ§Ø¨Ø¹":3211,"ĠØ´ÙĥØ±":3212,"ĠÙĦØªØ¬":3213,"ĠÙĨÙĪØ±":3214,"ĠØ¹Ø§ÙħØ©":3215,"ĠØ§ÙĦÙĨØ¨ÙĬ":3216,"ÙĨØ¨ÙĬØ©":3217,"ĠØ§ÙĦÙĪØ¬Ùĩ":3218,"ĠØ§ÙĦØ§Ø³Ø·ÙĪØ§ÙĨØ©":3219,"Ø¹ÙĬÙħ":3220,"ĠØŃØ³Ø§Ø¨Ùĥ":3221,"ĠÙħÙĨØµØ©":3222,"Ġ1427":3223,"ÙĪØ¨Ø§ÙĬÙĦ":3224,"ĠØ§ÙĦØ¨Ø±Ø§ÙħØ¬":3225,"Ø¬Ø¯Ø§Øª":3226,"ĠØªØ³Ùħ":3227,"ĠØ¨Ø§ÙĦØ®":3228,"ĠØªØµÙĨÙĬÙģ":3229,"ĠÙĦÙĦØ¨":3230,"ĠØ§ÙĦØ´ÙĩØ±":3231,"Ø¯ÙĬØ±":3232,"ĠÙĬØ¹ÙĦÙĨ":3233,"ĠÙĦÙĬØ³Øª":3234,"Ø§Ø¦Ø²Ø©":3235,"Ø§Ø¹Ø´":3236,"ĠØ§ÙĦØ¹ÙĬÙĨ":3237,"ĠØ§ÙĦÙħÙĪØ§ÙģÙĤ":3238,"ØµØ§ÙĦØ§Øª":3239,"ĠÙħØ¯Ø±Ø³Ø©":3240,"ÙħØ§ÙĦÙĥ":3241,"ĠØŃØ±ÙĥØ©":3242,"ĠØ¨Ø§ÙĦØ§Ø³":3243,"ĠØ§ÙĦØ¹Ø²ÙĬØ²":3244,"ĠØ§ÙĦØµÙĪØ±Ø©":3245,"ĠÙĦØªÙĨ":3246,"ÙĬØªÙĩØ§":3247,"Ø±ÙĬÙħØ©":3248,"ĠØ§ÙĦØ¹ÙħØ±":3249,"ĠÙĥØ«":3250,"ĠØ§Ø³ØªØ´":3251,"ĠØ§ÙĦØ¹ÙĦÙħÙĬØ©":3252,"ĠØªØ¹ÙĦÙħ":3253,"ĠØªØ¹Ø¯ÙĬÙĦ":3254,"ĠØ´ØŃÙĨ":3255,"ĠØ§ÙĦØ·Ø±ÙĬÙĤ":3256,"ĠÙĬØªÙĪ":3257,"ĠØ§ÙĦØªØ¹Ø§ÙħÙĦ":3258,"ĠØ§Ø¹Ø¯Ø§Ø¯":3259,"ĠØ¹Ø±":3260,"Ø´ÙĤ":3261,"ĠÙĪÙĥØ§ÙĦØ©":3262,"ĠØ¬ÙĬØ¯":3263,"ĠÙħØŃØ§ÙģØ¸":3264,"Ø¹Ø§Ø¯":3265,"ĠØ§ÙĦØ§Ø¹ÙĦØ§ÙĨ":3266,"ÙĬÙĪØ±":3267,"ĠÙĨØŃ":3268,"ĠØ§ÙĦÙģÙĪØ±":3269,"ĠØ§Ø¹Ø±Ùģ":3270,"ĠØ³ÙĬØªÙħ":3271,"ĠÙĨØ§Ø¯ÙĬ":3272,"ĠØ§ÙĦØŃØ¬Ùħ":3273,"ĠÙĦÙĬØ¨ÙĬØ§":3274,"Ø§ÙĩÙĦ":3275,"ÙĪØ§ÙĨÙĬÙĨ":3276,"ĠØ§ÙĦØ¯ÙĪØ±Ø©":3277,"ĠØ¬ÙħØ¹ÙĬØ©":3278,"ÙĬÙĤØ©":3279,"ĠÙĨÙĬÙĥ":3280,"ĠØ§ÙĨØªÙĩ":3281,"ĠØ§Ø¹Ø¶Ø§Ø¡":3282,"Ø§ÙĬÙĨ":3283,"ĠÙħØŃÙĦ":3284,"ÙĤØ§Øª":3285,"ĠØªØ±Ùħ":3286,"ĠØºØ±":3287,"Ø§Ø¨ÙĦØ©":3288,"Ø±Ø¨Ø§Øª":3289,"ĠØªØ³ÙĦ":3290,"ĠÙħØ´Ø§ÙĩÙĬØ±":3291,"ĠØ§ÙĦØµÙĪØª":3292,"ØªÙħØ§Ø¯":3293,"ĠÙħØŃØ§ÙģØ¸Ø©":3294,"ĠÙĪÙĥØ°ÙĦÙĥ":3295,"Ú¯":3296,"Ø´ØŃ":3297,"Ø¦Ø§Ø³Ø©":3298,"Ġ53":3299,"ĠÙĨØ§Ø¦Ø¨":3300,"ĠØªØ¬Ø±Ø¨Ø©":3301,"ĠØªØ·Ø¨ÙĬÙĤØ§Øª":3302,"ĠÙħØµØ±ÙĬ":3303,"ĠØ¹ÙĬÙĨ":3304,"ÙĪØ¨Ø§Øª":3305,"ĠØ§ÙĦØªØ§ÙĦÙĬØ©":3306,"ĠÙĪØ¹ÙĨÙĪØ§ÙĨ":3307,"Ø§Ø¦ÙĨ":3308,"Ø¨Ø§Ø·":3309,"ĠÙħØ³ØªØ¹ÙħÙĦØ©":3310,"ĠÙģØ±ÙĬ":3311,"Ø¯Ø§Ø¹":3312,"ĠØ§ÙĦØ§ÙĤØªØµØ§Ø¯":3313,"ĠØ§ÙĦØ¹ÙĦÙĬØ§":3314,"ĠÙĦÙħØŃ":3315,"ÙĥÙĪ":3316,"ĠØ§ÙĦÙħÙĤØ¨":3317,"ĠØ§ÙĦØ¬Ø²Ø§Ø¦":3318,"ĠØ§ÙĦØ³ÙĬØ§Ø±Ø©":3319,"ĠØ§ÙĬØ±":3320,"Ø¬ÙħÙĬÙĦ":3321,"ÙĪÙĦÙĬØ©":3322,"ĠÙħÙĥØªØ¨Ø©":3323,"ĠÙĦØ¬ÙħÙĬØ¹":3324,"ĠØ§ÙĦØ¹Ø«":3325,"ĠØ¨Ø§ÙĦØ¯":3326,"ĠØ§ÙģØª":3327,"Ø³ÙĬÙĦ":3328,"Ø·ÙĬØ·":3329,"Ø§ÙĦÙĬÙģ":3330,"ĠØ§ÙĦØ·ÙģÙĦ":3331,"ĠØ§ÙĬØ¬":3332,"ĠÙħØ§ÙĦÙĬØ²ÙĬØ§":3333,"ĠØ±Ø³Ø§Ø¦ÙĦ":3334,"ĠØ±Ø§ÙĬ":3335,"Ġ74":3336,"ĠÙħÙĤØªÙĦ":3337,"ØµØ§Ø±":3338,"ĠØ§ØŃØ¯Ùī":3339,"Ø¹Ø±Ø§Ø¶":3340,"ĠØªÙĤÙĬÙĬÙħ":3341,"ĠØ§ÙĦÙĦÙĤ":3342,"ØªÙģØ¹":3343,"ĠÙĦÙĪØŃØ©":3344,"99":3345,"Ġ050":3346,"ĠÙħÙĦÙĬØ§Ø±":3347,"Ø§ÙĥÙħ":3348,"ĠÙĤØ·Ø¹Ø©":3349,"ÙĦØ§ÙĦØ©":3350,"ĠÙħÙĪØ¯":3351,"ĠØŃÙĦÙĤØ©":3352,"ĠØ®Ø²":3353,"ÙĨØ¯Ø³":3354,"ØªØ±Ùģ":3355,"ĠØ§ÙĦØ¯Ø±Ø¯Ø´Ø©":3356,"ĠÙħÙĤØ§ÙĦØ§Øª":3357,"ĠØ¨ÙĨÙĥ":3358,"Ø§Ø±ÙĬØ±":3359,"ĠÙĥÙĪØ¯":3360,"Ø§Ø¦Ùĩ":3361,"ĠÙħØ¹Ø±Ø¶":3362,"54":3363,"ĠÙĪÙĬÙħÙĥÙĨ":3364,"ĠØ´Ø¹":3365,"ĠÙĪØ§ÙĦÙĩ":3366,"ĠÙĪÙĬÙĤ":3367,"Ø§ÙĨÙĩ":3368,"ĠÙĪØ§ÙĦÙħØ¹":3369,"ĠØ±Ø§":3370,"ØªØ§Øª":3371,"ĠØ¯ÙĪØ±ÙĬ":3372,"ĠØ¨Ø§ÙĦÙĥÙĪÙĬØª":3373,"ÙĨÙĬØ§Øª":3374,"ĠØªÙĨÙģÙĬØ°":3375,"ĠØ¨Ø§ÙĬ":3376,"ØªØ±ÙĬ":3377,"ĠØ¹Ø·ÙĪØ±":3378,"ĠØ¨Ø§ÙĦØµÙĪØ±":3379,"ĠØ§ÙĦØ§ØŃÙħØ±":3380,"ĠØ§ÙĦÙģÙĦØ³Ø·ÙĬÙĨÙĬ":3381,"ĠØ¨Ø´Ø±":3382,"ĠØ§Ø¬Ø±Ø§Ø¡":3383,"ĠØªØµÙĦ":3384,"ĠÙħØªØ±Ø¬ÙħØ©":3385,"ĠØ¬ÙħØ§ÙĦ":3386,"ĠØ§ÙĦØ¬Ø±Ø§ÙĨÙĬØª":3387,"ĠÙĦØ§ÙĨÙĩ":3388,"ĠØ§ÙĦØ§ÙĪØ±ÙĪØ¨ÙĬ":3389,"ĠØ´ÙĩØ§Ø¯Ø©":3390,"ĠØ§ÙĦÙģØ±ÙĨØ³ÙĬØ©":3391,"ĠØ§ÙĦÙĪØ§ÙĤØ¹":3392,"ĠØ¯ÙĬÙĥ":3393,"Ø²ÙĬÙĪÙĨ":3394,"ĠØ¨ÙĪÙĥ":3395,"ÙĤØ§Ø¦ÙĤ":3396,"Ø§Ø±ÙĤ":3397,"ĠÙĪØ¨Ø¹Ø¯":3398,"ĠØŃØµØ±ÙĬØ©":3399,"ĠØªØ¹Ø±Ø¶":3400,"ĠØ§ÙĦØ¯Ø±Ø§Ø³Ø§Øª":3401,"Ø´Ø¨":3402,"ĠÙħØµØ¯Ø±":3403,"ĠØ§ÙĦØ·Ø¹Ø§Ùħ":3404,"ĠÙĥÙĪÙĦ":3405,"ĠØ§ÙĦÙĥØ¨":3406,"ĠØ§ÙĦÙĨØ´":3407,"ĠØ§ÙĦØ¹Ø±ÙĪØ¶":3408,"Ø®Ø§ÙĦ":3409,"ÙģÙĬØ±ÙĪØ³":3410,"Ø¹ÙĦØ§Ø¬":3411,"ĠÙħØªØŃ":3412,"ĠØ§ÙĦØ³ÙĬÙĦ":3413,"ĠØ¨ÙĨØ³":3414,"Ø¹ÙĪÙĨ":3415,"ĠÙĤØ¯Ø±Ø©":3416,"ĠÙħØªÙĪØ³Ø·":3417,"ĠÙĪØ§ÙĦØº":3418,"ĠØ§ÙĦÙģØ±ÙĨ":3419,"ÙĨØ§Ø¦ÙĬØ©":3420,"ĠÙģØ¶":3421,"ĠÙĬØ¹Ø¯":3422,"ĠØ¨ÙĪØª":3423,"Ġ150":3424,"ĠØ§ÙĦØ¯ÙģØ¹":3425,"Ø¬Ø±Ø¯":3426,"ĠØ§Ø´ØªØ±":3427,"ĠÙĪÙģØ±Ø§ÙĥØ³":3428,"ĠØªØªØŃ":3429,"ĠÙĪØªØ´":3430,"ĠØ§ÙĦØ¨ÙĬØª":3431,"ĠÙħÙĦÙħ":3432,"ĠØ§Ø³Ø·":3433,"ĠØ§ÙģØ±":3434,"ÙĩØ¯Ø§Ùģ":3435,"Ø§Ø¬Ùĩ":3436,"Ø¶ÙĬØ±":3437,"ĠØ¨Ø§ÙĦØ§ÙĨ":3438,"ĠØ§Ø¬Ø²Ø§Ø¡":3439,"ĠØ§ÙĦØ§ÙħØ±ÙĬÙĥÙĬ":3440,"ĠØ§ÙħÙĦ":3441,"Ø·Ø§ÙĨ":3442,"ĠØ§ÙĦØ¬ÙħÙĩÙĪØ±ÙĬØ©":3443,"ĠÙħÙħÙĥÙĨ":3444,"ÙĥÙĪÙĨØ§Øª":3445,"ĠØºØ±Ùģ":3446,"ĠØ¨Ø§ÙĦØ·":3447,"ĠØ§ÙĦÙĨÙĪ":3448,"ĠØ§ÙĩÙħÙĬØ©":3449,"ĠØ§ÙĦÙĥÙĩØ±Ø¨Ø§Ø¦ÙĬØ©":3450,"ĠØ´ÙĤÙĤ":3451,"ĠØ§ÙĦÙĦØ¬ÙĨØ©":3452,"ĠØ§ÙĦØŃÙĥÙħ":3453,"ÙĬÙģØ±":3454,"ĠÙĬÙĥØ´Ùģ":3455,"ĠØ±Ø¤ÙĬØ©":3456,"ĠØ§ÙĦÙħÙĥØªØ¨":3457,"42":3458,"ĠÙħØŃØ¬Ø±":3459,"ÙĦØ¨ÙĬØ©":3460,"Ø§Ø±Øª":3461,"ĠØŃÙģØ¸":3462,"ĠØ§ÙĦØ¹Øµ":3463,"ĠØ§ÙĦØ§ÙħÙħ":3464,"ĠØ§ÙĦØ¨ÙĨÙĥ":3465,"Ø§Ø¹Ø¨":3466,"ĠØ³Ùģ":3467,"ĠØ§ÙĪÙĦØ§":3468,"ĠØ¯Ø±Ø¯Ø´Ø©":3469,"ØªÙĤÙī":3470,"ØŃØ§Ø«":3471,"Ø®ÙĦØµ":3472,"ĠÙħÙħØ§Ø±":3473,"Ø¹Ø§":3474,"ĠÙĬØ³Ùħ":3475,"Ø·ÙģÙī":3476,"Ø³Ø±":3477,"ĠØ§ÙĦØ´ØŃÙĨ":3478,"Ø§ÙĥØ±":3479,"ĠØ¹Ø²":3480,"ĠØ§ÙĦØ´Ø±Ø·Ø©":3481,"ĠØŃÙħØ¯":3482,"ĠØ¨ÙĨÙĬ":3483,"ĠØŃØ¯Ø«":3484,"Ø§ØŃÙĬ":3485,"Ø¯ÙĬØ¯Ø©":3486,"ĠÙĦØºØ©":3487,"ØµØŃ":3488,"ĠÙĦÙĦÙħØ±":3489,"ĠØ§ÙĦØ±ÙĬØ§Ø¶Ø©":3490,"ĠØµÙĨØ¯ÙĪÙĤ":3491,"ĠØ±Ø¨ÙĬØ¹":3492,"ĠÙĬØ¹ØªØ¨Ø±":3493,"ĠØ§ÙĦÙĬØ§Ø¨":3494,"ĠØ§ÙĦÙħÙĩÙĨÙĬØ©":3495,"ĠØ§ÙĦÙĪØ²ÙĨ":3496,"ĠØ§ÙĦØªØ¬Ø§Ø±Ø©":3497,"ĠØ§Ø¶Ø§ÙģÙĬØ©":3498,"ĠØ¹ÙĦÙĬÙĥÙħ":3499,"ĠØ§Ø²Ø§ÙĦØ©":3500,"Ø§ÙĦØ¬":3501,"ĠØ¨ÙĨØª":3502,"ĠØ·ÙĪÙĬÙĦØ©":3503,"ĠØŃÙģÙĦ":3504,"ĠÙĦÙĦØ§Ùħ":3505,"Ø¦ÙĬ":3506,"ĠØ§Ø³ØªØ±Ø§ÙĦÙĬØ§":3507,"ĠÙħØ¸":3508,"ĠÙħÙĪØ¬":3509,"ĠØ§ÙĦØ³Ø§Ø®":3510,"ĠØ§Ø¨ÙĦ":3511,"ĠØ§ÙĦÙħØŃØªÙĪÙī":3512,"ĠØµØŃÙĬØŃ":3513,"ĠØ§ÙĦØ¨ÙĪ":3514,"ĠØ´Ø§Ø±Ø¹":3515,"ĠØ§Ø¬Ø±Ø§Ø¡Ø§Øª":3516,"Ø§Ø¦ÙĩØ§":3517,"ÙĨØ§Ùģ":3518,"ĠØ¬ÙħØ¹":3519,"ĠÙĪØ³Øª":3520,"ĠØ§ÙĦØ±Ø³ÙħÙĬ":3521,"Ø·Ø¨ÙĬÙĤ":3522,"ĠÙģÙĩÙĪ":3523,"ĠØ§ÙĨØŃ":3524,"Ø±ÙĬØ·Ø©":3525,"ĠÙĪÙĥÙĬÙģ":3526,"ĠÙħÙĨØ¸ÙħØ©":3527,"ĠØ§ÙĦØªÙĥØ³ÙĬØ±":3528,"ĠÙģØ¹Ø§ÙĦ":3529,"Ġ600":3530,"Ø±ÙĪØ©":3531,"ÙĬØ¨Ø©":3532,"ĠØ±Ø´":3533,"Ø±ÙģØ¹":3534,"ĠØ§ÙĦØ¹ÙħÙĦÙĬØ©":3535,"ĠÙħÙĨØªØ¬":3536,"ĠØ§ÙĦÙħØªØµÙģØŃ":3537,"Ø§ÙĪÙĦØ§Øª":3538,"ĠØ§Ø³Ø¦ÙĦØ©":3539,"ĠØ·Ø±Ùģ":3540,"ĠØ§ÙĦØ§Ø³ÙĪØ¯":3541,"ÙĨØ¨ÙĬ":3542,"ĠØ§ÙĦØªØ´ØºÙĬÙĦ":3543,"ĠØ§ÙĦÙĤÙĪØ§Øª":3544,"ÙĥØªØ¨":3545,"ĠØ§ÙĦØ²ÙĬØª":3546,"ĠÙħØ±Ø§ÙĥØ²":3547,"Ġ198":3548,"Ø§ÙĦÙĤ":3549,"ĠØªÙĪØ§ØµÙĦ":3550,"ĠØ§ÙĦØªÙĥÙĨÙĪÙĦÙĪØ¬ÙĬØ§":3551,"ĠÙħÙĪÙĦ":3552,"ĠÙħØ¹Ø±ÙģØ©":3553,"ØºØ§Øª":3554,"ĠÙĦÙħÙĪÙĤØ¹":3555,"ĠØ§ÙĦØ´Ø±ÙĤÙĬØ©":3556,"90":3557,"ĠØªØ§Ø³":3558,"ĠÙĪÙĪ":3559,"ÙĬØ¯ÙĬØ©":3560,"Ø·Ø±Ø©":3561,"ĠØµÙĨØ§Ø¹":3562,"ĠÙĥÙĪ":3563,"ĠØ·Ø¨Ø§Ø¹Ø©":3564,"ĠØ¨ÙĦØ¯":3565,"ĠØ¬ÙĩØ©":3566,"ĠØ§ÙħØ³":3567,"ĠØ§ÙĦØªØµÙħÙĬÙħ":3568,"ĠÙĪÙĦÙĬØ³":3569,"ĠØ§ÙĦØ¨Ø§Ø±":3570,"ĠØ¬Ø±ÙĬØ¯Ø©":3571,"ÙĩÙĪÙĦØ©":3572,"ĠØŃØµØ§ÙĨ":3573,"ĠØ³Ø¬ÙĦ":3574,"ĠØ§ÙĦØ³ÙģØ±":3575,"ĠØ§ØªØŃ":3576,"ĠØ§ÙĦÙĥØª":3577,"ĠØ¨Ø§ÙĦÙħÙĨ":3578,"ĠÙħÙĪØ§Ø¶ÙĬØ¹":3579,"Ø§ØªÙĩØ§":3580,"Ø·Ø¹":3581,"ĠÙģÙĦØ§":3582,"ĠØªØ¯Ø§ÙĪÙĦ":3583,"ĠØ§ÙĦØ´Ø¹Ø¨ÙĬ":3584,"ĠØ§ÙĦÙĩÙĪØ§Ø¡":3585,"ØªØ³":3586,"Ø¹ÙĦÙĤØ©":3587,"Ø§Ø³ÙĦ":3588,"ĠØµØ¯":3589,"ĠØ§ÙĦØªØ±ÙĥÙĬØ©":3590,"ĠØ¯Ø§Ø¦ÙħØ§":3591,"ĠØ±ÙĬÙħÙĪÙĨ":3592,"ĠØ®Ø·Ø©":3593,"ĠØ§ÙĦØ§ØµÙĦ":3594,"Ø¹ÙĦÙĪÙħØ§Øª":3595,"ĠÙħØ±Ø§Ø¬Ø¹Ø©":3596,"Ø§Ø¨Ø±":3597,"ĠØ¸ÙĦ":3598,"ĠØ¨ØªØŃ":3599,"ÙĥÙĬÙĨ":3600,"ĠØ¹Ø¶ÙĪ":3601,"ĠÙĦÙĦØ§Ø¹":3602,"Ø±Ø±":3603,"ĠÙĥÙĬÙĦ":3604,"ĠØ§ØŃØ¯Ø§Ø«":3605,"ĠØ§ÙĦØ±ÙĬ":3606,"ĠØ§ÙĦØ§Ø¨ØªØ¯Ø§Ø¦ÙĬØ©":3607,"ÙĪÙĨÙĬØ³ÙĬØ§":3608,"ĠÙħØ´Ø§ÙĥÙĦ":3609,"ĠØ§ÙĦØ§ÙģØ±ÙĬÙĤ":3610,"ĠÙĤÙģØ§Ø²Ø§Øª":3611,"ĠØ³Ø¨Ø¨":3612,"ĠØ§ØµØŃØ§Ø¨":3613,"ĠØ§ÙĦØ§Ø´Ø®Ø§Øµ":3614,"ĠÙĪØµÙĦØª":3615,"ĠØ§ÙĦØ³ÙĬØ±":3616,"Ġ088":3617,"Ø§Ø¦Ø©":3618,"Ø§ÙĪÙĬØ©":3619,"ĠØ§ÙĦÙĪÙĦ":3620,"ĠØ¨ÙĬÙĨÙħØ§":3621,"Ø§Ø±ÙĤØ©":3622,"ĠØŃÙħÙĦ":3623,"ĠØ§ÙĦØªÙĨÙħÙĬØ©":3624,"ĠØªØ³Ø§Ø¹Ø¯":3625,"ĠØ§ÙĦØ¹Ø±Ø§ÙĤÙĬØ©":3626,"Ġ2009":3627,"Ø¯Ø±Ø§Ø³Ø§Øª":3628,"Ġ5293":3629,"ĠØ§ÙĦÙħØ±ÙĥØ²ÙĬ":3630,"ĠØ§ÙĦØ·ØŃÙĨ":3631,"ÙĪØ³Ø©":3632,"ĠØ§ÙĦÙħØ§Ø¯Ø©":3633,"ĠÙħØ®Ø·Ø·":3634,"ĠØ§ÙĦØµØ§ÙĨØ¹":3635,"Ø§Ø±Ùģ":3636,"ĠØ¨ÙĪØ§Ø¨Ø©":3637,"ĠØ§Ø«Ø§Ø«":3638,"ĠØ§ÙĦØªÙĤÙĨÙĬØ©":3639,"ĠØ§ÙĦØµÙĬÙĨÙĬØ©":3640,"ĠÙĨØ²":3641,"ĠÙĨØµØ§Ø¦ØŃ":3642,"ĠØªÙĪÙĤ":3643,"ĠØ¨Ø±ÙĬØ·Ø§ÙĨÙĬØ§":3644,"ĠØªØ³ØªØ·ÙĬØ¹":3645,"ĠØµØ¨":3646,"ĠØ¹Ø§Ø¬ÙĦ":3647,"ĠØ§ÙĦÙģØ±ÙĬÙĤ":3648,"ĠØ§Ø²ÙħØ©":3649,"ĠØ§Ø¨Ø±Ø²":3650,"Ø®ÙģØ§Ø¶":3651,"Ø¦ÙĬØ©":3652,"Ø±Ø§Ùģ":3653,"ĠØ§ÙĦÙĤØ¯Ø³":3654,"ĠØ§ÙĦÙĤÙĬØ§Ùħ":3655,"Ø¯ÙĪ":3656,"Ø¯ÙĬÙĨ":3657,"ĠØªÙħØª":3658,"ĠÙĨÙĤØ¯Ùħ":3659,"ĠÙĩÙĨØ¯":3660,"ĠØ§ÙĦØ³ÙĬÙĨ":3661,"ĠØ§ÙĦØ¨Ø±ÙĬØ·":3662,"ĠØ§ÙĦÙĨÙĬ":3663,"ĠØªØ¹ØªØ¨Ø±":3664,"ĠØ§ÙĦÙħØ³Ø¤ÙĪÙĦ":3665,"ĠÙĦØ§Ø¬":3666,"ĠØªØŃÙĪÙĬÙĦ":3667,"ĠØ§ÙĨØ³":3668,"Ø¹ÙħØ§ÙĦ":3669,"ĠØªØŃÙĦÙĬÙĦ":3670,"ĠÙĬÙĪØª":3671,"ØµÙĬÙĦ":3672,"ĠÙĬÙħÙĨ":3673,"ĠÙĦØªÙĪ":3674,"ĠØŃÙĥÙĪÙħØ©":3675,"ĠØ§Ø¹Ø±Ø¶":3676,"Ø§ÙĬÙĬØ±":3677,"ĠØ§ÙĦØ¬ÙĪ":3678,"ĠØ´Ø§Ø´Ø©":3679,"ĠØ§ÙĦØ¨Ø´Ø±Ø©":3680,"Ġ915":3681,"ĠØªØ¨Ø¯":3682,"ĠØ§ÙĦØ°Ø§Øª":3683,"ĠØ§Ø·Ø§Ø±":3684,"ĠØªÙĦÙģÙĪÙĨ":3685,"ÙħÙĦÙĥ":3686,"ĠØ§ÙĦÙĨÙĪÙħ":3687,"ØªÙĤÙĦ":3688,"ÙĪÙħØ§":3689,"ĠØ§ÙĦØ§ÙģØ¶ÙĦ":3690,"ĠØ±ÙĬØ§Ø¶ÙĬØ©":3691,"Ø±Ø·Ø§ÙĨ":3692,"ĠÙĥÙģ":3693,"ĠØ§ÙĦØ¨ÙĤ":3694,"ĠØ§Ø³ØªØ®Ø±Ø§Ø¬":3695,"ĠÙĦØ¹Ø§Ùħ":3696,"ĠÙĦÙĦØ±":3697,"ĠÙĦØ§Øª":3698,"ĠÙĪØ§ÙĦÙħØŃ":3699,"ĠØ³ÙĤ":3700,"ĠÙĦÙĪÙĨ":3701,"ĠÙħØ¤ØªÙħØ±":3702,"ĠØ§ÙĦÙħÙĤØ¨ÙĦØ©":3703,"ĠØºÙĬØ§Ø±":3704,"ĠÙĪØ§ÙĦØ§Ø¯":3705,"ĠÙħÙħØª":3706,"ĠØ§ÙĦØ±ØŃÙħÙĨ":3707,"ĠØ§Ø³ØªØ±Ø§Øª":3708,"ĠØ§ÙĦØ§ÙĦØ¹Ø§Ø¨":3709,"ÙĤØ±Ø±":3710,"ØªÙħÙĬØ²":3711,"ĠØªÙĩØªØ²":3712,"ĠÙĤÙĪØ©":3713,"Ø§Ø¯ÙĬÙħÙĬØ©":3714,"ÙĨÙģ":3715,"Ø¹Ø²ÙĬØ²":3716,"ĠÙĤØ³":3717,"ĠØ§ÙĦØ¯ÙĪØ±":3718,"ĠØ³Ø¹Ø¯":3719,"ĠØ§ÙĦÙĩÙĬØ¦Ø©":3720,"Ġ1443":3721,"ĠØ§ÙĦØ§Ø¯Ø§Ø±ÙĬØ©":3722,"ĠØ§ÙĦØ³ÙĪØ±ÙĬØ©":3723,"ĠØ¶Ø¹":3724,"Ø§ÙĦØ§":3725,"Ø§ÙģÙĤØ©":3726,"Ø´Ø§Øª":3727,"ĠØ¨ÙĦØ§":3728,"Ġ1584":3729,"ĠØŃØ±Ø¨":3730,"ĠØ§ÙĦØŃØµÙī":3731,"ĠÙĪØ§ÙĦØªØŃ":3732,"ĠØ§ÙĦÙģÙĨÙĬ":3733,"ĠÙĨÙĬØ¬":3734,"ĠØ§ÙĦØºØ§Ø¡":3735,"Ø¬ÙĦØ©":3736,"ĠØ¶ØºØ·":3737,"Ø¯ÙĪØ¯Ø©":3738,"ĠÙħØ±Ø¨":3739,"36":3740,"ĠØ´ÙĨ":3741,"ĠÙĦØ¹ÙħÙĦ":3742,"ÙĬØ§Ø¬":3743,"ĠÙħÙĨØ§Ø·ÙĤ":3744,"ĠØ¯Ø§":3745,"ĠØ¯ÙģØ¹":3746,"ÙĬÙĦÙĩ":3747,"Ġ158441":3748,"ĠØ§ÙĦÙĨÙĪØ¹":3749,"ĠØ§ÙĦØ¯Ùĩ":3750,"Ø³ÙĬØ·Ø©":3751,"ĠØ§ÙĦÙĤØ¯ÙĬÙħØ©":3752,"ĠØµØ§ÙĦØŃØ©":3753,"ĠØ§ÙĦÙĤØ§Ø¦ÙħØ©":3754,"Ø§ÙĩØ¯Ø©":3755,"ĠØ§ÙĦÙģÙĨÙĬØ©":3756,"ĠØªØ³ÙĪÙĤÙĬ":3757,"ĠØ§ÙĦÙĤØ±ÙĨ":3758,"ÙĪØ²ÙĬØ¹":3759,"17":3760,"ĠØ§ÙĦØ§ÙĦØ§Øª":3761,"ĠØ§ÙĦØ¹ÙĨÙĪØ§ÙĨ":3762,"ĠØ§ÙĦØŃØ§ÙĦÙĬ":3763,"ĠÙģØ¶ÙĦ":3764,"ĠØŃØ§ÙĦØ§Øª":3765,"ĠØ§ÙĦØ¹Ø±Ø¶":3766,"ĠØ§ØªØµ":3767,"ĠØ§ÙĦÙģÙĦØ³Ø·ÙĬÙĨ":3768,"ĠÙħÙĪÙĨ":3769,"ĠØ§ÙĦÙģØªØ±Ø©":3770,"ĠØ§ÙĨØ¯ÙĪÙĨÙĬØ³ÙĬØ§":3771,"ĠÙĪØ§ÙĦØ§Ø±":3772,"ĠØ§ÙĦØ¯ÙĪÙĦØ§Ø±":3773,"Ø®ØµÙĪØµ":3774,"ĠÙĪÙĦÙĬ":3775,"ĠØ§ÙĦØªØŃÙĥÙħ":3776,"Ø®ÙĬ":3777,"ÙĬØ²Ø±":3778,"ĠØŃÙħÙĦØ©":3779,"ĠÙĨØ§":3780,"ĠØŃØµÙĦ":3781,"ĠØ§ÙĦØ±Ø¬ÙĦ":3782,"ØªÙĬØ§Ø¬Ø§Øª":3783,"ÙĩØ§Ø¯":3784,"ĠØ§ÙĦØŃÙħ":3785,"ĠØªØ±Ø§ÙħØ¨":3786,"ĠØ§ÙĦÙħØ³ÙĦÙħÙĬÙĨ":3787,"ĠØ§ÙĦÙĨØ¸":3788,"ĠØ§ÙĦØ§Ø«Ø§Ø«":3789,"ĠÙĦØ¨":3790,"Ø§Ø¦Ø·":3791,"ĠØ§Ø®ØªØ¨Ø§Ø±":3792,"ĠØ§ÙĦØŃØµ":3793,"ĠÙĦÙĦØªØŃ":3794,"ĠØ§ÙĦÙĦØ¨ÙĨØ§ÙĨÙĬØ©":3795,"ĠÙĦØ§Ùħ":3796,"ĠØ§ÙĦÙħØ³ØªÙĤØ¨ÙĦ":3797,"ĠÙħÙĥÙĨ":3798,"ĠØ§ÙĦÙħÙĤØ¨ÙĦ":3799,"Ø±ÙĬØ¨ÙĬØ©":3800,"ĠØªÙĥØ´Ùģ":3801,"ÙĨÙĩ":3802,"ĠØ§ÙĦØ«ÙĤÙĬÙĦØ©":3803,"ĠØªÙĦÙĤ":3804,"ĠØ§ÙĦØ§Ø³ØªØ§Ø°":3805,"ĠØªØªÙĪ":3806,"ĠØ§ÙĦØ§Ø±Ø¯":3807,"ĠØ§ÙĦØ§ÙĨØ³Ø§ÙĨÙĬØ©":3808,"ĠØ§ÙĦØ¬ÙħÙĬØ¹":3809,"ĠÙĪØ§ÙĦØ§Ø¹":3810,"ĠØªØ¬ÙĩÙĬØ²":3811,"ĠØ§ÙĦØ´Ø±ÙĬÙģ":3812,"ĠÙĦÙħØ³":3813,"ÙĤØ±Ø§Ø±":3814,"Ø·Ø§ÙĦÙĬØ§":3815,"ĠØ§ÙĦÙĤØ§ÙĨÙĪÙĨÙĬØ©":3816,"ĠØ§ÙĦØŃØ±Ø§Ø±Ø©":3817,"ĠØ§ÙĦÙĤÙħ":3818,"ÙĤØ³":3819,"ĠØ§ÙĦØ¯Ø¹Ùħ":3820,"ØªØ¨Ø§Ø±Ø§Øª":3821,"ĠØ´Ø¨Ø§Ø¨":3822,"ĠØ±Ø³ÙĪÙĦ":3823,"ĠÙģÙĥ":3824,"ĠØ§ÙĦØ±Ø¯":3825,"ÙĪØ§Ø±ØªØ²":3826,"Ø¹Ø§ÙħÙĦ":3827,"ĠÙĬØ·":3828,"ÙĨØ·ÙĨ":3829,"ĠÙĬÙĪØªÙĬÙĪØ¨":3830,"ĠÙĪØªØµ":3831,"Ø§Ø¨Ùĩ":3832,"ĠÙħØ³ØªØ¬Ø¯Ø§Øª":3833,"Ø¸Ø§Ø±":3834,"ÙĬØ³Ø©":3835,"ØªØ§Ø¡":3836,"ĠØ§Ø³ØªÙħØ±":3837,"Ø§ÙĥÙĬØ¯":3838,"ĠØ§ÙĦØ·Ø¨ÙĬØ¹ÙĬØ©":3839,"ÙħØ±Ø§Ø¡":3840,"ĠØ§ÙĦØ§Ø°":3841,"Ġ417":3842,"ĠØ¨ÙħÙĨØ§Ø³Ø¨Ø©":3843,"ÙĦÙĬØŃ":3844,"ĠØªÙĤÙĨÙĬØ©":3845,"Ø¹Ø§ÙĪÙĨ":3846,"ĠÙĪÙĬØ±":3847,"ĠÙĤØ¯Ø±":3848,"ĠØ§ÙĦØ¶ØºØ·":3849,"ĠÙĤÙĦØ¨":3850,"ĠØ¯Ùĩ":3851,"Ø¹ÙĦÙĪÙħ":3852,"ĠÙĬØ¬Ø¹ÙĦ":3853,"ÙĩÙĪØ©":3854,"ĠØ§Ø±Ø´ÙĬÙģ":3855,"Ø§ÙĬÙĬÙĨ":3856,"ĠØ§ÙĦØ§Ø³ØªØ«ÙħØ§Ø±":3857,"ĠØ§Ø³ØªØ®Ø¯Ùħ":3858,"ĠÙĨÙĤÙĪÙħ":3859,"ÙĪØªÙĪ":3860,"ĠÙĦÙĦØ¨ÙĨØ§Øª":3861,"ĠØ§ÙĦØ¯ÙĬÙħÙĤØ±Ø§Ø·":3862,"ĠØ§ÙĦÙĤØ·Ø§Ø¹":3863,"ĠØ§ÙĦÙĪØ§ØŃ":3864,"Ø¯Ø¯Ø©":3865,"ĠØ§ÙĦØ¹Ø§ÙĦÙĬ":3866,"ĠØ§ÙĦØªØ¯Ø§ÙĪÙĦ":3867,"ĠÙĨÙĪÙħ":3868,"ĠÙĤØµØµ":3869,"Ø·ÙĤ":3870,"ĠØ§ÙĦÙģÙĦØ³Ø·ÙĬÙĨÙĬØ©":3871,"ĠØ§ÙĦÙĤØ¶":3872,"ÙĥÙħØ¨ÙĬÙĪØªØ±":3873,"ÙĩØ±Ø§Øª":3874,"ĠÙĩØ¯Ùģ":3875,"ĠØ¨Ø¯Ø±":3876,"Ø§ØŃØ«":3877,"Ø®Ø¯ÙħØ©":3878,"ÙĨÙĥ":3879,"ĠÙĥØ°ÙĦÙĥ":3880,"ĠØ¨ÙħØŃ":3881,"Ġ2008":3882,"ĠÙĦÙĤØ§Ø¡":3883,"ĠØ§ÙĦØ§Ø³Ø±Ø§Ø¦ÙĬÙĦÙĬ":3884,"ĠØ§ÙĦØ±Ø®Ø§Ùħ":3885,"ĠØ§ÙĦØ¹Ø§ØµÙħØ©":3886,"ĠÙħØ¹Ø¸Ùħ":3887,"ĠØ§ÙĨÙĨØ§":3888,"ĠØ¨ØºØ¯Ø§Ø¯":3889,"ĠÙĦÙĦØ±Ø¬Ø§ÙĦ":3890,"ĠØ§ÙĦÙħØ´Ø§Ø±ÙĥØ§Øª":3891,"ĠØ§ÙĦØ§Ø®Ø±":3892,"ĠØ§ÙĦØµÙĦØ§Ø©":3893,"Ø¸Ùģ":3894,"ĠØªÙĪØ¬Ø¯":3895,"Ø®Ø±Ø©":3896,"Ġ382":3897,"ĠØ§ÙĦØ³Ùģ":3898,"ÙĨØ³ÙĬÙĤ":3899,"Ø±ÙĬØ¨Ø§":3900,"ĠØ§ÙĦØ¹ÙĦØ§ÙĤØ§Øª":3901,"ĠÙĬÙĥÙĨ":3902,"ĠØ§ÙĦØŃØ´Ø±Ø§Øª":3903,"ĠØ§ÙĦØ§Ø³Ø±Ø©":3904,"ÙĦØ§ÙĬÙĨ":3905,"ĠÙħÙĪØ§Ø¬ÙĩØ©":3906,"ĠØ³Ø¨ÙĬÙĦ":3907,"Ġ197":3908,"ĠØ§ÙĦÙĪØ¶Ø¹":3909,"ĠÙĨÙĪ":3910,"ĠØ§ÙĦØ®Ø¨":3911,"ÙĤÙĬÙħ":3912,"ĠØ§ÙĦÙĥÙĨ":3913,"ĠÙĦÙĦØªÙĪ":3914,"ØªØŃØ§ÙĨ":3915,"ĠØ§ÙĦØ²ÙħØ§ÙĦÙĥ":3916,"ĠÙħÙĬØ¯ÙĬØ§":3917,"ĠØ§ÙĦØªØ§Ø³":3918,"ĠÙħÙĩÙħØ©":3919,"ĠØ§ÙĦÙĥÙĩØ±Ø¨Ø§Ø¡":3920,"ĠÙĦØ§Ùĥ":3921,"ĠØ³Ø§Ø¨ÙĤ":3922,"Ġ95":3923,"Ø§ÙĨÙī":3924,"Ø§Ø®Ø°":3925,"ĠØ¨Ø§ÙĦÙģÙĬØ¯ÙĬÙĪ":3926,"ĠÙĨØ¸Ø±":3927,"ĠÙħÙĨØŃ":3928,"ĠÙĨØ§ÙģØ°Ø©":3929,"ĠØ§ÙĬÙĦ":3930,"ĠÙħØµØ·ÙģÙī":3931,"ĠØ§ÙĦØªØ¹ÙĦÙĬÙĤØ§Øª":3932,"Ø±Ø§Ø¹":3933,"Ø¨ÙĬÙĩ":3934,"ĠØªØ±ØªÙĬØ¨":3935,"ÙĪÙĤØ©":3936,"ĠØ¨Ø·Ø±ÙĬÙĤØ©":3937,"ĠØ§ÙĦØªØ¨":3938,"ÙĤØ¯Ùħ":3939,"ĠØ§ÙĦØ´ÙħØ§ÙĦÙĬØ©":3940,"ĠØ¨ÙĤÙĦ":3941,"ĠØªÙĪÙĤØ¹":3942,"ĠÙĪØ§ÙĦØªÙĪ":3943,"Ġ97":3944,"ĠÙĨØ´Ø§Ø·":3945,"ĠÙĤØ¶":3946,"Ġ341":3947,"ĠÙĦÙħØ´":3948,"ĠÙĪØµÙĪÙĦ":3949,"ĠØ§ÙĦØ±Ùĥ":3950,"ĠØ§ÙĦÙħØ³ÙĦ":3951,"ĠÙĦØ§Ø³ØªØ®Ø¯Ø§Ùħ":3952,"ÙĪØ±ÙĪÙĨØ§":3953,"ĠØ§ÙĦØ³ÙĦØ·Ø©":3954,"Ø¹ÙħØ©":3955,"ĠØ§ÙĦØ¬ÙĨÙĪØ¨ÙĬØ©":3956,"ĠÙĪØ§ÙĦØ³ÙĦ":3957,"ĠØªØ¨Ø¯Ø§":3958,"ĠØ¨ÙĨØ³Ø¨Ø©":3959,"ĠÙĥØ§ÙĨÙĪÙĨ":3960,"ĠØªØ«":3961,"Ø§Ø¯ÙħØ©":3962,"ØµÙĨØ¹":3963,"Ø§ÙģØª":3964,"ĠØ§ÙĦØ§Ø³ØªÙģ":3965,"Ø¯ÙĬÙĤØ©":3966,"Ø·ÙĦØ¨Ø§Øª":3967,"ĠØ´Ø§Ø±Ùĥ":3968,"ĠØ§ÙĦØ¨Ø´Ø±ÙĬØ©":3969,"Ø®Ùħ":3970,"ÙĬÙĥØ³":3971,"ĠØ§ÙĦÙħØ¹Ø¯ÙĨÙĬØ©":3972,"Ø®ÙģØ¶":3973,"ĠØªÙĬ":3974,"ĠØ¨Ø¨":3975,"ĠÙĤØ§Ø¹Ø¯Ø©":3976,"ÙĥØ§ÙĨÙĬØ©":3977,"Ø§Ø¦Ø²":3978,"ĠØ§ÙĦØ±ÙĤÙħÙĬØ©":3979,"ĠØ§ÙĦÙĨØ§Ø±":3980,"Ø±ÙĪØŃ":3981,"Ø§Ø¯Ø¦":3982,"67":3983,"ØªØ±ÙĥØ©":3984,"ĠØ§Ø¨Ø·Ø§ÙĦ":3985,"Ø²ÙĬØ§Ø¡":3986,"25":3987,"ĠÙĪØ§ÙĦØ²":3988,"ĠØ§ÙĦØ®Øµ":3989,"ÙĤÙĬØ¨Ø©":3990,"38":3991,"Ø¬Ø§Ø¨":3992,"Ø¹Ùĩ":3993,"ĠØ§ÙĦØŃØ¯ÙĬØ«Ø©":3994,"ĠØªÙĥÙĨÙĪÙĦÙĪØ¬ÙĬØ§":3995,"ĠØ·Ø±":3996,"ĠÙħÙĨÙĩÙħ":3997,"ĠØ§ÙĦØ¨ÙĬØ¦Ø©":3998,"Ø¶ÙĪÙĬØ©":3999,"ĠÙģØŃØµ":4000,"ĠØ§Ø´Ø±":4001,"ĠØ§ÙĦØŃÙĤÙĪÙĦ":4002,"ÙĦØŃØ©":4003,"ĠÙĥØ±Ø¨":4004,"ĠØ§ÙĦØŃÙĪØ«":4005,"ĠÙĦÙĦØ§Ø³Øª":4006,"ĠØ§Ø¹ÙĦØ§ÙĨØ§Øª":4007,"Ø±ÙĪØ§":4008,"ĠØ¸ÙĩÙĪØ±":4009,"ĠÙĦÙĦÙĨØ³Ø§Ø¡":4010,"ĠÙĪØ§Ø³Øª":4011,"ĠØ´ÙĩØ¯":4012,"ĠÙĨÙĬØ¬ÙĬØ±ÙĬØ§":4013,"Ø¯ÙĪØ²":4014,"ĠØ§Ø¡":4015,"ĠØ§ÙħØ±Ø§Ø©":4016,"ØŃØ¯":4017,"ØªÙĬØŃ":4018,"ĠØ§ÙĦØ¨Ø±ÙĦÙħØ§ÙĨ":4019,"ĠØ§ÙĦØªÙĨØ¸ÙĬÙģ":4020,"ĠÙĥÙĨØ¯Ø§":4021,"Ø§Ø³ÙĬØ±":4022,"ĠØ¶Ø¨Ø·":4023,"ÙĪØ§ÙħÙĦ":4024,"ĠÙĪØ§ÙĦØ§Øª":4025,"ĠØ§ÙĦÙĦØ¨ÙĨØ§ÙĨÙĬ":4026,"ĠÙģØ¹":4027,"ĠÙĤØ¶ÙĬØ©":4028,"ĠØ§ÙĦÙĪØ¸ÙĬÙģØ©":4029,"ĠØªØŃØªÙĪÙĬ":4030,"361":4031,"ĠØªØŃÙħÙĦ":4032,"ĠÙĦÙĬÙģ":4033,"ĠØªØ¨ØŃØ«":4034,"ÙĤØ¯Ø±":4035,"ÙĤØª":4036,"ĠÙħÙĨØµ":4037,"ĠÙĦØ§ÙĬ":4038,"ĠÙħØŃØªÙĪÙī":4039,"ĠØ§ÙĦØ§ÙĤØ³Ø§Ùħ":4040,"ĠØ§ÙĦØ±ÙĪ":4041,"ÙĩÙĬ":4042,"ĠØ«Ø§ÙĨÙĬØ©":4043,"ĠØ§ÙĦØŃØ§ÙĦØ©":4044,"ĠÚ©":4045,"ĠØ¨Ø§Ø±ÙĬØ³":4046,"ĠØ®Ø·ÙĪØ§Øª":4047,"ĠØªÙĨØ³":4048,"ĠØ³Ø¤Ø§ÙĦ":4049,"ĠÙĨØµÙģ":4050,"ĠØ§ÙĦØºØ§Ø²":4051,"Ġ412":4052,"ĠØ±ØºÙħ":4053,"ĠÙĦÙĩØ°Ùĩ":4054,"ĠØ§ÙĦØªÙĦ":4055,"11":4056,"ĠÙĬØº":4057,"ĠØ«ÙĦ":4058,"ĠØªØ´ÙĥÙĬÙĦ":4059,"ĠØ§ÙĦØªØ³ÙĪÙĬÙĤ":4060,"Ø´Ø§Ùģ":4061,"ØªØ±Ø§Øª":4062,"ĠØºØ²Ø©":4063,"ĠØ³ÙģØ±":4064,"ÙĬØ¯Ø±ÙĪÙĦ":4065,"ÙĨÙĬÙĬÙĨ":4066,"Ø§ÙĦØ¹":4067,"ÙĦØ§Ø¹":4068,"ĠÙĪØ§ÙĦØ§Ø®":4069,"ĠØ§ÙģØªØªØ§ØŃ":4070,"ĠÙĪØ¸ÙĬÙģØ©":4071,"ĠØŃÙĦÙĪÙĦ":4072,"ĠØ¨ÙĦØº":4073,"ĠØ¯Ø±ÙĪØ³":4074,"ÙĬÙĨÙĩ":4075,"ĠØ¨Ø·ÙĪÙĦØ©":4076,"ĠØ§ÙĨØ¯Ø±ÙĪÙĬØ¯":4077,"45":4078,"ĠØ§Ø´ØªØ±Ùĥ":4079,"ĠØ§ÙĨØŃØ§Ø¡":4080,"ÙĪØ±ÙĪ":4081,"ĠØ§ÙĦØ¹Ø³ÙĥØ±ÙĬØ©":4082,"Ø³ØªÙĬØ±":4083,"ĠØ§ÙĦÙĤØ¶Ø§Ø¡":4084,"ĠØ§ÙĦØ³Ø¬":4085,"ĠØºØ³Ø§ÙĦØ§Øª":4086,"ĠÙħØªØ¹Ø¯Ø¯Ø©":4087,"ĠÙĪØ³ÙĬ":4088,"ĠØ§ÙĦØ³Ø¯":4089,"ĠÙģØ³":4090,"ĠØ§Ø¯Ø§Ø¡":4091,"ĠØ¹Ø¨Ø§Ø±Ø©":4092,"ĠØ¹Ø±Ø¨":4093,"ĠÙĬØ¹Ø±Ùģ":4094,"ĠØ§ØµÙĦØ§ØŃ":4095,"ĠÙĪØ§Ø°Ø§":4096,"Ø°ÙĪØ±":4097,"Ġ341361":4098,"Û¡":4099,"ĠÙĬØ³Ø§Ø¹Ø¯":4100,"ĠÙĦÙĦØºØ§ÙĬØ©":4101,"ĠØ§Ø¦":4102,"ÙĦØ²ÙħØ§Øª":4103,"Ø±Ø¬Ø§Øª":4104,"ĠÙģÙĩÙħ":4105,"Ø¬Ø§Ø²":4106,"ÙĬØ§Ø¯":4107,"ÙħØ¬Ø©":4108,"ĠÙħØ§ÙĬ":4109,"ĠØŃØ§Ø¯Ø«":4110,"ĠÙĥØ§ØªØ¨":4111,"ĠØ¦":4112,"ØºØ±Ø¨":4113,"ĠØ§ÙĦÙĥÙĪÙĨ":4114,"ĠØ§ÙĦØ§Ø®ÙĬØ±":4115,"ĠØ§ÙĦØ¹ÙĤÙĦ":4116,"ĠØ§ÙĦÙĨØ§ÙĤÙĦ":4117,"ĠÙģØ§Ø±":4118,"ĠÙĪØ§ÙĦØ§Ø³Øª":4119,"ĠÙĩØ¯Ø§ÙĬØ§":4120,"ÙĬØ¯Ø§Øª":4121,"ĠØ§ÙĦØ¬ÙĪÙĬØ©":4122,"ĠØ¯Ø§Ø¹Ø´":4123,"ĠØ¨ÙĨÙģØ³":4124,"ĠØ§ÙĦØŃØ¯ÙĪØ¯":4125,"ĠÙĥØªØ§Ø¨Ø©":4126,"ĠØ§ÙĦÙħØ¬ÙħÙĪØ¹Ø©":4127,"ĠØ§ÙĦØ±Ø³ÙħÙĬØ©":4128,"ĠØ¬ÙĬØ¯Ø©":4129,"ĠØ¬Ø§Ùħ":4130,"Ø´ÙĦÙĪÙĨØ©":4131,"ĠØ¬Ø¯ÙĬØ¯ÙĨØ§":4132,"ĠØ§ÙĦÙħÙĬÙĦ":4133,"ĠÙĪÙĬÙĥ":4134,"ĠØ§ÙĦÙħÙĦÙģØ§Øª":4135,"ĠÙĪÙĬØ¨":4136,"ĠØ§ÙĦØ±Ø¬Ø§Ø¡":4137,"Ø¬Ø§Ùĩ":4138,"ĠØ§ÙĦØ·Ø±ÙĬÙĤØ©":4139,"Ø§Ø¯ÙĤ":4140,"ĠØ§ÙĦØ«ÙĤØ§ÙģØ©":4141,"Ø¯Ø§ÙĬØ©":4142,"ĠØ§ØªØŃØ§Ø¯":4143,"ĠÙĩØ§Ùħ":4144,"ĠØ§ÙĦØºØ±Ø¨ÙĬØ©":4145,"ØºÙĦÙĬÙģ":4146,"ÙĬÙĤÙī":4147,"ĠØ¯ÙĤØ§Ø¦ÙĤ":4148,"ĠÙħØ¹Ø±Ùģ":4149,"ĠØªØŃØ³ÙĬÙĨ":4150,"23":4151,"ĠÙħÙĨØ¹":4152,"ĠÙħÙĨØ§Ø²ÙĦ":4153,"ĠÙĪØ§ÙĦØ§":4154,"ĠÙĨØ³Ø®Ø©":4155,"ĠØ§ÙĦÙħÙĨØ²ÙĦÙĬØ©":4156,"ØŃÙĥ":4157,"ĠØ¨Ø§ÙĦÙĥØ§ÙħÙĦ":4158,"ĠØ°ÙĩØ¨":4159,"Ø±Ø·ÙĪÙħ":4160,"ÙĪÙĤÙĬØª":4161,"ĠØ§ÙĦÙħØ´Ø§Ø±":4162,"ĠØ§ÙĦØ³ÙĬÙĦÙĬÙĥØ§":4163,"ĠØ§ÙĦØ¹ÙĦØ§ÙħØ©":4164,"ĠØ§Ø³ÙĪØ¯":4165,"ĠØ³ÙĪØ±ÙĬØ©":4166,"ĠØ§ÙĦØŃÙĤÙĬÙĤ":4167,"ĠØ§ÙĦØ¨Ø§Ø¨":4168,"ĠØ¹ÙĦÙĬÙĩÙħ":4169,"ĠØªØ¬Ø§Ùĩ":4170,"ĠØ§ÙĪÙĨÙĦØ§ÙĬÙĨ":4171,"ĠØ§ÙĦØ¬ÙĪÙĨØ©":4172,"ĠØ§ÙĦØ·ÙĦØ§Ø¨":4173,"ĠØ¹Ø·":4174,"Ø§Ø¯Øª":4175,"ĠØªØ§Ø¬ÙĬØ±":4176,"ĠÙĥØ±ÙĬ":4177,"ĠØ§ÙĦØ´Ø±Ø§Ø¡":4178,"ĠØ¬Ø¨":4179,"ĠØ§ÙĦØ³Ø§Ø¨ÙĤØ©":4180,"ĠØ§ÙĦÙħÙĪØ¬ÙĪØ¯Ø©":4181,"ĠÙĪØ§Ø³Ø¹":4182,"ÙĬØ§ÙĦ":4183,"ĠÙĦÙĦØ®":4184,"ĠØ§ÙĦØ²ÙĪØ¬":4185,"ĠÙħØ¨Ø§Ø±ÙĬØ§Øª":4186,"ÙĪØ§Ùħ":4187,"ĠÙħØ±ØŃØ¨":4188,"Ø§ÙĦØµ":4189,"ĠÙħØ¯Ø¨ÙĦ":4190,"ĠÙĦÙĦÙħØŃ":4191,"ĠØ§Ø³ÙĬØ§":4192,"ĠØ§ÙĦØ¹Ø«ÙĪØ±":4193,"ÙĦÙħØ§Øª":4194,"ĠÙħÙĬØ¯":4195,"ĠØ·Ø§Ø¦Ø±Ø©":4196,"ĠØ§ÙĦÙħÙĪØ§Ø·ÙĨÙĬÙĨ":4197,"ÙĪÙħÙĬØª":4198,"ĠØ§ÙĦÙĥÙĪØ§Ø±ØªØ²":4199,"ĠØ§ÙĦØ§Ø®Ø¨Ø§Ø±ÙĬØ©":4200,"ĠØ§ÙĦØ§ÙĬØ·":4201,"ØªÙħØ±Ø§Ø±":4202,"ĠØ§ÙĦØ¹Ø³ÙĥØ±ÙĬ":4203,"Ġ120":4204,"ĠÙħØµÙĨØ¹ÙĬ":4205,"ĠØ§ÙĦÙĥØ¨Ø±Ùī":4206,"ĠØ§Ø¹ÙĦÙĨ":4207,"ĠØ±ÙħÙĦ":4208,"ĠØ§ÙĦØ§ÙħÙĬØ±Ø©":4209,"ĠØ§ÙĦÙħØ¯Ø§Ø±Ø³":4210,"ĠØ§ÙĦØ±Ø¬Ø§ÙĦ":4211,"ĠØ§ÙĦØ§Ø³ÙĨØ§ÙĨ":4212,"ĠÙħØªÙĨÙĪØ¹Ø©":4213,"ĠØ³ÙĪØ±Ø©":4214,"ĠØ§ÙĦØ¬Ø¨Ø³":4215,"ĠØ§ÙĦØ§ÙħÙĨÙĬØ©":4216,"Ø´Ø¯":4217,"ĠÙħÙĪÙĤØ¹ÙĨØ§":4218,"ĠÙģØ±ØµØ©":4219,"ĠÙĪØ§ÙĦØ§ÙĤ":4220,"Ø¬ÙĬØ±":4221,"ĠÙĬØŃØ¯Ø«":4222,"ĠÙĪØ§ÙĦØªØ¹ÙĦÙĬÙħ":4223,"ĠØŃÙĤÙĬÙĤØ©":4224,"ĠÙĦØ§ÙĪÙĦ":4225,"ĠØ³Ø¯":4226,"ĠØ´Ùĥ":4227,"ĠØ¨Ø§ÙģØ¶ÙĦ":4228,"Ø°ÙĥØ±Ø©":4229,"ÙĦÙĦ":4230,"Ø§Ø¦Øµ":4231,"ØªØ§Ø¨Ø¹Ø©":4232,"Ø±ÙģØ¶":4233,"ĠØªØŃØ±ÙĬØ±":4234,"ĠÙĬØŃØªØ§Ø¬":4235,"ĠÙĪÙħØ³":4236,"Ø§Ø¦ÙĨØ§":4237,"ĠØ§ÙĦØªÙĤÙĦ":4238,"ĠØ¨Ø§ÙĦØ±":4239,"ĠØ§ÙĦØ§Ø³ØªØ±Ø§Øª":4240,"ÙĤØ±Ø§Ùħ":4241,"ĠÙħØ¯Ùī":4242,"ĠØ§ÙĦØ§Ø¹ÙĦØ§ÙĨØ§Øª":4243,"Ø§ÙĦØªØ§ÙĦÙĬ":4244,"ĠØ§ÙĦØ§Ø³ÙĥÙĨØ¯Ø±ÙĬØ©":4245,"ĠØŃÙĪØ§ÙĦÙĬ":4246,"ÙĪÙģÙĬØ¯":4247,"ĠÙħØ§Ùĩ":4248,"ĠØ§ÙĦØ¹ÙħØ§ÙĦ":4249,"ĠØªÙĪØµÙĬÙĦ":4250,"ÙĪÙĬØ§":4251,"ĠØ³ÙĦÙĬÙħØ§ÙĨ":4252,"Ø¶ÙĦØ©":4253,"ĠÙĦØ®":4254,"ĠØ³ÙĬÙĥÙĪÙĨ":4255,"ĠØ®Ùģ":4256,"ĠØµØ¯ÙĬÙĤ":4257,"ĠÙħÙĬÙĨ":4258,"ĠØ§ÙĦØ§Ø³ÙĪØ§ÙĤ":4259,"ĠØ§ÙĦØ·Ø¨ÙĬØ¹ÙĬ":4260,"Ø«ÙĦØ§Ø«":4261,"ĠØ§ÙĨÙĤØ±":4262,"ĠØ§ÙĦØ§Ø¨ØªØ¯Ø§Ø¦ÙĬ":4263,"ĠØ¹Ø±Ùģ":4264,"ĠØ§ÙĦÙħØªØ¹ÙĦÙĤØ©":4265,"ÙĬÙĦÙħ":4266,"ĠØ·Ø¨ÙĬØ©":4267,"ĠÙĪÙĬØŃ":4268,"ĠÙĪÙĬØ¬":4269,"ĠÙĪÙħÙĪ":4270,"ĠØ¨Ø§ÙĦÙĦØºØ©":4271,"ĠÙĦÙĦÙħÙĪ":4272,"ĠØ§Ø¶Ùģ":4273,"ĠØŃØ¯ÙĪØ¯":4274,"ĠÙħØ·ÙĦÙĪØ¨":4275,"ĠÙĦØªØ±":4276,"ĠÙħÙĪÙĤÙģ":4277,"ÙĬØ±Ùĩ":4278,"ĠØ§ØªÙģØ§ÙĤÙĬØ©":4279,"ĠØªØ¹ÙĦÙĬÙĤØ§Øª":4280,"ĠØ§ÙĦØ¹Ø±Ø§ÙĤÙĬ":4281,"ĠÙĪØ±ÙĤ":4282,"ĠØ¨Ø§ÙĦØ¯Ùħ":4283,"ĠÙĨØ§Ø±":4284,"ĠØ§ØŃØªØ±":4285,"ĠØ«Ø§ÙĨÙĬ":4286,"ÙĨØ¯ÙĨ":4287,"ĠÙĪÙģÙĤØ§":4288,"ĠÙħØ±ØŃÙĦØ©":4289,"ØºØ§ÙĨØ³ØªØ§ÙĨ":4290,"ĠØ§ÙĦÙħØµØ¯Ø±":4291,"ÙħØ³Ø©":4292,"ĠØ§ØŃØªÙģ":4293,"Ø¶ÙħØ§ÙĨ":4294,"Ø§Ø±Ø¶":4295,"ĠØ§ÙĦÙħØ§Ø¶ÙĬØ©":4296,"ĠØ¶Ø±":4297,"ĠÙģØ§Øª":4298,"ĠÙħØ³Ø§Ø¹Ø¯Ø©":4299,"ĠÙģØªØ§Ø©":4300,"ÙĩÙĪÙħ":4301,"ĠØ§Ø³Ø¨":4302,"ĠØ§Ø±Ø³ÙĦ":4303,"ĠØ§ÙĦÙĦÙĪÙĨ":4304,"Ø±ÙĤØ©":4305,"Ġ78":4306,"Ġ79":4307,"ĠØ§ÙĦØºØ³ÙĬÙĦ":4308,"ĠØ§ÙĦØ´ÙĬ":4309,"ĠØ§ÙĦØ¯Ø³Øª":4310,"ĠÙĦÙĦÙħØ´Ø§Ø±ÙĥØ©":4311,"ĠØ§ÙĦÙħØŃÙĦÙĬ":4312,"ĠØ§ÙĦØ§ØªÙģØ§ÙĤ":4313,"ĠØ§ÙĦØ§ÙĦØ²Ø§Ùħ":4314,"ĠØ¨ÙĩØ°Ø§":4315,"Ùª":4316,"ĠØ§ÙĦØ¨ÙĬØ¹":4317,"ÙĪØµØ§Øª":4318,"ĠØ§ÙĦØ¬Ø²ÙĬØ±Ø©":4319,"ĠØ§ÙĦØ¯Ø±Ø§Ø³Ø©":4320,"ĠØ§ÙĦØ¯Ø±Ø§Ø³ÙĬ":4321,"ĠØ¯Ø®ÙĦ":4322,"ĠØ§ÙĦÙħØ±Ø©":4323,"ĠØ³Ø±ÙĬØ¹":4324,"ĠØ§Ø¹ÙĦÙĨØª":4325,"ĠÙĬØªØ¹ÙĦÙĤ":4326,"Ø§Ø±Ø¨Ø©":4327,"ĠÙħØ´Ø§Ø±ÙĬØ¹":4328,"ĠØ§ÙĦØ§Ø®Ø±ÙĬÙĨ":4329,"ÙĨØ§Ø·":4330,"ĠØŃÙĤÙĬØ¨Ø©":4331,"ĠØ§ÙĦØ§ÙĦÙĬ":4332,"ĠØ§ÙĦØµÙĦØ¨":4333,"ĠØ§ÙĦØŃÙĬÙĪØ§ÙĨØ§Øª":4334,"Ø§Ø³Ø¨Ø§Øª":4335,"ĠØ®Ø±ÙĬØ·Ø©":4336,"ØªÙĪØŃ":4337,"ĠØ§ØªØ®":4338,"ĠØ§ÙĦÙħØºØ±Ø¨ÙĬ":4339,"ĠØ¬Ø²Ø±":4340,"ĠØ§Ùī":4341,"ĠÙĪØ§Ø´ÙĨØ·ÙĨ":4342,"ĠØ§ÙĦÙħØŃØ§Ø¬Ø±":4343,"Ġ2007":4344,"ĠØ§ÙĦÙģÙĨ":4345,"ØªØ¯ÙĬ":4346,"ĠØµØŃÙĬ":4347,"Ø¨Ø¹Ø¶":4348,"ĠØ§ÙĦØ§ÙħØ±Ø§Ø¶":4349,"ĠØªØ¯ÙģÙĤ":4350,"ĠØ§ÙĦØ§Ø¬Ø±Ø§Ø¡Ø§Øª":4351,"Ø§ÙħÙĬÙħ":4352,"ĠØ§ÙĦØµÙĬØ¯":4353,"Ø¹Ø¯Ø¯":4354,"Ø§Ø·Ø¦":4355,"ĠØ§ÙĦØ§ÙĦÙħØ§ÙĨÙĬØ©":4356,"ĠØ§ÙĦØ±Ø§Ø¨Ø¹Ø©":4357,"ĠØ®ÙĬØ±":4358,"ĠØ³Ø¬":4359,"ĠÙĪÙħØ³Øª":4360,"ĠÙĪÙĦØ¯":4361,"ĠÙĨØ¹Ùħ":4362,"ĠØ§ÙĦØŃÙĪØ§Ø±":4363,"ĠÙĪÙĬÙĦ":4364,"ĠÙĪØ§ÙĦØªÙĨ":4365,"ĠÙĪÙħØ´":4366,"ĠÙĬÙĪÙħÙĬØ§":4367,"ĠØ±Ø§Ø¦Ø¹Ø©":4368,"ÙĦÙĪÙĦ":4369,"ĠØ¹ÙĪØ¯Ø©":4370,"ĠØ§ÙĦØ§ÙħÙĪØ±":4371,"ĠØ§ÙĦØ¨ÙĬØ¶Ø§Ø¡":4372,"Ø¨ÙĪ":4373,"Ø§ÙĬØ¨Ø±":4374,"ĠÙĪØ§ÙĦØ§Ø¨":4375,"ĠÙħÙĪØ§ØµÙģØ§Øª":4376,"ØªÙĦØ§Ùģ":4377,"ĠØ§ÙĦÙĨÙĤØ¯":4378,"ÙħÙħ":4379,"ĠÙħÙĦØ§ØŃ":4380,"ĠØ§ÙĦÙģØª":4381,"ĠØ§ÙĦØ±Ø§Ø¨Ø·":4382,"Ø·Ø±ÙĬØ©":4383,"ĠÙģÙĪØ²":4384,"ĠØ·ÙĪÙĬÙĦ":4385,"Ø§Ø¯Ø§Ø±Ø©":4386,"ĠØ§ÙĨØ·ÙĦØ§ÙĤ":4387,"ĠØ´Ùģ":4388,"ĠØ§ÙĦØŃÙĥÙĪÙħÙĬØ©":4389,"ĠØ§ÙĦØ¬ÙĨØ³ÙĬØ©":4390,"ĠØ¬ÙĬÙĨ":4391,"ĠØ§ÙĩØ¯Ø§Ùģ":4392,"ĠØ±Ø¬Ø§ÙĦ":4393,"ĠØ¨Ø§ÙĥØ³ØªØ§ÙĨ":4394,"ĠÙģÙĩÙĬ":4395,"ØŃÙĦÙĤØ©":4396,"ĠØªØ§":4397,"Ø´Ø·Ø©":4398,"ĠÙĨØ¬Ø§ØŃ":4399,"ĠØ§ÙĦØŃØ¶":4400,"ĠØ§ÙĦØ®Ø¶":4401,"ĠØ¹ÙĦØ§ÙĤØ©":4402,"ĠØ§ÙĨÙĤ":4403,"ĠÙħØ¹Ø¯ÙĦ":4404,"ĠØ§ÙĦØ§Ø³Ø¯":4405,"ĠØ§ÙĦÙģÙĪØ±ÙĥØ³":4406,"ĠØªÙĪØ²ÙĬØ¹":4407,"ĠØ´ÙĥØ±Ø§":4408,"ÙħØ¹":4409,"ĠÙĪÙħÙĤ":4410,"Ġ86":4411,"ÙĬÙĨÙĪ":4412,"Ø§Ø²ÙĨ":4413,"ĠØ§Ø³ØªÙĤ":4414,"ĠÙĬØ¨ØŃØ«":4415,"ĠÙĪØ§ÙĦØ¨Ø±":4416,"Ø·ÙĦØ¹":4417,"ĠØ¯Ø§Ø¦Ùħ":4418,"ĠØŃÙĤÙĬÙĤ":4419,"ĠØ«Ø§ÙĦØ«":4420,"Ø¸Ø§Øª":4421,"ĠØ·Ùģ":4422,"ÙĪØ²Ø§Ø±Ø©":4423,"ĠØ§ÙĦÙħÙĤØ§ÙĦ":4424,"ÙĬÙħÙĨ":4425,"ĠØ§ÙĦØµÙĨØ§Ø¹Ø©":4426,"Ø´Ø§Ø¨":4427,"ĠØ§ÙħØ±ÙĬÙĥÙĬ":4428,"ĠÙħØ·Ø§Ø±":4429,"ÙĬØ¬Ø§":4430,"Ø§Ø±Ùī":4431,"Ø³Ø¯":4432,"ĠØ§ÙĦØ§Ø¯Ø¨":4433,"ØŃØ«":4434,"Ø«ÙħØ±":4435,"ĠØ§ÙĦÙĥØ§ØªØ¨":4436,"35":4437,"ĠØ§ÙĦØ°ÙĥÙĬØ©":4438,"Ø§Ø®Ø±Ø©":4439,"ĠØ§ÙĦØªØŃÙĤÙĬÙĤ":4440,"ĠÙĦÙĦÙĥÙħØ¨ÙĬÙĪØªØ±":4441,"ĠØ¨Ø§ÙĦØ¨Ø´Ø±Ø©":4442,"Ø§Ø¯Ùī":4443,"12":4444,"ĠØ±ÙĪØ§ÙĬØ©":4445,"ØªØ§ÙĦ":4446,"ĠØ³Ø§ÙħØ³ÙĪÙĨ":4447,"Ø§Ø¨Øª":4448,"ĠØ§ÙĦÙĪØŃØ¯Ø©":4449,"ĠØ§ÙĦØ±ÙĤ":4450,"Ø§ÙĥØ©":4451,"ĠØªÙģØ¹":4452,"Ø²ÙĦÙĬ":4453,"ĠÙĦÙĦØ³ÙĬ":4454,"ĠÙħÙĬ":4455,"Ø¨Ø§ÙĤ":4456,"ÙĪØ±Ø¬":4457,"ĠØ§ÙĨØ®ÙģØ§Ø¶":4458,"19":4459,"ĠØ§ÙĦÙĪØ¬":4460,"ĠØ§ÙĬØ·Ø§ÙĦÙĬØ§":4461,"ĠØªØ¬Ø¹ÙĦ":4462,"ĠÙĪØ§Ùģ":4463,"ĠØªØ±ØºØ¨":4464,"ĠØ¬Ø§Ùĩ":4465,"ĠØŃØ²ÙĬØ±Ø§ÙĨ":4466,"ĠÙĪØ§Ø·":4467,"ĠÙĪØªØ±Ùĥ":4468,"ĠØµØ¯Ø±":4469,"ĠØ§ÙĦØ³Ø¨Ø¨":4470,"ĠØ´Ø®ØµÙĬØ©":4471,"ĠÙĪØ³ÙĦ":4472,"ĠØ§ÙĦÙħØ·Ø§ØŃÙĨ":4473,"ĠØŃØ§ÙĦÙĬØ§":4474,"ĠÙĪØŃØªÙī":4475,"ĠØªØªØ±":4476,"ĠÙĤÙĦÙĬÙĦ":4477,"ĠÙħÙĨØ²ÙĦÙĬØ©":4478,"ĠØ§ÙĦØ§Ø³ÙĩÙħ":4479,"ĠØ§ÙĦØŃÙħØ§Ùħ":4480,"ĠØ§ÙĦØ¹Ø§ÙħÙĦ":4481,"ĠÙħØ±Ø¶":4482,"ĠØ§ÙĦØ§ÙĦØ²Ø§ÙħÙĬØ©":4483,"ÙĬØ±ØªØ§Øª":4484,"ĠØ§ÙĦØ¬ÙħÙĬÙĦ":4485,"Ġ199":4486,"ĠÙĩÙĨ":4487,"ØµØ§Øµ":4488,"ĠØ§ÙĦÙħØºØ±Ø¨ÙĬØ©":4489,"ĠØµÙĬØ¯":4490,"ĠØ§ÙĦØ§Ø¹Ø¯":4491,"Ø§Ø¶Ø§Øª":4492,"Ø³ÙĬÙħ":4493,"ÙĦØ¨ÙĬÙĨ":4494,"ÙĦØª":4495,"ĠØ´Øº":4496,"ÙĤØ±Ø§Ø¡":4497,"ĠØ§ÙĨÙĬ":4498,"ØŃØ±":4499,"ĠÙĥÙĦØ§Ùħ":4500,"ĠØªØ¹Ø²ÙĬØ²":4501,"ĠØ§ÙĦØ§Ø³Ø¦ÙĦØ©":4502,"ĠØµØŃÙĬØ©":4503,"ĠØ§ÙĦØŃØ²Ø§Ùħ":4504,"ĠØ§ÙĦØ§Ø±Ø´ÙĬÙģ":4505,"ĠØ¯Ø§Ø®":4506,"ĠØ´Ø§Ø¨":4507,"ĠÙĬØ¶":4508,"ĠØ§ÙĦØ§ÙĪ":4509,"ĠÙĪÙĥØ§ÙĨØª":4510,"ĠÙħØ¹Ø¯":4511,"ĠØ¹Ø²ÙĦ":4512,"ĠØ§ÙĦØªØ¹Ø¨":4513,"ĠØ±Ùĥ":4514,"ĠÙħÙĬØ§Ùĩ":4515,"Ø§ÙĥØ±Ø©":4516,"ĠÙĪØ§ÙĦÙħØ³":4517,"85":4518,"ĠØ§ÙĦÙĬÙĪÙħÙĬØ©":4519,"ĠØ¨Ø°ÙĦÙĥ":4520,"ĠÙĪØ§ÙĦÙħØ±":4521,"Ø¨ÙĦÙĪÙħ":4522,"Ø§ÙģØ¹":4523,"ĠØ§ÙĦÙĥØ¨ÙĬØ±Ø©":4524,"ĠÙĦØªØ´":4525,"ĠØ§ÙĬÙĤ":4526,"ĠØ§ÙĦÙħØŃÙĥÙħØ©":4527,"ĠØ§ÙĦØ´Ø®ØµÙĬ":4528,"ĠÙĦÙģØ©":4529,"Ø§ÙĩÙĬØ±":4530,"ĠØªØ¬Ø§Ø±ÙĬØ©":4531,"ĠØ´ÙħØ³":4532,"ĠØ§ÙĦØ¨Øµ":4533,"ĠÙĦØ°Ø§":4534,"ĠÙĦÙĥØ±Ø©":4535,"ĠØ§ÙĦØ§ÙĤØªØµØ§Ø¯ÙĬ":4536,"ĠØªØ¸ÙĩØ±":4537,"ĠØ³ÙĦÙħØ§ÙĨ":4538,"ĠØ§ØªÙģØ§ÙĤ":4539,"ĠØ¨Ø±Ø´ÙĦÙĪÙĨØ©":4540,"ĠØ§ÙĦÙħØ¤ØªÙħØ±":4541,"ĠØ§ÙĦØªØ¹ÙĦÙħ":4542,"Ġ3628":4543,"ÙĪÙĬØ¯":4544,"ĠØ§ÙĦÙĦØ§Ø²ÙħØ©":4545,"ĠØ§ÙĦØ§ÙĨØ¯":4546,"Ø±ÙĬØŃØ©":4547,"ĠØ±ÙĪØŃ":4548,"Ġ96":4549,"ĠÙĨØµØ±":4550,"ĠØ±ØŃÙĦØ©":4551,"ĠØ®Ø±":4552,"ĠØ§ÙĦØµÙĬÙģ":4553,"ĠÙħÙĨÙĥ":4554,"ĠØ§ÙĦÙĨØªØ§Ø¦Ø¬":4555,"Ø§ÙħÙĬÙĥ":4556,"ĠØ§ÙĨØªØ´Ø§Ø±":4557,"ĠÙĬØ±ÙĬØ¯":4558,"ĠÙĪØ¹ÙĨ":4559,"ĠÙĪØªØ¨":4560,"ÙĬØ§Ø¨":4561,"ÙĥØ°Ø§":4562,"ĠØ§ÙĦØ±ÙĬØ§Ø¶ÙĬØ§Øª":4563,"ÙĦØ§Ùĥ":4564,"ÙĪØ¬ÙĬÙĩ":4565,"ĠÙĪØ¨ÙĬÙĨ":4566,"ĠÙĪØ§Ø«":4567,"ĠØ¨Ø¹ÙħÙĦ":4568,"ÙģÙĬØ¯":4569,"ĠØ§Ø®Ø°":4570,"ĠØ±ÙħØ²":4571,"ØªÙĪØŃØ©":4572,"ĠØµØ¨Ø§ØŃØ§":4573,"ĠØ§ÙĦØ±ØºÙħ":4574,"ĠØªØ³ÙĪÙĤÙĪØ§":4575,"ĠÙĦÙĦØªÙĨ":4576,"ĠØ§ÙĦØªÙĪÙĨ":4577,"ĠØ§Ø¹Ø±Ø§Ø¶":4578,"Ø±ÙĪÙĨ":4579,"ĠÙħØ¹Ùĩ":4580,"ĠØ±Ø§Ø¦Ø¹":4581,"ĠØ²ÙĬÙĨ":4582,"ĠØ§ØŃÙĥØ§Ùħ":4583,"ÙĪØ±Ø§":4584,"ĠØªÙĪÙĥ":4585,"ĠÙħØªØ®ØµØµ":4586,"ĠÙĬØ¬ÙĪØ²":4587,"ĠÙħÙĤØ±":4588,"ĠØ§ÙĨØ´Ø·Ø©":4589,"ĠÙĥØ§ÙĦ":4590,"ĠØ§ÙĦØ²ÙĪØ§Ø¬":4591,"ĠÙħØ³Ø§ØŃØ©":4592,"ĠØ§ÙĦÙĤØ¨Ø¶":4593,"ÙĨØ§Øª":4594,"ĠØ§ÙĦØªÙĨÙģÙĬ":4595,"ĠÙĦØ§Ø³Øª":4596,"ĠØ³ÙĪØ¨Ø±":4597,"Ø§ÙĤØ´Ø©":4598,"Ø§ÙħÙĬÙĨØ§Øª":4599,"Ġ377":4600,"ÙĬØ³Ùī":4601,"ÙĥÙĬØ±":4602,"ĠØ§ÙĦÙĨØ¨Ø§ØªØ§Øª":4603,"Ø®ØµØ©":4604,"ÙĤÙĬÙĬÙħ":4605,"Ø§ÙĤÙĦØ©":4606,"ĠÙĦÙĨØ¯ÙĨ":4607,"ĠØ§ÙĦØªØŃØ±ÙĬØ±":4608,"ĠÙħÙĩÙħ":4609,"ĠØ¹Ø§ÙħÙĦ":4610,"ĠÙĩÙĬÙĦ":4611,"ĠØ§ÙĦØªØº":4612,"ĠØ§ÙĦØ§ØªØµØ§ÙĦØ§Øª":4613,"ĠØ§ÙĦÙĪØ³Ø·":4614,"ĠÙĬØ¤Ø¯ÙĬ":4615,"ÙĩØ±Ø©":4616,"ĠÙĦØ´Ø±ÙĥØ©":4617,"ĠÙħÙĤØ§Ø±ÙĨØ©":4618,"ĠØ¨Ø³Ø±Ø¹Ø©":4619,"ĠÙĨÙĤØ·Ø©":4620,"ĠØ¨Ø§Ø®":4621,"ĠØ¨ÙģÙĬØ±ÙĪØ³":4622,"ĠÙĪØ¨Ø§ÙĦ":4623,"Ø´ÙģÙĬØ§Øª":4624,"ĠØ·ÙĦØ¨Ø§Øª":4625,"ĠØ¨ÙĬÙĥ":4626,"ĠØŃÙĦÙħ":4627,"ĠÙħØ¯Ø±ÙĬØ¯":4628,"Ø±ÙĬØŃØ§Øª":4629,"ÙĦÙĬÙĨ":4630,"Ø§Ø´Ø±Ø©":4631,"ĠÙĪØ§ØŃØµÙĦ":4632,"Ø§Ø±Ø¦":4633,"ĠØ§ÙĦÙģØ¶":4634,"ĠØªØ·ÙĦÙĤ":4635,"Ø§Ø±ÙĬÙĨ":4636,"ØŃÙī":4637,"ĠØ¨ØªÙĪ":4638,"ĠÙĦÙĥÙĬ":4639,"ĠØ§ÙĦÙħØ¬Ø§ÙĦ":4640,"Ø§Ø¦ÙĤØ©":4641,"ÙĤØ§":4642,"ĠÙģÙĨØ¯ÙĤ":4643,"ĠØ§ÙĦØ§ÙĬØ§Ùħ":4644,"ØªÙĩÙĬ":4645,"ĠØ²ÙħÙĨ":4646,"ĠØ§ÙĦÙĥØªØ±ÙĪÙĨÙĬØ©":4647,"ĠØ¨ÙĩØ°Ùĩ":4648,"ĠÙħØ§Øª":4649,"ĠØ³Ø§Ø®":4650,"ĠÙ±":4651,"ÙħÙĦØ§Øª":4652,"Ø·ÙĦØ§Ø¨":4653,"ĠØ§ÙĦÙħØ³Ø§Ø¹Ø¯Ø©":4654,"ĠØ§ÙĦØ±Ø§Ø³":4655,"ĠØ§ÙĦÙħØµÙĨØ¹ÙĬÙĨ":4656,"ĠØ¯ÙĥØªÙĪØ±":4657,"Ø±ÙĪØ¨Ø§Øª":4658,"ĠØ§ÙĦÙĪÙĬØ¨":4659,"ĠØ§ÙĦØŃØ±Ø©":4660,"ĠØµÙĬ":4661,"ĠØ§ÙĦÙĤÙĬÙħØ©":4662,"ĠÙħØŃØ§Ø¶":4663,"Ø§ÙĨØ¯Ø±ÙĪÙĬØ¯":4664,"ØŃØ¶":4665,"ĠÙĪÙħØ±":4666,"ØªØ¬Ø§Ø±Ø©":4667,"ĠØ§ÙĦÙħØªÙĪØ³Ø·":4668,"ÙĨØ§Ø¦ÙĬ":4669,"ĠØ§ÙĦØ§ÙģØªØ±":4670,"ĠÙĤÙĪØ§Ø¹Ø¯":4671,"ĠØ·Ø¨ÙĬØ¨":4672,"Ø§Ø°Ø¬":4673,"ĠØ¨ÙĥÙħ":4674,"ĠØ§ÙĦØ«ÙĪØ±Ø©":4675,"ĠÙĦØŃÙĤÙĪÙĤ":4676,"Ø·ÙĨØ§Ø¹":4677,"ÙĪÙĨÙĩ":4678,"ĠØ§ÙĦØªØ¬Ø§Ø±ÙĬ":4679,"ĠØ§ÙĦÙģÙĬØ²":4680,"ĠØ§ÙĦÙĨÙĪØ§Ø¨":4681,"ĠÙĪØ§ÙĦØªØ±":4682,"Ø§Ø¬Ø³ØªÙĬØ±":4683,"ĠÙĪÙĩØ°Ùĩ":4684,"Ø§ÙĤØ´":4685,"ĠØ§ÙĦØ§ØµÙĦÙĬ":4686,"ĠØ§Ø¨Ø¯Ø§":4687,"ĠØ¨Ø§ÙĨÙĩ":4688,"ĠÙĨØ§ØµØ±":4689,"ĠÙģÙĪÙĦ":4690,"ĠØ§ÙĦØ§ÙĬØ±Ø§ÙĨÙĬ":4691,"ĠØ§Ø¨ØªØ¯":4692,"ĠØªØ¹ÙĬÙĬÙĨ":4693,"ĠØ§ÙĦØ¹ÙĨØ§ØµØ±":4694,"ĠØ§ÙĦØ·Ø¨ÙĬØ¨":4695,"ĠØ§ÙĦÙĦØ¹Ø¨Ø©":4696,"Ø«ÙħØ§ÙĨ":4697,"ĠØ§ÙĦØ±Ø·Ø¨":4698,"ĠØ¨Ø²ÙĬ":4699,"ÙĤØ·Ø§Ø¹":4700,"ĠØ§ÙĦØ§Ø¬ÙĨØ¨ÙĬØ©":4701,"ĠÙĪÙĨØŃÙĨ":4702,"ĠØ¬ÙħÙĬÙĦØ©":4703,"ĠØ§ÙĦØµÙĨØ§Ø¹ÙĬ":4704,"ĠÙĪÙĬØ³":4705,"ĠÙģÙĨØ§Ø¯ÙĤ":4706,"ĠØºØ¶":4707,"ĠÙĪÙĦÙĪ":4708,"Ø¨Ùĥ":4709,"ĠÙĦÙĤØ§ØŃ":4710,"ĠØ±ÙĤ":4711,"ĠØ²ÙĬØ¯":4712,"ĠØ¹ÙĦØ§ÙħØ©":4713,"ĠØ¨Ø§ÙĦØµ":4714,"ĠØªØŃØ¯Ø«":4715,"ĠØ§ÙĦÙħÙĥØ§ÙĨ":4716,"ĠÙħÙĪØ±Ø¯":4717,"ĠÙĪØ±Ø¯":4718,"ĠØ¨ÙĤÙĦÙħ":4719,"ĠÙĦØ§Ø®":4720,"ĠÙĨÙĬ":4721,"ĠÙĪØ§Ø³Ø¹Ø©":4722,"ĠØ§ÙĦÙĦØŃÙĪÙħ":4723,"ĠØ§ÙĦØ³ÙĥØ±":4724,"ĠØ¨Ø§ÙĦØ¶":4725,"ĠØ§ÙĦØ§ØµØ§Ø¨Ø©":4726,"ĠØ§ÙĦÙħØ¯ÙĨÙĬØ©":4727,"ĠØ§ÙĦØ§Ø³ØªØ´":4728,"14":4729,"ĠØ§ÙĦÙħØ¤Ø³Ø³Ø§Øª":4730,"ĠØ§ÙĦØ¬ÙħØ¹ÙĬØ©":4731,"ĠØ§ÙĦØŃØ³ÙĨ":4732,"ĠØªØ¬Ø¯":4733,"ÙĩØ§Ùħ":4734,"ØªØ±Ø§":4735,"ĠØ§ÙĦØ±Ø³Ø§Ø¦ÙĦ":4736,"ĠØ§ÙĦÙģÙĬØ³":4737,"ĠØ¨Ø§ÙĦÙĤØ±Ø¨":4738,"ÙĪØªÙĬ":4739,"Ø¨Ø§ÙĨ":4740,"ĠÙĬÙĦÙĬ":4741,"ĠØ§ÙĦÙħÙĨØ§Ø²ÙĦ":4742,"ĠØ§ÙģÙĥØ§Ø±":4743,"ĠØ¬Ø¯Ø§Ø±Ø§":4744,"ĠØ§ÙĦØ¨Ø¹Ø¶":4745,"ĠÚ":4746,"Ø§Ø¹ÙĬØ¯":4747,"ĠØ¬ÙħÙĩÙĪØ±ÙĬØ©":4748,"ĠØ±ØŃÙħ":4749,"ĠØ§Ø·ÙĦÙĤ":4750,"ĠØ§ÙĦØŃØ³Ø§Ø¨":4751,"ĠØ§ÙĦØ±Ø¦ÙĬØ³ÙĬ":4752,"ĠØ§ÙĦØ¹ÙĪØ¯Ø©":4753,"ÙĨØ¬Ø±":4754,"ĠØ§Ø¯Ø®Ø§ÙĦ":4755,"ĠØ¨Ø¬ÙĪØ¯Ø©":4756,"ØºØ±Ø©":4757,"Ø¨ÙĬØ¹Ø©":4758,"ĠØ§ÙĨÙĩÙħ":4759,"Ø¶Ø§ÙģØ©":4760,"ĠØ§ÙĦÙģØ±ÙĨØ³ÙĬ":4761,"ĠØ§ÙĦÙģÙĦØ³":4762,"Ø¨Ø±Ø©":4763,"ĠØ§ÙĦØ¬Ø§ÙħØ¹Ø§Øª":4764,"Ġ84":4765,"Ø¬ÙĦØ§Øª":4766,"Ø³ÙĬÙĪÙħ":4767,"ĠÙħØ¯Ø§Ø±":4768,"ĠØ³ÙĩÙĦØ©":4769,"ĠØ§ÙĦÙĥØ§ÙħÙĦ":4770,"ĠÙħÙĨØ´":4771,"ĠÙĨÙĪØ±Ø©":4772,"Ġ62":4773,"ĠØ¨ØªÙĨ":4774,"16":4775,"ĠØ¨ØªØµ":4776,"ĠØ§ÙĦØ³Ø§Ø¨Ø¹":4777,"ĠØ°Ùĥ":4778,"Ø²ÙĨ":4779,"ĠÙĨØ³Øª":4780,"Ø§ÙĥÙħØ©":4781,"ĠÙģØ§":4782,"ĠØ§ÙĤÙĪÙī":4783,"ĠØ§ÙĦÙħÙĨØªØ¯ÙĬØ§Øª":4784,"ĠØ¨ÙĬÙĦ":4785,"ĠØ§ÙĦØªØ±Ø¨":4786,"ĠØ§ÙĦÙħÙĨØ¸":4787,"ĠØ§ÙĦØªØ§Ø¨Ø¹Ø©":4788,"ĠØ§ÙħØ±Ø§Ø¶":4789,"ĠØ¨ØŃÙĬØ«":4790,"ĠØ§ÙĦØ³Ùĥ":4791,"ĠØ§ÙĦÙĥÙĪÙĥ":4792,"ĠÙħÙĪØ¨Ø§ÙĬÙĦ":4793,"ÙĬÙĨØº":4794,"ĠØ§ÙĦØ§ÙħÙĪØ§ÙĦ":4795,"ØªØ¸Ø±":4796,"Ø§Ø·ÙĬ":4797,"ĠØ§ÙĦØ³ÙĦØ·Ø§Øª":4798,"ĠÙĪØ§Ø¶Ø§Ùģ":4799,"ĠØ§ÙĦØ²ÙħÙĨ":4800,"ĠØ§Ø´Ø®Ø§Øµ":4801,"ĠØ³Ø§ÙħØ³ÙĪÙĨØ¬":4802,"ĠØ§ÙĦÙģÙĨØ§Ø¯ÙĤ":4803,"ĠÙĬØ§ØªÙĬ":4804,"ÙĬÙħÙĬØ§Ø¡":4805,"ĠÙĬØ¤ÙĥØ¯":4806,"ØªÙĬÙĦ":4807,"ĠØ§ÙĦØ¨Ø±Ø§Ø²":4808,"ĠØ§ÙĦØ¹ÙħÙĪØ¯ÙĬØ©":4809,"ĠØ±ÙĬØ§Ø¶Ø©":4810,"ĠÙĥÙĬ":4811,"ĠÙħØ±ØŃØ¨Ø§":4812,"Ø¹Ø¯Ø§Ø¯":4813,"Ø¨ÙĪÙĨ":4814,"Ø¤ÙĦØ§Ø¡":4815,"ĠØ¨ÙħØ±":4816,"Ø¨ÙĪØ¨":4817,"ĠÙģØ¹Ø§ÙĦÙĬØ§Øª":4818,"ĠØ§ÙĦÙĥØ§ÙħÙĦØ©":4819,"ĠØ·ÙĪÙĦ":4820,"ĠØ§ÙĦØŃØ±ÙĥØ©":4821,"ĠÙħØŃØ§ÙĪÙĦØ©":4822,"ĠØ§ÙħÙĬÙĨ":4823,"ÙĨØ²":4824,"ĠØ§ÙĦØ´Ø±ÙĪØ·":4825,"ĠÙħØªØ§Ø¨Ø¹Ø©":4826,"ÙĩØ§ÙĬ":4827,"ĠÙĪØ±Ø§Ø¡":4828,"ĠØ§ÙĦÙħØ·Ø¨Ø®":4829,"ĠØ§ØŃÙģØ¸":4830,"Ġ900":4831,"ĠÙĪØ§ÙĦØ³ÙĬ":4832,"ĠØ§Ø³ÙħÙĬ":4833,"ĠØ§ÙĦØ§ÙħÙĬÙĨ":4834,"ĠÙģØ±Ø¹":4835,"ĠØ§ÙĦÙĪØ¸Ø§Ø¦Ùģ":4836,"ĠÙħØ¯Ø§Ø±Ø³":4837,"ĠØ§ÙĦÙħØ³ØªØ¹ÙħÙĦØ©":4838,"ØªÙħÙĦ":4839,"Ø¬ÙħØ§Øª":4840,"ĠØ¹ÙħØ±ÙĪ":4841,"ĠÙĥÙĪÙĥ":4842,"ĠØ§ÙĦØ´Ø§Ø±ÙĤØ©":4843,"ĠØ§ÙĦØ¬ÙħØ§ÙĦ":4844,"Ø§ÙĪÙħ":4845,"ĠØ§ÙĦÙħÙĦÙĥÙĬØ©":4846,"ÙĬØ§Ø³":4847,"Ø¬Ø§Øª":4848,"Ø¨Ø±ÙĨØ§ÙħØ¬":4849,"ĠØ§ÙĦØªÙĦÙģ":4850,"ĠÙĥÙĪÙģÙĬØ¯":4851,"Ø§Ø¦Ùĥ":4852,"ĠØ§ÙĦÙĥÙĦÙħØ§Øª":4853,"ĠÙĬØ²ÙĬØ¯":4854,"ĠØ±ÙģØ¶":4855,"ÙĦÙĤØ§Øª":4856,"ĠØ§ÙĦØ§Ø®Ø¶Ø±":4857,"Ø±ÙĪØŃØ§Øª":4858,"ĠØ§ÙĦÙĤÙĬØ§Ø¯Ø©":4859,"ĠØ§ÙĦØµØŃØ§ÙģØ©":4860,"Ø§Ø±Ø¶Ø©":4861,"Ġ2321":4862,"ĠØ§Ø²ÙĬØ§Ø¡":4863,"ĠØ§ÙħØ§ÙĥÙĨ":4864,"ĠÙĦÙĦØ§Ø¬":4865,"Ø¬Ø§":4866,"ĠØ·Ø¨ÙĤ":4867,"Ø¸ÙģÙĬÙĨ":4868,"ĠØ§ÙĦÙħØ¹Ø±ÙģØ©":4869,"ĠÙĬØ§Ø³":4870,"ĠÙħØ³Ø§Ø¹Ø¯":4871,"ÙĦØµ":4872,"ĠÙħØ¹ÙĨÙī":4873,"ĠØ§ÙĦÙħØ¯Ø±Ø³Ø©":4874,"ĠØ±Øº":4875,"ĠÙħÙĥØ©":4876,"ĠØ§ÙĦÙģÙĦØ¨ÙĬÙĨ":4877,"ĠÙĩØ¬ÙĪÙħ":4878,"ĠÙĨÙĤØ§Ø·":4879,"ĠØ§ÙĦØªØ·Ø¨ÙĬÙĤØ§Øª":4880,"ĠØªØ³Ø±Ø¨Ø§Øª":4881,"ĠÙģØ±Øµ":4882,"ĠØ§ÙĦÙĩØ¬Ø±Ø©":4883,"ĠØ¬ÙĦØ³Ø©":4884,"ĠÙħØ±Ø¨Ø¹":4885,"Ø§ÙĤØ¯":4886,"Ø«ÙĦØ©":4887,"ĠØ§ÙĦÙĨØ²":4888,"ĠØ¨ÙĥØ±":4889,"ĠØ§ÙĨØ³Øª":4890,"ĠØ§ÙĦÙħØ¨Ø§Ø´Ø±":4891,"Ø¹ÙĨ":4892,"ĠÙħÙħÙĬØ²Ø©":4893,"ĠØ±Ø³ÙĪÙħ":4894,"ĠÙħØ³ÙĦ":4895,"ĠÙĪØ§ÙĦÙħÙĪ":4896,"ĠÙĪØ§ÙĪ":4897,"ĠØ¯ÙĦ":4898,"ĠØ§ÙĦØ§Ø®ÙĪØ§ÙĨ":4899,"ĠÙħØ²Ø¯":4900,"Ûķ":4901,"ĠØªØ¬ÙħØ¹":4902,"ĠØ·Ø±ØŃ":4903,"Ø¯Ø§Ø±Ø§Øª":4904,"ĠØ§ÙĦÙħÙĥØª":4905,"Ø±ÙģÙĬÙĩ":4906,"Ø¨ÙĨÙī":4907,"ĠØ§ÙĦØ¬Ø¨":4908,"ØªØµØ±":4909,"ĠØ§ÙĦÙĨØ¸Ø±":4910,"ĠØ¹ÙĬØ§Ø¯Ø©":4911,"ØªÙħØ§ÙĨ":4912,"ĠÙĦÙĪØ§Ø²Ùħ":4913,"ĠÙħØ¨ÙĬØ¹Ø§Øª":4914,"Ø¯ÙĬØ§Øª":4915,"ĠØ¨Ø§":4916,"ĠØ§ÙĦØ³ÙĬØ§ØŃØ©":4917,"ĠÙħÙĦÙħÙĪØ³Ø©":4918,"ĠØªØ¯ÙĪÙĬØ±":4919,"ĠØªÙĪØ³":4920,"ĠØ§ÙĤØªØ±":4921,"Ø§Ø¦ÙĬØ§Øª":4922,"ĠØ§ÙĦØªØ±ÙĥÙĬ":4923,"ĠØ°ÙĥØ±Ùī":4924,"ĠÙĪÙĤÙģ":4925,"ĠØ§ÙĦØ³Ø¤Ø§ÙĦ":4926,"ĠØ§ÙĦØ§ÙĨÙģ":4927,"ĠÙĦÙĦÙħØ³":4928,"ĠØ§ÙĦØ§ÙģÙĦØ§Ùħ":4929,"ĠØ¹Ø§ÙĦÙħÙĬØ©":4930,"ØŃÙĩ":4931,"ĠØ§ÙĦØ§Ø³Ø¨Ø§Ø¨":4932,"ĠÙĬÙĪÙģØ±":4933,"ĠØ§ÙĤØªØµØ§Ø¯":4934,"ÙĥÙĪÙħØ©":4935,"Ø§Ø³ØªÙĬÙĥ":4936,"ĠØ¬ÙĨØ³":4937,"ĠØªØ¨Ø¯ÙĬÙĦ":4938,"ĠÙĦØ§Øµ":4939,"ĠØ®ØµÙĪØµ":4940,"ĠØ§ÙĦØ§ØŃØªØ±":4941,"ĠÙĥØ±ÙĪ":4942,"ĠØ§ÙĦØ±ÙĪØ³ÙĬØ©":4943,"ĠØ¨ÙĪØµ":4944,"ĠØ¨Ø§ÙĦØ¯ÙħØ§Ùħ":4945,"ĠØ§ÙĦÙģÙĪÙĦ":4946,"Ø§Ø¦Ùī":4947,"ĠØ¹ÙĨØ§ØµØ±":4948,"ĠØ®Ø·ÙĪØ·":4949,"ÙĥØ§ÙģØŃØ©":4950,"ĠØ§Ø¬Ùħ":4951,"ĠØªØŃÙĤÙĤ":4952,"ØªØ§ÙĨ":4953,"ĠØ§ÙħÙĥØ§ÙĨÙĬØ©":4954,"ØºÙĨ":4955,"ĠØ´ÙĪ":4956,"ĠØ§ÙĦØ¯Ø§Ø®ÙĦÙĬ":4957,"ĠØ§ÙĦÙħÙħÙĬØ²Ø©":4958,"ĠØ§ÙĦÙħÙĨØ§Ø³Ø¨Ø©":4959,"Ġ88":4960,"ĠØ¨ÙĩØ¯Ùģ":4961,"Ø§ÙĩØ¯Ø§Øª":4962,"ĠØªØ¯Ø®ÙĦ":4963,"ĠØ³ÙĥÙĨ":4964,"ĠØŃÙħØ§Ùħ":4965,"ĠØ§ÙĦÙĤØ±Ø§Ø¡Ø©":4966,"ÙĪØ§Ø¬ÙĩØ©":4967,"ĠØ§ÙĦØ¯ÙĬÙĥ":4968,"ĠÙĪØªØ³":4969,"ĠÙĥØ«ÙĬØ±Ø§":4970,"ĠÙģÙĤØ§ÙĦ":4971,"ĠØŃØ´Ø±Ø§Øª":4972,"ĠÙħØŃØ·Ø§Øª":4973,"ĠØ§ÙĦÙĩÙĪØ§ØªÙģ":4974,"ĠØ§ÙĦØŃØ³ÙĬÙĨ":4975,"ĠØºØ³Ø§ÙĦØ©":4976,"ĠØ§ÙĦØ³Ø±":4977,"ĠØ§Ø¹ÙĦØ§Ùħ":4978,"ĠØ§ÙĦØŃØ§ÙĦØ§Øª":4979,"ĠÙħÙĪØ³Ùħ":4980,"ĠØ«Ø§ÙĨÙĪÙĬ":4981,"ĠÙĬØ¨Ø¯Ø§":4982,"ĠØ§ÙĦØ§ØŃØ¯Ø§Ø«":4983,"Ø²Ø§Ø²":4984,"ÙĥØªØ§Ø¨":4985,"ĠØ§ÙĦÙģØ¹ÙĦ":4986,"ĠØªÙģØ¹ÙĬÙĦ":4987,"ĠØ§ÙĦÙĤÙĨÙĪØ§Øª":4988,"ĠØ¨Ø¯Ø§Øª":4989,"ĠÙĬØ¨Ø¯":4990,"ĠÙĤÙĬÙħ":4991,"ĠÙħÙĤØ¯ÙħØ©":4992,"ĠØ§ÙĦÙħØ´Ø§Ø±ÙĬØ¹":4993,"ĠØ§ÙĦØ§Ø¯ÙĪÙĬØ©":4994,"Ø¬Ø§Ø¹":4995,"ĠØ§ÙĦØ¹ÙħÙĬÙĦ":4996,"ĠØ§Ø³ØªØ¹ÙħØ§ÙĦ":4997,"ÙĪØ³Øª":4998,"Ø§Ø¹ÙĬÙĦ":4999,"ĠØ§ÙĦÙĨÙĬÙĦ":5000,"ĠØªÙĥÙĨ":5001,"ÙģÙĪØ±":5002,"ĠØ¹Ø²ÙĬØ²":5003,"ĠØ¨Ø§Ø¬":5004,"ĠØ³Ø±Ø¹Ø©":5005,"Ø§ÙĦØ´":5006,"ĠØ§ÙĦÙħÙĪØ§Ø±Ø¯":5007,"ĠÙħØ¯Ø¨ÙĦØ¬":5008,"Ù«":5009,"ĠØ§ÙĦØ¬Ø²Ø§Ø¦Ø±ÙĬ":5010,"Ø¨ÙĪÙĦ":5011,"ĠÙĦØ¹ÙĦØ§Ø¬":5012,"Ø±Ø§Ø¦Ùħ":5013,"ĠØ§ÙĦØ±Ø³Ø§ÙĦØ©":5014,"ĠØ³Ø±ÙĬ":5015,"ĠØ§ÙĦÙħÙĪØª":5016,"ĠØ§Ø«Ø§Ø±":5017,"ĠØªÙĩÙĨ":5018,"ĠÙĦÙĦØ§Øª":5019,"ĠØ§ÙĦØ§ÙħØ©":5020,"ĠØ§ÙĦÙħØ¤Ø³Ø³Ø©":5021,"Ø¶ÙĬÙģ":5022,"ĠÙĥÙĬØ±":5023,"ĠØ§ÙĦÙģØ±Ø¯":5024,"ĠØ§ÙħÙĪØ§ÙĦ":5025,"ĠØ§ÙħØªØŃØ§ÙĨØ§Øª":5026,"ĠØŃØ°Ùģ":5027,"ĠØ§ÙĦÙģÙĬØ±":5028,"ĠÙħØ¯Ø©":5029,"ĠØ¹Ø§Ø¯Ø©":5030,"ÛĮÙĨ":5031,"ÙģØ§":5032,"ÙĩØ§ÙĨ":5033,"ĠØ§ÙĦÙħØ¯ÙĨÙĬ":5034,"ĠÙĪØ§ÙĨØ§":5035,"ĠØ¨Ø³ÙĩÙĪÙĦØ©":5036,"Ø§Ø¦Ø±Ø§Øª":5037,"ÙĨØ¨ÙĪÙĦ":5038,"ĠØµØ®Ø±Ø©":5039,"ĠØ§ÙĦÙħØ·ÙĦÙĪØ¨Ø©":5040,"ĠÙħØ³ÙĦØ³ÙĦØ§Øª":5041,"ĠØ§ÙĦÙĤØ¯Ø±Ø©":5042,"ĠØªÙĬÙĦ":5043,"ÙĬÙģØ§":5044,"ĠØ®Ø³":5045,"ĠÙģØŃÙĪØµØ§Øª":5046,"ĠØ§ÙĦØ¨Ø§ØŃØ«":5047,"24":5048,"ĠØ§ÙĦÙĬÙĪÙĨ":5049,"ÙĩØ¬":5050,"ĠØªØŃØµÙĦ":5051,"ĠØ§Ø¨ÙĨØ§Ø¡":5052,"Ġ477":5053,"ĠØ¨Ø³ÙĬØ·Ø©":5054,"ĠØ§Ø¯Ø®ÙĦ":5055,"Ø«ÙĤ":5056,"ØŃÙĬØ§Ø©":5057,"31":5058,"ØŃØ¶Ø±Ø§Øª":5059,"ĠØºØ°":5060,"Ø¹Ø¯ÙĬÙĦ":5061,"ĠØ§ÙĦÙħÙĨØ§Ø³Ø¨":5062,"ĠØ§ÙĦÙħØ®Ø±ÙĪØ·":5063,"ÙĥÙĬÙĦØ©":5064,"ĠÙĪØ¨Ø¯":5065,"ĠØªÙħÙĨ":5066,"ĠÙĬØ¹ÙĪØ¯":5067,"ĠØ§ÙĦÙħÙĨØ§Ùħ":5068,"ĠØ§ÙĦØªÙħÙĪ":5069,"ĠØ§Ø±ÙĩØ§Ø¨":5070,"Ø±ÙģÙĬØ©":5071,"ĠØ§ÙĦØ§ØµÙĦÙĬØ©":5072,"ĠÙħØ±ÙĪØ±":5073,"Ø²Ø¹":5074,"ĠÙĦØ§ÙĨÙĩØ§":5075,"ĠØ¹Ø¨Ø¯Ø§ÙĦØ±ØŃ":5076,"ĠØ§Ø«Ø±Ø§Ø¡":5077,"ĠØ§Ø±Ø¨Ø¹Ø©":5078,"Ø§Ø¯ÙħÙĬØ©":5079,"ĠØªÙĤØ§Ø±ÙĬØ±":5080,"ĠØªØŃØ¶ÙĬØ±":5081,"ØºØ·ÙĬØ©":5082,"ĠØ§ÙĦØ³ÙĬØ§Ø³Ø©":5083,"ĠØ¨ÙĪØ¯":5084,"ÙĤØ¯ÙĬØ±":5085,"ĠØ·ÙģÙĦ":5086,"ĠØ§ÙĦØ´Ø±Ø¹ÙĬØ©":5087,"ĠØ§ÙĦÙĥØ´Ùģ":5088,"ĠØ¯ÙħØ´ÙĤ":5089,"ĠÙĪØ§ÙĦØ¹Ø§ÙĦÙħ":5090,"ĠÙħÙĦØªÙĤÙī":5091,"ĠÙħØ³ØªÙĤØ¨ÙĦ":5092,"ĠÙħØ¹ÙĩØ¯":5093,"ÙĪØ¯Ø§ÙĨ":5094,"ĠÙĪØ¨Ø§ÙĦØªØ§ÙĦÙĬ":5095,"ĠØ§ØµØ¨ØŃØª":5096,"Ø¹Ø§Ø¡":5097,"ĠØ§ÙĦØ®ÙĬÙħØ©":5098,"ĠØ§Ø¸":5099,"ĠØ§ÙĦÙħÙħØª":5100,"ØªÙĤÙĬ":5101,"Ø§Ø²Ø§ÙĦØ©":5102,"ĠØ²ÙĪØ§Ø¬":5103,"ÙĪØ§ÙĨÙĬ":5104,"ĠÙĪØ§ÙĦØ¹ÙħÙĦ":5105,"ĠØ§ÙĨØ¸ÙħØ©":5106,"ĠÙĩØ§Ø´":5107,"ĠØ§ØºÙĨÙĬØ©":5108,"ĠØ§ÙĦØ®Ø²":5109,"ĠØ§ÙĦÙĤØ±Ø§Ø±":5110,"ĠØ§ÙĦØªØ®ØµØµ":5111,"ĠÙĥÙĬÙĨÙĬØ§":5112,"ĠØ§ÙĦÙħÙĤØ§ÙĦØ§Øª":5113,"ĠØ§ÙĦØªØ±Ø¬ÙħØ©":5114,"ĠØ§ÙĦØ²Ø¬Ø§Ø¬":5115,"ĠØµØ§Ø±":5116,"ÙĪØªÙĬÙĨ":5117,"ĠØ¨Ø§ÙĦØº":5118,"ĠØ§ÙĦØ¬Ø¯":5119,"ĠØ§ÙĬØ§Ø±":5120,"ĠØªÙĪØ¸ÙĬÙģ":5121,"ĠØ±Ø¨ÙħØ§":5122,"ĠØ§ÙĦØ¬ÙĬÙĦ":5123,"ĠÙĪÙĬØªÙħ":5124,"ĠØ§ÙĦÙħÙĤØ¯ÙħØ©":5125,"ĠÙĤØ§ÙħØª":5126,"ĠØ§ÙģØºØ§ÙĨØ³ØªØ§ÙĨ":5127,"ĠÙħØªÙĨÙĤÙĦ":5128,"Ø·Ø±ØŃ":5129,"ĠØªØ´ÙħÙĦ":5130,"Ġ1271":5131,"ĠÙĥØ´":5132,"ĠØ§ÙĦØ®ÙĬØ±":5133,"ĠØªØ®ØµØµ":5134,"ĠØ§ÙĦØªÙĩ":5135,"ĠØ´ÙĤØ©":5136,"65":5137,"828":5138,"ĠÙħØ¨Ø¯Ø§":5139,"ĠØ³ÙĤÙĪØ·":5140,"ĠØ§ÙĦØ®Ø±Ø·ÙĪÙħ":5141,"ĠØ§ÙĦØ®Ø§ÙħØ³Ø©":5142,"Ø¨ÙĪÙĥ":5143,"ĠÙĪØ§ÙĦÙħÙĤ":5144,"ĠÙĦØ¯ÙĬÙĩØ§":5145,"ĠØ§ÙĬÙģÙĪÙĨ":5146,"ĠØ§ÙĦÙħØ¯ÙĬØ±":5147,"ĠÙĥØ«ÙĬØ±Ø©":5148,"ĠØ§ÙĦÙĤÙĩÙĪØ©":5149,"Ø±Ø¨ÙĪÙĦ":5150,"ĠØŃØ²Ø§Ùħ":5151,"ĠÙħÙħØ§Ø±Ø³Ø©":5152,"Ø³Ø§ØªÙĬÙĨ":5153,"ĠØªÙĪÙĦ":5154,"Ø±ÙĪØ¡":5155,"Ø§Ø¨Ø·Ø©":5156,"ĠÙĦÙĦÙħÙĤ":5157,"ĠØ§ÙĦØªØŃÙħÙĬÙĦ":5158,"ĠÙĦÙħÙĪ":5159,"ØªØ¨Ø·":5160,"ĠØ§ÙĦØ§ÙĨØ¬ÙĦÙĬØ²ÙĬ":5161,"ĠØ¹ÙĦÙĬÙĨØ§":5162,"ĠÙĪØ§ÙĦØ®Ø¯ÙħØ§Øª":5163,"ĠÙģÙħÙĨ":5164,"ĠØ§ÙĦÙħØªÙĪØ³Ø·Ø©":5165,"Ġ5937":5166,"ĠØ¨ÙĨÙĩØ§":5167,"Ġ800":5168,"ØªØ¬Ø§ÙĪØ²":5169,"Ø¤ÙĬØ©":5170,"ĠÙĦØ§Ø¹Ø¨":5171,"ĠÙĦÙĬÙĦØ©":5172,"ĠØ§ÙĦØ®ÙĦÙģ":5173,"ĠØ¹ÙĦØ§ÙħØ§Øª":5174,"ĠØ§ÙĦØ¹Ø¶ÙĪ":5175,"Ø¨Ø±Ø§":5176,"ĠÙħØ¬ØªÙħØ¹":5177,"ĠÙĪØ§ÙĦÙħÙĪÙĤØ¹":5178,"ĠØªÙħØ§Ùħ":5179,"ĠØ¹Ø¨Ø§Ø³":5180,"ÙģØ°":5181,"ĠÙħØ§ÙĦÙĬØ©":5182,"ĠØ³Ø§ÙĦÙħ":5183,"ĠØ§ÙĦØŃÙģØ§Ø¸":5184,"Ø¦Ø§":5185,"ÙĬÙĪÙĬØ©":5186,"ĠÙĬØŃØµÙĦ":5187,"ĠØ§Ø¯Ø§Ø©":5188,"ĠÙħÙĨÙĩØ¬":5189,"ĠØ§ÙĦÙħØ¨ÙĬØ¹Ø§Øª":5190,"ÙĪØ±Ùĩ":5191,"ĠØ§ÙĦÙĤØ¯ÙĬÙħ":5192,"ĠÙĬÙĥØªØ¨":5193,"ĠØ®Ø²Ø§ÙĨØ§Øª":5194,"ĠØ§ÙĦØ¬ÙĪØ§ÙĦ":5195,"ĠÙħÙĨØ§Ø³Ø¨Ø©":5196,"ĠØ¨Ø¹ÙĬØ¯":5197,"ÙħØ±Ø©":5198,"ØªØµØ§Øµ":5199,"ĠØ§ÙĦÙĤÙĪØ©":5200,"Ø§Ø¦ÙĬØ§":5201,"ÙģØ§ØªÙĬØŃ":5202,"ĠØ§ÙĥØ¯":5203,"ĠÙħØµÙĨØ¹ÙĬÙĨ":5204,"ĠØ³ÙĬØ§Ø³ÙĬØ©":5205,"ĠØ§ÙĦØ§ÙĪØ±ÙĪØ¨ÙĬØ©":5206,"ĠØ§ÙĦØ¹ÙĦØ§ÙĤØ©":5207,"ĠÙĥÙģØ§Ø¡Ø©":5208,"ĠØ³Ø¨ÙĪØ±Øª":5209,"ĠØµØ±Ùģ":5210,"ĠØ§ÙĦØ§ØµØ·ÙĨØ§Ø¹":5211,"ĠØªÙĥØ±":5212,"ĠÙģØ§ÙĨÙĩ":5213,"ĠØ¨Ø±ÙĬØ¯ÙĬ":5214,"ĠØ³ÙĬÙĦ":5215,"ĠÙĨØ¬ÙĪÙħ":5216,"ĠØ§ÙĦØ¹ØµØ±":5217,"ĠØ§ÙĦØŃÙħØ§ÙĬØ©":5218,"ĠØ±ÙĥÙĨ":5219,"ĠØ¶ÙħØ§ÙĨ":5220,"ĠØ¨Ø§ÙĤ":5221,"ĠÙħØ¯ÙĪÙĨØ©":5222,"ĠÙĥÙĬÙĦÙĪ":5223,"ĠÙĦÙĦØ§Ø´":5224,"ĠÙģÙĬØª":5225,"ĠØ°ÙĬ":5226,"ĠØ§Ø¯Ùħ":5227,"ĠØ§ÙĦØ¹ÙĦÙħØ§Ø¡":5228,"ĠØ§ÙĦØ°Ùĥ":5229,"ĠØ¯ÙĬÙĨØ§Ø±":5230,"ĠÙħÙĬØ±":5231,"ĠØ§ÙĦÙħÙĥØ³":5232,"ĠÙĪØªØ¬":5233,"ĠÙħØ³ØªØ®Ø¯Ùħ":5234,"ĠØªØ±Ø¬ÙħØ©":5235,"ĠÙĨØ¹":5236,"ĠØ³ÙĬØªÙĬ":5237,"ĠØ§ÙĦØªØ®ÙĦØµ":5238,"ĠØ§ÙĦÙħÙĨØªØ®Ø¨":5239,"ĠØ§ÙĦØ¨Ø¯Ø§ÙĬØ©":5240,"ĠÙĤÙĪÙĬØ©":5241,"Ø±ÙĬØ¬":5242,"ÙĨØªÙĬÙĨ":5243,"18":5244,"ĠÙħØ¹ÙĩØ§":5245,"ĠÙģÙĥØ±Ø©":5246,"ØºØ§Ùħ":5247,"ĠØ¨Ø§ÙĬØ¯":5248,"ĠÙħÙĤØ§Ø·Ø¹":5249,"ĠØ§Ø³ØªØ®Ø¯Ø§ÙħÙĩØ§":5250,"ĠØ¬Ø¯ÙĪÙĦ":5251,"ĠØ§ÙĦØ§Ø²ÙħØ©":5252,"ĠØ¬Ø§Ø¦Ø²Ø©":5253,"ĠØ§Ø³ÙĦØ§ÙħÙĬØ©":5254,"ĠØ³Ø§Øª":5255,"ĠØ§ÙĦØŃÙĤÙĬÙĤØ©":5256,"ĠÙĦÙĦØ§ÙĨØ¯Ø±ÙĪÙĬØ¯":5257,"ÙĪØ±ÙĬÙĨ":5258,"Ø¬ÙĦÙĬØ²ÙĬØ©":5259,"ĠÙĦØ¹Ø¨":5260,"ØªØ²Ø§Ùħ":5261,"ÙģÙĬØ§Øª":5262,"ĠØ§ÙĦÙĥØ§ÙĦ":5263,"ĠØ¨Ø³Ø¹Ø±":5264,"ĠÙħÙĨØ§Ùģ":5265,"ĠØªÙĪÙĤÙģ":5266,"ĠØ§Ø³Ø·ÙĨØ¨ÙĪÙĦ":5267,"ĠØªØŃÙĥÙħ":5268,"ĠØ§ÙĦØ§ÙĤØµÙī":5269,"ĠÙĥÙģØ±":5270,"ĠØªØµÙĪÙĬØ±":5271,"ØªØ²Ø§Ø²":5272,"ÙĪÙĦÙĬÙĨ":5273,"79":5274,"Ø³ÙĦÙĬÙħ":5275,"ĠØ§ÙĦÙĩÙĨØ¯Ø³Ø©":5276,"ĠÙĥØ§ÙĨÙĪØ§":5277,"ĠØ¨ÙħØ¯ÙĬÙĨØ©":5278,"Ø°ÙĦ":5279,"ĠÙĬØ³ØªØ·ÙĬØ¹":5280,"ĠØ§ÙĦØ±Ø§ÙĬ":5281,"ĠØ§ÙĦØ·Ø§ÙĦØ¨":5282,"ĠØ§ÙĦÙħØŃØ¯ÙĪØ¯Ø©":5283,"ĠØªÙħØ§ÙħØ§":5284,"ĠØ§Ø¨ÙĪØ§Ø¨":5285,"ĠØ§Ø³ØªÙħØ±Ø§Ø±":5286,"ĠØ§ÙĪØª":5287,"ØŃØª":5288,"ĠØ§ÙĦÙħØ§Ø³":5289,"ĠØ°ÙĪ":5290,"ĠÙĥØ§Ø´":5291,"ĠÙĦØ·ØŃÙĨ":5292,"Ø§ÙģØ¸Ø§Øª":5293,"Ø·ÙĬØ¨":5294,"ĠØ§ÙĦÙħÙģØ¶ÙĦØ©":5295,"ĠØ¯Ùģ":5296,"ĠØ§ÙĦØ§ÙĬØ¬":5297,"ĠÙĩÙĪØ§ØªÙģ":5298,"ĠØ§Ø¨ÙĬØ¶":5299,"ĠØ§ÙĬÙĩ":5300,"ĠØ§ÙĦØ³ÙĦØ¹":5301,"ĠØ§ÙĦØ¹ÙĩØ¯":5302,"Ø§Ø·Ùģ":5303,"Ġ8051":5304,"ĠØ´Ø¨Ùĩ":5305,"Ø§ÙģÙĩ":5306,"ĠØ¯Ø±Ø§Ø³Ø§Øª":5307,"ÙĬÙĪØ±Ùĥ":5308,"Ø²Ø§Ø¨":5309,"ÙħØ¬":5310,"Ø³ÙĦØ³ÙĦØ§Øª":5311,"ØªØ²Ùħ":5312,"ĠØ§ÙĦØ´Ø¨ÙĥØ©":5313,"ĠØ§ÙĦÙħØªÙħ":5314,"ĠØ§Ø³ØªØ±Ø§ØªÙĬØ¬ÙĬØ©":5315,"ĠØ®ÙħØ³":5316,"ÙĩÙĦÙĥ":5317,"ÙĬÙĥØ§ÙĨ":5318,"Ġ477828":5319,"ĠÙħØ±ÙĪ":5320,"ÙĬÙĪÙģ":5321,"ĠÙĪØªØ®":5322,"ĠÙĪØ§ÙĦÙĨØ´Ø±":5323,"ĠÙĦØ§Ø³ØªØ®Ø¯Ø§ÙħÙĩØ§":5324,"ĠÙĦÙĬÙĨÙĥØ¯":5325,"32":5326,"ĠØ³Ø·ØŃ":5327,"ØªÙĤØ¯Ùħ":5328,"ĠÙħÙĬÙĦØ§Ø¯":5329,"ĠØ§ÙĦÙħØ´ØªØ±ÙĥØ©":5330,"ÙĤÙĦØ©":5331,"Ġ2006":5332,"ĠÙħØ¹Ø§":5333,"ĠØ§ÙĦÙĨØ§Ø¦Ø¨":5334,"ĠØ§Ø³ÙĪØ§ÙĤ":5335,"ĠØºØ¯Ø§":5336,"ĠÙħØªØ§Ø¨Ø¹":5337,"ĠÙĨÙģØ³ÙĩØ§":5338,"Ø¯ÙĤØ§Ø¡":5339,"Ø®ÙĬØµØ©":5340,"ĠØ¨ÙħØ³":5341,"ĠØ®ÙĦØ§ÙĦÙĩØ§":5342,"ĠØ§ÙĦØ§ÙģØ±":5343,"ĠØ¬ÙĪØ±Ø¬":5344,"ĠÙĪØ§ÙĤØ¹":5345,"ĠÙĤØ±ÙĬØ©":5346,"ĠØ®Ø·Ø±":5347,"ĠÙĦØ¯ÙĬÙĩ":5348,"Ø·Ø§":5349,"ĠÙĥÙħÙĬØ©":5350,"ĠØŃØ§Ø±":5351,"ÙĬÙħÙĬØ§Ø¦ÙĬØ©":5352,"ĠÙĪØ¹Ø¯Ùħ":5353,"ĠØ§ÙĦØµÙĬØ§ÙĨØ©":5354,"ĠØ§ÙĦØªØ¯Ø±ÙĬØ¨":5355,"ĠØ´Ø±Ø·Ø©":5356,"Ø¹Ø§ÙĦØ¬Ø©":5357,"ĠØ¹Ø¨Ø¯Ø§ÙĦØ±ØŃÙħÙĨ":5358,"ÙĬÙħÙĬÙĦ":5359,"ĠÙħÙĦØ®Øµ":5360,"ĠÙħØªØµÙģ":5361,"ĠØ§ÙĦÙģÙĤÙĩ":5362,"Ø§ØµÙĦØ©":5363,"ĠØ§Ø³Ø¨Ø§ÙĨÙĬØ§":5364,"ĠØ¨Ø§Ø·":5365,"ĠÙĬØ¯Ø¹ÙĪ":5366,"ĠØ§ÙĦÙĥØ§ÙĦØ³ÙĬÙĪÙħ":5367,"Ø¦ÙĪÙĨ":5368,"ĠØ§ÙĦÙħØ¬Ùħ":5369,"ÙĤÙĦØ§Ø¨":5370,"ĠÙĨØ§Ø¬":5371,"Ø§ØªÙĦ":5372,"ĠØ®Ø·ÙĪØ©":5373,"ĠØ§ÙĦÙħØ¤ÙĦÙģ":5374,"Ø§ÙĤØ¨":5375,"ÙĬØ¯Ø±ÙĪÙĦÙĬÙĥÙĬØ©":5376,"ĠÙĪØ¶":5377,"ĠØ¬Ø³Ùħ":5378,"ĠÙĪØªÙģ":5379,"ĠØ¶ÙĪØ¡":5380,"ĠØ§ØŃØªØ¬":5381,"ÙĦØ§ÙĦØ§Øª":5382,"ĠÙħØ±Ø§ÙĤØ¨Ø©":5383,"Ø²ÙĪÙĨ":5384,"ĠØ´Ø§ÙĨ":5385,"ĠØ§ÙĦÙĨØ´Ø§Ø·":5386,"ĠØ§Ø±Ø®Øµ":5387,"ĠØ§Ø¯ÙĪÙĬØ©":5388,"ĠØ§Ø¯ÙĨØ§Ùĩ":5389,"ĠØ§ÙĦØ¯ÙĬÙĨÙĬØ©":5390,"ĠØ¨Ø®ØµÙĪØµ":5391,"ĠØ§ÙĦØ§Ø³Ø§Ø³ÙĬ":5392,"ĠØ§ÙĦÙħØ¤ÙħÙĨ":5393,"ÙĬØ±Ø§Ø¯":5394,"ĠØ§ÙĦØªØŃÙĤÙĤ":5395,"ĠØ¬Ø¹":5396,"ĠÙħØŃÙĥÙħØ©":5397,"ØªÙĬØ´":5398,"ĠÙĪØ§ØŃØ©":5399,"ĠØ§ÙĦØ±ÙĬØ§Ø¶ÙĬ":5400,"ĠØ¯Ø§Ø¦Ø±Ø©":5401,"ĠØ§ÙĦÙħØ«Ø§ÙĦ":5402,"ĠØ§ÙĦØ§ØŃØªÙģ":5403,"ĠØ§ÙĦÙĥØ±Ø¨":5404,"ĠÙĦØ³ÙĨØ©":5405,"Ø¬Ø±ÙĬ":5406,"ÛĮØ©":5407,"ĠÙĤÙĪÙĦ":5408,"ĠØ§ÙĦØ§ÙħØ§ÙĥÙĨ":5409,"ĠØ§ÙĦØ§Ø¦":5410,"ØŃÙĬÙĨ":5411,"Ø§ÙħÙĦØ§Øª":5412,"Ġ82":5413,"ĠØ§ÙĦØ§Ø¹ÙĦØ§ÙħÙĬØ©":5414,"ĠØ§Ø¯Ø±":5415,"ÙĤØ·Ø¹":5416,"Ø§ÙģÙĬØ§":5417,"ÙĬØ³Ø§ÙĨ":5418,"ĠØ§ÙĦÙħØ¯ÙĨ":5419,"ĠØ¯Ø±Ø¬Ø§Øª":5420,"Ø¯ÙĪÙĨ":5421,"Ø§ÙĦÙĬØ¨":5422,"ĠØ§ÙĦØ®ÙĬØ§Ø±Ø§Øª":5423,"ĠØ¶ØŃ":5424,"ĠØ§ÙĦØºÙĬØ±":5425,"ĠÙħØŃØ±Ùĥ":5426,"ĠÙĪØ§ÙĦÙħØ³Øª":5427,"ĠØ§ÙĦØ³ÙĪÙĬØ³":5428,"ĠØ§ÙĦØ±Ø¹Ø§ÙĬØ©":5429,"Ø±ÙĪØ¡Ø©":5430,"Ø§Ø¯ÙĪ":5431,"ĠÙĩØ¤ÙĦØ§Ø¡":5432,"ĠØ§ÙĦÙĨØ¨ÙĪÙĬ":5433,"ĠØªØµØ¯Ø±":5434,"ĠÙĬØªØ±":5435,"ĠÙĤÙĬØ§Ø¯Ø©":5436,"ĠØ´ÙĬØ®":5437,"ĠØ§ÙĦÙĤÙĦ":5438,"ĠØ§ÙĦØ³ÙĪØ¯Ø§ÙĨÙĬ":5439,"Ø²Ø§Øª":5440,"ØŃØ§ÙĨ":5441,"ĠØ«ÙĤØ§ÙģØ©":5442,"ĠØ§Ø³ØªØ§Ø°":5443,"ØºÙĪ":5444,"ĠÙĤØµÙĬØ±Ø©":5445,"ĠØ§ÙĦØºÙĬØ§Ø±":5446,"Ġ195":5447,"ÙĪØ§ØŃ":5448,"ĠØ¯Ø±Ø³":5449,"ĠÙĦØªØŃÙĤÙĬÙĤ":5450,"ĠØ¨Ø§ÙĦØ§Ùħ":5451,"ĠØ§ÙĦÙĪØ²ÙĬØ±":5452,"ĠØ¹Ø§Ø¦":5453,"ĠÙĦÙĦØªØ®":5454,"ÙĦÙħØ§ÙĨÙĬØ©":5455,"ĠØ¬Ø§Ùĥ":5456,"ĠÙĪØ±Ø´Ø©":5457,"ÙĬØ§ÙĨØ§":5458,"ĠØ§ÙĦÙĩÙĦØ§ÙĦ":5459,"ĠÙĦÙĬÙģØ±Ø¨ÙĪÙĦ":5460,"ĠØ¨Ø¬Ø§ÙħØ¹Ø©":5461,"ĠØ§ÙĦØ§Ø´ÙĬØ§Ø¡":5462,"Ø§ÙĪÙĦØ§Ø¯":5463,"ĠØ§ÙĦØ§Ø¯Ø§Ø¡":5464,"Ø¸ÙĦ":5465,"ĠØ§ÙĦÙĨØµØ±":5466,"Ø§Ø¨ÙĬÙĨ":5467,"ĠÙĩÙĪÙĦ":5468,"ĠÙħÙħÙĬØ²Ø§Øª":5469,"ĠØ·Ø¨ÙĬØ¹ÙĬ":5470,"ĠÙĪØ§ÙĦÙħÙĦ":5471,"Ø¹ÙĪØ¯ÙĬØ©":5472,"Ø¹ÙĤ":5473,"ĠØ§ÙĦØªÙģØ³ÙĬØ±":5474,"ÙĩÙĬØ±":5475,"ÙĨÙĥØ±":5476,"ÙĪÙħÙĨÙĬ":5477,"ĠØ§ÙĦØ¯ÙĨÙĬØ§":5478,"ĠÙĪÙĬÙĨØ¯ÙĪØ²":5479,"ĠØ§ÙĨÙģØ¬Ø§Ø±":5480,"ĠØ§ÙĦØ´Ø§Ø±Ø¹":5481,"ĠØ§ÙĦÙĤØ§Ø¯ÙħØ©":5482,"ĠØ§ÙĦØ¯ÙĬÙħÙĤØ±Ø§Ø·ÙĬØ©":5483,"ĠÙĬØ¨Ø¯ÙĪ":5484,"ĠØ³ØŃØ¨":5485,"ĠØ§ÙĦØ¨ØŃØ±ÙĬØ©":5486,"ĠØ§ÙĦÙĤÙĬØ§Ø³":5487,"ÙĪØµÙĪÙĦ":5488,"ĠØ§ÙĦÙĨØ³Ø®Ø©":5489,"ĠØ´Ø§Ø´Ø§Øª":5490,"ĠØ§ÙĦÙģÙĤ":5491,"ĠØ¬ÙĩÙĪØ¯":5492,"ĠØ§ÙĨØªØ®Ø§Ø¨Ø§Øª":5493,"ØªÙĥØ§Ø±":5494,"ĠÙĪØ¹ÙħÙĦ":5495,"ĠÙĦØ¯Ø¹Ùħ":5496,"ĠÙĦØ§ÙĨØªØ§Ø¬":5497,"ØªØµØ§Ø±":5498,"ĠØªØºÙĬØ±":5499,"ĠØ§ÙĦÙĥØ§Ùħ":5500,"ĠØ§ÙĦØ§ÙĤØ§ÙħØ©":5501,"ĠØ§ÙĦØ´Ø¹Ø¨ÙĬØ©":5502,"ĠØµÙģØ±":5503,"ĠØµÙĦØ§Ø©":5504,"ĠØ§ÙĦØ¹Ø¨Ø¯":5505,"ĠÙĤØ±Ø¨":5506,"ÙĬÙģØ§Øª":5507,"ĠÙģÙħ":5508,"ĠØ¨Ø§Ø´":5509,"ĠØ§ÙĦÙħØ³ØªØ®Ø¯ÙħÙĬÙĨ":5510,"ĠØ§Ø³ÙħØ§Ø¹ÙĬÙĦ":5511,"ĠØ§ÙĦØ¨Ø´":5512,"ÙĤÙĪÙĦ":5513,"ĠÙħØ³Ø¤ÙĪÙĦÙĬØ©":5514,"ĠØ¬ÙĪØ²":5515,"ĠØ§ÙĦØ³ÙĥÙĨ":5516,"ĠØ§ØªØ¬":5517,"ĠÙĪÙģØ¯":5518,"ĠØ§ÙĦØ¬Ø§ÙħØ¹ÙĬ":5519,"ĠØ§ÙĦØ¬ÙĦØ¯":5520,"ĠØŃØ³Ø§Ø¨Ø§Øª":5521,"Ø±Øª":5522,"ĠØªØµÙĦÙĬØŃ":5523,"ĠÙĬÙĤÙĦ":5524,"ĠØŃÙĪØ§Ø±":5525,"ĠØ§ÙĦØºØ±ÙģØ©":5526,"ĠØ¨ØŃÙĤ":5527,"ĠØ¬Ø¨ÙĦ":5528,"ÙĬÙĥÙĪ":5529,"Ø·ØŃÙĨØ©":5530,"Ø¶Ø§Ø¹":5531,"ĠØ³ÙĪÙī":5532,"ĠØ¬ÙħÙĬÙĦ":5533,"ĠØ±ÙĬÙħÙĪÙĨØ¯":5534,"75":5535,"ĠØ§ÙĦØ¹Ø¯ÙĦ":5536,"ĠØ³ÙĥØ§ÙĨ":5537,"ĠØ¬ÙĪÙĨ":5538,"ĠÙĬØ¸ÙĩØ±":5539,"ĠØ§Ø¹ØªÙħØ§Ø¯":5540,"Ø§ØµØ±Ø©":5541,"Ø§ÙĦÙĬØ¯":5542,"ĠØ§ÙĦØ¹Ø§ÙĦÙĬØ©":5543,"Ġ81":5544,"ØªÙĥÙĪÙĬÙĨ":5545,"ØºÙĩØ§ÙĬ":5546,"ĠØ¬Ø²ÙĬØ±Ø©":5547,"ĠØ§ÙĦØ§Ø³Ø¨ÙĪØ¹ÙĬØ©":5548,"ĠØ§ÙĦØ³ÙĬØ§ØŃÙĬØ©":5549,"ĠØ´ØºØ§ÙĦØ©":5550,"ĠØ§ÙĦÙģÙĬÙĦÙħ":5551,"ĠØ§ÙĦØ§ÙĨØªÙĤ":5552,"ĠØ§ÙĦÙħØªÙĨ":5553,"ĠØ§ÙĦÙĪØ²Ø§Ø±Ø©":5554,"ĠÙħØ«ÙĬØ±":5555,"ĠØ§ÙĦÙħÙĪØ§Ø·ÙĨ":5556,"ÙĦÙĬØº":5557,"ĠØµÙĨØ§Ø¯":5558,"ĠÙĪÙĥÙĬÙĦ":5559,"ĠÙĨØ§Ø³":5560,"ĠØ§ÙĦØ³ÙĪØ¯Ø§Ø¡":5561,"ĠØªØªØ¨Ø¹":5562,"ĠÙħØ±Ø§Øª":5563,"ĠØ§ÙĦØªØµÙĨÙĬØ¹":5564,"ĠØ§ÙĦÙģÙĬØ±ÙĪØ³":5565,"39":5566,"ĠØ§ÙĦÙħØ´Ø§ÙĩØ¯Ø§Øª":5567,"ĠÙĪØ§ÙĦÙĦÙĩ":5568,"ĠØ§ÙĦÙĪØ«":5569,"ĠÙĪØ§ÙĦÙħØ´":5570,"ĠØªØ¹Ø§ÙĪÙĨ":5571,"ĠØ§ÙĦØ±Ø¨ÙĬØ¹":5572,"ĠØ§ÙĦØµØŃÙģÙĬ":5573,"ĠØ§ÙĦÙħØ³ÙĦØŃØ©":5574,"ĠØ³ÙĬÙģ":5575,"ĠØ§ÙĦÙĬØ§Ø¨Ø§ÙĨ":5576,"ĠÙħØ±Ùĥ":5577,"ĠØ¨ØµÙĪØ±Ø©":5578,"ĠÙĦØ²ÙĬ":5579,"ÙĪØ¬Ø¨":5580,"Ø¨ØºÙĬ":5581,"ĠØ§ÙĦÙħØ§ÙĦÙĬ":5582,"ĠÙħØ¨Ø§Ø¯Ø±Ø©":5583,"ĠØ§ÙĦØ§ÙĪÙĦÙĬØ©":5584,"ĠØ§ÙĦØ§ÙĨØ¯Ø±ÙĪÙĬØ¯":5585,"ĠÙĥØ§Ø¨":5586,"ĠØªØ¹Ø¨Ø±":5587,"Ø¶ÙĦØ§Øª":5588,"ĠÙħØ¨Ø§Ø±Ùĥ":5589,"ĠØ¹Ø«ÙħØ§ÙĨ":5590,"ĠÙĪØ§ÙĬØ¶Ø§":5591,"ĠØ·Ø¨ÙĬØ¹ÙĬØ©":5592,"ĠØ§Ø¨ØªØ¯Ø§Ø¦ÙĬ":5593,"ĠØ§ÙĦØ¬Ø§Ùģ":5594,"ØªÙĬØ§ÙĦ":5595,"ĠÙĪØ§ÙĦØ§ÙĦ":5596,"ĠÙħÙĨØ§":5597,"ĠÙħØ±Ùģ":5598,"ĠØ®ÙĬØ§Ø±Ø§Øª":5599,"ĠÙĦÙħØ¹Ø±ÙģØ©":5600,"ĠØ§ÙĦÙĥÙģØ§Ø¡Ø©":5601,"ĠØŃØ¯ÙĪØ«":5602,"ĠÙĪØ§ÙĦØ¬Ùħ":5603,"ĠØ§ÙĦÙħØ±Ø§Ùĩ":5604,"ĠØ³Ø¹ÙĪØ¯ÙĬ":5605,"ĠØ§ÙĦØ·ÙĪØ¨":5606,"ÙĨØ¯Ø§Øª":5607,"ĠÙĩÙĬØ±":5608,"ĠØ§ÙĦØ¬Ø§ÙĨØ¨":5609,"Ø§Ø«Ø©":5610,"ĠØ¹Ø¨Ø¯Ø§ÙĦØ¹Ø²ÙĬØ²":5611,"ÙĪÙĬØ¶":5612,"ĠØ§ÙĨØªÙĩØ§Ø¡":5613,"ØªØ¯Ø±ÙĬØ¨":5614,"ĠÙĤÙĪÙĦÙĩ":5615,"ĠØ¹ÙĤÙĪØ¯":5616,"ĠØ±Ø§Ùħ":5617,"Ø´Ø±ÙĤ":5618,"ĠØ³Ø¨ÙĦ":5619,"ĠØ§ÙĦØ«ÙĦ":5620,"48":5621,"ĠØªÙħØ±":5622,"ÙĪØ¹ÙĬØ©":5623,"Ù¬":5624,"ØªÙģÙĦ":5625,"ĠÙħØµÙĨ":5626,"ÙĬÙĪØ¨ÙĬØ§":5627,"ĠØ¹Ø§ÙĦÙĬ":5628,"ĠØ§ÙĦØ¹ÙħÙĦÙĬØ§Øª":5629,"ÙĤØ±Ø§Ø¡Ø©":5630,"ĠÙħØ°ÙĥØ±Ø©":5631,"Ø±Ø§Ø¨":5632,"ĠØ§ÙĦØ§Ø¹ÙĦØ§ÙħÙĬ":5633,"ĠØ§ÙĦÙħØ¨Ø§Ø±Ø§Ø©":5634,"Ø§Ø·Ø¹Ø©":5635,"ĠØ§ÙĦØ´ÙħØ³ÙĬØ©":5636,"ĠØ§ÙĦØ°Ø§ØªÙĬØ©":5637,"ÙĨØ¯ÙĬØ©":5638,"ÙĪÙħÙĨÙĬÙĪÙħ":5639,"ĠØªÙĬÙĦÙĤØ±Ø§Ùħ":5640,"ĠØ§ÙĦÙĨØ§Øª":5641,"ĠØ§ÙĪØ±Ø§ÙĤ":5642,"ĠØ¨Ø§ÙĦÙģØ¹ÙĦ":5643,"ĠÙĦØºØ±Ø¶":5644,"ĠØ¨Ø§ÙĤÙĦ":5645,"ĠÙħØ¬ÙħØ¹":5646,"ĠÙħÙħÙĬØ²":5647,"ĠØ§ÙĦÙĨÙģØ³ÙĬØ©":5648,"ĠÙħÙĪØª":5649,"ÙĦØ§ÙĬØ§":5650,"ĠØ¹ÙħØ§ÙĦ":5651,"ĠÙħØ¤Ø´Ø±":5652,"ÙĪØ§Ø¯Ø«":5653,"ĠØ·Ø¨Ø¹":5654,"ĠØ§ÙĦØªØ¬ÙħÙĬÙĦ":5655,"Ø§Ø¨ØªØ©":5656,"ÙĦÙĨØ¯Ø§":5657,"ĠÙħÙħÙĨ":5658,"ĠÙĪØ±ÙĤØ©":5659,"ĠÙĤØ¶Ø§ÙĬØ§":5660,"ĠÙĤØ§ÙĦØª":5661,"ĠØ±ÙĬØª":5662,"ĠØ§ÙĦØŃØ±ÙĬØ©":5663,"ĠØªÙħÙĥÙĨ":5664,"ĠØ¨ÙħØ¹":5665,"ĠÙħØ²ÙĬØ¯":5666,"ĠØ¨ÙĨØ´Ø±":5667,"ĠØ¹Ø§Ø¯ÙĦ":5668,"ĠØªØ¹Ø¨":5669,"ĠÙħØ¬ÙħÙĪØ¹":5670,"ĠØ·Ø§ÙĦ":5671,"ĠØ¨ØŃØ³Ø¨":5672,"ĠØ³Ø®":5673,"ĠØ§Ø³Ø±Ø¹":5674,"Ø§ÙĩÙĬÙĦ":5675,"Ø§Ø¯Ø±Ø§Øª":5676,"ĠÙĨÙĨ":5677,"ĠØ®ÙĦÙĤ":5678,"ĠØ§Ø´ÙĥØ§ÙĦ":5679,"ĠØ§ÙĦØªØ´Ø±ÙĬØ¹":5680,"ĠØ§ÙĦØ§ÙĬØ±Ø§ÙĨÙĬØ©":5681,"875":5682,"ĠØ¨ØªÙĪÙĤÙĬØª":5683,"Ø®ÙħØ©":5684,"ĠØ§ÙĦØµØ¯":5685,"ĠÙĬÙĤØ¹":5686,"ĠØ¨ÙĬÙĨÙĩÙħ":5687,"ĠØ§ÙĦÙĬØ³":5688,"ĠØ§Ø³ØªØ¹Ø§Ø¯Ø©":5689,"ĠÙĪØªØ·ÙĪÙĬØ±":5690,"Ø±ÙĬØ¨Ø§Øª":5691,"ĠØ¨Ø§ÙĦØ§ØŃ":5692,"ĠØªØºØ°ÙĬØ©":5693,"ĠÙħÙĪØ¯ÙĬÙĦ":5694,"ĠÛĮ":5695,"ĠØ§ÙĦÙħØªØ±":5696,"Ø§Ø¨ÙĦØ³":5697,"ĠÙħÙĤØ±ÙĪØ¡Ø©":5698,"ĠØ§ÙĦØªÙĪØµÙĬÙĦ":5699,"ĠØ§ÙĦØ¨Ø±ÙĬØ·Ø§ÙĨÙĬØ©":5700,"ĠØ§Ø±ÙĬ":5701,"ĠÙħÙĥÙĬØ§Ø¬":5702,"ĠØªØ¹ÙĦÙĬÙĤÙĬ":5703,"ĠÙħØ§Ø±ÙĥØª":5704,"ĠØªØµØ§Ø¯ÙħÙĬØ©":5705,"ĠØ§ÙĥØ³Ø¨":5706,"ĠÙĤÙĬØ§Ø³":5707,"ĠØ§ÙĪÙĦÙī":5708,"ĠØ¯Ø±ÙĩÙħ":5709,"ĠØ§ÙĦØµØ¨Ø§ØŃ":5710,"ĠØ§ÙĦÙħØ´ØªØ±Ùĥ":5711,"ĠÙĤÙĨÙĪØ§Øª":5712,"Ø²ÙĬØ¹":5713,"ĠØµØ¹":5714,"Ġ110":5715,"ĠØ§ÙĬØ¯":5716,"ĠØ§Ø±Ø§Ø¶ÙĬ":5717,"ĠÙĬÙĪÙħØ§":5718,"ĠØ§ÙĦØ¨Ø±ÙĬØ¯ÙĬØ©":5719,"ØºØ§Ø±":5720,"ÙĪØ®":5721,"ĠØªÙĤØ¹":5722,"ĠØ§ÙĦØ«ÙĤØ§ÙģÙĬØ©":5723,"ĠØªØ§Ø³ÙĬØ³":5724,"ÙĩØ±Ø§ÙĨ":5725,"ÙħÙĨØ©":5726,"ÙĪØ§Ø±Ø¨":5727,"ĠØªÙĦÙħ":5728,"ĠØ¯Ø¹ÙĪØ©":5729,"ĠØ¨ÙĪØ³":5730,"ĠÙĦØ§Ø¹Ø§Ø¯Ø©":5731,"ØªÙħØ¯Ø©":5732,"ĠÙĦÙĦØ´Ø¹Ø±":5733,"ĠØ§ÙĦØ±Ø¨ØŃ":5734,"ĠØ´Ø§ÙħÙĦ":5735,"ĠØ§ÙĦÙĤÙĪÙĦ":5736,"ÙĨÙĬØ¹":5737,"ĠØ§ÙĦÙħØ§Ø¦Ø©":5738,"ĠØ³Ø±ÙĬØ¹Ø©":5739,"ĠÙħÙĩØ§Ø±Ø§Øª":5740,"Ø§ØªÙħ":5741,"ĠØ¨Ø¹ÙĨÙĪØ§ÙĨ":5742,"ĠØ§ÙĦØªÙĨØ¸ÙĬÙħ":5743,"ĠØµØ§Ø¨ÙĪÙĨ":5744,"ĠÙĤÙĨØ§Ø¹":5745,"ĠÙģÙħØ§":5746,"ÙħØŃ":5747,"ĠÙĪÙĦÙĨ":5748,"ĠØ§ÙĤØ§ÙħØ©":5749,"ĠØ·ÙĦØ§Ø¨":5750,"ĠÙħÙģÙĩÙĪÙħ":5751,"ĠÙħØ§Ø±ÙĥØ§Øª":5752,"ÙĪØ¯Ùĩ":5753,"ĠÙĪÙĬØ´":5754,"ĠØ¯ÙĬØ±":5755,"ĠØ§ÙĦØ²Ø¨":5756,"Ġ130":5757,"ĠØ®ÙħØ³Ø©":5758,"ĠÙĪØ§ÙĦØªØµ":5759,"ĠØ±Ø³ÙħÙĬ":5760,"ĠØ¨Ø§Ø¯":5761,"Ø°ÙĬØ¨":5762,"Ġ234":5763,"ĠÙħØµØ±ÙĬØ©":5764,"ĠÙĨØ§ÙĤÙĦ":5765,"ĠØ·ÙĬØ±Ø§ÙĨ":5766,"ĠØ§ÙĦØ¯ÙĤÙĬÙĤØ©":5767,"ÙĥØªØ§Ø¨Ø©":5768,"ĠØ§ÙĦØ¨ÙĨÙĪÙĥ":5769,"ĠØ¬ÙĬØ±":5770,"ĠØ§ÙĦØµØ§Ø¨ÙĪÙĨ":5771,"ĠÙħØµØºØ±Ø©":5772,"ĠØ§ÙĦÙħÙĤØ§ÙĪÙħØ©":5773,"ĠØªÙĪØ§ÙģÙĤ":5774,"ĠØ§ÙĤØ¯Ùħ":5775,"ØµÙĬØ¯":5776,"ĠØ§ÙĦØŃÙħØ¯":5777,"ĠØ®Ø§Ø±Ø¬ÙĬØ©":5778,"ĠØ§ØªØ¨":5779,"Ø±ÙĬØ¯Ø©":5780,"ĠØ§Ø³ØªÙĥ":5781,"ĠÙĥÙĪØ±ÙĬØ§":5782,"ĠÙħÙĨØ¬Ùħ":5783,"Ø§Ø¹Ùĩ":5784,"ĠØ§ÙĦÙħÙĩÙĨØ¯Ø³":5785,"ĠØ§ÙĦÙħØ´Ø§ÙĥÙĦ":5786,"ĠØ§ÙĦØ§ÙĨØªÙĤØ§ÙĦ":5787,"ĠÙħØ§Ø³ØªØ±":5788,"ĠØ§ÙĦÙħÙĬÙĦØ§Ø¯":5789,"ĠØ§ÙĦÙĨÙĩØ¶Ø©":5790,"ĠØŃØ§Ø¬Ø©":5791,"ĠÙĨÙĬÙĪÙĬÙĪØ±Ùĥ":5792,"ĠØ§ÙĦØ§Ø³ØªØ±Ø§ØªÙĬØ¬ÙĬØ©":5793,"ĠØ§ÙĦÙħØ·ØŃÙĨØ©":5794,"ĠÙĤØ§ÙĨÙĪÙĨÙĬØ©":5795,"ĠÙĨØ¨Ø§Øª":5796,"Ø²ÙĪØ¬":5797,"Ø«Ø§ÙĦ":5798,"ĠØ§ÙĨÙħÙĬ":5799,"Ø§Ø³ÙĪØ¨":5800,"ĠØ§Ø³ÙħÙĨØª":5801,"ØªÙĪØ¨":5802,"ĠØŃÙģØ±":5803,"ØµØ§Øª":5804,"ĠØ´Ùħ":5805,"ĠØ§ÙĦÙħØ¬ØªÙħ":5806,"ĠØ§ÙĦØŃØ§Ø³Ø¨":5807,"ĠÙħÙĪØ±":5808,"ĠØ§ÙĦØ°ÙĥØ±":5809,"ĠØ§ÙĦØ±ÙĪÙħ":5810,"ĠÙħÙĬØª":5811,"ĠÙħÙĨØ§Ø³Ø¨":5812,"ĠØŃØ¶":5813,"ĠÙħØ±Ø³":5814,"ĠØªÙĪØ±":5815,"ĠØ¹ØµØ±":5816,"ĠØ¨ÙĬØ¯":5817,"ĠØ«ÙĤÙĬÙĦØ©":5818,"ĠÙĨÙĤØ¯":5819,"ĠÙĨØ¬Ùħ":5820,"ĠØ§ÙĦØ¹ÙĬÙĪÙĨ":5821,"ĠØ°Ø§":5822,"ĠØ§ÙĦØ¯ÙĪÙĦÙĪÙħÙĬØª":5823,"ĠØ§ÙĦØŃÙħØ±Ø§Ø¡":5824,"ĠØ§ÙĦÙħØ±Ùĥ":5825,"ĠÙħÙĪØ³Ùī":5826,"ĠØ§ÙĬÙĦÙĪÙĦ":5827,"ĠØŃØ§ÙĪÙĦ":5828,"ĠØ§ÙĦØªÙĪÙĨØ³ÙĬ":5829,"ĠØ§Ø±Ø¯ÙĪ":5830,"ĠÙĪØ§ÙĦÙħØ¤":5831,"ĠØ§ÙĦØ«Ø§ÙĨÙĪÙĬ":5832,"ĠØ¨ÙĤÙĬ":5833,"ØŃÙĬØ¯":5834,"Ø§Ø´Ø¯":5835,"ĠÙħÙĪØ§Ø·ÙĨ":5836,"ĠØ§ÙĦØ§Ø¯ÙĪØ§Øª":5837,"ĠØ§ÙĦØ±Ø¦":5838,"ĠØ§Ø³ØªÙģØ³":5839,"Ø´ÙĪ":5840,"ĠÙħØ³ØªÙĦØ²ÙħØ§Øª":5841,"ĠØªØ³ÙĦÙĬÙħ":5842,"ĠØ§ÙĦÙħØ±Ùģ":5843,"ĠØ¬Ø±ÙĬÙħØ©":5844,"ĠØ³ÙĪØ¯":5845,"Ø³ÙĥØ±":5846,"Ø¬ØªÙħØ¹":5847,"ĠØ§ÙĦÙģÙĪ":5848,"ĠÙĬØ·ÙĦÙĤ":5849,"ĠØ¶Ø±ÙĪØ±Ø©":5850,"ĠØ§ÙĦÙģÙĬØª":5851,"ĠØ¨ØŃØ§Ø¬Ø©":5852,"ĠØ§ÙĦØ§ÙģØ±ÙĬÙĤÙĬ":5853,"Ø§ÙĥÙĩ":5854,"ĠØªØ¯Ø±ÙĬØ¨":5855,"ĠØ§ÙĦØ·ÙĤØ³":5856,"ĠØ¬Ø§ÙĨ":5857,"ĠÙĬØ¯Ø®ÙĦ":5858,"ĠØ³ØªØ±":5859,"ĠØ§Ø±ÙĬØ¯":5860,"ĠÙĦØ³ØŃÙĤ":5861,"ĠØªØ¬Ø¯ÙĬØ¯":5862,"Ø§Ø±Ùħ":5863,"ĠØ§Ø¨ØŃØ«":5864,"ØªØµÙģ":5865,"ØŃÙĤÙĤ":5866,"ĠØŃÙģØ§Ø¶Ø§Øª":5867,"ĠÙĨØ®":5868,"ÙĪØ§Ø±Ø¹":5869,"ĠØ§ÙĦØªÙĤÙĪÙĬÙħ":5870,"Ġ68875":5871,"ĠØ§Ø®Øª":5872,"ĠØ§ÙĦØ²ÙĬØªÙĪÙĨ":5873,"ĠØ¨ÙĤÙĬÙħØ©":5874,"ĠØ§ÙĦÙħÙħÙĥÙĨ":5875,"ĠÙħØ·Ø¨Ø®":5876,"Ø¯Ø±Ø§Ø³Ø©":5877,"ĠÙħØ¬Ø¯":5878,"ÙĤØ¨":5879,"ĠÙĪØ³ÙĪÙģ":5880,"ĠØ§ÙĦÙħÙĤØ¯Ø³":5881,"ĠÙĪØ§ÙĨØª":5882,"ĠØªØ¬Ø§Ø±":5883,"ØªØ±ÙĪÙĦ":5884,"ĠØ³Ø¨ÙĤ":5885,"ĠØ§ÙĦØŃØ§ÙĦÙĬØ©":5886,"ĠØ§ÙĦÙĩØ¯Ùģ":5887,"ĠØªÙĪØ§Ø¬Ùĩ":5888,"Ø±Ø§Ø¦Ø¨":5889,"ĠØ§ÙĦØ§ÙĨØª":5890,"ĠØ§ÙĦÙĥÙĦØ§Ùħ":5891,"ĠÙħÙģØ§Ø¬":5892,"ĠØ§ÙĦÙĪØ§ØŃØ¯":5893,"ÙĬÙĪØ³":5894,"Ġ196":5895,"ĠØ§ÙĦØŃØ§Ø¬Ø©":5896,"Ø§ÙģÙĦ":5897,"ĠØ§ÙĦÙĨØªØ±ÙĬÙĦ":5898,"ĠØ§ÙĦØ¹ÙĬØ¯":5899,"ĠØ§ÙĦØ¯ÙħØ§Ùħ":5900,"ĠÙħÙĦØ§ÙĬÙĬÙĨ":5901,"ĠÙĪØ§ÙĦØ¨ÙĬ":5902,"ĠØ§ÙĦÙĥÙĦÙĬ":5903,"ĠØ§ÙĦØ°Ùī":5904,"ÙĬØ¨ÙĬØ©":5905,"Ø§ÙĤÙģ":5906,"ĠÙħØ¹ÙĦÙħ":5907,"ĠØªÙģØ§Ø³ÙĬØ±":5908,"ĠØ³ÙĦÙħ":5909,"ĠØ§ÙĦØ§ÙĥØ¨Ø±":5910,"ØµØ§ÙĨ":5911,"ÙĩØ§Ø¬":5912,"ĠØ§ÙĦØ·ÙĬØ±Ø§ÙĨ":5913,"ĠÙħØªÙī":5914,"ĠØ§ÙĦÙĥØ§Ø´":5915,"Ø§ØµÙĦØ§ØŃ":5916,"ĠØ§ÙĦØ¯Ø±Ø§Ø³ÙĬØ©":5917,"ĠØ§ÙĦØ¬ÙĬØ²Ø©":5918,"Ø§Ø«Ø±":5919,"ĠØªØ³Ø¨Ø¨":5920,"ĠÙĦÙĦÙħØ³Øª":5921,"Ø³ÙĬØ³":5922,"ĠØ±ÙĪÙĨ":5923,"Ø§ÙĦÙĬÙĩ":5924,"ĠÙĪÙħØµ":5925,"ĠÙħØ§Ø³ÙĨØ¬Ø±":5926,"ĠØ¹Ø´Ø±Ø©":5927,"ĠØ§ÙĦØ±Ø³ÙĪÙħ":5928,"ĠØªÙĨØ³ÙĬÙĤ":5929,"ĠØ¨ÙĩÙħ":5930,"ĠÙĪÙĩÙĨØ§Ùĥ":5931,"ĠØ§ÙĦÙħÙĥØ±":5932,"ĠØ§Ø¹ØªÙĤØ§ÙĦ":5933,"ĠØ¨Ø§ÙĦØ¬ÙħÙĦØ©":5934,"ØªØ±ÙĬØ§Øª":5935,"Ġ71":5936,"ĠÙĪØ§ÙĥØ«Ø±":5937,"Ø¬ØŃ":5938,"ĠÙĦØªÙĤØ¯ÙĬÙħ":5939,"Ġ94":5940,"ĠØ´ÙĨØºÙĩØ§ÙĬ":5941,"ÙĨØ§Ø·ÙĬØ³ÙĬ":5942,"ĠØ§Ø¹ØªØ¨Ø§Ø±":5943,"ĠØ§Ø¬ÙĨØ¨ÙĬ":5944,"ĠØªØ±Ø§Ø¬Ø¹":5945,"ĠÙĪØµÙģØ§Øª":5946,"ĠÙħØ³Ø§Ø¨ÙĤØ©":5947,"ĠÙĦÙĬÙĪÙħ":5948,"ĠØ«ÙĦØ§Ø¬Ø§Øª":5949,"ĠÙĦØªØŃØ³ÙĬÙĨ":5950,"ĠØ§ÙĦØ³Ø§Ø®ÙĨ":5951,"Ø¶ÙħØ§Ùħ":5952,"ĠØ±Ø®ÙĬØµØ©":5953,"ĠØ®Ø·Ø§":5954,"ĠØ§ÙĦØ¬ÙĩØ§Øª":5955,"ĠØ§ÙĦØ§Ø±Ø§Ø¶ÙĬ":5956,"ĠÙĦÙĦÙħØ´":5957,"ÙĤØ¯ÙħØ©":5958,"Ø¬ÙħØ§ÙĨ":5959,"ĠÙĦØªØ³":5960,"34":5961,"Ø±Øµ":5962,"ĠÙĦØ§Ùģ":5963,"ĠØŃØ¯ÙĬØ¯":5964,"ĠØ¨Ø§ÙĬØ¯ÙĨ":5965,"ĠØ§ÙĦØ±Ø§Ø¦Ø¯Ø©":5966,"ĠÙĦØŃØ¸Ø©":5967,"ØªÙħÙĨÙī":5968,"Ø¹ÙĪØ¯Ø©":5969,"ĠØ§ÙĥØªØ´Ùģ":5970,"ĠÙĨÙģØ³Ùĥ":5971,"ĠØ§Ø³ÙģÙĦ":5972,"ĠØ§ÙĥØ§Ø¯ÙĬÙħÙĬØ©":5973,"ĠØ§ØºÙĦØ§ÙĤ":5974,"ĠØ±Ø¶ÙĬ":5975,"ÙĥÙĦØ§Øª":5976,"ĠØ§ÙĦØ§Ø¨Ø§ØŃÙĬØ©":5977,"ĠØªÙĪÙĤÙĬØ¹":5978,"ĠØ§ÙĦÙħØ®Ø±ÙĪØ·ÙĬØ©":5979,"ĠÙĪØ°":5980,"ĠØ§ÙĦÙĪÙĤØ§ÙĬØ©":5981,"26":5982,"ĠØ§ÙĦÙĨØ¬Ø§ØŃ":5983,"ĠØ§ÙĦØ«Ø¯ÙĬ":5984,"ĠØ¨ÙĤÙĪØ©":5985,"ĠØ¹Ø³ÙĥØ±ÙĬØ©":5986,"ĠØ§ÙĦØ¨ÙĬØ§ÙĨ":5987,"Ø§ÙħØ¨ÙĪ":5988,"ĠÙĨÙĩØ§Ø¦ÙĬ":5989,"ĠÙĪÙĦÙĩ":5990,"ÙĪØ¬ÙĪØ¯":5991,"ĠØ§ÙĦØ³ÙĨÙĪØ§Øª":5992,"ÙĪÙĨÙĬØ§":5993,"ĠÙĦÙĦØ¯Ø±Ø§Ø³Ø§Øª":5994,"ĠØ§ÙĦØ§ÙĦÙĪØ§ÙĨ":5995,"ĠÙĨÙĩØ±":5996,"ĠÙĦÙħÙĪØ§Ø¬ÙĩØ©":5997,"Ø§ÙĩØ¨":5998,"ĠØ§ÙĦÙģÙĥØ±":5999,"ØŃÙĦ":6000,"ĠÙĦÙĦØ§ØŃ":6001,"ĠÙĪØ¬Ø¯":6002,"ĠØªØ§Ùħ":6003,"ĠÙģØ§Ø³":6004,"ĠØ§ÙĦØªØºÙĬÙĬØ±":6005,"ĠØ§ØŃÙħØ±":6006,"ĠØ§ÙĦÙħØ´ÙĥÙĦØ©":6007,"Ø§ÙĨØª":6008,"Ø³ÙĥÙĪ":6009,"ĠÙĨØ³Ø§Ø¦ÙĬØ©":6010,"ĠÙĪØªØ¯":6011,"ĠØ§ÙĦØ±ÙĤÙħÙĬ":6012,"ĠÙĩÙī":6013,"ĠØ§ÙĦØ§ÙħÙĬØ±ÙĥÙĬØ©":6014,"Ġ2004":6015,"ĠØ§ÙĦØ¨ÙĪÙĦ":6016,"Ø§Ø¨ÙĤØ§Øª":6017,"ĠØ§ÙĦÙĤØ±ÙĬØ¨Ø©":6018,"ĠÙĬØŃÙĬ":6019,"ĠØªÙĩÙĨØ¦Ø©":6020,"ØªÙģØ³":6021,"ĠØ§ÙĦØ¨ÙĪØ±":6022,"ĠÙģØ§Ø°Ø§":6023,"ĠØ§ÙĦØ±Ø³ÙĪÙĦ":6024,"ÙħØ§ÙĦÙĬØ©":6025,"ĠÙĪØŃØ¯Ø§Øª":6026,"Ø§Ø±Ø³Ø§ÙĦ":6027,"ĠØ§ÙĦØ¨ÙĬØ§ÙĨÙĬ":6028,"ØªÙĦÙĥ":6029,"ĠØ§ÙĦÙĨØ¬":6030,"ĠØ§ÙĦÙĤÙħØ±":6031,"ĠØ§ÙĦØ§Ø³ØªØ«Ùħ":6032,"ĠØ§ÙĦÙĥÙĦÙĬØ©":6033,"Ġ459":6034,"89":6035,"ĠÙģÙĬØ³":6036,"ĠØ¨ÙĥÙĪØ±ÙĪÙĨØ§":6037,"ĠÙĦØŃÙħØ§ÙĬØ©":6038,"ÙĬÙģÙĬ":6039,"ĠØ§ØŃØµ":6040,"Ø±ÙĤÙĬØ©":6041,"ĠÙĨÙĪØ¹ÙĬØ©":6042,"ĠÙħØ³Ø¬Ø¯":6043,"ĠÙħÙĨØ²":6044,"Ġ91":6045,"ĠØ¯ÙĪÙĦÙĬØ©":6046,"ĠØ¬ÙĪÙĦ":6047,"ĠÙģØ³Ø§ØªÙĬÙĨ":6048,"ĠØ§ÙĦØªÙĤØ±ÙĬØ±":6049,"ĠÙħØ´ØªØ±Ùĥ":6050,"Ø·ÙĪØ±Ø©":6051,"ĠØ®ÙĬØ§Ø±":6052,"ĠØ§ÙĦØ«ÙĤØ§ÙģÙĬ":6053,"ĠØ³ÙĦØ§Ùħ":6054,"Ø§ÙĥØ¨":6055,"ĠØºØ§ÙĦØ¨":6056,"ĠØ§ÙĦØ±Ø´":6057,"ĠÙħÙĨØªØ®Ø¨":6058,"Ø§ÙĪÙī":6059,"ĠØªÙĪØ¨":6060,"ĠØ§ÙĦØ¯ÙĩÙĪÙĨ":6061,"ĠØ¹Ø·Ø±":6062,"ĠÙĦÙĦØªØµ":6063,"ĠØ§ÙĦÙģÙĬØ²ÙĬØ§Ø¡":6064,"ĠØ§ÙĦØ±ÙĪØŃ":6065,"ĠØ§ÙĦÙĤØ§Ø¯Ùħ":6066,"ĠØ§ÙĦØªØŃÙĦÙĬÙĦ":6067,"ĠØµÙģØŃØ§Øª":6068,"ĠÙĩØ´":6069,"ĠØ¹ÙĦØ§ÙĤØ§Øª":6070,"ĠØ¨Ø¬Ø¯Ø©":6071,"ĠØ§ÙĦÙĥØªØ§Ø¨Ø©":6072,"ĠÙħØ¹ÙĬÙĨØ©":6073,"ĠØ®ÙĦÙģÙĬØ§Øª":6074,"ĠØ§ÙĦØ°Ùĩ":6075,"ĠØŃØ¬Ø²":6076,"ĠØ¬ÙħØ§Ø¹Ø©":6077,"ĠØ§ÙĦÙĦÙĬÙĦ":6078,"ĠØ§ÙĦÙħØ¨Ø§Ø±Ùĥ":6079,"ĠÙĤÙħØª":6080,"ĠÙĥÙĪØ¨ÙĪÙĨ":6081,"ĠÙĥÙħØ¨ÙĬÙĪØªØ±":6082,"ĠÙĪØ±ØŃ":6083,"ØªØ±ØŃ":6084,"ÙĪØ¯Ø§":6085,"ĠØ§ÙĦØ§ÙĩÙĦÙĬØ©":6086,"ĠÙĦÙĬÙĨÙĥØ¯Ø§ÙĨ":6087,"ĠØ§ÙĦØ´ÙĥÙĦ":6088,"ĠÙħØ¹Ø§ÙĬÙĬØ±":6089,"ĠØ§ÙĦØªØŃØ§ÙĦÙģ":6090,"ĠØ§Ø«ÙĨÙĬÙĨ":6091,"ĠØªØµØ±ÙĬØŃ":6092,"ĠÙĦØ§ÙĤ":6093,"Ø¨Ø¹Ø©":6094,"ØªØ¨Ø·Ø©":6095,"ĠÙĪØ¬ÙĩØ©":6096,"ĠÙĤØ§Ø¨ÙĦ":6097,"ĠØ§ÙĬØ¬Ø§Ø±":6098,"ĠØ³ÙĦÙĬÙħ":6099,"ĠÙĪØ§ÙĦØ§Ùĥ":6100,"ĠØ·Ø§Ø±ÙĤ":6101,"ĠÙħÙħØ«ÙĦ":6102,"Ø§ÙĩØ¯Ø§Ùģ":6103,"ĠØ§ÙĦØŃØ±Ø§Ø±ÙĬØ©":6104,"Ø±ÙĪÙģØ©":6105,"ĠØ§ÙħØ±ÙĬÙĥÙĬØ©":6106,"ÙħÙī":6107,"ĠØ§ØªØµØ§ÙĦ":6108,"ĠØ§ÙĦÙħØ§Ø±ÙĥØ©":6109,"ĠØ§ÙĦØ³ÙĬØ·Ø±Ø©":6110,"ØªÙħÙĥÙĨ":6111,"ÙĥÙĬÙĥ":6112,"Ø¸Ø§Ùĩ":6113,"ĠØ¨Ø§Ø±Ùĥ":6114,"Ø³ØªÙĩØ§":6115,"ĠØ§ÙĦØ³Ø§Ø®ÙĨØ©":6116,"ĠØªØ®Øµ":6117,"ĠØ§ÙĦØ§Ø±Ø¯ÙĨÙĬØ©":6118,"ĠØªØªØ¶ÙħÙĨ":6119,"ĠØ§ÙĦÙģØ¦Ø©":6120,"ĠØ§ÙĦØµØ±Ùģ":6121,"ĠØ§ÙĦÙĤØ§Ø¶ÙĬ":6122,"ÙĪÙĨØº":6123,"ĠØ³ÙĦØ§ÙħØ©":6124,"ÙĪÙģØ©":6125,"ĠÙħØ¨Ø±":6126,"ĠØ¹Ø§Ø´":6127,"ĠÙĤØ§Ø¦Ø¯":6128,"ĠØ§ÙĦÙĦÙĩÙħ":6129,"ĠÙĤØ±Ø§Ø±Ø§Øª":6130,"ĠØ§ÙĦØ³ÙĬØ±Ø©":6131,"ĠØ§ÙĦØ¬Ùĩ":6132,"ĠØ§ÙĦØµØºÙĬØ±":6133,"ĠÙģÙĬØµÙĦ":6134,"ĠÙĦÙĪÙĥ":6135,"ĠØ¨Ø§Ø³Ø¹Ø§Ø±":6136,"ĠØ¹ÙĬØ³Ùī":6137,"ĠØ§ÙĦØ¬Ø§Ø±ÙĬ":6138,"Ġ160":6139,"ĠÙĪØ§ÙĦÙģØ±":6140,"ĠØ§ÙĦØ¹ÙģØ´":6141,"ĠØ§Ø°ÙĨ":6142,"Ø·ÙĬÙĨ":6143,"Ø¯ÙĬÙĩ":6144,"ĠÙĪÙħÙĨØªØ¬Ø§Øª":6145,"ĠØ§ÙĦØ§Ø¶Ø§ÙģØ©":6146,"ÙĪÙĬÙĩ":6147,"ĠÙħØ³ØªØ¹ÙħÙĦ":6148,"ĠØªØ¹ØªÙħØ¯":6149,"ĠØ§ÙĦØ²Ø±Ø§Ø¹ÙĬØ©":6150,"ĠØ§ÙĦØ§ÙĨØªØ®":6151,"ĠØ§ÙĦÙħØ³ÙĬØŃ":6152,"ĠØ§ÙĦØªØ§ÙħÙĬÙĨ":6153,"ĠÙĤÙĪÙĬ":6154,"ĠÙĨÙħØ§Ø°Ø¬":6155,"ĠØ§ÙĦØ³Ø¯Ø§Ø³ÙĬ":6156,"Ø°Ø§Ø¡":6157,"ĠØªÙĨÙħÙĬØ©":6158,"ĠÙĬÙĨØ¨ØºÙĬ":6159,"ĠÙĪØ§ÙĦØªÙĤ":6160,"ĠØ´Ø§ÙħÙĦØ©":6161,"Ø²Ø²":6162,"Ø§Ø·ÙĬÙĦ":6163,"Ø±ÙĬØ¨ÙĬ":6164,"ĠØ§ÙĦØ±ÙĪØ§":6165,"ĠØ°ÙĪÙĬ":6166,"ØªØ¨Ø§Ùĥ":6167,"ĠØ¨Ø¯ÙĦØ§":6168,"ĠØ§ÙģØ±Ø§Ø¯":6169,"ĠØ§ØªØ®Ø§Ø°":6170,"ĠÙģØ±ÙĤ":6171,"ĠØ¨Ø§Ø³Øª":6172,"ĠØ§ÙĦÙħØ§ÙĦÙĥÙĬ":6173,"ĠØ§ÙĦÙħØ³Ùħ":6174,"ĠØ§ÙĦÙħØ¬Ø§ÙĨÙĬØ©":6175,"ØºÙĦØ§ÙĦ":6176,"ĠØ®Ø§ÙĦÙĬØ©":6177,"ĠØ¨Ø§ÙĦÙĤØ§ÙĩØ±Ø©":6178,"ĠØªÙĦÙĤÙĬ":6179,"ĠÙĬØ·Ø§ÙĦØ¨":6180,"ĠÙĥØªÙĦØ©":6181,"ĠÙĩÙĥØ°Ø§":6182,"ĠØ³Ø¨Øª":6183,"Ø¯Ø±Ø§ÙĨ":6184,"Ø³ØªØ§ÙĨÙĬ":6185,"Ø¦ÙĨØ§Ùģ":6186,"Ø¶Ø±ÙĪØ±Ø©":6187,"ĠÙħØ¬Ø±Ø¯":6188,"ĠØ§Ø±Ø¨Ø¹":6189,"ÙĪØ§Ø±Ø¦":6190,"Ø«ÙĬÙĤ":6191,"ĠÙĪØªØŃÙħÙĬÙĦ":6192,"Ø§ÙĩÙħØ©":6193,"ÙĪØ§Ø¬Ùĩ":6194,"Ø·Ø§Ø¹":6195,"ÙĪÙħÙĬÙĨ":6196,"Ø¹Ø¯Ø©":6197,"ĠØ²Ø¨":6198,"ĠØ§Ø®ÙĬ":6199,"ÙĬØ²Ø§ÙĨ":6200,"ĠÙģØ±ÙĨ":6201,"ĠØªØ³ÙĪÙĬÙĤ":6202,"ĠÙģÙĦÙħ":6203,"ĠØ¨ÙĦØ§Ø¯":6204,"ĠØŃØ¨ÙĪØ¨":6205,"ĠØ§ÙĦØ³ÙĬÙĨÙħ":6206,"ĠØ§ÙĦÙħÙĥØªØ¨Ø©":6207,"ĠØ¬Ùĩ":6208,"ĠØ§ÙĦÙĤÙĨØ¨":6209,"ĠÙģØ§ØµÙĦ":6210,"ĠÙĪØ§ÙĦÙħØ¯":6211,"ĠÙģØ¦Ø©":6212,"ĠØªØ¬Ø§Ø±Ø©":6213,"ĠØ§ÙĩÙĦØ§":6214,"ĠØµØ¯ÙĪØ±":6215,"ĠØ§ÙĦØ´Ø§Ø¹Ø±":6216,"ĠØ§ÙĦÙĩÙĨØ¯ÙĬ":6217,"ĠØ§Ø³ØªÙĤØ¨Ø§ÙĦ":6218,"ĠØ§ÙĦØ³Ø±Ø¹Ø©":6219,"ĠØ§ÙĦÙĦØºØ§Øª":6220,"Ġ92":6221,"ĠØŃØ¶ÙĪØ±":6222,"Ø±ÙĪÙĬØ¬":6223,"ĠÙħÙĤØ¯":6224,"Ø§Ø²ÙĪÙĨ":6225,"ĠØ§ÙĦÙħØ¬Ø§ÙĦØ§Øª":6226,"ĠØ§ÙĦØ§Ø«Ø§Ø±":6227,"ĠØ±ÙĪØ¨":6228,"ÙĥÙĦÙħ":6229,"ĠØ§ÙĦÙĦÙĪ":6230,"ĠØ§Ø¬Ø¹ÙĦ":6231,"ĠØ¯ÙĪØ±Ø§Øª":6232,"ĠØ®Ø¨Ø±Ø§Ø¡":6233,"ĠØ´Ø±ÙĥØªÙĨØ§":6234,"ĠÙħØ³ÙĦÙħ":6235,"Ø±ÙĪØ±ÙĬ":6236,"ĠØ§ÙĦÙħØ®ØªØµ":6237,"ĠØ§ÙĦÙĥÙģ":6238,"ÙĨØ¯Ø³ÙĬÙĨ":6239,"ĠÙĨØ³Ø®":6240,"Ø§ÙĪÙĬÙĨ":6241,"ĠØ§Ø¬ÙħØ§ÙĦÙĬ":6242,"Ø±Ø§Ùħ":6243,"ĠØ§ÙĦÙĦØ§Ø¬":6244,"ĠØªØ¬Ø±Ø¨":6245,"ĠØªØ®Ø²ÙĬÙĨ":6246,"ØªÙĤØ¨Ø§ÙĦ":6247,"ĠÙģØ±Ø¶":6248,"ĠÙĥØ¨Ø§Ø±":6249,"Ø§Ø±Ø¯Ø©":6250,"ĠÙĪÙħØ¹Ø¯Ø§Øª":6251,"ĠÙħØ³ØªÙĪÙĬØ§Øª":6252,"ĠØ§ÙĦØ·Ø¨ÙĬØ¹Ø©":6253,"ĠØ¨Ø·ÙĦ":6254,"Ø³ÙĬÙĬØ±":6255,"Ø·ÙĨØ©":6256,"ĠØ§ØªØ¬Ø§Ùĩ":6257,"ĠÙħØªÙĥ":6258,"ĠÙĥØ±Ø§Øª":6259,"ĠØ¯ÙĬÙĪØ§ÙĨ":6260,"ĠÙĦØ§ÙĬÙģ":6261,"ÙĦÙĪ":6262,"ĠÙĪØ§ÙĦØªÙħ":6263,"Ø¹Ø¯ÙĬØ¯":6264,"Ø±ÙĪØ§Øª":6265,"ĠØ§Ø³Ø§Ø³ÙĬØ§Øª":6266,"ĠØ§ÙĦØ´Ø¤ÙĪÙĨ":6267,"ĠÙĪØ§Ø³ØªØ®Ø¯Ø§Ùħ":6268,"ĠØ§ÙĨØ¬ÙĦ":6269,"ĠØ³ØªØŃ":6270,"ĠÙĨÙĬØ³Ø§ÙĨ":6271,"ĠØ§ÙĦØŃÙĤÙĬÙĤÙĬ":6272,"ĠØ§ÙĦØ§Ø³ØªØŃ":6273,"ĠÙĬØ¨ÙĦØº":6274,"ĠØ³ØªÙĥÙĪÙĨ":6275,"ĠØ§ÙĦØ¹Ø¸ÙĬÙħ":6276,"Ø´Ø±ÙĪÙĨ":6277,"ĠØ³ÙĬØª":6278,"ĠÙĪØ§ÙĦÙħØµ":6279,"ĠÙĪØ§ÙĦØ«ÙĤ":6280,"ĠÙĬØªÙģ":6281,"Ø±Ø³":6282,"ĠØ¬Ø°":6283,"Ø·ÙĪØ·":6284,"ĠÙĬÙĦØ§":6285,"ĠØ§ÙĦØªØºØ°ÙĬØ©":6286,"ĠÙħÙĥÙĪÙĨØ§Øª":6287,"ĠØ§ÙĦØ¹ÙĤØ§Ø±ÙĬ":6288,"ĠÙĦÙĨÙĤÙĦ":6289,"ĠÙĦØŃÙħ":6290,"ĠØ§ÙĦØ§ÙħÙĦ":6291,"ØªØ±Ø¶":6292,"ÙĬØ¨ÙĬØ¯ÙĬØ§":6293,"Ø§ÙĩØ§":6294,"ĠÙĨÙħÙĪ":6295,"ĠØ§Ø¶Ø·Ø±":6296,"ĠØªØ§ÙħÙĬÙĨ":6297,"ĠÙĪØ§ÙĬØª":6298,"ĠÙĬØŃÙħÙĦ":6299,"Ø°Ø§Ø±":6300,"Ø«Ø±Ø©":6301,"ĠØ§ÙĦÙĪØ§ÙĨ":6302,"ØªÙĩØ§Ø¡":6303,"ØŃÙĤØ§Øª":6304,"ĠØ§Ø¨Ø¯":6305,"ĠØ¯Ùī":6306,"ÙĬØ±ÙĪ":6307,"ĠÙģÙĦÙĦ":6308,"ĠØªØ®ÙģÙĬ":6309,"ĠØ§ÙĦÙģØ³":6310,"ĠØ§ÙĦØ¯ÙĤÙĬÙĤ":6311,"ĠÙħÙĤØ§ÙĦ":6312,"Ġ180":6313,"Ø§Ø¨ÙĬØ¹":6314,"ĠØ§ÙĦÙħÙĨØ²ÙĦÙĬ":6315,"ĠØ¹Ø§Ø¦ÙĦØ©":6316,"ĠÙĪØ®Ø§ØµØ©":6317,"Ø¬Ø§Ùħ":6318,"ĠØ§ÙĦÙĬÙħÙĨÙĬ":6319,"ĠØ§ÙĦÙĬØ©":6320,"ØªØ¨Ùĩ":6321,"ĠÙħØ§Ø¡":6322,"ĠÙĦÙĦØ¹Ø§Ùħ":6323,"ĠØ§ÙĦØºØ±Ø¨":6324,"ĠØ§ÙĦØ¹ÙĨÙģ":6325,"ÙĪÙģÙĬ":6326,"Ø®ÙģØ¶Ø©":6327,"ĠØ¯ÙĤÙĬÙĤ":6328,"ÙģÙī":6329,"ĠÙħÙĬØ³ÙĬ":6330,"Ġ1482":6331,"ĠØ§ÙĦØªØ§Ø±ÙĬØ®ÙĬØ©":6332,"Ø±ÙĬØ´":6333,"ĠØŃØ§Øµ":6334,"ĠØ´Ø¹Ø§Ø±":6335,"Ø¹Ø±Ø§ÙĤ":6336,"ĠØ«ÙĪØ±Ø©":6337,"ĠØŃØ±ÙĬÙĤ":6338,"ĠØ§ÙĦÙħØ³ØªØ´ÙģÙī":6339,"ĠØ§Ø·Ø¨Ø§ÙĤ":6340,"ÙģÙĦØ§Øª":6341,"ĠØ§ÙĦÙĤØ§Ø±Ø¦":6342,"ĠÙĬØ¹ÙĬØ´":6343,"ØªØ§Ùħ":6344,"ĠØŃØ¸":6345,"ĠØªØ¹ÙĪØ¯":6346,"ÙĨÙĪØ¨":6347,"ĠÙĦÙĬÙĦ":6348,"Ø¬Ø±Ø§Ùħ":6349,"ĠØ§ÙĦØ¨Ø±Ø§Ø²ÙĬÙĦ":6350,"ĠØ§ÙĦØŃØ§Ø¬":6351,"ĠÙħØ¸ÙĦØ§Øª":6352,"ĠØ±ØŃÙħÙĩ":6353,"ĠØŃÙĤÙĤ":6354,"ĠØŃÙĬØ¯Ø±":6355,"ĠØ§ÙĦØ¹Ø¶ÙĪÙĬØ©":6356,"ĠØ§ÙĦØ±Øº":6357,"ĠØ®Ø·Ø§Ø¨":6358,"ĠØ§ÙĤÙĦÙĬÙħ":6359,"ĠØ§ÙĦÙĨØ§Ø¯ÙĬ":6360,"ĠØ§ÙĦØ®Ø´Ø¨":6361,"Ġ2005":6362,"ĠØ§ÙĦÙĨÙħÙĪØ°Ø¬":6363,"ĠØµØŃÙģÙĬ":6364,"ĠØ§ÙĦØ²Ø±Ø§Ø¹Ø©":6365,"ĠØ§ÙĦØ¬Ø¯Ø¯":6366,"ĠØ§ÙĥØªØ´Ø§Ùģ":6367,"ĠØ§ÙĦØ±ÙĪØ³ÙĬ":6368,"ĠØŃØ¶Ø±":6369,"ĠØ¯ÙĬØ¨":6370,"ĠØ·ÙĪØ§ÙĦ":6371,"Ø§ÙĥÙĬ":6372,"ĠØ§ÙĦÙħØ³Ø¬Ø¯":6373,"ĠÙģÙĩØ¯":6374,"ĠØ¨Ø±Ø§Ø¨Ø·":6375,"ÙģØ±Ø§Øª":6376,"ĠØ§Ø³Ø±Ø§Ø±":6377,"Ø§Ø°ÙĨ":6378,"ĠÙģÙĬØ¯ÙĬÙĪÙĩØ§Øª":6379,"Ø§ÙħÙĨØ©":6380,"ĠÙģØ´ÙĦ":6381,"ĠØ§ÙĦØªÙĦÙĤ":6382,"ĠØ²ÙĬØ§Ø±":6383,"ĠÙħÙĪØ³ÙĪØ¹Ø©":6384,"ĠØ§ÙĦØ®Ø¨Ø«":6385,"Ġ7694":6386,"ĠØµØ±":6387,"ÙģØ§ÙĨ":6388,"ĠÙĥØ³Ø§Ø±Ùĩ":6389,"ÙĤÙĦØ§ÙĦ":6390,"ĠÙĬØ³ÙħØŃ":6391,"Ø¨ÙĬØ§ÙĨ":6392,"ĠØ§ÙĦÙĪÙĦØ§Ø¯Ø©":6393,"ĠØ§ÙĦÙĪØŃÙĬØ¯":6394,"Ø§Ø¯ÙĦØ©":6395,"ĠØªÙħÙĪÙĬÙĦ":6396,"ĠØ§ÙĤØ³Ø§Ùħ":6397,"Ø±Ø¨Øª":6398,"Ġ320":6399,"ĠÙħØŃÙĦØ§Øª":6400,"ĠØ§ØºØ§ÙĨÙĬ":6401,"Ø§ÙĦÙģØ©":6402,"ØªØ§Ø¨Ø¹":6403,"Ø§Ø¨Ø®":6404,"ĠÙĦÙĦØ§Ø®":6405,"ÙĬÙĨØ¬":6406,"ĠØ´Ø§Ø¡":6407,"ĠØ§ÙĦÙħØ³Ø¤ÙĪÙĦÙĬØ©":6408,"ĠØ§Ø±Ø¯ÙĪØºØ§ÙĨ":6409,"ĠØ¹Ø¯ÙĬØ¯Ø©":6410,"ĠÙħØªÙħ":6411,"ĠØ®ØµØ§Ø¦Øµ":6412,"ĠØ§ÙĦÙħØ¯ÙĪÙĨØ©":6413,"ĠÙĬØ³ØªÙĤØ¨ÙĦ":6414,"Ø¶Ùģ":6415,"ĠØ§ÙĦØ§Ø·Ø¨Ø§Ø¡":6416,"ĠØªÙĪØ¶ÙĬ":6417,"ĠØ§Ø¯ÙĬØ¯":6418,"ĠØ§ØµÙĪÙĦ":6419,"ĠØ§ÙĦÙħÙĦÙĥÙĬ":6420,"ĠØ§ÙĨØªÙĤ":6421,"ĠØ§ØŃØ¨":6422,"Ø§ÙĩÙĬ":6423,"ĠØ§ÙĦÙħØŃØ§ÙģØ¸Ø©":6424,"ĠØ§ÙĦØµØŃÙĬØŃ":6425,"ĠØªÙĤÙĨÙĬØ§Øª":6426,"ĠØªØ´Ø§Ø±Ùĥ":6427,"Ø§Ø²ÙĬØ©":6428,"ĠØ§ÙĦØ§Ø¬Ø§Ø¨Ø©":6429,"ĠØ§Ø¯ÙĬØ¯Ø§Ø³":6430,"ĠØ§ÙĦÙħÙĨØ§Ø®":6431,"ĠØ³ÙĬÙĨØ§Ø¡":6432,"ĠÙĪÙĬÙĥÙĬØ¨ÙĬØ¯ÙĬØ§":6433,"ĠØªÙħØ«ÙĦ":6434,"Ø§ØºØ±Ø©":6435,"ØŃØµ":6436,"ĠØ±ÙĪÙħØ§ÙĨ":6437,"ĠÙĨØ¸Ùħ":6438,"ÙĩØ¯Ø§Ø¡":6439,"ĠØ§ÙĦÙħØ°Ùĥ":6440,"Ø±ÙĬÙĩ":6441,"ĠÙĪÙħÙħ":6442,"ĠØªÙĪÙĤØ¹Ø§Øª":6443,"Ø²Ùĩ":6444,"ĠØ§ÙĦØµÙĬÙĨÙĬ":6445,"ĠØªØ²ÙĬØ¯":6446,"ĠØ§ÙĦÙħØ¹ÙĦØ¨Ø©":6447,"ĠØ§ÙĦØ§ÙĦÙĪÙħÙĨÙĬÙĪÙħ":6448,"ĠØªØ¶Ùħ":6449,"ĠØ¬ÙĬØ¯Ø§":6450,"ĠØ§ÙĦØ¹Ø§ÙħÙĦÙĬÙĨ":6451,"ĠØ§ÙĦØ§ÙħØªØŃØ§ÙĨ":6452,"Ø§ØŃÙĩ":6453,"44":6454,"ĠØ¨Ø§Øµ":6455,"ĠØ§ÙĦØªØ¶":6456,"ĠØ§ÙĤØ±Ø¨":6457,"Ø·ÙĬÙĦ":6458,"ĠØ¨ÙĬÙĨÙĩØ§":6459,"ĠØ´Ø¹Ø¨ÙĬØ©":6460,"ĠØ§ÙĦÙĨÙĩØ§Ø¦ÙĬ":6461,"ĠØ³ÙĦØ©":6462,"ÙĦÙģÙĦ":6463,"ĠØ§ÙĦØ§ØµØ·ÙĨØ§Ø¹ÙĬ":6464,"ĠØ§ÙĦØ¬ÙĨÙĪØ¨":6465,"ĠØ§ØªØ´":6466,"ÙģØ±Ø¯":6467,"ØºØ±Ø§Ùħ":6468,"ĠÙģØ¶ÙĦØ§":6469,"ĠØ§ÙĦØ¯ÙĪØ§Ø¡":6470,"ĠØ§ÙĦØªØ¯Ø±ÙĬØ³":6471,"Ø´Ø³ØªØ±":6472,"ĠÙĪÙĦÙĦ":6473,"ĠÙĬÙĪÙħÙĬ":6474,"ĠØ§ÙĦÙĨÙģØ³ÙĬ":6475,"Ø§Ø±ÙĬÙĪ":6476,"ĠØªØµØ±ÙĬØŃØ§Øª":6477,"ĠÙħØ§Ø±Ø¨":6478,"ÙĪÙĦÙī":6479,"ĠÙĤØ±ÙĬØ¨Ø§":6480,"ĠÙħØ¯Ø±Ø¨":6481,"ĠØ§ÙĦØªÙĨÙģÙĬØ°ÙĬ":6482,"ĠØ§ØªØ¨Ø§Ø¹":6483,"ĠØŃÙĦÙĤØ§Øª":6484,"ĠÙħØŃÙĦÙĬØ©":6485,"ĠØ§ÙĦÙħØŃØ±Ùĥ":6486,"ĠØ§ÙĦÙĥØ±ÙĪÙħ":6487,"ÙĪØº":6488,"ĠØ§ÙĦØ®Ø·ÙĪØ·":6489,"ØµÙĬ":6490,"ÙĩØ±Ø³":6491,"ÙĪØ°":6492,"ĠØªÙĪØ¬ÙĬÙĩ":6493,"ĠÙĥØ±Ø¨ÙĪÙĨØ§Øª":6494,"Ø±Ø§ÙĦ":6495,"ĠÙĬÙĪØ±ÙĪ":6496,"ĠØªØ¬Ø§ÙĪØ²":6497,"ĠØ¹ÙĦÙħØ§Ø¡":6498,"ØªÙħØª":6499,"ĠØ§ÙĦØªÙĥÙĦÙģØ©":6500,"ĠÙĤÙĪØ§ÙĨÙĬÙĨ":6501,"Ø§Ø¹Ø¯Ø§Øª":6502,"ĠØ§ÙĦÙħØªØ§ØŃØ©":6503,"ĠØ¹Ø¶":6504,"ĠØ¹ÙħÙĦØ§Ø¡":6505,"ĠÙģÙĦØ§Ø´":6506,"70":6507,"ĠÙĦØ§ØŃØ¯":6508,"ĠØ§ÙĦØ§Ø³ØªÙģØ§Ø¯Ø©":6509,"ĠØ§ÙĦÙĩÙĬØ¯":6510,"ĠÙħØ±ÙĬÙħ":6511,"ĠØ§ÙĦØµØŃÙģ":6512,"ĠÙħØ²ÙĪØ¯":6513,"ĠØ¨Ø¶":6514,"ĠØ§ÙĦØ¹ÙĦØ§Ùħ":6515,"ĠØ®ÙĬ":6516,"Ø§ÙĤÙħ":6517,"ĠØ§ÙĦØ´Ùģ":6518,"ĠØ§ÙĦÙħØ§Ø±ÙĥØ§Øª":6519,"ĠÙĨØ³ØªØ®Ø¯Ùħ":6520,"ĠØ±ÙĬÙģ":6521,"ĠØ§ÙĦØ·Ø§Ø¦Ø±Ø©":6522,"ĠÙĦØ¨ÙĬØ¹":6523,"ĠÙĦØ§Øº":6524,"Ø§Ø¬ÙĬ":6525,"ĠØ§ÙĦØ§Ø®ØªÙĬØ§Ø±":6526,"ĠØªØªÙħÙĥÙĨ":6527,"ĠÙĦÙħÙĥØ§ÙģØŃØ©":6528,"ĠÙģÛĮ":6529,"ÙĬØªÙĥ":6530,"ĠØ§ÙĦÙĨÙĪØ±":6531,"ĠÙĪØ§ÙĦØ§Ø¬ØªÙħØ§Ø¹":6532,"ĠØ¨ÙĨØ§Ø·ÙĬÙĦ":6533,"ĠØ§ÙĦÙħÙĩÙħ":6534,"ĠØ§ÙĦØ³Ø§ØŃÙĦ":6535,"Ø§ÙĩÙĬØ©":6536,"ĠØ§ÙĦÙħØ®Ø¯Ø±Ø§Øª":6537,"Ġ2554":6538,"ĠØ§ØºØ³":6539,"22":6540,"ĠÙĦÙĦØ§Ø¨":6541,"ĠØ§ÙĦØ§Ø±Ø²":6542,"ĠÙĥØ§ÙħÙĬØ±Ø§Øª":6543,"ÙĬÙħØ§Øª":6544,"ØºÙĨÙĬØ²":6545,"ĠØ§ÙĦØŃØ§ÙĦ":6546,"ÙĪÙĩØ±Ø§Øª":6547,"Ø§Ø¶ÙĦ":6548,"ÙĪØ³ÙĬ":6549,"ĠØ¨ÙĬÙĨØª":6550,"ĠØ§ÙĦØ³ÙĦØ§ÙħØ©":6551,"ĠØ±ÙĪØ§Ø¯":6552,"ĠØºØ§ÙĨØ§":6553,"ĠÙĪØ±Ø¨":6554,"ØªØ±ÙģÙĬÙĨ":6555,"ĠØªØ¬Ø§Ø±ÙĬ":6556,"ÙħÙĬÙĪÙħ":6557,"ĠØ§ÙĦØªÙĩØ§Ø¨":6558,"ĠØ¨Ø§ÙĦÙĦÙĩ":6559,"ĠØ§ÙĦÙħØ·ÙĦÙĪØ¨":6560,"ÙģÙģ":6561,"ĠØ±Ø¶Ø§":6562,"ĠØ§ÙĦÙģÙĪØ²":6563,"ÙĬØ´Ø©":6564,"ĠØ¯Ø¹Ø§Ø¡":6565,"ĠØ¨Ø¬ÙħÙĬØ¹":6566,"ĠØ§ÙĦØ³ÙĪÙĬØ¯":6567,"ĠÙħØ±Ø§ØŃÙĦ":6568,"ĠØ±Ø³ÙħÙĬØ§":6569,"ĠØªØ·ÙĪØ±":6570,"ĠÙĦØ¯ÙĬÙĩÙħ":6571,"ĠØªØ¯Ø¹ÙĪ":6572,"ÙĪÙĬÙģ":6573,"ĠØ§ÙĦÙħÙĪÙĦØ¯":6574,"ĠØªÙĤÙĪÙĦ":6575,"ĠØ¨Ø§ÙħÙĥØ§ÙĨ":6576,"ĠÙĦÙĦØ²":6577,"ĠØ®Ø¨Ø±Ø©":6578,"ĠØ§ÙĦÙĥÙĬÙħÙĬØ§Ø¡":6579,"Ø¯Ø§ÙħØ©":6580,"ĠØ§ÙĦØ§ÙĪØ±Ø§ÙĤ":6581,"ĠØ§ÙĦØ¬ÙħÙĬÙĦØ©":6582,"ĠØŃØ§ØµØ¨Ø§ÙĨÙĬ":6583,"ØªØ±Ø§Ùģ":6584,"ĠÙĦØ¶ÙħØ§ÙĨ":6585,"Ø«ÙĬÙĦ":6586,"Ø¹ÙĦØ§Ùħ":6587,"ØŃÙģ":6588,"ĠÙĥØ§Ùģ":6589,"ĠØ§ÙĦÙĨÙģØ·ÙĬØ©":6590,"Ø§ÙĬÙģ":6591,"ĠØ§ÙĦØ§ÙģØ±ÙĬÙĤÙĬØ©":6592,"ĠÙĪØ§ÙĦØ±ÙĬØ§Ø¶":6593,"ĠÙĩØ¯":6594,"ĠØ§ÙĦÙĥÙĨÙĬØ³Ø©":6595,"ĠØ§ÙĦØµØ¯Ø±":6596,"Ġ98":6597,"ĠÙħÙĤØ§ÙĪÙħØ©":6598,"ĠÙĤÙħØ©":6599,"ĠÙĥÙĦÙĩØ§":6600,"ĠØ§ÙĦÙħØªØ¬Ø±":6601,"ĠÙĦÙĪØŃØ§Øª":6602,"ĠÙĬØµØ¯Ø±":6603,"ĠÙĬØ®Øµ":6604,"Ø¦Ø§Ø¨":6605,"ĠØ§ÙĦÙģØ§Øª":6606,"ĠØ§ÙĦÙĨØ§ÙĤÙĦØ©":6607,"ĠÙĬØŃØ¨":6608,"ĠØ§ÙĦØªØ±Ùħ":6609,"ĠØ§ÙĦØ§ÙĬÙħØ§ÙĨ":6610,"ĠØ§ÙĦØ§Ø¯ÙĨÙī":6611,"ĠÙħÙĦØ§ØŃØ¸Ø©":6612,"ĠØ³Ø§Ø®ÙĨ":6613,"ÙħÙĪÙĨ":6614,"ĠØ§ÙĦØªØµÙĪÙĬØ±":6615,"ĠÙĬØ±Ø¯":6616,"ĠØ§ÙĦØ¯Ø±Ø¬Ø©":6617,"ĠÙĦÙĦØªØ±":6618,"ĠØ§Ø³ØªØ®Ø¯Ø§ÙħÙĩ":6619,"ĠÙĪØ§ÙĦØ§ÙĤØªØµ":6620,"ĠÙĥÙĪØ±Ø©":6621,"ĠØ§ÙĦÙĦÙĬÙħÙĪÙĨ":6622,"ĠØ§ÙĦØ§ØŃØ¬Ø§Ø±":6623,"ĠØ§Ø³Ø±Ø©":6624,"ĠØŃØ¬":6625,"ĠÙħØ¯ÙĬØ±ÙĬØ©":6626,"ĠØ¹ÙĤØ¨":6627,"ĠÙĤØ§Ø¨ÙĦØ©":6628,"ÙĤÙģ":6629,"ĠØ§ÙĦØµÙĨØ§Ø¹Ø§Øª":6630,"ĠØ±Ø§ÙĬØª":6631,"ĠØ§ÙĦØ´ÙĩÙĬØ¯":6632,"ĠÙĪØ¨Ø¹":6633,"ÙĩÙĪÙĦ":6634,"ĠÙĪØ§ÙĩÙħ":6635,"ĠØ§ÙĦØ«Ø§ÙĨÙī":6636,"ĠØ´Ø§Ø±":6637,"ĠØ§ÙĦÙĨØ´Ø±Ø©":6638,"ĠØ§ÙĦØ§Ø¯Ø§Ø¨":6639,"ĠÙħÙĩÙħØ§":6640,"ĠÙħØ·Ø±ÙĤØ©":6641,"ĠØ§ÙĦØ§ØŃÙĥØ§Ùħ":6642,"ĠØ¨Ø²":6643,"ĠØ¬Ø±Ø§Ø¡":6644,"ĠÙĤØ¨ÙĪÙĦ":6645,"ĠØªØªÙħÙĬØ²":6646,"ĠÙĨØ¹ÙħÙĦ":6647,"ĠØªØ®Ø·ÙĬØ·":6648,"ĠØ§ÙĦØªÙĪØ¸ÙĬÙģ":6649,"ĠØ§ÙĦØªÙĤÙĬÙĬÙħ":6650,"ĠÙĪÙĥÙĬÙģÙĬØ©":6651,"ĠØ¶ØŃØ§ÙĬØ§":6652,"ÙĪÙĩØ§":6653,"ĠØªØ§ØªÙĬ":6654,"ĠÙĪÙħØ¤":6655,"ĠÙĪØ§ÙĦØ¬Ø±":6656,"ĠÙĪØ²ÙĨ":6657,"ĠØ§Ø«ÙĬÙĪØ¨ÙĬØ§":6658,"Ø§ÙĦØªÙĩ":6659,"ĠÙĦØ§Ø±":6660,"Ø´Ø§Ø¯":6661,"ĠØ§ÙĦÙĥÙĬÙħÙĬØ§Ø¦ÙĬØ©":6662,"ĠÙħØŃÙħÙĪÙĦØ©":6663,"ĠÙĦÙĦØªØ¬Ø§Ø±Ø©":6664,"ĠØ§ÙĦØªØ·ÙĪÙĬØ±":6665,"ĠØ¹ÙĤØ§Ø±Ø§Øª":6666,"ĠØ±Ø¹Ø§ÙĬØ©":6667,"ÙĬØ¨Ø§":6668,"ĠØµØŃÙģÙĬØ©":6669,"ĠØ§ÙĦØ§Ø²ÙĩØ±":6670,"ĠØ¯ÙĬÙĥÙĪØ±":6671,"Ġ83":6672,"ĠØ®Ø±ÙĪØ¬":6673,"ĠØ§ÙĦÙģØ¶Ø§Ø¡":6674,"ĠØ§ÙĦØ·ÙĬ":6675,"ĠØ§ÙĦØ´Ùħ":6676,"ĠØªØ³Ø¬ÙĦ":6677,"Ø®ÙĬÙĨ":6678,"ĠÙĪÙĬØ³Øª":6679,"ÙĬØ²Ø§ÙĨÙĬØ©":6680,"ĠØ¹ÙĪ":6681,"ĠØ§ÙĦØ§Ø³Ø±Ø§Ø¦ÙĬÙĦÙĬØ©":6682,"Ø§ÙģÙĦØ©":6683,"ĠØ®Ø·Ø·":6684,"ĠØ§ÙĦÙģÙĥØ±ÙĬØ©":6685,"ÙħØ§Ø·":6686,"ĠØ§ÙĦÙģØ·Ø±":6687,"ĠØ§ÙĦØ¬Ø²Ø§Ø¦Ø±ÙĬØ©":6688,"ĠØªÙĬØ´":6689,"ĠØ§ÙĦØ§ØªØŃ":6690,"ĠØ³ÙħÙĬØ±":6691,"ĠÙĥÙĩØ±Ø¨Ø§Ø¦ÙĬØ©":6692,"ÙħØªØ¹":6693,"ĠØ§ÙĦÙĦØ¹Ø¨":6694,"ĠÙĪÙĬÙĪ":6695,"ĠØªØ«Ø¨ÙĬØª":6696,"ĠÙĦØ´Ø±Ø§Ø¡":6697,"ĠØ±ÙĪØ§Ø¨Ø·":6698,"ĠØ§ÙĦØ¹ÙĦØ§ÙħØ§Øª":6699,"Ø²ÙħØ©":6700,"ĠØ§ÙĦØ¬Ø§Ùĩ":6701,"ÙĬØ°":6702,"ĠÙĪØ¨ØŃ":6703,"ÙĪÙģÙĬØ©":6704,"ĠÙħØªØ®ØµØµØ©":6705,"ÙģÙĪØ¶ÙĬØ©":6706,"ĠØ¬Ø±Ø§Ø¦Ùħ":6707,"ĠØ¯Ø¨":6708,"ĠÙĬÙħØ«ÙĦ":6709,"ĠÙħØªØ¬":6710,"ĠØ§ÙĦØ®Ø¨Ø±Ø©":6711,"ĠØ§ÙĦÙĤÙĪÙī":6712,"ĠØ§ÙĦØ§ÙħÙĬØ±ÙĥÙĬ":6713,"ĠÙĩÙĪØ§":6714,"ĠØ´ÙĬØ±":6715,"ĠØ§ÙĦØ¨ÙĪÙĥØ³":6716,"ĠØ§ÙĦØ±Ø¨":6717,"ĠÙĪÙĤØ§ÙĦØª":6718,"ĠØªÙĥÙĪÙĬÙĨ":6719,"ĠØ¹ÙĩØ¯":6720,"ĠÙĪØ¬Ø±":6721,"ĠØ§ÙĦÙħØ³Ø§Ø±":6722,"ĠØ§ÙĦØ§Ø³Ø¨":6723,"ĠÙħÙĩÙĨØ¯Ø³":6724,"ĠØªÙĪÙĥÙĬÙĦ":6725,"ĠÙħÙĨØ§Ø¬Ùħ":6726,"ĠØ§ÙĦÙĨØ®":6727,"ĠØ²Ø§Ø¦Ø±":6728,"ØªØ¯Ø¦ÙĬÙĨ":6729,"ĠØ±Ø©":6730,"Ø§ÙĪØ¶Ø§Øª":6731,"Ø§Ø²ÙĦØª":6732,"ĠÙħØ§ÙĦÙĥ":6733,"ĠØ¶Ø¹Ùģ":6734,"ĠÙĪØ§ÙĦØ¨ØŃ":6735,"ĠØ§ÙĦØ³ÙĬØ¯Ø©":6736,"ĠØ§ÙĦØ§Ø²Ø±ÙĤ":6737,"ĠØªØ±Ø¨ÙĬØ©":6738,"ĠÙĪØ§ÙĪØ¶ØŃ":6739,"ÙĪØ²ÙĬØ±":6740,"Ġ350":6741,"ÙĬØªÙĬÙĨ":6742,"ĠØ§ÙĦÙħØªØ§Ø¬Ø±":6743,"ĠØ§ÙĦØ¨Ø±ÙĬØ·Ø§ÙĨÙĬ":6744,"49":6745,"Ø§Ø·Ø§Øª":6746,"ĠØŃØ¨ÙĬØ¨":6747,"ĠÙĥÙĦØ§":6748,"ĠØ¨Ø±ÙĬÙħÙĬÙĪÙħ":6749,"ÙĪØ±ÙĬØ¯":6750,"ĠØ§ØµØ¯Ø§Ø±Ø§Øª":6751,"ĠÙĪÙħÙĨÙĩØ§":6752,"ĠØ¹ÙĨØ§ÙĪÙĬÙĨ":6753,"ĠØ²Ø§ÙĬØ¯":6754,"ĠØ§ÙĦØ§ØµØ¯Ø§Ø±":6755,"ĠØ§ÙĦØªÙĤØ¯Ùħ":6756,"ÙĨÙĪØ§Øª":6757,"ĠØ´Ø§Ùĩ":6758,"Ø§ØºØ©":6759,"ĠØ§ÙĦØ³Ø§Ø¯Ø³Ø©":6760,"13":6761,"ĠØ¶Ùħ":6762,"ÙħÙĨÙĬ":6763,"ĠØ§ÙĦØ§Ø¨Ø¹Ø§Ø¯":6764,"ĠØ¨ØªÙĤØ¯ÙĬÙħ":6765,"Ø§ÙĦÙĦÙĩ":6766,"ĠØ§ÙĦØ³ÙĬØ±Ø§ÙħÙĬÙĥ":6767,"ÙĬÙĥÙħ":6768,"ĠØ§ÙĦØ±ØŃÙĦØ§Øª":6769,"ĠÙĪØ§ÙĦØ°":6770,"ĠÙħÙĦØ¹Ø¨":6771,"Ø±Ùĩ":6772,"ĠØ§ÙĦØ¨Ø·ÙĪÙĦØ©":6773,"ĠØ§ÙĦØ§Ø³ÙħØ§Ø¡":6774,"ĠØ§ÙĦÙħÙĤØ±":6775,"ĠØ¨ØŃØ¶ÙĪØ±":6776,"ĠØ§ÙĦÙĤØµØ©":6777,"ĠØ¨ÙĪØµØ©":6778,"ĠÙĪØ¬ÙĦ":6779,"ĠØ§Ø®Øµ":6780,"ĠØ§Ø¹Ø¯Ø§Ø¯ÙĬ":6781,"ĠØ¹ÙĪØ¯":6782,"ĠÙħÙĨØ§ÙĤØ´Ø©":6783,"Ø§Ø¨ÙĬØ¨":6784,"ÙĪÙģØª":6785,"ĠØ§ÙĦÙħØ§Ùĥ":6786,"Ø§Ø¦ÙĩÙħ":6787,"ĠØªØ¤ÙĥØ¯":6788,"ĠÙ±ÙĦ":6789,"ĠØŃØ±Ùģ":6790,"ĠÙħØ§ÙĬÙĥ":6791,"ĠØªØµØ¨ØŃ":6792,"ĠÙĪÙħØ®":6793,"ĠØ§ÙĦØ§Ø·ÙĦØ§ÙĤ":6794,"ĠØ§ÙĨÙģØ³":6795,"ĠØ¨Ø§ÙĦØ§Ø¹":6796,"ĠØ§ÙĦØ¨Ø®":6797,"ĠØ´Ø¤ÙĪÙĨ":6798,"ĠØ§ÙĦØªØ²Ø§Ùħ":6799,"ĠØ§ÙĦÙģØ¬":6800,"ĠÙĨØ¯ÙĪØ©":6801,"Ø·Ùī":6802,"ĠÙĪØ§ÙĦØ§Ø´":6803,"ĠØ§ÙĦØ«Ø§ÙħÙĨ":6804,"Ø§Ø¹Ø¯Ø§Ø¯":6805,"ÙģØª":6806,"ĠØ§ÙĦÙħØŃØª":6807,"ÙħØ§ÙĦÙĬ":6808,"ĠØ§ÙĦÙħÙĨØ§Ùģ":6809,"ĠØ§ÙĦÙħÙĨØºÙĨÙĬØ²":6810,"Ġ679":6811,"ĠÙĪÙĬØ¯":6812,"55":6813,"ĠØ§ÙĦØ«ÙĤØ©":6814,"ĠÙĥÙĦÙĬÙĨ":6815,"ĠØ§ÙĦØ§ØªØ¬Ø§Ùĩ":6816,"ĠØ§ÙĦØ§Ø¯Ø§Ø±ÙĬ":6817,"ÙĪØ±Ùī":6818,"ÙĦÙĥÙĬØ©":6819,"ĠÙĪØ§ÙĦØªØ´":6820,"ĠØ§ÙĦÙĨÙĬØ§Ø¨Ø©":6821,"ĠØ¨ÙģØ¶ÙĦ":6822,"ĠØ§ÙĦØªÙĤÙĦÙĬØ¯ÙĬØ©":6823,"ĠÙħØŃØ±ÙĥØ§Øª":6824,"ĠØ§ÙĦÙģÙĨØ§ÙĨØ©":6825,"ĠØªØ§ÙĬÙĦ":6826,"ĠØ§ÙĦÙĦØ§Ø¬Ø¦ÙĬÙĨ":6827,"ĠØ§ØŃØªÙĬØ§Ø¬Ø§Øª":6828,"ĠØ§ÙĦØŃÙĪØ«ÙĬ":6829,"ĠØ§ÙĦÙĨØ§Ø´":6830,"Ġ700":6831,"ĠØ§Ø¯Ø§Ø±ÙĬØ©":6832,"ĠØ²Ø±Ø§Ø¹Ø©":6833,"ĠØ¨Ø§ÙĦØªØ¹Ø§ÙĪÙĨ":6834,"ĠÙĪØ§ÙĦØ¹ÙĦÙĪÙħ":6835,"ĠÙĪÙĩÙĦ":6836,"Ø§ÙħÙĩ":6837,"ĠÙħØªÙĪØ³Ø·Ø©":6838,"ĠØ§ÙĦØ¨ÙĦØ¯Ø§ÙĨ":6839,"ĠØ§ÙĦÙħØ³Ø¦":6840,"ĠØ¯Ø§ÙĪØ¯":6841,"Ø§ÙĦÙĬØ§Øª":6842,"ĠÙĪØ§ÙĦØªØ®":6843,"Ø²ÙĤ":6844,"ĠØ§ÙĦÙħÙĪØ§ÙģÙĤØ©":6845,"ĠÙĪØ§ÙĦØ§Ø«":6846,"ĠØ§ÙĦØ§ÙĨØ´Ø·Ø©":6847,"ĠØ§ÙĦØ¶ÙĪØ¡":6848,"ĠØ§ÙĦØ§ÙĥØ³":6849,"ĠØ§Ø³ØªØ¶Ø§ÙģØ©":6850,"ĠØ§ÙĦØ§Ø²ÙĬØ§Ø¡":6851,"ĠØ§ÙĦØŃØ²Ø¨":6852,"ĠØ§ÙĦÙĪØ³ÙĬØ·":6853,"ĠÙĬÙĦØªÙĤÙĬ":6854,"ĠÙħØ³Ø§Ø±":6855,"ĠÙĪØ²ÙĬØ±Ø©":6856,"ĠÙħØ¬Ø§ÙĦØ§Øª":6857,"ĠÙĨÙĤØµ":6858,"ĠØ¨ØªØ±":6859,"ĠØªØ¨ÙĦØº":6860,"ĠÙĦÙĦØªØ¹ÙĦÙĬÙħ":6861,"Ø§Ø±Ø¯ÙĨ":6862,"Ø§ÙĨÙĪ":6863,"ĠØ§ÙĦØ¬ÙħØ¹":6864,"ĠÙĨØ¸Ø±Ø©":6865,"ĠØ§ÙĦÙĤØ³":6866,"ĠÙĥÙĩØ±Ø¨Ø§Ø¡":6867,"ĠØ§ÙĦØ§Ø³Ø§Ø³":6868,"ĠÙħÙĨØ³":6869,"ĠÙĤØ§Ø±":6870,"ĠØ§ÙĦÙħÙĩØ¯ÙĬ":6871,"ĠØªÙĪØµ":6872,"ĠÙħØ´Ø§ÙĩØ¯":6873,"ĠØ¤":6874,"ĠÙģÙĩØ°Ø§":6875,"ĠØ§ÙĦØ·Ø±Ùģ":6876,"ĠØ§ÙĦÙĤÙĪÙħÙĬ":6877,"ĠÙĦØªØ¶Ùģ":6878,"ÙĩÙĬÙĦ":6879,"ĠØ¹Ø§Ø¦ÙĦ":6880,"ĠÙħØ¯ÙĨ":6881,"ĠØ§Ø³ØªÙĩÙĦ":6882,"Ġ190":6883,"ĠØªØ³ÙħØŃ":6884,"ĠÙĪØ§ÙĨÙĩ":6885,"ĠØªØ®ØªÙĦÙģ":6886,"ĠÙħØ²Ø§ÙĬØ§":6887,"ĠØ§ÙĦØ§ÙĤØªØ±":6888,"ĠØ§ÙĬÙĤØ§Ùģ":6889,"ĠÙħØ¬Ø§ÙĦØ³":6890,"ĠØ§ØŃØ³ÙĨ":6891,"ĠÙĬØªØŃØ¯Ø«":6892,"ĠØ§ÙĦÙĨÙĩØ§Ø¦ÙĬØ©":6893,"ĠÙĬØ²Ø§ÙĦ":6894,"ĠÙħØ¬ÙħÙĪØ¹Ø§Øª":6895,"ĠØ®Ø¨":6896,"ÙĦÙģØ§Øª":6897,"ĠØ§Ø®Ø±ÙĬÙĨ":6898,"ÙĤÙĪÙĦØ©":6899,"ĠÙĪØ§Ø¦ÙĦ":6900,"ĠÙħØ¹ÙĬÙĨ":6901,"ĠÙĪØ§ÙĦØªØ¬":6902,"ĠÙħÙħØ§Ø±Ø³ØªÙĩØ§":6903,"ĠÙĪØ¨ÙĦ":6904,"ĠØ³ÙħÙĪ":6905,"ĠØ§ÙĦØªØ³Ùħ":6906,"ĠÙĪÙħØ¯":6907,"ĠÙĪØ§ÙĦØªØ·ÙĪÙĬØ±":6908,"ĠÙĪØ§Ø¶ØŃ":6909,"ĠÙĤØ±ÙĬØ¨":6910,"ĠÙĤØµØ±":6911,"ĠØ³ÙĨÚ¯":6912,"ĠÙĪØ§ÙĦØ¹ÙĨÙĪØ§ÙĨ":6913,"ĠØ§ÙĦØŃÙĬÙĪÙĬØ©":6914,"ØªØµØ§Ø¨":6915,"ÙĬØ±ÙĬØ³Øª":6916,"Ø§ÙĦØ±":6917,"ĠØ§ÙĦØªØ®Ø·ÙĬØ·":6918,"ĠØ¯Ø§Ø®ÙĦÙĬØ©":6919,"ĠÙĦØªØ¬ÙĩÙĬØ²":6920,"ĠØ¨ÙĦØ§Øº":6921,"ĠÙĤÙĬØ§Ùħ":6922,"ĠÙĪÙĤØ¹":6923,"Ø·ÙĬÙģ":6924,"Ø¹Ø±Ø¨ÙĬ":6925,"Ø§ÙĪØŃ":6926,"ĠÙĬØ¹ØªÙħØ¯":6927,"ĠØ³ÙĬØ§Ø³ÙĬ":6928,"ĠÙĪØ§ØªØ³":6929,"ĠØ§ÙĦÙħÙĩÙħØ©":6930,"ĠØ§Ø®ØªØ¨Ø§Ø±Ø§Øª":6931,"ĠØ§ÙĦØ¬ÙħÙĦØ©":6932,"ĠÙħØªØ·ÙĦØ¨Ø§Øª":6933,"ĠÙĬÙħÙĥÙĨÙĨÙĬ":6934,"ĠØ§ÙĦÙĦÙĤØ§Ø¡":6935,"ĠØ§ÙĦÙĪÙĥ":6936,"ĠÙĦÙĦÙħØ²ÙĬØ¯":6937,"ĠØ§ÙĦÙħØ±ÙĥØ²ÙĬØ©":6938,"ĠØºØ±Ø§ÙħØ©":6939,"ĠØ³Ø¹Ø©":6940,"ĠØ§ÙĥØªØ¨":6941,"ĠØªÙħÙĪØ²":6942,"ĠÙĦÙĦØ¬ÙħÙĬØ¹":6943,"ĠÙĪÙĪÙģ":6944,"Ø§ÙĨÙĬÙĩ":6945,"ĠÙħÙĪØ«":6946,"Ø³ÙĪ":6947,"ĠØªØ±Ø¨":6948,"66":6949,"ĠØ§ÙĦÙħØ¹Ø¯Ø©":6950,"ĠØ®Ø´":6951,"ĠØ§ÙĦÙħÙĪØ¸ÙģÙĬÙĨ":6952,"ĠØ§Ø·Ø¨Ø§Ø¡":6953,"ĠØ§ÙĦØªØ¬ÙħØ¹":6954,"ĠØªØªØ®":6955,"ĠØ§ÙĦØ®Ø·ÙĪØ©":6956,"47":6957,"ĠØ¹ÙĦÙħÙĬØ©":6958,"ØªÙĩØ§ÙĥØ§Øª":6959,"ĠØ¬Ø¯ÙĪÙī":6960,"ÙĬÙĩØ§":6961,"ÙĬØªØ¯":6962,"ÙĨÙĪ":6963,"ĠÙĤÙĬØ¯":6964,"ÙĬÙĪØ§ÙĨØ§Øª":6965,"ĠØ¨Ø§ÙĨÙĥ":6966,"ĠÙĬØ©":6967,"ĠØ³ÙĩÙĦ":6968,"Ø§ÙħØ±Ø©":6969,"ĠÙĬÙĪÙħÙĬØ§Øª":6970,"ĠØ§ÙĦØ¬ÙĪÙĦØ©":6971,"ĠØ§ÙĦÙĤØ§Ø¦Ùħ":6972,"ĠØ§ÙĦØ§Ø¯Ø¨ÙĬØ©":6973,"ĠØ·ÙĨØ¬Ø©":6974,"ĠØ§ÙĦÙĬÙħÙĨÙĬØ©":6975,"Ø°ÙĬØ±":6976,"ĠØŃØ¯ÙĬØ«Ø©":6977,"ĠØ§ÙĦØ§Ø³Ø¨Ø§ÙĨÙĬ":6978,"ĠØ§ÙĦØ§Ø±ÙĤØ§Ùħ":6979,"ĠØ§ÙĦØ¹ÙĤØ§Ø±ÙĬØ©":6980,"ĠÙĥØ§ÙħÙĬØ±Ø§":6981,"ÙģØ§Ø±":6982,"ÙĨÙħ":6983,"Ø¹Ø§Ùģ":6984,"Ġ1442":6985,"ĠÙĦÙĦÙħØ¨":6986,"Ø¯Ø§Ø¡":6987,"ĠØ§ÙĦØ³ÙģÙĬØ±":6988,"ĠÙĬÙħÙĥÙĨÙĨØ§":6989,"ĠØ§ØºÙĦØ¨":6990,"ĠØ§ØµØ§Ø¨Ø§Øª":6991,"ĠØ¨Ø²ÙĬØ§Ø±Ø©":6992,"ĠØ§ÙĦÙĪÙĤÙĪØ¯":6993,"ĠØ§Ø³ØªØ«":6994,"ĠØ§Ø¶Ø±Ø§Ø±":6995,"ĠØ§ÙĦÙħÙĩÙĨÙĬ":6996,"ĠÙĦÙĦØ¨Ø´Ø±Ø©":6997,"ĠØ¨ÙĬÙĨØªÙĬØ±ÙĬØ³Øª":6998,"ĠØ§ÙĦØ·ÙĪ":6999,"ĠØ±Ø¶":7000,"ĠØ§ÙĦØ¯Ø§Ø®ÙĦ":7001,"ĠÙĤØ¯ÙĬÙħ":7002,"ĠÙģØ§Ø·":7003,"ĠØªØ¹ÙĦÙĬÙħÙĬØ©":7004,"ĠÙĪØ§ØµØ§Ø¨Ø©":7005,"ĠØ¨ØŃØ±":7006,"Ø«ÙħØ±ÙĬÙĨ":7007,"ĠÙĩÙĨØ¯Ø³Ø©":7008,"ĠØ·Ø¹Ø§Ùħ":7009,"ĠØ§ÙĦÙĨÙģØ§ÙĬØ§Øª":7010,"ĠØ§ØŃÙĬØ§Ø¡":7011,"ĠØ§ÙĦØ¨ØŃÙĪØ«":7012,"ĠÙĦÙĬØª":7013,"ØºÙĪØ·":7014,"ĠØ§ÙĦÙģØ¶Ø©":7015,"ĠØ®ÙĦÙĬÙģØ©":7016,"Ø·Ø¨Ø§Ø¹Ø©":7017,"ĠØ¨Ø§ÙĦØ´Ø¹Ø±":7018,"ĠØ¨Ø³ÙĬØ·":7019,"ĠØ§ÙĦØ¬ÙĬØ±":7020,"ĠØ§ÙĦØ§ÙĦØºØ§Ùħ":7021,"ĠÙĤØ¨ÙĬÙĦØ©":7022,"ĠØ§ÙĦØ¯Ø§Ø±":7023,"Ġ125":7024,"ĠØ§ÙĦØ·Ø¨Ø¹":7025,"ĠÙĪÙģÙĬØ§Øª":7026,"ĠØªØ±ÙĥÙĬ":7027,"ĠØ§ÙĨØ¨ÙĪØ¨":7028,"ĠØ§ÙĦÙħØ¹ÙĩØ¯":7029,"ĠØ´Ø¨ÙĥØ§Øª":7030,"ĠØŃØ¯Ø¯":7031,"ĠØ§ÙĦØ§Ø·Ø¹ÙħØ©":7032,"ĠÙĦÙĪÙĦ":7033,"Ø§Ø¯Ø§":7034,"ĠØªØ±Ø¯Ø¯":7035,"ØºØ§":7036,"ĠØ§Ø³Ø§Ø³ÙĬ":7037,"ĠØ§ÙĦØ§ÙĬØ·Ø§ÙĦÙĬØ©":7038,"ĠÙģÙĬØªØ§ÙħÙĬÙĨ":7039,"ĠØ§ÙĦØ´Ø§Ùħ":7040,"ĠØŃÙħØ§Ø³":7041,"Ø°ÙĥØ±Ùī":7042,"Ø§Ø´ÙĬ":7043,"ĠØ§ÙĦÙħØŃÙĬØ·":7044,"ĠØ§ÙĦØ¯Ø±Ø³":7045,"ĠØ¨ÙħÙĨØ·ÙĤØ©":7046,"ĠØªÙĦÙģØ²ÙĬÙĪÙĨ":7047,"ĠÙħØ±Ø§Ø¬Ø¹Ø§Øª":7048,"ĠÙħÙĤØ¯Ùħ":7049,"Ġ765":7050,"ĠØ³ÙĥØ±":7051,"ĠØ³Ø§Ø¹Ø¯":7052,"ĠØŃØ§Ø¬":7053,"ĠÙħØ³ÙĬØ±Ø©":7054,"ĠÙħØ¨ÙĬØ¹":7055,"ĠÙĥØ³Ø±":7056,"ĠÙĦÙĦÙħØ±Ø©":7057,"ĠØ§ÙĦØªÙĦÙĤØ§Ø¦ÙĬ":7058,"ĠØ§Ø±Ø¯":7059,"ĠÙĦÙĥÙĨÙĩ":7060,"ĠÙħÙĪØ§Ø¹ÙĬØ¯":7061,"ÙĬØ¬ÙĬ":7062,"ĠØ§ÙĦØ§Ø¬Ø§ÙĨØ¨":7063,"ĠØ§ÙĦØ¹Ø°":7064,"ĠØ§ÙĦÙģÙĬØªØ§ÙħÙĬÙĨØ§Øª":7065,"ĠØ§ÙĦØ§Ø·ÙĦØ§Ø¹":7066,"ĠØ§ÙĦÙĨÙĪÙĪÙĬ":7067,"ĠØ§ÙĦØ¹ÙĤØ¯":7068,"ĠØ§ÙĦØ·Ùģ":7069,"ĠÙħØ³Ø±ØŃ":7070,"ĠØ§ÙĦØ¨ÙĦØ§Ø³ØªÙĬÙĥ":7071,"ĠÙĨØ§ØŃÙĬØ©":7072,"ĠØ§Ø®Ø¨Ø±":7073,"ĠÙĬØ¹ÙĦÙħ":7074,"ĠØºÙĦ":7075,"ĠÙĪØ®Ø¯ÙħØ§Øª":7076,"Ø³ÙĪÙĤ":7077,"ĠØ§ÙĦØ¬Ø§ÙħØ¹ÙĬØ©":7078,"ĠØ§ÙĦÙĤØ·Ø±ÙĬØ©":7079,"ĠÙħÙĨØª":7080,"ĠØªÙĪÙħÙĬ":7081,"ĠØ®Ø±Ø¬":7082,"ÙĪØ±ÙĬÙĪØ³":7083,"ĠØªØŃØ§ÙĪÙĦ":7084,"ĠÙĪØ§ÙĨÙħØ§":7085,"ĠØ³ØªØ§Ø±":7086,"ĠØ§ÙĦØªÙħØ±":7087,"ĠØ¨Ø§ÙĦØªÙģ":7088,"Ø³ÙĪÙħ":7089,"Ø²ÙĪ":7090,"ĠØ´Ø®ØµØ§":7091,"ØµÙĦØ©":7092,"ĠØ¨Ø§ÙĦØªÙĪ":7093,"ĠØ§ÙĦÙĤÙĪØ§ÙĨÙĬÙĨ":7094,"ĠØ§ÙĦØªØ§Ø³Ø¹":7095,"Ø§ÙĪØ©":7096,"ĠÙģØŃÙħ":7097,"ĠØ±ÙĪØ§ÙĬØ§Øª":7098,"ĠÙĪØ§ÙĦØ¹ÙĦ":7099,"ĠØ¨Ø±ÙħØ¬Ø©":7100,"ØºØ±ÙĤ":7101,"ĠÙĬÙĨØ§":7102,"ĠØ±Ø³ÙħÙĬØ©":7103,"ĠØºÙĬØ§Ø¨":7104,"ÙģØ±Ø¶":7105,"ĠÙĨÙĥ":7106,"ĠØ§ÙĨØ¬Ø§Ø²":7107,"ĠØ§ÙĦÙħØ±Ø¬":7108,"ĠØªÙĨÙģÙĬ":7109,"ĠØ§ÙĦÙĤØ¶ÙĬØ©":7110,"ĠØ§ÙĦØ«ÙĨØ§Ø¦ÙĬØ©":7111,"ĠÙħØ·Ø§ÙĦØ¨":7112,"200":7113,"ĠØ¬ÙĬØ¨":7114,"ĠØŃØ±Ø§Ø±Ø©":7115,"ĠØ§ÙĦØªÙģÙĥÙĬØ±":7116,"ĠØµÙģÙĤØ©":7117,"Ø³ÙĬØ¬":7118,"ĠÙĦØ§Ø¯Ø§Ø±Ø©":7119,"ĠØ§ÙĦØ´Ø§ÙħÙĦ":7120,"ØªÙħØ§ÙĦ":7121,"Ø§Ø²Ø§ÙĨ":7122,"ĠØ§ØŃÙĦÙī":7123,"ĠÙĬÙħÙĥÙĨÙĥÙħ":7124,"ĠØ®ÙĦØ·":7125,"ĠØ§ÙĦÙĨÙĩØ§ÙĬØ©":7126,"ĠØ´Ø±ÙĥÙĩ":7127,"ĠÙĬØ¯Ø¹Ùħ":7128,"ĠØ®ÙĦÙĬÙĦ":7129,"ĠØ¨ÙħØ¯":7130,"ĠØ´ÙĬØ¦Ø§":7131,"ĠØ§ÙĦÙĪØ³Ø·Ùī":7132,"ĠÙħØ¨ÙĦØº":7133,"ĠØ§ÙĦØ´ØªØ§Ø¡":7134,"ĠÙħÙĪØ¸Ùģ":7135,"ÙĥØªÙĪØ±Ø©":7136,"Ø¶Ø¨":7137,"ĠØ¨Ø§ÙĦØ¶ØºØ·":7138,"ØªÙĥÙħ":7139,"ĠØ¹Ø§ÙĦ":7140,"ĠÙħÙĨØªØµÙģ":7141,"ĠÙħØ³Ø¬ÙĦ":7142,"8779":7143,"ĠÙĦØªÙĤ":7144,"Ø§Ø¯ÙĬØ´":7145,"ĠØ²ÙĪØ¬ØªÙĩ":7146,"ØªØ¨Ø§Ùĩ":7147,"ĠØ§ÙĦØ§ØŃÙĬØ§ÙĨ":7148,"Ø³ØªÙĪÙĨ":7149,"ĠÙĪÙĨÙĤÙĦ":7150,"ĠØ§ÙĦØ§ÙĦÙħØ§ÙĨÙĬ":7151,"Ø¨ÙĤÙī":7152,"998779":7153,"ĠØ§ÙĦØ¨ØŃØ±ÙĬ":7154,"ĠØ§ÙĦÙħØ³ØªØ´ÙģÙĬØ§Øª":7155,"ĠØ§ÙĦØŃØ±ÙħÙĬÙĨ":7156,"ĠÙģÙĤÙĩ":7157,"ØµÙĪØ±Ø©":7158,"ĠÙģØ±ÙĬØ¯":7159,"ĠÙĤØ§Ø¯Ø±":7160,"ĠØ§ÙħØ§Ø²ÙĪÙĨ":7161,"ĠØªØ±Ø¯":7162,"ĠÙħÙħØªØ§Ø²":7163,"ĠØ³ÙĩÙĪÙĦØ©":7164,"ĠÙħÙĥÙĪÙĨ":7165,"ĠÙģÙĬÙĦØ§":7166,"ĠØ§Ø³Ø±":7167,"ĠØ§Ø³ØªØ¨Ø¯":7168,"ĠØ§ÙĦØ´Ø§ÙħÙĦØ©":7169,"ĠÙħÙĨØ²ÙĦÙĥ":7170,"ĠØ§ÙĦÙģÙĬØ³Ø¨ÙĪÙĥ":7171,"ĠÙģØ§ÙĬØ±":7172,"ĠÙĨÙĪÙĨ":7173,"ĠØ¯ÙĪØª":7174,"Ġ140":7175,"ĠØ§ÙĦØ§Ø¨Ø¯":7176,"ĠØ§ÙĤØµÙī":7177,"ĠØ§ÙĦØ´Ø¨ÙĥØ§Øª":7178,"ĠØ²ÙģØ§Ùģ":7179,"ĠÙĦÙĦØ´ÙĬØ®":7180,"ÙĤØ§Ø¡":7181,"ĠØ§ÙĨØªØ±":7182,"ĠØ§ÙĦÙħØ®Ø§Ø·Ø±":7183,"ĠÙĦÙĦØªØ§ÙħÙĬÙĨ":7184,"ĠØ§ÙĦØ¹ÙħÙĪÙħÙĬØ©":7185,"Ġ66998779":7186,"ĠÙģÙĬÙħ":7187,"ĠØ§ÙĪÙĦØ§Ø¯":7188,"Ø¬ÙĦÙĬØ²ÙĬ":7189,"ĠØŃÙħØ¯ÙĪÙĥ":7190,"ØªØ§ÙĪÙī":7191,"ĠØ§ÙĦØ§Ø¹Ø¯Ø§Ø¯":7192,"ĠÙħØ§ÙĨØ´Ø³ØªØ±":7193,"29":7194,"ĠØ¨Ø§ÙĦÙħØºØ±Ø¨":7195,"ĠÙĨÙĪÙģØ±":7196,"ĠØ¹Ø¯ÙĨ":7197,"ĠØ´Ø±Ø·":7198,"ĠØ§ÙĦØªÙĤØ¯ÙĬÙħ":7199,"ĠÙĨØ§Øª":7200,"ĠØ§ÙĦØªØ±Ø§Ø«":7201,"ĠØ§ÙĦØªÙĪÙĨØ³":7202,"ÙĬÙħØ¨Ø§Ø¨":7203,"ĠØ§ÙĦØ°Ø±Ø©":7204,"ĠØ¹ÙĬ":7205,"ĠØªØ±Ùī":7206,"ĠØ§ÙĬØ³":7207,"ĠÙĬØªØµ":7208,"ĠÙĦØ§Ø¨ÙĨ":7209,"ĠÙĪØ±ØŃÙħØ©":7210,"ĠÙĥØ§ÙĦÙģ":7211,"Ø§Ø¹Ø¨ÙĬÙĨ":7212,"ĠØ§ÙĦÙĦØ§Ø¹Ø¨":7213,"ĠØ§ÙĦØ§Ø¹Ø±Ø§Ø¶":7214,"ĠØ§ÙĦØ§Ø¨Ø¯Ø§Ø¹":7215,"ĠØ§ÙĦÙĩÙĪ":7216,"ĠÙģØ§Ø¹":7217,"ÙĪÙĤØª":7218,"ĠÙħØ³ØªØŃØ¶Ø±Ø§Øª":7219,"ĠØ§ÙĦØµØŃØ±Ø§Ø¡":7220,"ĠÙĨÙģØ³ÙĬ":7221,"ĠØ§Ø³ØªÙĦØ§Ùħ":7222,"ĠØ§ÙĦÙħØµØ±Ùī":7223,"ĠÙĪØ§Øº":7224,"ĠÙĦØµÙĨØ§Ø¹Ø©":7225,"ĠØ´Ø§ØºØ±Ø©":7226,"ĠØ³ÙĨØªØ±":7227,"ĠÙģÙĪØ±ÙĬ":7228,"ĠØ§ÙĦØºØ±":7229,"ĠØ§ÙĦØ¹Ø¯Ø§ÙĦØ©":7230,"ĠØ³Ø§ØŃØ©":7231,"ĠØ§ÙĦØ§ØŃØªÙĬ":7232,"ĠØ§ÙĦÙĬØ¯ÙĬÙĨ":7233,"ĠØ§ÙĦØ¯Ø¹ÙĪØ©":7234,"ĠØ§ÙĪÙĤØ§Øª":7235,"ĠØªÙĥØ³":7236,"ĠØ§Ø®ØªÙĬ":7237,"ĠÙ¾":7238,"ĠØ´Ø¯ÙĬØ¯":7239,"ĠØ±Ø¦ÙĬØ³ÙĬ":7240,"ĠØ§Ø³ØªÙĩÙĦØ§Ùĥ":7241,"ĠØ¹Ø¬ÙħØ§ÙĨ":7242,"ĠØ±ÙĬØ¨":7243,"Ø¨ÙĬØ§Ø¡":7244,"ĠÙĦØ®Ø§Ùħ":7245,"ĠÙĥØªØ¨ÙĩØ§":7246,"ØªØ¨Ø§Ø³":7247,"ĠØªÙħØ§Ø±ÙĬÙĨ":7248,"ĠØ§ÙĦØ§ÙĦØªØ²Ø§Ùħ":7249,"ĠØ§ÙĦØµÙĪØªÙĬØ©":7250,"ĠÙĪØ§Ø¯ÙĬ":7251,"ÙĬØ±ÙĪÙĨ":7252,"Ø§ÙĥØ´":7253,"ĠÙħÙĥØ§ØªØ¨":7254,"ĠØ§ÙĦØ§Ø·Ø±Ø§Ùģ":7255,"ĠÙĦÙĦÙħØ¯":7256,"Ø´Ø±ØŃ":7257,"ĠØ§ÙĦÙħØªØ®ØµØµØ©":7258,"ĠÙħØ§Ø¬Ø³ØªÙĬØ±":7259,"ĠÙĪÙħØª":7260,"ĠÙĦÙĦØ§":7261,"ĠÙģÙĥØ±":7262,"ĠÙĨØ³Ø¨":7263,"ĠØ§ÙĦÙĤØ¶Ø§ÙĬØ§":7264,"ĠØ¬Ø±Ø§Ùħ":7265,"ĠØ§ÙĦØŃØ¨ÙĬØ¨":7266,"ĠØ®Ø·ÙĬØ±Ø©":7267,"ÙĬØ§Ø©":7268,"ĠØ³Ø¹":7269,"ĠØªÙĬØ´ÙĬØ±ØªØ§Øª":7270,"ÙģØ²":7271,"ĠÙħØ·Ø§ÙĦ":7272,"ĠØ§ÙĦØµÙĦØ¨Ø©":7273,"ĠÙĪØ§ÙĦØªÙĨÙħÙĬØ©":7274,"ĠØ§ÙĦØ¨Ø±ÙĬ":7275,"ĠØ§ÙĦÙħØªÙĤØ¯Ùħ":7276,"ĠØ§Ø¬ÙĨØ¨ÙĬØ©":7277,"ĠØªØ¤Ø«Ø±":7278,"ÙĥÙĬÙħ":7279,"ĠØ§ÙĦÙħÙĪØ§ØµÙģØ§Øª":7280,"ĠÙĦÙĦØŃØ¯":7281,"ĠÙħØŃØ§ÙħÙĬ":7282,"Ġ1200":7283,"ĠØ§ÙĦØ®Ø¶Ø±Ø§Ø¡":7284,"ØµØ¨":7285,"ĠÙĪØ§ÙĦÙĬ":7286,"ĠØ§ÙĦØªÙĬØ§Ø±":7287,"ĠØ§ÙĦÙĬÙĪÙħÙĬ":7288,"ĠØ¨ÙħØ¬Ø±Ø¯":7289,"ĠØ§ÙĦÙĪØ¯":7290,"ĠØªØ±ÙĬ":7291,"ÙĦÙĬÙĩ":7292,"ÙĪØªØ³":7293,"ĠÙĤÙĪ":7294,"ĠØ´Ø±ÙĬÙĥ":7295,"ĠØ§ÙĦÙĦÙĬØ²Ø±":7296,"Ø§Ø¹ÙħØ©":7297,"ĠØ§ÙĦØ§ÙĬØ·Ø§ÙĦÙĬ":7298,"ĠØ¨ÙĬØ³":7299,"ĠØ§ÙĦØªØ±ÙģÙĬÙĩ":7300,"ĠØ³Ø§Ø¦ÙĤ":7301,"ĠÙģÙĨÙĬØ©":7302,"Ø¨ÙĬØ¨Ø©":7303,"ĠØ§ÙģØªØ±":7304,"ĠØ§Ø°Ø§Ø±":7305,"ĠØ§ÙĦØµØ§ÙĦØŃ":7306,"Ø¬ÙĦØ¯":7307,"Ø±Ø§ÙĨ":7308,"Ø´Ø§":7309,"ĠØ¨ÙħØŃØ§ÙģØ¸Ø©":7310,"ĠØ¹ÙħÙĪØ¯ÙĬØ©":7311,"ĠÙĪØ§ÙĦØ§Ùģ":7312,"ĠØªØŃÙĪÙĦ":7313,"ĠØ§ÙĦÙģØ³Ø§Ø¯":7314,"ĠØ§ÙĦØ°ÙĩØ¨ÙĬØ©":7315,"ĠØ§ÙĦÙĨØ³Ø§Ø¦ÙĬØ©":7316,"33":7317,"ĠØ¨Ø§Ø±Ø¯":7318,"ĠØ§ÙĦÙħØªØ¨":7319,"ĠØ§ÙĦÙħÙĨØª":7320,"ĠØ±Ø§Ùģ":7321,"ĠÙĦÙĦÙħØ¤":7322,"ĠÙĦÙĦÙħØ¹Ø¯Ø§Øª":7323,"ĠÙĪÙĤÙĦ":7324,"ĠØ§ÙĦØ´Ø§Ø¦Ø¹Ø©":7325,"ĠØ§ÙħÙĨÙĬØ©":7326,"ÙĩÙĦØ©":7327,"ĠØ§ÙĦÙħØ³ÙĦØ³ÙĦ":7328,"ĠÙħÙĨÙĬ":7329,"ĠÙĥØ±Ø¯":7330,"ÙĬÙĪØªÙĬÙĪØ¨":7331,"Ø§Ø¹ÙĦØ§ÙĨ":7332,"ĠØªÙħØªÙĦÙĥ":7333,"ĠØ§Ø³ØªØ¹Ø¯Ø§Ø¯":7334,"ĠØ§ÙĦØŃÙĥÙĪÙħÙĬ":7335,"ĠÙĬØ·ÙĦØ¨":7336,"ĠÙĪØ§ÙĦØ¨ÙĨ":7337,"ÙĩØ±Ø§Ø¡":7338,"ÙĬØ¬ÙĬØ§Øª":7339,"Ø¨ÙĥØ©":7340,"ĠÙħÙĨÙģ":7341,"ĠØ¯ÙĬÙĥÙĪØ±Ø§Øª":7342,"ĠØªØ±ÙĥÙĬØ©":7343,"ĠÙĦÙĦÙħØ±Ø§Ø©":7344,"Ġ1496":7345,"ĠÙĪØ¨Ø±ÙĥØ§Øª":7346,"ĠØ´Ø§Øª":7347,"ĠØ§ÙĦØªØ±Ø¨ÙĪÙĬØ©":7348,"ĠØ§ÙĦÙħØ³ØªØ¬Ø¯":7349,"ĠØ§ÙĦØ§ØŃÙĪØ§ÙĦ":7350,"ĠÙģØ±ÙĪØ¹":7351,"ĠØ§ÙĩØªÙħØ§Ùħ":7352,"ĠØ§ÙĦØ·ÙĬÙĪÙĨØ©":7353,"ĠÙħØ¹Ø±ÙĥØ©":7354,"ØªÙĩÙĦØ§Ùĥ":7355,"ĠÙĪØ§ÙģØ¶ÙĦ":7356,"ÙĬÙĨØª":7357,"ĠÙĪØ¨ÙĬ":7358,"ĠØ§ÙĦÙĤØ·Ø¹":7359,"ĠØ®ÙģÙĬÙģØ©":7360,"ĠØ¹Ø¬":7361,"ĠØ§Ø®Ø·Ø§Ø¡":7362,"ÙĦÙĬÙĪÙĨ":7363,"ĠØ§ÙĨØµØ§Ø±":7364,"ĠØ§ÙĦÙĥÙĪÙĬØªÙĬØ©":7365,"ĠØ²Ø§Ø¯":7366,"ĠØ³ÙĪØ±ÙĬ":7367,"ĠØ§ÙĦØ®Ø±ÙĪØ¬":7368,"ĠØ³ÙĦØ·Ø§ÙĨ":7369,"ĠØ§ÙĦØ¹ÙĤÙĪØ¯":7370,"ĠØ§ÙĦØ¹ÙĤØ§Ø±Ø§Øª":7371,"ĠÙħØ®ØªØ¨Ø±":7372,"ĠÙĪÙĥÙĨ":7373,"ĠØ§ÙĦÙħÙĨØ´ÙĪØ±Ø©":7374,"Ø±Ø´":7375,"ĠØŃÙĬØ§ØªÙĥ":7376,"ĠØ§ÙĦØ·Ø§Ø¦Ùģ":7377,"ĠÙĪÙĦØ°ÙĦÙĥ":7378,"ÙĪØ§Ø·Ø±":7379,"ĠÙħÙĬØ²Ø©":7380,"ĠØ³ØªØ§ÙĬÙĦ":7381,"ĠÙĦÙĦØ§Ø³ÙħÙĨØª":7382,"ĠÙĦÙħØ¬ÙĦØ³":7383,"ĠÙħØªÙģØ±":7384,"Ø³Ø§ÙĨÙĬØ©":7385,"ĠØ§ÙĦÙħØ±Ø¶":7386,"ĠØ§ÙĦØ¯Ø³ØªÙĪØ±":7387,"ĠØ§ÙĦÙħØ±ÙĬØ¶":7388,"ĠÙħÙĨØ·ÙĤ":7389,"ĠØ¨ÙĬØ¦Ø©":7390,"ĠÙħØ¨ÙĨÙī":7391,"ĠØ§ÙĦØ¬ØºØ±":7392,"ĠØ§ÙĦÙĨÙħ":7393,"ĠØ§ÙĦÙħÙĦØŃ":7394,"ĠØ§ÙĦÙħÙĥÙĪÙĨØ§Øª":7395,"ĠÙģÙĬÙĨ":7396,"Ø¯ÙĬØ§ÙĦ":7397,"ĠØ¨Ø¹Ø¯ÙħØ§":7398,"ĠØ§ÙĦÙģÙĥÙĬØ©":7399,"ĠØ§ÙĦÙħÙĨØ¸ÙħØ©":7400,"ĠØ§ÙĦÙĦÙĬØ¨ÙĬ":7401,"ĠØ§ÙĦÙĨÙħÙĦ":7402,"ĠØ§ÙĦØ§Ø®ÙĦØ§ÙĤ":7403,"ĠØ§ÙĦÙħØ¹Ø§Ø±Ø¶Ø©":7404,"ĠØ§ØµØ¯Ø±":7405,"ĠÙĪØŃØ¯":7406,"ÙģØ¶":7407,"ĠØ¯ÙĪØ§Ø¡":7408,"ÙĬÙĥØ§Øª":7409,"ĠØ§ÙĦÙħØ³Ø±ØŃ":7410,"ĠØŃØµÙĦØª":7411,"ĠØªØªØ¹ÙĦÙĤ":7412,"ĠÙĪØ·Ø±ÙĤ":7413,"ĠØºØ¶ÙĪÙĨ":7414,"ĠÙĦÙĦÙĨØ´Ø±":7415,"ĠØ§ÙĦØ¨ÙĪÙħ":7416,"ĠØªØ¬ÙĨØ¨":7417,"ĠØ§ÙĦØ³Ø§Ø¨Ø¹Ø©":7418,"ĠØ§ÙĦÙĥÙĪ":7419,"ĠÙħÙģØªÙĪØŃØ©":7420,"ØªÙĪÙĬØ§Øª":7421,"ĠØªÙĤØ¯ÙħÙĩØ§":7422,"ĠÙħØ²Ø¯ÙĪØ¬Ø©":7423,"ĠØ¨Ø±Ø§":7424,"ĠÙħØ«ÙĦØ§":7425,"ĠÙĬØ¹Ø¨Ø±":7426,"ĠÙĦÙĦØ³ÙĬØ§Ø±Ø§Øª":7427,"Ø·Ø¨Ø©":7428,"ĠØ§ÙĦÙħÙĪØ¶ÙĪØ¹Ø§Øª":7429,"ĠØ·Ø§ÙĦØ¨Ø§ÙĨ":7430,"ÙĦØ³":7431,"Ø§Ø®ÙĬØµ":7432,"ĠØ§ÙĦØ¸ÙĩØ±":7433,"ĠØ§ÙĦØµÙĦØ©":7434,"ĠØ§ÙĦÙħÙĤØ§ÙĦØ©":7435,"ĠØ§ÙĦØºØ°Ø§Ø¦ÙĬ":7436,"ĠÙĪØ·ØŃÙĨ":7437,"ĠÙĦØ§ÙĦ":7438,"Ø§Ø¶Ø±":7439,"ĠØ§ÙĦØªØ¹Ø±ÙĬÙģ":7440,"ĠÙĬØªØ¹Ø±Ø¶":7441,"ĠØ§ÙĨØªÙĤÙĦ":7442,"ĠÙĥÙĦØ§ÙĬÙĨ":7443,"ĠÙĩØ§ØªÙģÙĥ":7444,"ĠØ§ÙĦØ±ÙħØ²":7445,"ĠØ§ÙĦØ°ÙĥØ±Ùī":7446,"ĠØ¨ÙĦØ³":7447,"ĠÙĬØ³Ø¨Ø¨":7448,"ĠØ§ÙĦØ¨Ø§ÙĦØº":7449,"ĠØ§ÙĦØ§Ø´Ø§Ø±Ø©":7450,"ĠØ§ÙĦØªÙĪÙĨØ³ÙĬØ©":7451,"ĠÙħØ®ØµØµ":7452,"ĠØ§ÙĦÙĤÙĬÙħ":7453,"ĠØ³ÙĨØª":7454,"ĠØŃØ¸Ø±":7455,"Ø§Ø¸Ø§ÙģØ±":7456,"ĠØ§ÙĦØŃØ¨ÙĪØ¨":7457,"ĠØ§ÙĦØ²ÙĬÙĪØª":7458,"Ø¬ÙĬØ¹":7459,"ĠÙĦÙĦØ³ÙĦ":7460,"ĠØ±Ø¨Ø·":7461,"ĠØ§ÙĦØ°ÙĩØ¨ÙĬ":7462,"ĠØ¨ÙĦØ¯ÙĬØ©":7463,"ÙĤÙĬØ§Ùħ":7464,"ÙĪÙĤØ¹Ø©":7465,"ĠÙĦÙħÙĦ":7466,"ÙĦÙĬØ·":7467,"ĠØ²ÙĪØ¬ÙĩØ§":7468,"ÙĬÙģÙĬØ©":7469,"ĠØ§ÙĦØ³ÙĬÙĨÙħØ§Ø¦ÙĬ":7470,"ĠØ¹ÙĨØµØ±":7471,"ĠÙħÙĪÙĤØ¹Ùĥ":7472,"ĠØ§ÙĦØ§ÙĩØªÙħØ§Ùħ":7473,"ØªØªØŃ":7474,"ĠØ¨Ø°ÙĪØ±":7475,"ĠØ§ÙĦØºØ°Ø§Ø¡":7476,"ÙĥØ±Ø±":7477,"ĠØ§ÙĦØªØŃØ¯ÙĬØ«":7478,"ĠØ§ÙĦØ®Ø¨Ø²":7479,"ĠÙħÙĥØ¹Ø¨":7480,"ĠØµÙĨØ§Ø¹ÙĬØ©":7481,"ĠØ§ÙĦØ§ÙģØªØ±Ø§Ø¶ÙĬØ©":7482,"ÙĩÙĬÙĪÙĨ":7483,"ØµØ§Ø¯":7484,"ĠÙħØ®ØªØµ":7485,"ØºÙĬØ±Ø§Øª":7486,"ÙĦØ¹":7487,"ÙħÙĤ":7488,"ĠØ§ÙĦØ§Ø³ÙģÙĦ":7489,"ĠÙĩØ±":7490,"ĠØ§ÙĦÙħØ¹Ø±ÙĪÙģ":7491,"ĠÙĦØ§Ø·":7492,"ĠØ¬Ø§Ø¨Ø±":7493,"ĠØ§ÙĦÙģÙħ":7494,"ĠØ§ÙĦØ§ØŃØªÙĬØ§Ø¬Ø§Øª":7495,"ÙĪÙĨØ§ÙĬØªØ¯":7496,"ĠØ§ÙĦØ¯Ø¨ÙĦÙĪÙħ":7497,"ĠÙħØ·Ø§Ø¹Ùħ":7498,"ĠÙħØ¤Ø³Ø³Ø§Øª":7499,"ĠØ§ÙĦÙĤÙħØŃ":7500,"ĠÙĦØ¨Ø¹Ø¶":7501,"Ø®Ø±Ø§":7502,"ĠØ§ÙĦÙħØªÙĪÙĤØ¹":7503,"ĠÙĬØ´Ø§Ø±Ùĥ":7504,"ĠØ§ÙĦØ®Ø·ÙĪØ§Øª":7505,"Ġ512":7506,"ĠØ§ÙĨØ¬":7507,"ÙĬØ²ÙĦ":7508,"ĠØªÙģÙĤØ¯":7509,"ĠÙĦÙĦØ®Ø¯ÙħØ§Øª":7510,"ĠØ§Ø´Øª":7511,"ĠØ§ÙĦØ«Ø§ÙħÙĨØ©":7512,"Ø·ÙĦØ§Ø¹":7513,"Ġ220":7514,"Ø§ÙĦÙĨ":7515,"ĠÙĦÙĬØ³Ø§ÙĨØ³":7516,"ĠØ§ÙĦØµØŃÙĬØŃØ©":7517,"ĠØ§ÙĦØ·ÙĦØ¨Ø©":7518,"ÙĬÙĪØ¨ÙĬØ©":7519,"ĠØ¨ÙħÙĪ":7520,"Ø®ÙĦÙĤ":7521,"ĠÙĦØ§ÙĨØ´Ø§Ø¡":7522,"ĠÙģØ§Ø±Ø³":7523,"ØµØ±ÙĬ":7524,"ĠÙħØ³ØªÙħØ±":7525,"ĠÙĦØªØ·ÙĪÙĬØ±":7526,"ĠÙĪØ§ÙĦØªØ³":7527,"ĠØ§ÙĦØ´Ø§Ø¨":7528,"ĠØ§ÙĦØ®Ø¨Ø±Ø§Ø¡":7529,"ĠØ¨Ø¹Ø¯ÙĩØ§":7530,"ĠØ§ÙĦÙĪÙĥØ§ÙĦØ©":7531,"ĠÙħÙĬØ³":7532,"ĠØ¹Ø´Ø±Ø§Øª":7533,"ĠÙĥÙĦÙĩ":7534,"Ø§ØªÙģØ§ÙĤ":7535,"ĠÙĬØ¬Ø±ÙĬ":7536,"ĠÙĬØµØ¨ØŃ":7537,"ĠØ¨Ø±Ø³":7538,"ÙħØ§Ø±Ø³Ø©":7539,"Ø§Ø¨Ø§":7540,"ĠØ§ÙĦØ³ÙħØ§ØŃ":7541,"ĠÙĬØ²ÙĪØ±":7542,"ØŃÙĪÙĦ":7543,"ĠÙĩØ¯ÙĬØ©":7544,"ĠØ§ÙĦØ±ÙħÙĦÙĬ":7545,"ÙĦØ§ÙĨ":7546,"ĠÙĪØ¹Ø¯":7547,"ĠÙĪØ¬Ùħ":7548,"ĠÙĨØ¸Ø§ÙģØ©":7549,"ĠÙĪÙĬÙĥÙĪÙĨ":7550,"ĠØ§ÙĨØ³Ø§ÙĨ":7551,"ĠÙĪØ§ÙĦÙħÙĥ":7552,"ÙĤØ§Ø°":7553,"ĠØ§ÙĦØ§ØµÙĦØ§ØŃ":7554,"ĠÙĪØ¨Ø¹Ø¶":7555,"ÙģÙĬØ²":7556,"ĠÙĬÙĪØ§Ø¬Ùĩ":7557,"ØªÙĪØ³":7558,"ĠØ§ÙĦÙħØºÙĨØ§Ø·ÙĬØ³ÙĬ":7559,"Ø¬ÙĪÙĨ":7560,"ĠØ¨ÙĨØ¯Ùĩ":7561,"ĠØ§ÙĦÙħØ³ØªØ´Ø§Ø±":7562,"ĠØ§ÙĦØ¨ÙĬØ¶":7563,"ĠØ§ÙĦØªØ±ÙĥÙĬØ²":7564,"ĠØªÙĪØ¬Ùĩ":7565,"ĠØªØ¬ÙħÙĬÙĦ":7566,"ĠØ§ÙĦØ¹Ø§Ø´Ø±":7567,"ĠØ¬Ø§Ø¦ØŃØ©":7568,"ĠØ§Ø±Ø§Ø¯":7569,"ĠÙĬÙħÙĨØ¹":7570,"ĠÙĥØ¨ÙĬØ±Ø§":7571,"Ø§ÙĦØ§Ø³":7572,"ĠØ§ÙĦØŃØ±Ø§Ùħ":7573,"76":7574,"ĠØ¬ÙĪÙĦØ©":7575,"ĠØ±Ø¬Ø§ÙĦÙĬØ©":7576,"ĠÙĬØ¤Ø«Ø±":7577,"ĠØŃÙĬØ§ØªÙĩ":7578,"ĠÙħØ§ÙĦÙĬ":7579,"ĠØ§ÙĦØ§ÙĨØªÙĩØ§Ø¡":7580,"ĠÙĦØªØ®":7581,"ĠØ§ÙĦØªØ¹Ø±Ùģ":7582,"ĠØ®ÙĦÙģÙĬØ©":7583,"ĠØ§ÙĦÙĪØ§Ø±Ø¯Ø©":7584,"ĠØ§ÙĦØ³ÙĦÙĪÙĥ":7585,"ĠÙħÙģØ±":7586,"ĠÙħÙĨØ®ÙģØ¶Ø©":7587,"ĠÙħØ³ØªØ´Ø§Ø±":7588,"ĠØ§Ø¨Ø§Ø¯":7589,"ĠØ§ÙĦÙħØ³ØªÙħØ±":7590,"ĠØ§ÙĦØ¬ÙħÙĩÙĪØ±":7591,"ĠÙĪØ§ÙĦØªÙĥÙĨÙĪÙĦÙĪØ¬ÙĬØ§":7592,"ĠÙĨØ§Ø´":7593,"ĠØ§ÙĦØ´Ø±Ùĥ":7594,"ĠØ§ÙĦØ±Ø§Ø¦Ø¹Ø©":7595,"ĠØ²Ø¬Ø§Ø¬":7596,"ĠØ§ÙĦÙħØ¹ÙĦÙħ":7597,"ĠØ§ÙĦÙħÙĪØ¬ÙĪØ¯":7598,"ĠØ§ÙĦÙĦÙĪØ§Ø¡":7599,"ÙĤÙĪØ¯":7600,"Ø±ÙĪÙĥ":7601,"ĠÙĪÙĥØ°Ø§":7602,"ØªØ±Ø¨":7603,"ĠØ¨ÙĦØ§ÙĬ":7604,"ĠØ¨Ø¯ÙĦ":7605,"ĠØºØ±ÙĬØ¨":7606,"ĠÙĪØ§ÙĦØ¹ÙĨØ§ÙĬØ©":7607,"ĠÙĪØ§ÙĥØ¯":7608,"ĠØ¨Ø§ÙĪØ±":7609,"Ø·Ùĩ":7610,"ĠÙĦÙĦØ·Ø§ÙĤØ©":7611,"ĠÙĦÙĬØµ":7612,"ĠØ§ÙĦØªØ¹ÙĪÙĬÙħ":7613,"ĠØ§ÙĦØªÙģØªÙĬØ´":7614,"ĠØ§ÙĦØµØ±":7615,"Ø±Ø¨ÙĬÙĨ":7616,"ĠØŃÙĦØ¨":7617,"ĠÙħÙĨØµÙĪØ±":7618,"ĠØ§ÙĦØªØ§Ø¨Ø¹":7619,"ĠÙĪØ¨Ø±ÙĥØ§ØªÙĩ":7620,"ĠÙĪØ¬ÙħÙĬØ¹":7621,"Ø§Ø¯ÙĬØ±":7622,"Ġ2003":7623,"ĠØ§Ø³ØªÙģ":7624,"ĠÙĦÙĦØ§Ø³ØªØ®Ø¯Ø§Ùħ":7625,"ĠØ§ÙĦØ¨Ø§Ø±ÙĬØª":7626,"ĠÙĪØ§ÙĦÙħØª":7627,"ĠÙĦØ°":7628,"ĠÙĥÙħØ§ÙĦ":7629,"ĠØªØµØ§ÙħÙĬÙħ":7630,"ĠÙħÙĪØ¬ÙĪØ¯":7631,"ĠØ³Ø¨Ø§ØŃØ©":7632,"ĠØ§ÙĦÙĩØ¬ÙĪÙħ":7633,"ĠØ§ÙĨÙħØ§":7634,"ĠÙħØªÙĪÙģØ±":7635,"ĠØ§ÙĦØ³ÙħØ§Ø¡":7636,"ĠØ§ÙĦØªØµÙģ":7637,"ĠØªØ³Ø¹Ùī":7638,"ĠØ¨ÙĥØ§ÙĦ":7639,"ĠØ§ÙĦØ¹Ø§ÙħÙĦØ©":7640,"ÙĬØ§ØªÙĬ":7641,"ĠÙħØ¬Ø¯Ø¯Ø§":7642,"ĠØªØ¶Ø¹":7643,"ĠØ®Ø°":7644,"ĠÙĪØªØ±ÙĥÙĬØ¨":7645,"ĠØµÙĬØ¯ÙĦÙĬØ©":7646,"ĠØ§ÙĦØ§Ø³Ø¨Ø§ÙĨÙĬØ©":7647,"ĠØªØ°":7648,"ĠÙĦÙĦØ§ÙĪÙĦØ§Ø¯":7649,"Ø§ÙĤÙĩ":7650,"ĠØ§ÙĦØªÙĦÙģØ²ÙĬÙĪÙĨ":7651,"ĠÙĥÙĦØ§Ø³":7652,"ĠØªÙĤØ±ÙĬØ¨Ø§":7653,"ĠÙĦØºÙĬØ±":7654,"ĠØ¹Ø§ÙĦÙħÙĬ":7655,"ĠØ§ÙĦØ´ÙĩØ§Ø¯Ø©":7656,"ĠÙĬØ¶Ùħ":7657,"ĠØ¨ÙħÙĪØ¬Ø¨":7658,"ĠØ¬ÙĪØ§ÙĦ":7659,"ĠÙĦØºØ§Øª":7660,"ĠØ§ÙĦØºØ±Ø¨ÙĬ":7661,"ĠØ§ÙĦØ²ÙģØ§Ùģ":7662,"ĠÙĥØ§Øª":7663,"ĠÙĥÙĩØ±Ø¨Ø§Ø¦ÙĬ":7664,"ĠÙĦÙĦØ¨Ø±":7665,"ĠØ§ÙĦØºØ¨Ø§Ø±":7666,"ĠÙĨØ¬Ø¯":7667,"ĠØ§ÙĦØ´ÙħØ§ÙĦÙĬ":7668,"ĠÙĦÙĦØ§ÙĦ":7669,"ĠØ§ÙĦØ¬Ø§ÙĨ":7670,"ĠÙĪØ¬Ø¯Øª":7671,"ĠÙħØŃØ§Ø¶Ø±Ø©":7672,"ĠÙĬØŃÙĬÙī":7673,"Ø§Ø¯ÙĬØ«":7674,"ĠØ¨Ø§ÙĨÙĩØ§":7675,"ÙĨØ§Ø¹Ø§Øª":7676,"ĠØ²ÙĪØ¬Ø©":7677,"ĠØ§ÙĦØªØ§ÙĥØ¯":7678,"ĠØ§ÙĦØ§ÙĨÙĪØ§Ø¹":7679,"ĠØ§ÙĬØ¬Ø§Ø¯":7680,"Ø§ÙĦÙĬØª":7681,"Ø±Ø¨ÙĪÙĨØ§Øª":7682,"ĠÙħÙĪØ¸":7683,"ĠØ§ÙĦØ®Ø§Ø±Ø¬ÙĬ":7684,"ĠØªØ¤Ø¯ÙĬ":7685,"ĠØ§ÙĤØªØµØ§Ø¯ÙĬØ©":7686,"ĠØ¹Ø³ÙĥØ±ÙĬ":7687,"ĠÙĩØ´Ø§Ùħ":7688,"ĠØ§ÙĦØ³ÙĦÙħ":7689,"ĠØ¨Ø§ÙĦØ¨Ø±ÙĬØ¯":7690,"ÙħØ§Ø¡":7691,"ĠØ§Ø¯Ùī":7692,"ĠØ³Ø¹ÙĪØ¯ÙĬØ©":7693,"Ø§Ø¨ÙĬØ±":7694,"ĠÙħØ³Ø¦":7695,"ĠÙħØ³Ø¨ÙĤ":7696,"ĠØ§ÙĦÙĦØ§Øª":7697,"ĠÙĦÙĦÙĪØµÙĪÙĦ":7698,"Ø¨ÙĬØ³":7699,"ĠÙĦØµØ§ÙĦØŃ":7700,"Ø§ÙĪÙģ":7701,"Ø§ÙĦÙģØ§Øª":7702,"Ø´ÙĬØ±":7703,"ĠØ§ÙĦÙĩÙĬØ¯Ø±ÙĪÙĦÙĬÙĥÙĬØ©":7704,"ĠÙħØ±Øª":7705,"ĠØ§ÙĦØ¹Ø§Ø¦ÙĦØ©":7706,"ÙĥØ±Ùħ":7707,"ĠÙĪØ§ÙĦÙħÙĩ":7708,"Ø§ÙĨÙĬÙĬÙĨ":7709,"ĠØ¨ÙħØ´":7710,"ĠÙħØ¨Ø§Ø¯Ø¦":7711,"ĠÙģØ§Ø¦ÙĤØ©":7712,"ĠØ³Ø§":7713,"ĠØ¨Ø§ÙĦØªØŃ":7714,"ÙĪØ§ÙĬ":7715,"ĠØ§Ø¯ÙĨÙī":7716,"ĠØ§ÙĦÙĩØ±Ùħ":7717,"ĠÙĪØ²Ø±Ø§Ø¡":7718,"ĠØŃØªÙĬ":7719,"ĠØ±Ø¦Ø§Ø³Ø©":7720,"ĠØ¨ÙħØ³Øª":7721,"ĠØ§ÙĦÙĨØ§Ø¬":7722,"ĠÙħØŃØ¯Ø¯":7723,"ĠØ§ÙĦÙħØªØ·":7724,"Ø§ÙĦØ¯ÙĪ":7725,"ĠØªØ¯Ùħ":7726,"ĠÙĨØ²ÙĦ":7727,"ĠØ§ÙĦÙĦØ§Ø¹Ø¨ÙĬÙĨ":7728,"ĠÙĪØ±Ø¦ÙĬØ³":7729,"ĠØ§ÙĦØ¹ÙĪ":7730,"ĠØ±Ø§Ø¯":7731,"ØªØ¨Ø¯":7732,"ĠØªØ¯Ø¹Ùħ":7733,"ĠØ§ÙĦÙĥØ±Ø¨ÙĪÙĨ":7734,"ÙĩÙī":7735,"ĠÙħØ§Ø²":7736,"Ø³Ø§Ø³":7737,"Ø¨Ø±Ø§Ø·":7738,"ĠØ«Ø§Ø¨Øª":7739,"ĠØ±ÙĪØ¶Ø©":7740,"ĠÙĩØ§ÙħØ©":7741,"ĠØ§ÙĦØ¶ÙħØ§ÙĨ":7742,"ĠØ§ÙĦØ³Ø¹ÙĬØ¯":7743,"ĠØ§ÙĦØªØŃÙĪÙĬÙĦ":7744,"ĠØ§ØµØ¯ÙĤ":7745,"ĠÙĬÙĪØ§ØµÙĦ":7746,"ĠØ¯ÙĬÙģ":7747,"ĠÙĪØªÙĥ":7748,"ĠÙĤÙĦÙĤ":7749,"ĠØ¬Ø±Ø§ØŃØ©":7750,"ÙĬÙħÙĬÙĨ":7751,"ĠÙħÙĤØ§Ø³":7752,"ĠØ§ÙĦØ¹ÙħÙĦØ©":7753,"ĠØ§Ø±Ø§Ø¡":7754,"ĠÙħÙĨÙĪØ¹Ø§Øª":7755,"Ø¹ÙĦÙĩ":7756,"ĠÙħØ±Ø¬Ø¹":7757,"ĠÙħØ¹Ùĥ":7758,"ĠØªØ´ÙĥÙĬÙĦØ©":7759,"ĠØ´Ø¨Ø§Ø·":7760,"ĠØ§ÙĦØªØ´ÙĥÙĬÙĦ":7761,"ĠÙħØ°Ùĩ":7762,"ĠÙĪØ·ÙĨÙĬØ©":7763,"Ø¨Ø±Øª":7764,"ĠØºØ§Ø²":7765,"ĠØ¸Ø±ÙĪÙģ":7766,"ĠØ§ÙĦÙĬÙĨØ§":7767,"ĠØ§ÙĨØªØ®":7768,"ĠØ§ÙĦØ®Ùģ":7769,"ÙĪØ¹Ùĩ":7770,"ĠØ§ÙĦÙģØ¦Ø§Øª":7771,"Ø§Ø±Ø³Ø§Øª":7772,"ĠÙĪÙĬØ¬Ø¨":7773,"ĠÙĥØ§ÙĦÙģÙĨ":7774,"ĠØ§ÙĦÙħØ¶Ø§ÙģØ©":7775,"ĠØ§ÙĦØ§ÙĩÙħ":7776,"ĠØ§ÙĦØ§ÙĪÙĤØ§Øª":7777,"ĠØ¨Ø®Ø·":7778,"Ø§ÙĪÙĬØ§Øª":7779,"Ø¹ÙĤØ©":7780,"Ø¨ÙĪØ±":7781,"ĠØªØªÙĬØŃ":7782,"ĠØ³Ø§Ùĥ":7783,"ĠØ§ÙĦØ«ÙĦØ§Ø«Ø©":7784,"Ø§ØªÙĥ":7785,"ĠØ´Ø±Ø§Ø¦":7786,"ĠØ§Ø¦ØªÙħØ§ÙĨ":7787,"ĠØ§ÙĦÙĨØµÙĪØµ":7788,"ĠØ§ÙĦÙĤØµØµ":7789,"ØŃÙĬÙĦ":7790,"Ø®ØªÙĦÙģ":7791,"ĠØŃØ§ÙħÙĦ":7792,"ĠØ§ÙĦØ¯ÙĦÙĬÙĦ":7793,"ĠÙĪØ§Ø¹Ø§Ø¯Ø©":7794,"ĠÙĪÙĨÙĤ":7795,"ĠØ§ÙĦØªØ§Ø³Ø¹Ø©":7796,"ĠØ±Ø³ÙĬÙģØ±":7797,"ĠØªØ®ÙģÙĬÙģ":7798,"ĠÙħÙĬØ²Ø§Øª":7799,"ØªÙĪÙĥ":7800,"ĠØŃÙĦØ§":7801,"ÙĦÙĥÙĬ":7802,"ĠÙħÙģØªÙĪØŃ":7803,"ĠØ§ÙĦÙħØ´Ø±":7804,"ĠØ§ÙĦØ¹Ø·":7805,"ĠØ§ÙĦÙĪØ§Ø¬":7806,"ĠÙĩÙĪØ¯":7807,"ĠÙħØ±Ø´ØŃ":7808,"ĠØªØ®Ø±Ø¬":7809,"ÙĬÙĪÙĬ":7810,"Ø¤Ø§Ø¯":7811,"ĠØ§ÙħØ¨ÙĬØ±":7812,"ÙĬÙħØ¨Ø§Ø¨ÙĪÙĬ":7813,"ĠØ§ÙĦÙħØªÙĩÙħ":7814,"ĠÙĪØµÙĬØ§ÙĨØ©":7815,"ĠØ§ÙĦÙĥÙĦÙħØ©":7816,"ĠØªØ·Ø§ÙĦØ¨":7817,"ĠØ§ÙĦØ·Ø§ØŃÙĨ":7818,"ĠØ§ÙĦØ§ÙħØªØŃØ§ÙĨØ§Øª":7819,"ĠØ§ÙĦØ§ÙĦÙĬÙģØ©":7820,"ĠØ³ØªØ¬":7821,"Ġ165":7822,"ĠØ§ÙĦØªÙħÙĪÙĬÙĦ":7823,"Ø«Ø¨ÙĬØª":7824,"ĠÙħØ³Ø¨":7825,"ØªÙģØ¸":7826,"ĠØªØ³ÙĦÙĬÙĥ":7827,"ÙĨÙĬÙģ":7828,"ĠØµØ§ØŃ":7829,"ĠÙģØ§Ø®Ø±Ø©":7830,"ĠØ§ÙĦØ³Øª":7831,"ĠØ§ÙĦØ³Ø¬ÙĨ":7832,"ĠØºØ±Ø¨Ø§ÙĦ":7833,"ĠØ§ÙĦÙħØ³ÙĬØŃÙĬ":7834,"ĠØ§ÙĦÙĪÙģ":7835,"ĠÙĦÙħØ¹":7836,"ĠØ§Ø·ÙĤÙħ":7837,"Ø§ØŃÙĨØ©":7838,"ĠØ³ÙģÙĬØ±":7839,"ÙĤÙĬØŃ":7840,"ĠÙĪØ§ÙĦØ§Ø¹ÙĦØ§Ùħ":7841,"ĠØ§ÙĦÙĤØ§Ø¨":7842,"ĠØ¨Ø±ÙĦÙħØ§ÙĨÙĬØ©":7843,"ĠØªØ¨Ø§Ø¯ÙĦ":7844,"ĠØ³Ø±Ø·Ø§ÙĨ":7845,"ĠØ¨ÙĨØ¸Ø§Ùħ":7846,"ĠØ§ÙĦØ¯ÙħØ§Øº":7847,"ĠÙĪØ³Ùħ":7848,"ÙĪÙĤØ§Ùģ":7849,"Ø§Ø²ÙĨØ©":7850,"ĠØ§ØŃÙĦØ§Ùħ":7851,"ĠØªÙĨØ¸Ùħ":7852,"ĠÙħØ®Ø§Ø·Ø±":7853,"ĠØ§ÙĦÙħØªÙĪØ§Ø¬Ø¯":7854,"ĠÙĪÙħÙĦØ§Ø¨Ø³":7855,"Ø§ÙĦØ²":7856,"Ø§ÙĤØ·":7857,"ĠØ§ÙĦØ§Ø¨ØŃØ§Ø«":7858,"ĠÙĦÙĦØ¨ÙĬ":7859,"ĠØ§ÙĦØµÙĨØ¯ÙĪÙĤ":7860,"ÙĬØ·Ø§ÙĨ":7861,"Ø§ÙĦØ®":7862,"ĠÙĬØªÙħÙĬØ²":7863,"ÙĩØ±ÙĬ":7864,"ĠÙħØ¯Ùģ":7865,"ĠÙĨØ³Ø§Ø¡":7866,"ĠØ§ÙĦÙĪØ³Ø§Ø¦Ø·":7867,"ØªÙħØªØ§Ø¹":7868,"ĠØ±ÙĪÙĥ":7869,"ĠØ§ÙĦØ³ÙĦÙģ":7870,"ÙĪÙĦÙĪØ¬ÙĬ":7871,"ĠØ³ÙĦØ·Ø©":7872,"ĠØ§ÙĦÙĥØ±ÙĬÙħØ©":7873,"ĠÙĦÙħØ¹Ø§ÙĦØ¬Ø©":7874,"ĠØ§ÙĦÙģÙĨØ¯ÙĤ":7875,"ĠØ§ÙĦÙħØŃØ§ÙģØ¸Ø§Øª":7876,"ĠÙħØ¨ÙĬØ¹Ø§":7877,"ĠØ§ÙĦØ¬Ø¨ÙĦ":7878,"ĠÙĬØ«":7879,"ĠØ§ÙĦØ¨Ø±Øª":7880,"ĠØ§ÙĬØª":7881,"ĠÙħÙģØ§ØªÙĬØŃ":7882,"ĠØªÙĩÙħ":7883,"Ø§ØŃÙģ":7884,"ĠØ§ÙĦØŃÙĦÙĪÙĦ":7885,"ĠÙĤØª":7886,"Ø§ÙģÙĬÙĥ":7887,"Ġ93":7888,"ĠØ¨Ø±Ø¦Ø§Ø³Ø©":7889,"ĠØ³ÙĬØ¯ÙĬ":7890,"ĠØ§ÙĦØ³ÙĥØ§ÙĨ":7891,"ĠØ§ÙĦØªÙĨÙģÙĬØ°":7892,"ĠØªÙģØªØŃ":7893,"ĠØªØ§Ø¬ÙĬÙĦ":7894,"ĠØ§ÙĦÙħÙģØªÙĪØŃØ©":7895,"ĠÙĥØ±ÙĬØ³Øª":7896,"ĠÙģØ§ÙĨØª":7897,"ĠÙĦØ²ÙĬØ§Ø¯Ø©":7898,"ĠØ§ÙĦÙĤÙĨØ§Ø©":7899,"ĠØ§Ø³ÙĦÙĪØ¨":7900,"ĠÙĦÙħØµÙĨØ¹":7901,"ĠØŃØ¯Ø§Ø¦ÙĤ":7902,"ĠØ§Ø¯ÙĦØ¨":7903,"ÙĪØ§ÙĨØ¨":7904,"ĠØ§ÙĦØ§ÙģÙĥØ§Ø±":7905,"ĠÙĦÙĦÙħÙĦ":7906,"ĠÙĤØ±Ø·":7907,"ĠÙĨØ¸Ø±Ø§":7908,"ĠØ§ÙĦØ¸Ø±ÙĪÙģ":7909,"ĠØªÙĥÙĬÙĬÙģØ§Øª":7910,"ĠØ¨Ø§ÙĤÙĬ":7911,"ĠØ§ÙĦØ¹ÙĪØ§ÙħÙĦ":7912,"ĠØ§ÙĦØ³Ø§Ø¦ÙĦ":7913,"Ø¨Ø®Ø§Ø±":7914,"Ø¨Ø§Ø±Ùĥ":7915,"ĠØªØ¨Ø±":7916,"ĠØ±Ùĩ":7917,"95":7918,"ĠØ³ÙĬÙħØ§":7919,"ĠØ¯Ø©":7920,"ÙĬØªØ§Øª":7921,"ĠÙĪØ°ÙĥØ±":7922,"ĠÙĩÙĬÙĥÙĦ":7923,"ĠÙģØ®":7924,"ĠØ§ÙĦÙħÙĬØ¯":7925,"ĠÙĪØ§ÙĦØ¶":7926,"ĠÙĦÙĦØ§Ø±":7927,"ĠØ§ÙĦÙħÙĨÙĩØ¬":7928,"Ø±Ø¬ÙĬ":7929,"ĠØµØ®ÙĪØ±":7930,"ĠØ¨Ø¹Ø¯Ùħ":7931,"ĠØ§ÙĦØ¹Ø§Ø¯ÙĬØ©":7932,"ĠØ³ÙĪÙĬÙģ":7933,"ĠØ§ÙĦÙħÙģØ±":7934,"ĠØ³Ø¬ÙĨ":7935,"ĠØ§ÙĦØ¨Ø¯Ø¡":7936,"ÙĪÙħÙĩ":7937,"ĠØ¨Ø¯ÙĤØ©":7938,"ĠÙĦÙħØ´Ø§ÙĩØ¯Ø©":7939,"ÙħÙĩ":7940,"ĠÙĦØ§Ø¯":7941,"ĠÙĦÙĦØ¬Ùħ":7942,"ĠÙĩØ§ÙĬØ¨Ø±":7943,"ĠØ³ÙĬØ¯Ø©":7944,"ĠØ§ÙĦÙħÙĪØ¶Ø©":7945,"ĠÙĨØ³ÙĬØª":7946,"ĠÙĦØ²":7947,"ĠØ§ÙĦÙģØ¶Ø§Ø¦ÙĬØ©":7948,"ĠÙĪØ§ÙĦÙħØ®":7949,"Ø¬Ø§ÙĦ":7950,"Ø·ÙĨ":7951,"ĠÙĦØªØ¹Ø²ÙĬØ²":7952,"ĠÙĬØ¹Ø±Ø¶":7953,"ĠØ§ÙĦØªØ³ÙĦÙĬÙħ":7954,"ĠØ§ØªÙħØ§Ùħ":7955,"ĠØ¨ÙĨØ¬Ø§ØŃ":7956,"ĠÙĤØ§ÙĦØ¨":7957,"ĠÙĦØŃÙĦ":7958,"ĠØ§Ø¸ÙĩØ§Ø±":7959,"Ġ360":7960,"ĠÙĥØ¨Ø³":7961,"ĠÙĨÙĤØ§Ø¨Ø©":7962,"ĠØ§ÙħØªØŃØ§ÙĨ":7963,"46":7964,"ĠØªÙĨØ´Ø±":7965,"ÙĪØ§Ø³":7966,"ĠØ§ÙĦØªÙĨØ³ÙĬÙĤ":7967,"ĠØ§ÙĦØ·ÙĬÙĨ":7968,"ĠØºÙĬØ±ÙĩØ§":7969,"ĠÙħØŃØ§ÙĥÙħØ©":7970,"ĠØ³ØªØ©":7971,"ĠÙĤØ§Ø¦ÙĦ":7972,"ĠØ¬Ø¹ÙģØ±":7973,"Ø¸Ø§ÙĩØ±":7974,"ĠØ§ÙĦØ°ÙĥÙĬ":7975,"ĠÙħÙħØªØ§Ø²Ø©":7976,"ĠØ¨ÙħÙĦ":7977,"Ø²Ø¦Ø©":7978,"ĠØ®Ø¨ÙĬØ±":7979,"ĠÙĨØ§ÙĬÙĥ":7980,"ĠØ§ÙĦØ¹Ø³ÙĦ":7981,"ĠØ§ÙĦÙħØ³ØªÙĩÙĦÙĥ":7982,"ĠØ¨ØªÙĤ":7983,"ĠØ§ÙĦØ²ÙĪØ§Ø±":7984,"ĠØ§ÙĦÙħØ¬Ø§ÙĨÙĬ":7985,"ÙĬØ²ÙĬ":7986,"ĠØ§ÙĦÙħÙĪØµÙĦ":7987,"ĠØ§ÙĦÙĬÙĥÙħ":7988,"Ø´ÙĬÙĨ":7989,"ĠØ´ÙĩÙĪØ±":7990,"ĠØªØ¬Ø§Ø±Ø¨":7991,"ÙĨØ§ÙĩØ¬":7992,"Ø´Ùī":7993,"ĠØ§ÙĦØ¶ÙĪ":7994,"ĠØªØ§Ø±ÙĬØ®ÙĬØ©":7995,"ĠØŃÙĤÙĬÙĤÙĬØ©":7996,"Ø¨ÙĬØ§Øª":7997,"Ø±ÙĪØ´":7998,"ĠØ¹Ø§Ø¯":7999,"ØªÙĪØ¨Ø©":8000,"ĠØ¨Ø³Ùħ":8001,"Ø¯Ø±Ø³":8002,"ĠÙĬØ´Ø§ÙĩØ¯":8003,"ĠÙĪØ§ÙĦØ³ÙĦØ§Ùħ":8004,"ĠØ§ÙĨØªØ±ÙĨØª":8005,"ĠØ§ÙĦØ¨Ø§Ø²ÙĦØª":8006,"ĠØ§ÙĦØ§ÙĥØ§Ø¯ÙĬÙħÙĬØ©":8007,"ĠØ³Ø§Ø¦ÙĦ":8008,"ĠØ§Ø³Ø§Ø¨ÙĬØ¹":8009,"ĠØ§ÙĦØ°Ø§ÙĥØ±Ø©":8010,"ĠØ¨Ø¹Ø¶ÙĩØ§":8011,"ĠØ§ÙĦØªÙĤÙĨÙĬØ§Øª":8012,"Ø¨Ø·ÙĬØ©":8013,"ĠØ±Ø¨Ø¹":8014,"ĠØ§ÙĦÙħØ±Ø¶Ùī":8015,"Ø§ÙĪÙĦÙĬÙĨ":8016,"ĠØ§ÙĦÙħØµØ±ÙĬÙĬÙĨ":8017,"ĠØ¹Ø³":8018,"ÙĪØ±Ùĥ":8019,"ĠØ§ÙĦØ¯Ø¬Ø§Ø¬":8020,"ÛĮØ¯":8021,"ĠÙħØ¤Ùĥ":8022,"ĠØ§ÙĦÙĨÙĤØ§Ø´":8023,"ĠØ·Ø±Ø§Ø¨ÙĦØ³":8024,"ĠØ¬Ø§ÙĦ":8025,"ĠØ§ÙĦØ§ØŃØ³Ø§Ø¡":8026,"ĠØ§ÙĦÙħØ¯Ùī":8027,"ĠØ±Ø¬Ø§ÙĦÙĬ":8028,"ĠØ§ÙĦØ¬Ø§ÙģØ©":8029,"ĠÙĪØ§ÙĥØ³Ø³ÙĪØ§Ø±Ø§Øª":8030,"ĠØ§ÙĦØ§ÙĪÙĦÙĬ":8031,"ĠØ·Ø§ÙĤØ©":8032,"ØªÙħÙĬ":8033,"ĠØ§ÙĦØ§ÙħØ§ÙĨØ©":8034,"ĠØ¨ÙĦØ¬":8035,"ĠØ§ÙĦØ¬ÙĦØ³Ø©":8036,"ĠÙħØŃØ§Ø±Ùħ":8037,"ĠØ§ÙĦÙĤØ¶Ø§Ø¦ÙĬØ©":8038,"ĠÙģÙĩÙĦ":8039,"ÙĨØ§ÙĩÙĬØ©":8040,"ĠØ§Ø³Ø¨ÙĪØ¹ÙĬÙĨ":8041,"ĠÚ¤":8042,"ĠÙĪØ§ÙĦÙī":8043,"ĠÙĬØªØ¶ÙħÙĨ":8044,"ÙĪÙĦÙĪØ¬ÙĬØ§":8045,"ĠØ¨Ø§Ø¹ØªØ¨Ø§Ø±":8046,"ĠÙħÙĥØ³":8047,"ĠÙĪØ§ÙĦØ¨ØŃØ«":8048,"ĠÙĦÙħØ³Øª":8049,"ÙĤØ±Ø§":8050,"ĠÙĦÙĦÙħØ¨ØªØ¯Ø¦ÙĬÙĨ":8051,"ĠØ§ÙĦØ³Ø±Ø·Ø§ÙĨ":8052,"ĠØ§Ø³Ø·ÙĪØ§ÙĨØ©":8053,"ĠØ§ÙħÙĨØ©":8054,"ĠØ¹ÙĪÙĨ":8055,"ĠÙĬÙĪÙĨØ§ÙĬØªØ¯":8056,"Ø±ÙģÙĬ":8057,"ĠØ§ÙĦÙħØªÙĤØ¯ÙħØ©":8058,"Ø§ÙĦÙĪØ¬":8059,"ĠØ´ÙĬÙĪ":8060,"ĠØ·Ø¨ÙĬ":8061,"ĠÙĪÙĪØ¶Ø¹":8062,"ĠÙĦÙĬÙħ":8063,"ĠØ§ÙĦÙģØ¬ÙĬØ±Ø©":8064,"ĠÙģØ§Ø·ÙħØ©":8065,"ĠØ¹ÙĦØ§Ø¡":8066,"ĠØ§ÙĦØŃØ§Ø³ÙĪØ¨":8067,"ĠÙħØ«ÙĬØ±Ø©":8068,"ĠÙĤÙĦÙĬÙĦØ§":8069,"ØŃØ§":8070,"ĠØ§ÙĦØ±ØµØ§Øµ":8071,"ĠØ¬ÙħÙĬØ¹Ø§":8072,"ĠØ§Ø²ÙĩØ±":8073,"ĠØ§Ø¬ØªÙħØ§Ø¹ÙĬØ©":8074,"ĠØ§ÙĦØ®Ø´":8075,"ĠÙĬØ¯ÙĦ":8076,"ĠÙĪØºØ±Ø¨":8077,"ØªØ¦Ø§Ø¨":8078,"ĠØµØ¹Ø¨":8079,"ĠØ¨Ø§ÙĦØ¹ÙħÙĦ":8080,"ĠÙĪØªÙĤØ¯ÙĬÙħ":8081,"Ø·ÙĦØ¨Ø©":8082,"Ø§Ø¬ÙĦØ©":8083,"Ø§Ø·ÙĬØ©":8084,"ĠÙĬØ¶Ø¹":8085,"ĠØ´ÙĤØ±Ø§Ø¡":8086,"ĠØ¶Ø±ÙĬØ¨Ø©":8087,"ĠÙĥØ±ØªÙĪÙĨ":8088,"ĠØ®ÙĦØ§Ùģ":8089,"ĠÙħÙĨØ¯":8090,"Ø¹Ø¯Ø¯Ø©":8091,"ĠÙħÙĪØ³ÙĥÙĪ":8092,"ØªÙĩØ¯":8093,"ĠÙĦØ¨ÙĨØ§Ø¡":8094,"ĠÙĪØ«Ø§Ø¦ÙĤ":8095,"ĠÙĦÙĦØ¨ØŃØ«":8096,"ĠØ§ÙĦØ±Ø¤ÙĬØ©":8097,"ĠØ§ÙĦØ§ØŃØ²Ø§Ø¨":8098,"ĠÙĪØ«ÙĬÙĤØ©":8099,"ĠØ§ÙĦØ§ÙģØ±Ø§Ø¯":8100,"ĠØ¨Ø§ÙĦÙħØ¯":8101,"ØªÙĬØ©":8102,"ĠØªÙĥØ§ÙĦÙĬÙģ":8103,"ĠØ§Ø±Ø¨Ø§ØŃ":8104,"ĠÙĦØ¹Ø±Ø¶":8105,"ĠØ§ÙĦÙģÙĪØªÙĪ":8106,"ĠØ§ÙĦØ®ØµÙħ":8107,"ĠØ±Ø§Ø´Ø¯":8108,"ĠÙĦÙĦØªØ¹Ø¯ÙĬÙĨ":8109,"ĠØ§ÙĦØ³ÙĬÙĨÙħØ§":8110,"Ø°Ø§Ø°":8111,"ĠÙħØ³ØªÙĤÙĦØ©":8112,"ĠØ§ÙĦÙħØ¹Ùħ":8113,"ĠÙĦÙĦÙħÙĨØªØ¯Ùī":8114,"ĠÙĦØ§Ø¦ØŃØ©":8115,"ĠØ§ÙĦØ¨ÙĪÙĥØ³ÙĬØª":8116,"Ø¯Ø§ÙĨ":8117,"ĠÙĬØ°ÙĥØ±":8118,"ĠÙĦÙĥÙĨÙĩØ§":8119,"Ø´Ø§ÙĨ":8120,"ĠÙħØ´ÙĩØ¯":8121,"ĠØ¨Ø¬Ø§ÙĨØ¨":8122,"Ø·Ø¨ÙĬÙĤØ§Øª":8123,"ĠØ§ÙĦØ³Ø±ÙĬØ¹Ø©":8124,"ĠØ§ÙĦÙĬÙĪØªÙĬÙĪØ¨":8125,"ĠØ§ÙĦØ§Ø±Ø¯ÙĨÙĬ":8126,"ĠØŃØ±ÙĬØ©":8127,"Ø§ØŃÙĬÙĨ":8128,"ĠØªØªØ¬Ø§ÙĪØ²":8129,"ĠØŃØ§Ùħ":8130,"ĠØ§ÙĦØ´ÙĩØ¯Ø§Ø¡":8131,"ØªÙģØ§Ø¡":8132,"Ø¬Ø²Ø§Ø¦Ø±":8133,"ĠÙħÙĪØªÙĪØ±":8134,"Ø¨ÙĪØ·":8135,"ÙĤÙĬÙĨ":8136,"ĠØ¯Ø³Øª":8137,"Ġ1420":8138,"ĠÙĦÙĦØ¹ÙĨØ§ÙĬØ©":8139,"ĠØ³ØŃ":8140,"ĠØ¹ÙĤØ§Ø±":8141,"ĠØ§ÙĦÙħØ¯Ùģ":8142,"Ø²ÙĬÙħØ©":8143,"ĠÙĦÙħØ²ÙĬØ¯":8144,"Ø¨ÙĬÙĦ":8145,"ÙĪÙĨØ¯":8146,"ĠØ§ÙĦÙħØ¨Ø§Ø´Ø±Ø©":8147,"86":8148,"ĠØ´Ø±ÙĬØ·":8149,"ĠØ§ÙĦÙħÙĥØ³ÙĬÙĥ":8150,"ĠØ¨ÙĪÙĦÙĪ":8151,"ĠÙĦÙħØ¤":8152,"ĠÙħÙĪØ±ÙĬØª":8153,"ĠÙĬØ³ÙħÙī":8154,"Ø±ÙĪÙĬ":8155,"ĠØ§ÙĦØ®ÙĬØ§Ø±":8156,"ĠØ§Ø´ÙĬØ§Ø¡":8157,"ÙĬØ¯Ø²":8158,"ĠØ§ÙĦØªÙĥÙĪÙĬÙĨ":8159,"ØºØ§Ùģ":8160,"ĠÙĬØ¹Ø§ÙĨÙĬ":8161,"ĠÙģÙĦØ³":8162,"ĠØ§ÙĦØªØ§Ø«ÙĬØ±":8163,"ĠØ§Ø´ØªØ±ÙĬ":8164,"ĠØ§ÙĦØªÙĪØ§ÙĦÙĬ":8165,"ĠØ§ÙĦÙħØŃØ§Ø¶":8166,"ĠÙħÙĬÙĥØ±ÙĪ":8167,"Ø±ÙĬØº":8168,"ĠØ§ÙĦØ±Ø§Ùģ":8169,"ĠØ§ÙĦÙĪØµ":8170,"ĠØªØŃØ¨":8171,"ĠÙĪØªØª":8172,"ĠØ§ÙĦÙĤØ¨ÙĪÙĦ":8173,"ĠØ§ÙĦÙĪØµÙģ":8174,"ĠØ§ÙĦØ§ÙĨØ¸ÙħØ©":8175,"ĠØªØ´ÙĥÙĦ":8176,"ĠÙģØ±Ø´":8177,"ĠØ¸Ø§ÙĩØ±Ø©":8178,"ĠÙĥØ±Ø§Ø¬":8179,"ĠØ§ÙĦØ®ÙĬØ±ÙĬØ©":8180,"ĠÙĪÙĥØ³Ø§Ø±Ø©":8181,"ĠØ¹ÙĬÙĪÙĨ":8182,"ĠØºØ²":8183,"ĠØ§ÙĦØ·ÙĪØ§Ø±Ø¦":8184,"Ġ1441":8185,"ĠØªØ²Ø§ÙĦ":8186,"ĠØµÙĨØ§Ø¯ÙĦ":8187,"ĠØ§ÙĦØ§Ø±Ø«":8188,"ĠØ§ØµØ§Ø¨":8189,"ĠÙģØ¬":8190,"ĠØµÙĦØ©":8191,"ĠÙħØ¹ÙħÙĦ":8192,"ĠØ§ÙĦÙĤÙĪØ§Ø¹Ø¯":8193,"ĠØ§ÙĨÙĩØ§Ø¡":8194,"ĠØ§ÙĦÙħØ±ØŃ":8195,"ĠØ§ÙĦÙĨØ§Ùģ":8196,"ĠÙģÙĦØ³Ø·ÙĬÙĨÙĬ":8197,"ĠØ¬Ø³":8198,"ĠØ¬ÙĬØ´":8199,"ĠØ§ÙĦÙĦØº":8200,"ĠØ§Ø±ØªØ¯Ø§Ø¡":8201,"ĠØªØ¹Ø§ÙĨÙĬ":8202,"ĠØ¨ÙħØ´Ø§Ø±ÙĥØ©":8203,"ĠØ¨Ø§Ø³ØªÙħØ±Ø§Ø±":8204,"ĠØ¨ÙĬØªÙĥ":8205,"ĠØ§ÙĦÙĩØ§Ø´":8206,"ĠØ§ÙĦØ¨Ùĩ":8207,"Ø§ÙĪØ¶":8208,"ÙģÙĨ":8209,"ĠØ§ÙĦØ§ÙĨØ¨ÙĬØ§Ø¡":8210,"ĠÙĦØªÙģ":8211,"ĠØ§Ø³ØªÙĬØ±Ø§Ø¯":8212,"ĠÙħØ¤Ø®Ø±Ø§":8213,"ĠØ²Ùĥ":8214,"ĠÙħÙĨØ¸ÙĪÙħØ©":8215,"ĠØ§Ø³ÙĬÙĪØ·":8216,"ĠØªÙģØ¬ÙĬØ±":8217,"ĠØ§ÙĥØ³ÙĬØ¯":8218,"ĠØªØ§ÙĥÙĬØ¯":8219,"Ø´ÙĬØ·":8220,"ĠÙĬØ±Ùī":8221,"ĠÙĪØ§ÙĦØ¹Ø´Ø±ÙĪÙĨ":8222,"ØŃÙĬÙģØ©":8223,"ĠØ§ÙĦÙĨØ¨ÙĪÙĬØ©":8224,"ÙħØ¨ÙĬ":8225,"ĠØªÙħÙĦÙĥ":8226,"ĠØ±Ø§Ø¬":8227,"ĠØ§ÙĨÙĨÙĬ":8228,"ĠØ§ÙĦÙĬØ§Ø¨Ø§ÙĨÙĬØ©":8229,"ĠØ§ÙĬÙħØ§ÙĨ":8230,"ĠØ¬Ø§Ø±":8231,"ĠÙĦÙĦØªÙĨÙħÙĬØ©":8232,"ĠØºÙĬÙĨÙĬØ§":8233,"ĠØ§ÙĦØ§Ø±Ø¶ÙĬØ©":8234,"ØªÙĦÙĤÙī":8235,"ĠØ§ÙĦÙħÙģØªÙĪØŃ":8236,"ĠØ§ÙĦÙģØªØŃ":8237,"ĠØ§ÙĦÙģÙĦØ³Ø·ÙĬÙĨÙĬÙĬÙĨ":8238,"ĠØ§ÙĦØ§ØŃÙĦØ§Ùħ":8239,"ĠØ§ÙĦØ³ÙĦØ©":8240,"ĠØªÙĨØ§Ø³Ø¨":8241,"ĠÙħÙģØªØ§ØŃ":8242,"ĠÙĦØ§Ø´":8243,"Ø§ØŃØ¸":8244,"ĠØ§ÙĦØ¬ÙĪÙĬ":8245,"ĠØ§ÙĦØ´ÙĬÙĪ":8246,"ĠØ§ÙĦØ¨Ø·ÙĨ":8247,"ĠØ§ÙĦØ´Ø¹ÙĪØ±":8248,"Ø¶Ø§Ø±":8249,"ĠØ§ÙĦÙĩÙĪÙĬØ©":8250,"ĠØ«ÙħÙĨ":8251,"ĠØ³ÙĪÙĬØ³":8252,"ÙĪÙĬØ¨":8253,"ØªØ§Ø¯":8254,"ĠØ§ÙĦØŃØ³Ø§Ø¨Ø§Øª":8255,"ĠÙĬÙĪØ¬Ùĩ":8256,"ĠØ¨Ø§ÙĦÙĩ":8257,"Ø¦ÙĬØ§Øª":8258,"ĠØ§ÙĦÙħØ±Ø§ÙĩÙĤØ©":8259,"ĠØ§Ø±Ùĥ":8260,"Ø§Ø®Ø¨Ø§Ø±":8261,"Ø´Ø§Ø¯Ø§Øª":8262,"ĠØ§ÙĦÙĥÙĪÙħ":8263,"ĠØ³Ø¨Ø§ÙĤ":8264,"ÙĪÙĥØ³":8265,"ĠØ§ÙĦÙħØ§Ø¦ÙĬØ©":8266,"ĠÙĦØ§Ø¨Ø¯":8267,"ĠØ¨ÙĪØªØ§Ø¬":8268,"ĠØ§ØªØµØ§ÙĦØ§Øª":8269,"ĠØŃÙĪØ§Ø¯Ø«":8270,"ĠØ§ÙĦØ§ØµØ§Ø¨Ø§Øª":8271,"ĠÙĦÙĦØŃÙģØ§Ø¸":8272,"ĠØ§ÙĦØªØ¹Ø¨Ø¦Ø©":8273,"Ø§ØªÙĩÙħ":8274,"ĠÙĥØ§Ø²":8275,"ĠØ§ÙĦÙĨÙħÙĪ":8276,"ĠØ§ÙĦØ¨Ø«":8277,"ĠÙĪØ³ÙĬÙĦØ©":8278,"ĠØ§ÙĦØ³ÙĨÙĪÙĬ":8279,"ĠÙĤØªÙĦÙī":8280,"ĠØ¨Ø§ÙĦØ¨Ø®Ø§Ø±":8281,"ĠØ§ÙĦÙĦÙĬØ¨ÙĬØ©":8282,"ĠØ§ÙĦÙħØ±ÙĬ":8283,"ĠØ¬ÙħØ¹Ø©":8284,"ĠÙĬØŃØ¯Ø¯":8285,"Ø§Ø±ÙĬØ§Øª":8286,"ĠØ±Ø®ØµØ©":8287,"ĠÙĪØ¨Ø±Ø§ÙħØ¬":8288,"ĠØ§ÙĦØ´ÙĬØ¹Ø©":8289,"Ø³Ø§Ø±Ø©":8290,"ĠØ§ÙĦØ§ÙĬØ©":8291,"ĠÙĦÙħÙĨØ¹":8292,"Ø´ÙĪØ¨":8293,"ĠÙĦÙĦØ§Ø¯":8294,"ĠÙĤÙĦÙĬÙĦØ©":8295,"Ø§Ø¹ÙĬÙĦÙĬØ©":8296,"ĠÙħØµÙĦØŃØ©":8297,"ĠØ²ÙĪØ§Ø±":8298,"ÙĪÙģØ§":8299,"ĠØ§ÙĦØŃØµØ±ÙĬØ©":8300,"ĠØªØ¬ÙħÙĬØ¹":8301,"ĠØ§ÙĦÙĥØ±Ø§Ùħ":8302,"ĠÙģØ±ÙĬØ²Ø±":8303,"ØªØ±Ø§Ùħ":8304,"ÙĪØ¯Ø¹":8305,"ĠØ¨ÙĪØ±ØµØ©":8306,"ĠÙħØ¯Ø®ÙĦ":8307,"ĠØ±Ø®Ø§Ùħ":8308,"ĠØ§ÙĦØ´Ø±ÙĬØ¹Ø©":8309,"ĠÙĤÙĦØª":8310,"ĠØ§ÙĦØ·Ø¨Ø®":8311,"ĠØ´Ø®ØµÙĬØ§Øª":8312,"ÙĤÙĬØ¨":8313,"Ø¶Ø§Ø¦Ø¹":8314,"ĠØ§Ø¹Ø¯Ø§Ø¯Ø§Øª":8315,"ĠØªØ¹Ø¨Ø¦Ø©":8316,"ĠØ¬ÙĪØ§Ø²":8317,"ÙĪÙĨÙĩØ§":8318,"ĠØ§Ø³Ø³":8319,"ĠØ§ÙĦØ§ØŃÙĬØ§Ø¡":8320,"ĠØ§ÙĦÙħÙĪØ³ÙĬÙĤÙī":8321,"ĠØ§ÙĦØ¨ÙĪØ§Ø¨Ø©":8322,"ĠÙģÙĥØ§ÙĨ":8323,"ĠØ§ÙĪÙģ":8324,"ĠØ¬Ø§ÙĩØ²Ø©":8325,"ĠØ·ÙĩØ±Ø§ÙĨ":8326,"ĠÙĦÙĥØ³Ø§Ø±Ø©":8327,"ØµÙĬØ¨":8328,"ĠÙħØ³Ø§ÙĦØ©":8329,"ĠØ³ÙĦØ·ÙĨØ©":8330,"ĠØŃØ¯ÙĬØ«Ø§":8331,"ĠØ§ÙĦØ§ÙĤÙĦÙĬÙħÙĬ":8332,"ĠØªØ§Ø¬Ø±":8333,"ĠØ§Ø¬Ø§Ø¨Ø©":8334,"ĠØ±Ø§ØŃ":8335,"ĠØ§ÙĦØ³ØŃ":8336,"ĠØ§ÙĦØ§Ø¨Ø±Ø§Ø¬":8337,"ĠØ§ÙĦÙħØªØŃØ±ÙĥØ©":8338,"ĠØ§ÙĩØ§ÙĦÙĬ":8339,"ĠØ§ÙĦÙħØ¤ÙħÙĨÙĬÙĨ":8340,"81":8341,"ĠØ±Ø¨ØŃ":8342,"ĠÙĤÙĪÙī":8343,"ĠØ§ÙĦÙģÙĨÙĪÙĨ":8344,"ĠØ§ÙĦØµØºØ±":8345,"ĠØ§ÙĦØ¹Ø¯ÙĪ":8346,"Ġ1780":8347,"ĠØ§ÙĦØŃØ¯Ø«":8348,"ĠØ§ÙĦÙģØ§Ø±":8349,"ĠØ§ÙĦÙģÙĪÙĦØ§Ø°":8350,"ĠØ§ÙĦØ§Ø³ØªØŃÙħØ§Ùħ":8351,"ĠÙĪØµÙģØ©":8352,"ĠØ§Ø´Ø±Ùģ":8353,"ĠØªÙĪÙĦÙĬØ¯":8354,"ĠÙħØ³Ùħ":8355,"ĠÙĪØ§ÙĦØ¨ÙĦ":8356,"Ġ101":8357,"Ġ3060":8358,"ĠØ§ÙĦÙĨØ§Ø·ÙĤ":8359,"ĠÙĪØªØ³Øª":8360,"ĠØ§ÙĦØµØ¹Ø¨":8361,"ÙĪØ§Ø±ÙĬØ®":8362,"ĠØ§ÙĦØ¯ÙĬÙĨÙĬ":8363,"ÙĪÙĥÙĪÙĦØ§Øª":8364,"ĠÙĬÙĪÙħÙĬÙĨ":8365,"ĠØ§ÙĦØµØ±Ø§Ø¹":8366,"ĠØ®ØµÙĪØµØ§":8367,"ĠÙĬØªØ®":8368,"ĠØ¹ÙĤÙĦ":8369,"ĠØ¹ÙĦÙħÙĬ":8370,"ĠØ§ÙĦÙĤÙĦÙĤ":8371,"Ġ1500":8372,"ĠÙħØªØµÙģØŃ":8373,"ĠØ§Ø¯ÙĬ":8374,"ÙĪØ¨ÙĦ":8375,"ĠØ²ÙĬÙħØ¨Ø§Ø¨ÙĪÙĬ":8376,"ĠÙĬÙĨÙĬÙĥ":8377,"ĠÙĬØ´ÙħÙĦ":8378,"ÙĪØ¶Ø§Ø¹":8379,"ĠØ§ÙĦÙħØ³ÙĬØŃÙĬØ©":8380,"ĠØ§ÙĦÙģØ¹Ø§ÙĦ":8381,"Ø§ÙĨÙħ":8382,"ĠÙĬØŃÙĤÙĤ":8383,"Ø§Ø®ÙĬØ±":8384,"Ø´Ø§Ø±ÙĬØ¹":8385,"ĠØªØ§Ø³Ø³Øª":8386,"ĠØ§Ø·Ø±":8387,"ĠØ§ÙĦØŃÙģØ±":8388,"Ø§ÙĩØªÙħØ§Ùħ":8389,"ĠØ§ÙĦØ²ÙĪØ¬ÙĬØ©":8390,"ĠØ¨ÙĬÙĪ":8391,"Ø§ÙħØ¨ÙĬØ§":8392,"ĠØ§ÙĦØ¹Ø«Ùħ":8393,"ĠØªØŃØ¯Ø¯":8394,"ÙĥØ³Ø±":8395,"ĠØ¨ÙħØ«":8396,"ĠØªØ®ØªØ§Ø±":8397,"Ø·Ø§ÙĦØ¨":8398,"Ø§Ø¸Ùħ":8399,"ĠØ§ÙĦØ§Ø³ÙĥØ§ÙĨ":8400,"91":8401,"ÙĬÙħØ²":8402,"ĠØ§ÙĦÙģØ§":8403,"ĠØªÙĪÙģÙĬÙĤ":8404,"ĠØªØ°ÙĥØ±":8405,"ÙĪÙĨÙĬØ©":8406,"Ø§ÙĨÙĥ":8407,"Ø§Ø¨ÙĦØ§Øª":8408,"ĠÙĦÙħØ¯":8409,"ĠØ¹Ø¯Ø¯Ø§":8410,"ĠØ§ÙĦØ¯ÙĤØ©":8411,"ĠØ¯ÙĪÙĦÙĬ":8412,"ĠØµØ§Ø¯ÙĤ":8413,"ÙĬÙĥØ©":8414,"ĠØªØ´ÙĬØ±":8415,"ĠÙĪØ§Ø³Ø¹Ø§Ø±":8416,"Ø§ØŃÙĨØ§Øª":8417,"ĠØ§ÙĦØ±Ø¨Ø¹":8418,"Ġ2480":8419,"ÙħØ´":8420,"Ø±ÙĪØ³ÙĪÙģØª":8421,"ĠØ§ÙĦØ¬Ø¯ÙĪÙĦ":8422,"ĠÙĦØ¬Ùħ":8423,"ĠØ¬ÙĬÙĦ":8424,"Ø§Ø¶Ø©":8425,"ĠÙĪÙĦÙĬØ¯":8426,"ĠÙĦØ®Ø¯ÙħØ§Øª":8427,"ĠÙĦÙģØªØ±Ø©":8428,"ĠØ§ÙĦØµØ¨":8429,"ĠØªØ¯ÙĪØ±":8430,"ÙĬØªØ´":8431,"ĠØ§Ø¨Øª":8432,"ÙĪØ§ØªØ±":8433,"ĠÙĪØ§ÙĦØ¯ÙĥØªÙĪØ±":8434,"Ø§ÙħØ¹Ø§Øª":8435,"ĠÙĬØªØ¬":8436,"ĠØªÙħÙĥÙĬÙĨ":8437,"Ø²Ø§ÙĬØ¯":8438,"Ø§Ø³ÙħÙĬÙĨ":8439,"ĠØ§Ø¸ÙĩØ±":8440,"ĠÙħØ¬Ø§ÙĨ":8441,"ĠØ§ÙĦØ§Ø¹ØªÙħØ§Ø¯":8442,"ĠØ§ÙĦØ¨ÙĨØª":8443,"ĠØ§ÙĦØ¨ÙĥØ§ÙĦ":8444,"ĠÙĬØªØ·ÙĦØ¨":8445,"ĠÙħÙģÙĬØ¯Ø©":8446,"Ø¬Ø¨Ùĥ":8447,"ĠØ§Ø°ÙĩØ¨":8448,"ĠÙĤØ§Ø³Ùħ":8449,"ĠØ§ÙĦØ²ÙĬ":8450,"ĠØ§ÙĦØ§ÙħØ§Ø±Ø§ØªÙĬ":8451,"ĠØ§ÙĦØ´Ø®ØµÙĬØ§Øª":8452,"ĠØ§ÙħÙĪØ±":8453,"ĠØ§ÙĦØ´ÙĬØ¡":8454,"ĠØ§ÙĦØ¯Ø±ÙĪØ³":8455,"ÙĤØ§Ø·":8456,"ĠØ³ÙĬØ±Ø©":8457,"ĠÙħÙĨØµØ§Øª":8458,"ØªØ¨Ø§ÙĥØ§Øª":8459,"ĠØ§ÙĦÙĤØ§Ø¹Ø¯Ø©":8460,"ĠØ§ÙĦØ²ÙĬØ§Ø±Ø§Øª":8461,"ĠØ¨ÙĦØ¯Ø©":8462,"ĠØ¬ÙĩØ¯":8463,"ĠØ§ÙĦÙħÙĪØ³ÙĪØ¹Ø©":8464,"ĠØ¡":8465,"ĠØ§ÙĦØ³Ø¹Ø§Ø¯Ø©":8466,"ĠØ§ÙĦØªØ¬Ø§Ø±":8467,"Ø³Ø¹":8468,"ĠÙĨØ¸Ø±ÙĬØ©":8469,"Ú©ÙĨ":8470,"ĠØ§ÙĦØ§Ø´ØªØ±Ø§ÙĥØ§Øª":8471,"ÙĤØ§ÙĨ":8472,"ĠØ§ÙĦÙĤØ±Ø§Ø±Ø§Øª":8473,"ĠØ§Ø³ØªØ¨Ø¯Ø§ÙĦ":8474,"ĠØªØ±Ø®ÙĬØµ":8475,"Ġ178094":8476,"ĠØ³ÙĪØ§Ø±":8477,"Ø§Ø¦Ø³":8478,"ĠÙħØªØ¹Ø¯Ø¯":8479,"ĠÙĥÙĪÙĦÙĪÙħ":8480,"ĠØ¹ÙĬØ§Ø±":8481,"ĠØ§ÙĦÙĩÙĨØ¯Ø³ÙĬØ©":8482,"ĠØ§ÙĦØ¶Ø¹":8483,"ĠÙĬÙĤØªÙĦ":8484,"ĠØ§ÙĦØµØ¯Ùħ":8485,"Ġ306098":8486,"Ġ248085":8487,"ĠÙĬØ±ÙģØ¶":8488,"ĠÙĦØªÙĥÙĪÙĨ":8489,"ĠÙħØ¹ÙĩÙħ":8490,"Ġ750":8491,"ĠÙĪØ§Ø´Ø§Ø±":8492,"ĠØ§ØªÙĩ":8493,"ĠØ§Ø³ØªØ«Ùħ":8494,"Ø¨Ø¯Ø¡":8495,"ĠÙħÙĤØ·Ø¹":8496,"ÙĨØ¹Ø©":8497,"ĠØªÙĦØ§":8498,"ĠØªØµÙģÙĬØ§Øª":8499,"ĠØªØ´ÙĩØ¯":8500,"ĠØ§ÙĦØ§ÙĪØ¶Ø§Ø¹":8501,"ĠÙĦÙħØ±":8502,"ĠÙģÙĤØ¯Ø§ÙĨ":8503,"ĠØ§ÙĦÙħØ´Ø§Ø±Ùĥ":8504,"ĠÙĪØ¨ÙĨØ§Ø¡":8505,"ĠØ§ÙĦÙĨÙĩØ§Ø±":8506,"ĠÙĪØ§ÙĦØ´Ø±":8507,"Ø§Ø¯ÙĬÙħÙĬ":8508,"ĠØ§ÙĦØ§ØµÙĪÙĦ":8509,"ĠØ±ÙĬØ§Ø¶ÙĬØ§Øª":8510,"ĠØ¨ÙĬÙĨÙĩÙħØ§":8511,"ĠØ§ÙĦÙĨÙħØ³":8512,"ĠÙĪØªØŃÙĤÙĬÙĤ":8513,"ĠÙħØ«Ø§ÙĦ":8514,"ĠØ§ÙĦÙģØªØ§Ø©":8515,"ĠØ§ÙĦÙħØ·Ø§Ø±":8516,"ĠØ§ÙĦØ®ÙĬ":8517,"ĠÙĥØ´ÙģØª":8518,"ĠÙģØ¤Ø§Ø¯":8519,"ĠØ§ÙĦÙĤØ¯Ø±Ø§Øª":8520,"ĠÙĦØ§ØµØŃØ§Ø¨":8521,"Ø±ÙĬÙĥØ§":8522,"ĠØ¯ÙĬØ§Ø¨":8523,"ĠÙĦÙĦØ³ÙģØ±":8524,"ĠÙĪÙĦÙĥÙĨÙĩ":8525,"ĠØ¯Ø¨ÙĦ":8526,"ĠØ§ÙĦØµÙĨØ¹":8527,"ĠØªØ¯ÙĦ":8528,"ÙĥØ¨":8529,"ĠÙħØµÙħÙħ":8530,"ĠÙĦÙĦÙħÙĪØ§Ø¯":8531,"Ġ301":8532,"ĠØ§ÙĦØŃÙħÙĦØ©":8533,"ĠØ³Ø§Ø¨ÙĤØ§":8534,"ĠØ§ÙĦØ³ÙĥØ±ÙĬ":8535,"ÙħØ¬ÙĬØ§Øª":8536,"ĠÙĪØ§ÙĦØªÙģ":8537,"ĠØ§ÙĦØ¹Ø¬":8538,"ĠØ¹ÙħÙĦÙĩ":8539,"ĠØ§ÙĦÙħØ³ØŃÙĪÙĤ":8540,"ĠØ§ØºØ±Ø§Ø¶":8541,"ĠØŃØµØ±ÙĬ":8542,"ĠØ§ÙĥØ³Ø¨ÙĪ":8543,"ĠØ±ÙħØŃ":8544,"ĠØ§ÙĦÙģÙĦØ³ÙģØ©":8545,"ĠØ§ÙĦÙĥÙĪØ¯":8546,"ĠØ§ÙĦØ§ÙĨØ¯ÙĦ":8547,"Ø¤ÙĥØ¯":8548,"ĠÙĪØ§ÙĦØ§ÙĨØªØ§Ø¬":8549,"ÙĦÙĬØ¬ÙĬ":8550,"Ø¨Ø¹Ø§Øª":8551,"ĠØ¨Ø§ÙĦÙħÙĪ":8552,"Ø²Ø±Ø§Ø¹Ø©":8553,"ĠØ§ÙĦØŃØ§Ø±":8554,"ĠØ§Ø±ØªÙĥ":8555,"ĠØªØ¹ÙĤÙĬÙħ":8556,"ĠÙĬÙħØ§Ø±Ø³":8557,"ĠÙħÙĥØ§Ùģ":8558,"ĠØ¹ÙĪØ§ÙħÙĦ":8559,"ĠØ§ÙĦÙĤØªÙĦ":8560,"ĠÙĦÙĦÙħØ¹":8561,"ĠÙĪÙĨØ¸":8562,"Ø§Ø¯ÙĬÙĦ":8563,"ĠØ¶Ø±Ø¨":8564,"ĠÙĦØªØ¹Ø¯ÙĬÙĨ":8565,"ÙĨÙĬÙĩ":8566,"ĠØŃØ¯ÙĬÙĤØ©":8567,"ĠÙĦÙĦÙĪØ¬Ùĩ":8568,"ÙĨØ¯Ø³Ø©":8569,"ĠÙĬØ´Ø¹Ø±":8570,"ĠØ´Ø§ÙĩÙĬÙĨ":8571,"ĠØ¨Ø§ÙĦÙħÙħÙĦÙĥØ©":8572,"ĠÙģØ¹Ø§ÙĦÙĬØ©":8573,"ĠØ¨ÙĨÙģØ³Ùĥ":8574,"ĠØ±ØµØ¯":8575,"ĠÙĨØ±":8576,"ĠØ§ÙĦØ°ÙĥØ§Ø¡":8577,"ĠÙģØ§ÙĬ":8578,"ĠØªØ³Ø¹":8579,"ĠØ¨ÙħÙĤ":8580,"ĠØ§Ø®Ø¨Ø§Ø±ÙĬØ©":8581,"ĠØ§ÙĦØ§Ø³ØªÙģØ³":8582,"ĠÙĪØ´Ø±Ø§Ø¡":8583,"ĠØ§ÙĦÙħÙĪÙĤÙģ":8584,"ĠØ§ÙĦÙĦÙĤØ§ØŃ":8585,"ÙĬØºØ©":8586,"ĠÙĤØ§Ø¯":8587,"ĠØ§Ø´ØªØ±Ø§Ùĥ":8588,"ĠÙĦÙĨØ¸Ø§Ùħ":8589,"ĠØ§ÙĦØ¯ÙĬÙħÙĤØ±Ø§Ø·ÙĬ":8590,"ĠØ§ÙĦØ§Ø¹Ø´Ø§Ø¨":8591,"ĠØ¹ÙħØ§":8592,"ĠÙĦÙĦØªÙĪØ§ØµÙĦ":8593,"ĠØŃØµÙĪÙĦ":8594,"ĠØ§ÙĦØ·Ø¨Ø§Ø¹Ø©":8595,"ĠØ±ÙĪÙĨØ§ÙĦØ¯ÙĪ":8596,"ĠØ§ÙĦØ¹Ø¶ÙĦØ§Øª":8597,"ĠØ±Ø¦ÙĬØ³ÙĬØ©":8598,"ĠÙħØªØŃØ±ÙĥØ©":8599,"Ø´Ø§Ø±Ø§Øª":8600,"ÙĬØŃØ©":8601,"Ø·Ø¨ÙĤ":8602,"ĠØ«ÙĨØ§Ø¦ÙĬ":8603,"ĠÙħØ¤Ø´Ø±Ø§Øª":8604,"ĠØ¹Ø§ÙĦÙħÙĬØ§":8605,"ĠØ¨ÙħØ«Ø§Ø¨Ø©":8606,"ĠØ§ÙĦØªÙģØ§ØŃ":8607,"ĠØ¨Ø§ÙĦÙħØŃ":8608,"ĠØ§ÙĦÙĨØ§ØªØ¬":8609,"ĠØ¨Ø¹ÙĬØ¯Ø§":8610,"Ø¹ÙĬÙĬÙĨ":8611,"ĠØ§ÙĦØ¨ØµØ±Ø©":8612,"ĠØ³Ø§Ø±Ø©":8613,"ØªØ¯Ø®ÙĦ":8614,"ÙĬÙĪØªØ§":8615,"ĠØ§ÙĦØªØ¹ÙĦÙĬÙħÙĬ":8616,"ĠÙĬØ±ØºØ¨":8617,"ĠØ´Ø§ÙħØ¨ÙĪ":8618,"ĠØ§ÙĦØ±Ø§Ø¬":8619,"ĠÙħØŃØ§Ø¬Ø±":8620,"ĠØ³ÙĬØ³":8621,"Ø§ØµÙĬ":8622,"Ø§Ø´ÙĬØ±Ø©":8623,"ĠÙģÙĨØŃÙĨ":8624,"57":8625,"ĠØ¬ÙĦØ¨":8626,"ĠØ§ÙĦÙĥÙĦØ§Ø³":8627,"ĠØ´Ø±ÙĬÙģ":8628,"ĠØ§ÙĦØŃØ±Ø³":8629,"ĠÙĦÙĦØ§Ø³ØªØ«ÙħØ§Ø±":8630,"ĠØ·Ø¨ÙĬØ¹Ø©":8631,"ĠØ§ÙĦÙħØªØ§Ø¨Ø¹Ø©":8632,"ĠØ³ÙĦÙĪÙĥ":8633,"ĠØ¨ØªØ´":8634,"ĠØ§ÙĦÙĨÙĪÙĪÙĬØ©":8635,"ØºØ·ÙĬ":8636,"ĠØ§ÙĦØ§ÙħØ§ÙĨ":8637,"ĠØ§ÙĦØ¯ÙĪØŃØ©":8638,"ĠÙĦÙĪØ²Ø§Ø±Ø©":8639,"ĠÙħØ¨Ø§ÙĦØº":8640,"ĠØªØ®ØµÙĬØµ":8641,"ÙħÙĬØ±ÙĬ":8642,"ĠØ§ÙĦØ´Ø§ÙĬ":8643,"ĠØ°Ø±ÙĪØ©":8644,"ĠØ§ÙĦØ®ÙĦØ§ÙĬØ§":8645,"ĠØ§Ø¨ØªØ¯Ø§Ø¡":8646,"ÙĬÙĤÙĬØ©":8647,"ÙĤØ±Ø§ÙĨ":8648,"Ø§Ø¯Ø«Ø§Øª":8649,"ĠØ§ÙĦÙĪØ«Ø§Ø¦ÙĤ":8650,"ĠÙĬÙĪÙģ":8651,"ĠØ§ÙĦØ¯ÙĥØªÙĪØ±Ø©":8652,"ĠØ§ÙĦÙĩØ¯Ø§ÙĬØ§":8653,"ĠÙĬØŃØ§ÙĪÙĦ":8654,"ĠØµÙĨØ¹Ø§Ø¡":8655,"ĠÙĤØ§ÙĨÙĪÙĨÙĬ":8656,"ĠØ§ÙĦØ³ÙģØ§Ø±Ø©":8657,"ĠØ§ÙĦÙħØªØ¹Ø¯Ø¯Ø©":8658,"ĠØµÙĦØ§ØŃÙĬØ©":8659,"ĠØªÙĩØ¯Ùģ":8660,"ĠØ´Ø§ÙĦ":8661,"ĠØ´ÙĬØ±ØªØ§Øª":8662,"ĠØ§ÙĦÙĩÙħ":8663,"ĠØ¹ÙĥØ³":8664,"ĠÙĦÙĦØªÙģ":8665,"ĠØ§ÙĦØ³ÙĪØ±ÙĬÙĬÙĨ":8666,"ĠÙħÙĨØ®ÙģØ¶":8667,"ĠØ§ÙĦØ´ÙĪ":8668,"ĠØ§ÙĦØ§ÙĨØ¨Ø§Ø¡":8669,"ĠØ§ÙĦÙħØ¯Ø±Ø³ÙĬØ©":8670,"ÙĪØ³ÙģØ§Øª":8671,"Ø¶ÙĪØŃ":8672,"ĠØªØ±Ø§Ø®ÙĬØµ":8673,"ĠØ§ÙĦÙĥÙĩØ±Ø¨Ø§Ø¦ÙĬ":8674,"ÙĬØ¡":8675,"ĠØ§Ø±ÙĪØ¹":8676,"ĠÙĪÙĪØ±":8677,"ĠÙĦÙĦØ·Ø¨Ø§Ø¹Ø©":8678,"ĠØ§ÙĦØ§Ø·Ø§Ø±":8679,"ĠÙĦØ¹Ø¯Ùħ":8680,"ĠØ§ÙĦØªØ¯Ø®ÙĦ":8681,"ĠÙĥØ§ÙģÙĬØ©":8682,"ĠØ§ÙĦØ¬Ø±ÙĬÙħØ©":8683,"ĠØ§ÙĦØµÙĩÙĬÙĪÙĨ":8684,"ÙĬØ²ÙĪ":8685,"ĠØ²ÙĩØ±Ø©":8686,"ĠØ§ÙĦÙĩÙĬ":8687,"ĠØ§ÙĦÙħØ¹Ø§ÙĦ":8688,"ĠÙĬÙĤÙĪØ¯":8689,"ĠØ§ÙĤÙĪÙĦ":8690,"Ø§Ø³ØªÙĬÙĥÙĬØ©":8691,"ĠØ§ÙĬÙģ":8692,"ĠØ¨ÙĦÙĪ":8693,"ĠØ§ÙĦÙģÙĩØ±Ø³":8694,"ØªÙĬØ§Ø²":8695,"ÙĨØªØ§Ø¦Ø¬":8696,"ĠÙħÙĪØ¬ÙĪØ¯Ø©":8697,"ĠØ§ÙĦØ§ÙĨØªØ®Ø§Ø¨ÙĬØ©":8698,"ĠÙħØ¹Ø±ÙĪÙģ":8699,"ĠÙħÙĪØ§ÙģÙĤ":8700,"ĠØ§ÙĦÙģØ±Ø²":8701,"ĠØ¹Ø¨Ø§Ø±Ø§Øª":8702,"ĠØ§ÙĦÙħÙĤØ§ÙĪÙħ":8703,"ĠØ§ÙĦÙĥØ§ÙħÙĬØ±Ø§":8704,"ĠØ±ÙĬØ¯":8705,"ĠØ´ÙĤÙĬÙĤ":8706,"ĠØ³ÙĬØ§Ø±":8707,"ĠØ¬ÙĪØ±Ø¬ÙĬØ§":8708,"Ø³ÙĪÙĦ":8709,"ĠØ¬ÙħÙĦØ©":8710,"ĠØ§ÙĬØ¬ÙĬ":8711,"ĠØ§ÙĦÙĩÙĪÙĦ":8712,"ĠØ§ÙĦÙħØµØ§Ø¯Ø±":8713,"ĠØ³ÙĬÙĪ":8714,"ĠÙĨØ´Ø±Ø©":8715,"ĠØ§ÙĦØ³Ø§Ø¹Ø§Øª":8716,"ĠØ§ÙĦÙĪØ§Øª":8717,"ĠØ¨ÙĪØ¶Ø¹":8718,"ĠÙħØ§Ø¯":8719,"ĠÙħØªÙħÙĬØ²":8720,"ĠØ§Ø³ÙħÙĩ":8721,"Ø¬ÙĬÙĩ":8722,"ĠØµÙĬÙĨÙĬØ©":8723,"ÙĪØªØ´":8724,"ĠÙģØ¶ÙĦÙĥ":8725,"ØªÙģØ§Ø¯Ø©":8726,"ĠØ§ÙĦØªØ®ØµØµØ§Øª":8727,"ĠØ§ÙĦØ±Ø¯ÙĪØ¯":8728,"ĠÙħÙĪØ§ÙĤÙģ":8729,"ĠØ§ÙĦÙĩÙĨØ¯ÙĬØ©":8730,"ĠÙĬØ®Ø±Ø¬":8731,"ĠØŃÙĥÙĪÙħÙĬØ©":8732,"ĠØ§ÙĦØŃØ±ÙĬØ±ÙĬ":8733,"ĠØ§ÙĦØ³ÙĨÙĪÙĬØ©":8734,"ĠØ¨Ø§ÙĦÙħØ±":8735,"ĠØ·ÙĦØ§Ø¡":8736,"ĠÙħÙĬÙĥØ§ÙĨ":8737,"ĠØ§ÙĦØ±ØŃÙĦØ©":8738,"ĠØ§ÙĦÙħÙĨØµØ©":8739,"ĠØ¨ÙĦØ¯Ø§ÙĨ":8740,"ĠØ§ÙĦÙħÙĤØ±Ø±":8741,"ĠØ§ÙĦÙħØ³ØªØ¯Ø§ÙħØ©":8742,"ĠØ§ÙĦÙħØ±ØªØ¨Ø·Ø©":8743,"ĠØ§ÙĦÙĤØ§ÙĨÙĪÙĨÙĬ":8744,"ĠÙħØ§Ø³Ùĥ":8745,"ĠØ±Ø¤ÙĬØ§":8746,"ĠØ§ÙĦØ´ÙĩØ±ÙĬØ©":8747,"ĠÙĪÙĨØ´":8748,"ĠØ§ÙĦØªØ¹ÙĦÙĬÙħØ§Øª":8749,"ÙĥØ§ÙĨÙĬØ§Øª":8750,"Ø´ÙĬØ±ÙĬ":8751,"ĠÙĪØ§ÙĦÙĪ":8752,"ĠØ§ÙĦÙĨØ¬Ùħ":8753,"ĠØ§ÙĦØµØ§Ø¯Ø±Ø©":8754,"ÙĤÙĦÙĬÙĦ":8755,"ĠÙħØªØ§ØŃ":8756,"ÙĪÙĦÙĪØ¬ÙĬØ©":8757,"ĠØ§ÙĦÙħÙħØªØ§Ø²":8758,"ĠØ³ÙĬÙĤ":8759,"Ø§ÙģØ±ÙĬÙĨ":8760,"ĠÙħØŃÙħÙĪÙĦ":8761,"ÙĪØ°ÙĥØ³":8762,"ĠØ§ÙĦØªÙĥÙĨÙĪÙĦÙĪØ¬":8763,"ĠÙĩÙĪÙĦÙĨØ¯Ø§":8764,"ĠØ§ÙĦØªØ±ØªÙĬØ¨":8765,"ĠÙĪØ§ÙĦÙħØ¹Ø¯Ø§Øª":8766,"ĠØ§ÙĦØ±Ø¨Ø§Ø·":8767,"ĠØ§ÙĦÙħÙĪØŃØ¯":8768,"ĠØ§ÙĦØ§Ø¨ÙĦ":8769,"ĠÙģÙĬÙĥ":8770,"ÙħÙĪØ±":8771,"ĠÙĬØŃØ°Ø±":8772,"ĠØ§ÙĦØ§ÙĥØ³Ø¬ÙĬÙĨ":8773,"ĠØ¨Ø³Øª":8774,"ĠØ¨Ø§Ùģ":8775,"ĠØ®ÙĦÙĬØ¬":8776,"ĠØ¬ÙĨØ±Ø§ÙĦ":8777,"ĠÙĦÙĤØ¨":8778,"ĠØ§Ø´Ø±Ø§ÙĤ":8779,"ĠÙĥÙĨØ¨":8780,"ĠØ§Ø®ÙĦØ§ÙĤ":8781,"ĠØ§ØŃØªÙĬ":8782,"ĠØ¨Ø·Ø§Ø±ÙĬØ©":8783,"ĠØªØ¹ÙĦÙĬÙħØ§Øª":8784,"ĠÙĦÙħØ³Ø§Ø¹Ø¯":8785,"ĠÙģÙģÙĬ":8786,"ĠÙĨØ³Ø§Ø¦ÙĬ":8787,"ĠØ§ÙĨÙĤÙĦØ§Ø¨":8788,"ÙĪØ§ÙĦØ¨":8789,"ĠØ§ÙĦÙħÙģØ¶ÙĦ":8790,"ÙĪØ§Ø¬ÙĨ":8791,"ĠÙĪØ§Ø¯Ø§Ø±Ø©":8792,"ĠÙĬØªØ¹":8793,"ĠØ§ÙĦÙħØ¬Ø±":8794,"ĠÙĤØ¶Ø§Ø¡":8795,"ĠØ´ÙĪØª":8796,"ĠØªØ¹ÙĨÙĬ":8797,"Ø±Ø¬ÙĪ":8798,"ĠØ§ÙĦØ³ÙĦØ·Ø§ÙĨ":8799,"ĠØªÙĤÙĦÙĬÙĦ":8800,"ĠÙĬØªÙĬØŃ":8801,"Ø±ØŃØ¨":8802,"ĠÙĪØ·ÙĨ":8803,"ĠØ³ÙĤØ·":8804,"ĠØ§ÙĦØ¹Ø´Ø±ÙĬÙĨ":8805,"Ø§Ø´Ùī":8806,"Ø§ÙĥÙĩØ©":8807,"ĠÙĬÙĪÙĨØ³":8808,"ĠØ§ÙĦØŃÙĤÙĬÙĤÙĬØ©":8809,"ĠØ§ÙĦØ§ÙĩØ¯Ø§Ùģ":8810,"ĠØ§ÙĦÙħÙĬÙĥØ§ÙĨ":8811,"ĠØ§Ø³Ø§Ø³ÙĬØ©":8812,"Ø¨Ø§ØŃØ«":8813,"ĠØ³Ø§ÙĨØª":8814,"ÙĤÙĦØ¨":8815,"ĠÙģØ±Ø¯":8816,"ĠØ¨ÙĬÙĪØª":8817,"ĠØªØ´Ø¹Ø±":8818,"ĠØªØ§ÙĬÙĦØ§ÙĨØ¯":8819,"ÙĪÙĨØ¯Ø§":8820,"ĠØ§ÙĦØ¬ÙĨØ©":8821,"ĠØ·ÙĬØ¨":8822,"ĠØ§ÙĦØ°ÙĩØ§Ø¨":8823,"ĠØ§ÙħØ¨":8824,"ĠØ§ÙĦÙħØªØŃØ¯Ø«":8825,"ÙĪÙĤØ§ÙĬØ©":8826,"ÙĬÙĪÙĬÙĨ":8827,"ÙĥÙĦÙĬ":8828,"ĠØ§Ø³ØªØ«ÙħØ§Ø±":8829,"ĠØ«ÙĦØ§Ø«ÙĬØ©":8830,"Ø§ÙĬØ²":8831,"ĠÙĬØ¬ÙħØ¹":8832,"ĠÙĨØ¬ÙĦ":8833,"ĠØ¨Ø§ÙĦÙĦÙĪÙĨ":8834,"ĠØ§ÙĦÙħØ°ÙĥÙĪØ±Ø©":8835,"ĠØ§ÙĦÙĨØŃÙĪ":8836,"ĠÙĪØ§Ø¶ØŃØ©":8837,"ĠØªØ§Ø¨Ø¹Ø©":8838,"ĠØ§ÙĦØŃÙĦÙħ":8839,"ĠØ¬ÙĩØ§Ø²Ùĥ":8840,"ĠÙĥØ§Ø±Øª":8841,"ĠÙĪØ§ÙĦÙħØ¹ÙĦÙĪÙħØ§Øª":8842,"Ø¨Ø§Ø±Ø§Ø©":8843,"ĠØ§ÙĦØ§ÙĦÙĩ":8844,"ĠÙħÙĬØ¯Ø§ÙĨ":8845,"ĠØ§ÙĦÙħØ³Ø¦ÙĪÙĦÙĬØ©":8846,"ĠÙĬØ´ÙĬØ±":8847,"ĠØ¸ÙĩØ±Øª":8848,"ĠÙĦØªÙħ":8849,"ĠÙĥÙģÙĪØ±ÙĬ":8850,"ĠØ§ÙĦØªØ¹Ø¨ÙĬØ±":8851,"ĠØ¯Ø§Ùħ":8852,"Ø¯Ø±Ø¬Ø©":8853,"Ġ170":8854,"Ø³Ø§":8855,"ĠÙĪØ¹Ø¯Ø¯":8856,"ĠØ®ÙĦØ§ÙĦÙĩ":8857,"ĠÙĥÙĨØ§":8858,"ĠÙĥØ¬Ùħ":8859,"ĠØ§ÙĦØ·ÙĬØ¨":8860,"ĠÙĦÙĦØ¹Ø±Ø¨ÙĬØ©":8861,"ĠØ§ÙĦØ§ÙĤÙĦÙĬÙħÙĬØ©":8862,"ĠØ¬Ø¨ÙĩØ©":8863,"ÙĨØ§Ø©":8864,"ØŃØ§ÙĨÙĩ":8865,"ĠØ§ÙĦÙħØµÙĦ":8866,"ĠØ§ÙħØ§ÙĨ":8867,"ĠØ§ÙĦØ¹Ø²ÙĦ":8868,"ĠÙħØŃØ¯Ø¯Ø©":8869,"ĠØ§ÙĦØ§ØŃØµ":8870,"ĠÙĪØ¹ÙĨØ¯":8871,"ĠØ¨ÙĥØ«ÙĬØ±":8872,"ĠØ§ÙĦØ§ØºØ°ÙĬØ©":8873,"ĠÙĬÙĪØ¶ØŃ":8874,"ĠØŃØ±Ø§Ø¬":8875,"ĠØ§ÙĦÙħÙĥØ±ÙħØ©":8876,"ĠØ´Ø¦":8877,"ĠØªØ¯Ø±ÙĬØ¨ÙĬØ©":8878,"ĠØªØ±ÙĥÙĬØ²":8879,"2021":8880,"ØŃÙĪÙĨ":8881,"ĠØ§ÙĦØ§Ø±Ø¬":8882,"ĠØ§ÙĦØ´ÙĩÙĬØ±Ø©":8883,"Ø§ÙĦØ§ÙĨ":8884,"ĠØ¨ØªØ¬":8885,"Ġ105":8886,"ĠØ³ÙĦØ§ØŃ":8887,"ĠÙĦÙĦØ´Ø±ÙĥØ§Øª":8888,"ĠØ§ÙĦØ¨Ø¯ÙĨÙĬØ©":8889,"ÙĦÙĬØ§Øª":8890,"ĠÙĦØ®Ø¯ÙħØ©":8891,"ĠØ§Ø³ØªÙĩØ¯Ø§Ùģ":8892,"ĠÙģØµ":8893,"ĠØ³ÙĬÙħ":8894,"ĠØŃØ¨ÙĬ":8895,"ĠØ§ÙĪØ¨":8896,"ĠÙĩÙĬÙĦÙģÙĬ":8897,"ĠØ§ÙĦØ§ØŃØªÙģØ§ÙĦ":8898,"Ø§Ùī":8899,"Ø¦Ùĥ":8900,"ĠÙĩØ§Ø±":8901,"ĠÙĪØ¯Ø¹Ùħ":8902,"ĠØ§ÙĦØ·ÙĦØ¨Ø§Øª":8903,"68":8904,"ÙĩÙĬØ²Ø§Øª":8905,"ĠØ§ÙĦÙħÙĬØª":8906,"ĠØ§ÙĦÙģØ§Ø¦Ø¯Ø©":8907,"ĠØ§ÙĦÙĩÙĬØ¯Ø±ÙĪÙĥ":8908,"ĠØ¹Ø°":8909,"ĠØ§ÙĦÙħØ·Ø§Ø¹Ùħ":8910,"ĠØ¯ÙĬØ³Ùĥ":8911,"ĠØ¨Ø°":8912,"ĠØ§ÙĬÙħ":8913,"ĠÙģØ¹ÙĦØ§":8914,"ĠØµØ§ÙĦÙĪÙĨ":8915,"Ø³Ø§ÙĦØ©":8916,"ĠØ§Ø³ÙĩÙĦ":8917,"ĠØ§ÙĦÙĪØ¸ÙĬÙģ":8918,"ĠÙĩÙĬÙĦÙģÙĬØºØ±":8919,"ĠØ§ØªØ±Ùĥ":8920,"ĠØªØ¶ÙħÙĨ":8921,"Ø§Ø¤ÙĩØ§":8922,"ĠØ§ÙĬØ¬Ø§Ø¨ÙĬØ©":8923,"ÙĪØ±ÙĩØ§":8924,"ĠØ§ÙĦØ§Ø³Ø±Ùī":8925,"ĠØ§ÙĦÙħØ§Ø¬Ø³ØªÙĬØ±":8926,"ĠØ§ÙĦØ¯ÙĬÙĥÙĪØ±":8927,"ĠØ§ÙĦÙħØ±Ø§Ø¬":8928,"ĠÙĦØªÙĪÙģÙĬØ±":8929,"ĠØ§Ø®ØµØ§Ø¦ÙĬ":8930,"ĠØ§ÙĦÙĬØ§Øª":8931,"ĠÙħØ´ØªØ±ÙĥØ©":8932,"ĠÙĪØ§ÙĦÙħØ·":8933,"ĠØ§ÙĦØ®Ø·Ø§Ø¨":8934,"ĠÙĨØ§ÙĤ":8935,"ĠØ§Ø±Ùħ":8936,"ĠØ±ØµÙĬØ¯":8937,"Ø§ØªØ°Ø©":8938,"ÙĪØ±Ø¯ÙĬÙĨ":8939,"ĠØ§ÙĦØ§Ø³ØªÙĤÙĦØ§ÙĦ":8940,"ĠÙĤØµÙĬØ±":8941,"ĠØ®ØªÙħ":8942,"Ø±ÙĤØ§Ø¡":8943,"ĠØ§ÙĤØ§Ùħ":8944,"ĠØ¨Ø§ÙĦØ¬Ø³Ùħ":8945,"ĠØ§ÙĦØ³Ø§ØŃ":8946,"ĠØªØµÙĨØ¹":8947,"ĠØ§ÙĦØ´Ø±Ø¨":8948,"Ø§ÙĥØ§":8949,"ĠÙĦÙħØªØ§Ø¨Ø¹Ø©":8950,"ĠØªÙħØ¯ÙĬØ¯":8951,"ĠÙħØ§ÙĩÙĪ":8952,"ĠØ§ÙĦÙĥÙĪÙĥÙĬØ²":8953,"ÙĪÙĤÙĬØ¹":8954,"ĠØ§Ø·ÙĪÙĦ":8955,"ĠØ§ÙĦØ¯Ùģ":8956,"ĠØ§ØŃÙĬØ§ÙĨØ§":8957,"ĠØ§ÙĦØ¶Ø±":8958,"ĠØ§ÙĦÙħØŃØ±":8959,"ĠØ§ÙĦÙħØ´ÙĩØ¯":8960,"ĠØ§ÙĦØ¨Ø¯ÙĬÙĦ":8961,"ĠØ³ÙĥÙĨÙĬØ©":8962,"ĠÙĪÙĦÙĩØ°Ø§":8963,"ĠØ¹ÙħÙĦØ©":8964,"ØªÙĦØ·Ø©":8965,"ĠØŃÙĤØ§Ø¦Ø¨":8966,"ĠØ§ÙĦÙĬØ¯ÙĪÙĬØ©":8967,"ĠÙħØ¯ÙĨÙĬ":8968,"ĠØ¬ÙĦØ¯":8969,"Ø¬ÙĪÙĩØ±Ø§Øª":8970,"ĠÙĦÙħØ¬ÙħÙĪØ¹Ø©":8971,"ÙģÙĦÙĪÙĨ":8972,"ĠØ§ÙĦÙĪØ¹ÙĬ":8973,"ĠÙĬÙħØªÙĦÙĥ":8974,"ĠØ§ÙĦØ¹ÙĤÙĦÙĬØ©":8975,"Ø§ÙĦØ·":8976,"ĠØªÙĪÙĬÙĪØªØ§":8977,"ĠØ³ÙħØ¹":8978,"ĠØ±Ø§Ø¨Ø·Ø©":8979,"ĠØ§ÙĦÙĥØ±ÙĬ":8980,"ÙĬÙĥØ±Ø²":8981,"ĠÙĬØªØŃÙħÙĦ":8982,"ĠØ§ÙĦÙĨÙĩØ±":8983,"ĠØ§ÙĦØ±Ùģ":8984,"ĠØªÙĤØ¯ÙĬØ±":8985,"ĠÙħÙĨØŃØ©":8986,"Ø§Ø¦Ø±ÙĬ":8987,"ĠÙħØµØ·ÙĦ":8988,"Ø±Ø§Ø¦Ø·":8989,"ĠØ§ÙĦØ§ÙģØªØ±Ø§Ø¶ÙĬ":8990,"ĠØ¨Ø¨Ø¹Ø¶":8991,"ĠÙħÙĦØ¹ÙĤØ©":8992,"ĠÙĬØ¯ÙģØ¹":8993,"ĠØ§ÙĦØ¯Ø³ØªÙĪØ±ÙĬØ©":8994,"ĠÙĤØ¨Ø±":8995,"Ø§ÙĬØ±Ø§ÙĨ":8996,"ĠØ§ÙĦØŃØ´Ø¯":8997,"ĠØ¹ÙĨØ¯ÙĬ":8998,"Ø§ÙĩØ©":8999,"Ġ010":9000,"ĠØ§ÙĦÙħÙĪØ¯":9001,"ĠØµØ¹ÙĪØ¨Ø©":9002,"ĠÙĪØ§ÙĦØ§Ø¬ØªÙħØ§Ø¹ÙĬØ©":9003,"Ø´ÙĥÙĦ":9004,"ĠØ§ÙĦÙħØ¹ØªÙħØ¯Ø©":9005,"ĠØ§ÙĦÙĥØªØ±ÙĪÙĨÙĬØ§":9006,"ĠØªØ¹Ø·ÙĬÙĦ":9007,"ĠØºÙĬØ±Ùĩ":9008,"ĠØ§Ø¹ÙĦÙħ":9009,"ĠØ§ÙĦØªÙĨÙĤÙĦ":9010,"ĠØ§ÙĦÙĨØµØ§Ø¦ØŃ":9011,"ĠØ§ÙĦÙħØ¹Ø§ÙĦØ¬Ø©":9012,"ĠØŃØ±ÙĪÙģ":9013,"ĠØ§ÙĦÙģØ§Ø¦ÙĤØ©":9014,"ĠÙħÙĪØ¶Ø©":9015,"ĠÙĬØ¹ØªÙĤØ¯":9016,"ĠØ§Ø¶Ø§Ùģ":9017,"ĠØ§ÙĨÙĩÙĬØ§Ø±":9018,"ĠØªÙĤØ¯":9019,"ĠØ³Ø§Ø¹":9020,"ĠØ§ÙĦØ°Ø§ØªÙĬ":9021,"ĠÙħØªÙĩÙħ":9022,"ĠØ§ÙĦØ§Ø¶ØŃÙī":9023,"ĠØ§ÙĦÙĤÙĬÙĪÙĬÙĨ":9024,"ĠØ§ÙĦØ±ØŃÙħ":9025,"ĠØ¨ÙħØµØ±":9026,"ĠØ§ÙĦÙĤØ·Ø±ÙĬ":9027,"ĠØ§ÙĦØ±ÙĪØ§Ø¨Ø·":9028,"ÙĪÙĤÙĬ":9029,"ĠÙħØµØ§ÙĦØŃ":9030,"ĠØ§ÙĦØªØ¯Ø±ÙĬØ¨ÙĬØ©":9031,"ÙĪÙĨØ¬":9032,"Ø°ÙĥØ±Ø§Øª":9033,"ĠØ¹Ø±Ø¨Ùī":9034,"ĠØ´Ø®ØµÙĬ":9035,"ĠØ§ÙĦØ¹ÙĤÙĪØ¨Ø§Øª":9036,"ĠÙĥØ§Ø±ÙģÙĪØ±":9037,"ĠÙĤÙĦØ¨ÙĬ":9038,"ĠÙĨÙħØ·":9039,"ĠÙĤØ§Ø¯Ø©":9040,"ĠØ´Ø±Ùģ":9041,"ĠØ§ÙĦØ¨ÙĬØ¦ÙĬØ©":9042,"ĠØ¹Ø¶ÙĪÙĬØ©":9043,"Ø§ÙĪÙĬÙĦ":9044,"ĠØ§ÙĤØ±Ø§Øµ":9045,"ĠØ§ÙĦØ¨ÙĤØ§Ø¡":9046,"ĠØ¬ÙĩØ§Øª":9047,"ĠØªÙģØ¶ÙĦ":9048,"ĠØ§ÙĦÙĥÙĦÙĨÙĥØ±":9049,"ĠÙĪØ§ÙĦØµØŃØ©":9050,"Ø³Ø¹ÙĬØ¯":9051,"ĠØ§ÙĦØªÙĪÙģ":9052,"ĠØ¬ÙĬØ¬Ø§":9053,"ĠØ§ÙĦÙħØ¹ØªÙħØ¯":9054,"Ø«Ùģ":9055,"Ø¨Ø§ÙĬ":9056,"ĠØ¬Ø±Ø¹Ø©":9057,"ĠØ§ÙĨØ¶Ùħ":9058,"ĠØ§ÙĦØ±ØŃÙĬÙħ":9059,"ĠÙĦÙĦØ³ÙĨØ©":9060,"ĠÙĦØªÙĨØ¸ÙĬÙģ":9061,"ÙĦÙĬÙĨÙĬ":9062,"ĠÙħÙĨØªØ¯ÙĬ":9063,"ĠØ§ÙĦØ¹Ø¸Ø§Ùħ":9064,"ĠØ±Ø§Ø¦ØŃØ©":9065,"ĠØ§ÙĦÙĩØ§Ùħ":9066,"ØŃØ¯Ø©":9067,"ĠÙĦØ©":9068,"Ø·ÙĪ":9069,"ĠØ§ÙĦÙĨØ¯":9070,"ĠØ§ÙĦØ§Ø´ÙĥØ§ÙĦ":9071,"ĠÙħÙĨØµØ¨":9072,"ĠØ§ÙĦÙĬÙĪÙĨØ§ÙĨ":9073,"Ø²Ø§ÙĨ":9074,"ØºØ§ÙģÙĪØ±Ø©":9075,"ĠÙĦÙĦØ¹ÙĦÙĪÙħ":9076,"ĠÙĪØ§ÙĦÙħÙĪØ§Ø¯":9077,"Ġ2001":9078,"ĠÙĦØ§ÙĨÙĥØ§":9079,"ĠÙĬÙģÙĪØ²":9080,"ĠØ¨ÙĦØºØª":9081,"ĠØ§ÙĦÙħÙĪØ¨Ø§ÙĬÙĦ":9082,"ĠØ§Ø¹ÙĦØ§Ùĩ":9083,"ĠÙĨØ´Ø±Øª":9084,"ĠÙĦÙĦØ¨ÙĨÙĬÙĨ":9085,"ĠØ§ÙĦÙħØ¬ÙħÙĪØ¹Ø§Øª":9086,"ĠØªÙĪØ¶ØŃ":9087,"ĠØ§ÙĦØ¬Ø§ÙĨØ¨ÙĬØ©":9088,"Ø¹Ùĥ":9089,"ĠÙĩØ²Ø§Ø²":9090,"ĠØ´ÙĪØ±Øª":9091,"ĠØ¹Ø¬ÙĦØ©":9092,"ĠÙħØ§Ø±ÙĥØ©":9093,"Ø¨Ø¶":9094,"ĠÙĥØ±ÙĬÙħØ©":9095,"ĠØ§ÙĨØ¬ÙĦÙĬØ²ÙĬØ©":9096,"ĠØ§Ø³ØªÙħ":9097,"ÙĪØ¹ÙĬ":9098,"ÙĪØ§Ø±Ø¯":9099,"ĠØºØ°Ø§Ø¦ÙĬØ©":9100,"ĠØ§ÙĦØªØ³ÙĬÙĬØ±":9101,"ĠØ¯ÙĤØ©":9102,"ĠØ¨ØªÙĨØ³ÙĬÙĤ":9103,"ĠÙĦØªØŃÙħÙĬÙĦ":9104,"ĠØªÙĥØª":9105,"Ø«ÙĬ":9106,"ĠØµØ§Ø¯Ø±":9107,"Ø¦ÙĪÙĬØ©":9108,"ĠØªÙĨØªØ¬":9109,"ĠØ´Ø±Ø¨":9110,"ĠØ±Ø¦ÙĬØ³Ø§":9111,"Ø°ÙĬÙĨ":9112,"ĠØªØ¯ÙģØ¹":9113,"ĠØ§ÙĦØŃØ¯ÙĬØ¯ÙĬØ©":9114,"ĠØªØ¨ÙĦÙĬØº":9115,"ĠØ¨ØªØ³Ø¬ÙĬÙĦ":9116,"ĠÙĬØ¨ÙĤÙī":9117,"ĠØ¬ÙĬÙħ":9118,"ĠØ§ÙħÙĬØ±ÙĥØ§":9119,"ĠÙĬØ§Ø³Ø±":9120,"ĠÙĪÙĪØ³":9121,"Ø¦ÙĨ":9122,"Ø³ÙĥÙĬ":9123,"ĠØ³ÙĪØ¡":9124,"ĠØ¨Ø³ÙĦ":9125,"ĠØ¬ÙĪØ§Ø¦Ø²":9126,"ĠÙĪØ§ÙħØ§":9127,"ĠØ§ÙĦÙħØ®ÙĦ":9128,"ĠØªØªÙĪÙģØ±":9129,"ĠÙĪØ§ÙĦØ¯Ø±Ø§Ø³Ø§Øª":9130,"ĠØ§ÙĨØ¬ÙĦØªØ±Ø§":9131,"ĠØ§ÙĦÙħÙĪØ±":9132,"Ø±ÙĪØ³ÙĬØ§":9133,"ĠØ¬Ø¯ÙĬØ¯Ø§":9134,"ĠÙĥØ¨Ø±Ùī":9135,"ĠØ±ÙĪÙĦ":9136,"ÙĦÙĬØ´":9137,"ĠÙħØªØ§ØŃØ©":9138,"ĠÛ©":9139,"Ø±ÙĬØ§ÙĨ":9140,"ĠØ§ÙĦÙģØŃØµ":9141,"ĠØ¨Ø§ÙĦØ§Ø³ÙĥÙĨØ¯Ø±ÙĬØ©":9142,"ĠØ³Ø±ÙĬØ±":9143,"ĠØ§ÙĦØ¶ÙģØ©":9144,"ĠØ§ÙĦØ²ÙĨ":9145,"Ġ115":9146,"Ø±ÙĪØ¶Ø©":9147,"ĠØŃÙĨ":9148,"ĠØ§ÙĦØ¹Ø§Ø¯ÙĬ":9149,"ĠØ§Ø¨ØŃØ§Ø«":9150,"ĠØ§ÙĦÙĨØ¨Ø§ØªÙĬØ©":9151,"ĠØ§ÙĦÙĩÙĬØ¯Ø±ÙĪÙĥØ±Ø¨ÙĪÙĨØ§Øª":9152,"Ø®Ø§Ø¡":9153,"ÙĬØ¯ÙĬÙĨ":9154,"ĠÙĪØªØ§Ø±ÙĬØ®":9155,"ĠØ³ÙĬØ§ØŃÙĬØ©":9156,"ĠØ§ÙĦØ¨ÙĦØ¯ÙĬØ©":9157,"ĠØ±Ø§Ùī":9158,"ĠØ§ÙĬØ¯ÙĬ":9159,"ÙĪØ§Ø²":9160,"ĠØ§ÙĦÙħØ¹Ø±Ø¶":9161,"Ø´ÙĬØŃ":9162,"ĠØ´ÙĩØ¯Ø§Ø¡":9163,"ĠØ®ÙģØ¶":9164,"Ø«Ùī":9165,"ĠØ§ÙĥÙĦ":9166,"ĠØ§Ø³ØªØºÙĦØ§ÙĦ":9167,"ĠØ§ÙĦØ±Ø¶":9168,"ĠÙĦÙĦÙħÙĪÙĤØ¹":9169,"ĠØªÙĤÙĪÙĬÙħ":9170,"ÙĥØªÙĬØ±ÙĬØ§":9171,"ĠØ§ÙĦØ±ÙĪØ§ÙĬØ©":9172,"ĠØ§ÙĦØµØ¹ÙĬØ¯":9173,"ĠØ§ÙĦÙħØ³ØªØ«ÙħØ±ÙĬÙĨ":9174,"ĠÙģÙĪØ±Ø§":9175,"ĠØ§ÙĦÙħØ°":9176,"ÙĦØ§ÙħÙĬØ°":9177,"ĠÙĦÙĦØµØŃØ©":9178,"ĠØ§Ø³ØªØ±Ø¯":9179,"ĠØ¨ØŃÙĦÙĪÙĦ":9180,"ĠØ§ÙĦØ±ÙĤØ§Ø¨Ø©":9181,"ĠØ¯Ø§Ø®ÙĦÙĬ":9182,"ÙĨÙĬØ§Ùĩ":9183,"ĠØ¨Ø§Øº":9184,"ĠØ§ÙĦÙħØ³Ø¨":9185,"ĠØ·Ùĩ":9186,"Ø¹Ø¯ÙĦ":9187,"ĠØ§ÙĦØ§Ø³Ø±":9188,"ĠØ§ÙĦØºØ±Ùģ":9189,"ĠÙħØ³ØªÙħØ±Ø©":9190,"ĠØ§ÙĦÙħØ±Ø´ØŃ":9191,"Ġ599":9192,"ĠÙĪÙĬÙħÙĥÙĨÙĥ":9193,"ĠÙĦØ§ÙĥØ«Ø±":9194,"ĠØ§ÙĦØ¨ÙĨØ§Øª":9195,"ĠØ§Ø³ØªØ´Ø§Ø±Ø©":9196,"ĠÙĬÙĦØ²Ùħ":9197,"ĠØ§ÙĦÙħØªÙĪØ§Ø¬Ø¯ÙĪÙĨ":9198,"ĠÙĪÙĥÙħ":9199,"ĠØºØ¯":9200,"ĠÙĪØ§ÙĦÙħØ¹Ø§Ø¯ÙĨ":9201,"ĠØ§ÙĦØ¨Ø§Ø¨Ø§":9202,"ĠØ§ÙĦØ¬ÙĩØ©":9203,"ĠÙħØŃØ¯ÙĪØ¯Ø©":9204,"ĠØ²ÙħØ§ÙĨ":9205,"64":9206,"ĠÙĤÙĬØ³":9207,"ĠØªØ¹ÙĬØ´":9208,"ĠØ§ÙĦÙħØªØ®ØµØµ":9209,"ĠÙĬØªÙĥÙĪÙĨ":9210,"ĠØ§Ø®ØªÙĦØ§Ùģ":9211,"ĠØ¨Ø·Ø±":9212,"ĠØ³Ø¨ØŃØ§ÙĨÙĩ":9213,"ĠØ§ÙĪØ¯":9214,"ĠÙĥÙĦÙĪØ¨":9215,"ĠØ§ÙĦØªÙĪØªØ±":9216,"ĠØ§ÙĦØŃØ´":9217,"ĠØ§ÙĦØ®ÙħØ³":9218,"ĠÙħØµØ±Ø¹":9219,"ĠØ§Ø´Ø§Ø±Ø©":9220,"ĠØ¨Ø±Ø¨":9221,"ĠØªØ¬Ùħ":9222,"ĠØ§Ø³ÙĩÙħ":9223,"ĠØ§Ø²Ø±ÙĤ":9224,"ĠØªÙĦÙħÙĬØ¹":9225,"ÙĪØ§Øµ":9226,"ĠÙĥÙĬØª":9227,"ĠÙħÙĦØŃ":9228,"ĠØ§ÙĦØ§Ø¨Ø·Ø§ÙĦ":9229,"ĠØ¨Ø§ÙĦØ¹Ø±Ø¨ÙĬ":9230,"ĠØ§ÙĦÙĥØ§Øª":9231,"ĠÙĪØ·Ø±ÙĬÙĤØ©":9232,"Ġ585":9233,"ĠØ¹Ø§Øµ":9234,"ĠÙĤØ§Ø¹Ø©":9235,"ĠØ²Ø§ÙĪÙĬØ©":9236,"ĠØªØµØ±Ùģ":9237,"ĠÙħÙĤØ§Ø·Ø¹Ø©":9238,"ĠØªÙĤØ¨ÙĦ":9239,"ĠÙĬÙģØªØŃ":9240,"ĠÙĬØ§Ø¨":9241,"ĠØ§ÙĦØªÙĪØ¬ÙĬÙĩ":9242,"ĠØ§ÙĦØ§Ø®Ø·Ø§Ø¡":9243,"ĠÙĪØ§ÙĦØ«ÙĦØ§Ø«":9244,"ĠØ§ÙĦÙĤÙģ":9245,"ĠØªØ§ÙĬÙĪØ§ÙĨ":9246,"ĠØŃØ¯Ø§Ø¯":9247,"ĠØ§ÙĦØ²ÙĩÙĪØ±":9248,"ĠØ§ÙĦÙĨÙĤØ¯ÙĬ":9249,"Ø§ØªØ§":9250,"ĠØ§ÙĦØ±Ø§ØŃØ©":9251,"ĠØ§ÙĦØ±Ø¶Ø¹":9252,"ĠØ¶ÙĪ":9253,"ĠÙĪØ¬Ø¨Ø©":9254,"ĠØ§ÙĦØŃÙħÙĬØ¯":9255,"ÙģÙĦÙĪÙĨØ²Ø§":9256,"ĠÙĪØ²ÙĬØ§Ø¯Ø©":9257,"ĠØ¬Ø§Ø¡Øª":9258,"ÙĥÙĪÙħ":9259,"Ø¹Ø§Ø±Ùģ":9260,"ĠØ§ÙĦÙĪØ³Ø§Ø¦ÙĦ":9261,"ĠØ§ÙĦØ³Ø¹Ø¯":9262,"ĠØ§ÙĦÙĨÙĤØ§Ø·":9263,"ĠÙĪØªØµÙħÙĬÙħ":9264,"ĠÙħÙģØ§Ø¬Ø§Ø©":9265,"ĠØ§ÙĦØ§Ø±Ø«ÙĪØ°ÙĥØ³":9266,"ĠÙħØ¦Ø§Øª":9267,"ĠÙĪØ§ÙĦØ¹Ùħ":9268,"ĠØ®ÙĦÙĬØ©":9269,"ĠØ§Ø¹ØªÙĤØ¯":9270,"ĠØ¨ØŃØ¬Ùħ":9271,"ĠØ§ÙĦØ¯ÙħÙĪÙĬØ©":9272,"ĠØ¬ÙĦØ§ÙĦ":9273,"ĠØ§Ø³ØªØ´ÙĩØ§Ø¯":9274,"ĠØ§ÙĦÙĬÙĩÙĪØ¯":9275,"ĠØ´Ø±ÙĪØŃØ§Øª":9276,"ĠÙħØ´ØºÙĦ":9277,"ĠÙħØ®Ø§ÙĦÙģ":9278,"ÙĬØ¬Ø§Ø¨":9279,"Ø§ÙĦÙĬÙģÙĪØ±":9280,"ÙħØ§ÙĦØ©":9281,"ĠØªØ¨ÙĪÙĥ":9282,"ĠØªÙĩØ¯ÙĬØ¯":9283,"ĠÙĪØ§ØµØ¨ØŃ":9284,"ĠÙĬØ¹ÙĤØ¯":9285,"69":9286,"ÙĨÙĩØ§":9287,"ĠÙĩØ§ÙĨÙĬ":9288,"ĠØ§ÙĦÙħØ³Ø§ÙģØ±":9289,"ĠÙħØ¹Ø¯ÙĦØ§Øª":9290,"ĠØ³Ø§ÙħÙĬ":9291,"ĠØ§ÙĦØ§Ø®ØªØ¨Ø§Ø±Ø§Øª":9292,"ĠÙĩÙħØ§":9293,"ĠØ§ÙĦØ¨Ø·Ø§ÙĤØ©":9294,"ÙĬØ¯Ø³":9295,"ĠÙģØ§ÙĨÙĥ":9296,"Ø²Ø§ÙĬØ§":9297,"ĠØ§ÙĦØªÙĨÙģÙĬØ°ÙĬØ©":9298,"ĠØ§ÙĦØ¬Ø¯ÙĦ":9299,"ĠØ§ÙĦÙħØ³Ø§ÙĦØ©":9300,"ĠØ±Ø§Øª":9301,"ĠØ¨ÙĥØ§ÙģØ©":9302,"ĠØ±ÙĬØ§Ø¶ÙĬ":9303,"ØªØ±ÙĥÙĬØ¨":9304,"ĠÙħØŃÙĪØ±":9305,"ÙĥØ±Ø§":9306,"ĠØ§ÙĦØ³ÙĦØ§ØŃ":9307,"ĠØ§ÙĦØ¹ÙĤÙĬØ¯Ø©":9308,"Ø§Ø¯Ø«Ø©":9309,"ĠÙĦÙĦØ§Øµ":9310,"ĠØ§ÙĦØ·ÙĪÙĬÙĦ":9311,"ĠÙħØŃØ§ÙģØ¸Ø§Øª":9312,"ĠØ§ÙĦÙĨØ¸Ø§ÙģØ©":9313,"ĠÙĪØ±ÙĪ":9314,"Ø«ÙĨØ§Ø¡":9315,"ĠØŃÙĦÙĬØ¨":9316,"ĠØ¨Ø§ÙĦØªÙĤ":9317,"ĠØ§Ø®ØªØ§Ø±":9318,"ĠØ§ÙĦÙħÙħÙĬØ²":9319,"ĠÙĦÙĦÙĥØ§ØªØ¨":9320,"ĠÙħØµÙĨÙĪØ¹Ø©":9321,"ØµØ§Ø¨":9322,"ĠØ´Ø¹Ø¨Ø©":9323,"ĠÙĪØ§ÙĦØ§ØŃÙĥØ§Ùħ":9324,"ĠØ·ÙģÙĦÙĥ":9325,"ĠØ§ÙĦÙģÙĦØ³Ø¨Ø§Ø±":9326,"Ø§ÙĦÙĦ":9327,"ĠØ§ÙĦÙĨØµÙģ":9328,"Ø¬Ø±Ø§ÙĨ":9329,"ĠØ¨Ø§ÙĦÙħØ¹":9330,"ĠÙĤØµÙĬØ¯Ø©":9331,"ĠØ§ÙĦØ§ÙĩØªØ²Ø§Ø²":9332,"ĠØ³Ø¯ÙĬÙħ":9333,"ĠÙĦÙĬØ¨":9334,"ĠÙĬØ«ÙĬØ±":9335,"Ø³ÙĬØ·Ø±":9336,"ĠÙĦØ±Ø¦ÙĬØ³":9337,"ĠØ§ÙĦØŃÙĦÙĬØ¨":9338,"ĠØ§Ø³ÙĨØ§ÙĨ":9339,"ĠØ§ÙĦØ§Ø®ØªØ¨Ø§Ø±":9340,"ĠØ¨Ø¯ÙĬÙĦ":9341,"Ø·ÙĪØ§ÙĨØ§Øª":9342,"ĠØ¨Ø§ÙĦØ²":9343,"ĠØ§ÙĦØ·Ø§Ø¦Ø±Ø§Øª":9344,"ÙĪØ§ÙĬØ§":9345,"ÙĪÙħØ§ØªÙĬÙĥ":9346,"ĠØ§ÙĦØ³ÙĪØ¯Ø§ÙĨÙĬØ©":9347,"ĠØ§ÙĦÙĥØ§Ø±":9348,"ĠØ§ÙĦØµÙģØ±":9349,"Ø§ÙĦÙħØ©":9350,"ĠØ§ÙĦÙħØ®ØµØµØ©":9351,"Ø·ÙĬØ©":9352,"ĠØ§ÙĦÙģØµ":9353,"Ø±Ø§Ø¦ÙĤ":9354,"ÙĩØ±Ø¨Ø§Ø¡":9355,"ĠØªØ¨ÙĤÙī":9356,"ĠÙĬÙĥÙģÙĬ":9357,"ĠØªØ±ÙģØ¶":9358,"ĠØ§ÙĦÙħØ±Ø§ÙĥØ²":9359,"ĠØ¨ÙĤÙĬØ§Ø¯Ø©":9360,"Ø§Ø¹ÙĬØ§Øª":9361,"ĠØµØ§ÙĨØ¹":9362,"ĠØ§ØµØºØ±":9363,"ĠØ§ÙĦÙħÙĦØ§ØŃ":9364,"ĠØŃØ±Øµ":9365,"ĠØ¨Ø§Ø²":9366,"ĠÙĥØ§Ø±ÙĬ":9367,"ĠØ¨Ø§ÙĦØ¶Ø±ÙĪØ±Ø©":9368,"ĠØ§ÙĦØ§Ø³ØªØ¹ÙĦØ§Ùħ":9369,"ĠØ¨ÙħØ¹ÙĨÙī":9370,"ØªÙĨÙĬ":9371,"ĠÙĦÙĦØ§ÙĤ":9372,"ĠØ®Ø³Ø§Ø¦Ø±":9373,"88":9374,"Ø§ØŃÙħØ¯":9375,"ÙĬØªØ§ÙĦ":9376,"ĠØ§ÙĦØ«Ø§Ø¨ØªØ©":9377,"ĠØ§ÙĦÙģÙĪØ§Ø¦Ø¯":9378,"ĠØ³ÙĬØ¨":9379,"ĠØ§ÙħÙĬ":9380,"ĠØ§ÙĦØªØŃØªÙĬØ©":9381,"ĠØ¹Ø´ÙĤ":9382,"ĠØ§ÙĦÙħØ¨ÙĦØº":9383,"Ġ396":9384,"ĠØ§ÙĦØ¯Ø§Ø¦Ø±Ø©":9385,"ĠØ²ÙĬØ¯ÙĪÙĨ":9386,"ĠÙħØªÙĨØ§ÙĩÙĬØ©":9387,"ĠØ³ÙĬØŃ":9388,"ĠØ§ÙĦØ´Ø±ÙĤÙĬ":9389,"ĠÙĦÙĦØ¨ÙĦ":9390,"ĠØ§ØºØªÙĬØ§ÙĦ":9391,"ĠÙĥÙĦÙħØ§":9392,"ĠØ¶Ø®ÙħØ©":9393,"ĠØ¹Ø§ÙħØ±":9394,"ĠÙħØ§ÙĥØ³":9395,"ĠÙĦÙħØ´Ø±ÙĪØ¹":9396,"ĠÙħØ§ÙĬÙĥØ±ÙĪØ³ÙĪÙģØª":9397,"ĠÙĪØŃÙĤ":9398,"ĠÙĦÙĤÙĬ":9399,"ĠØªØªØ¬":9400,"ĠØµÙģÙĪÙģ":9401,"ĠØŃØµØ±ÙĬØ§":9402,"ĠÙħÙĪØ±ÙĬØªØ§ÙĨÙĬØ§":9403,"ĠØªØ±ÙģÙĬÙĩ":9404,"ĠÙĤØ¯Ø±Ø§Øª":9405,"ĠØ§ÙĦØŃÙģØ¸":9406,"ĠØ§ÙĦÙĨØªÙĬØ¬Ø©":9407,"ĠØ§ÙĦÙħØ¹ÙĨÙĬØ©":9408,"ĠÙĪÙĦÙĥÙĨÙĩØ§":9409,"ĠØªÙĤØ³ÙĬÙħ":9410,"ĠÙĪØ§ÙĦØµÙĦ":9411,"Ø§ÙģØ°":9412,"ĠØ§ÙĦÙĤÙħØ©":9413,"ĠÙĪØ§ÙĨÙĪØ§Ø¹":9414,"Ø¬Ø²Ø±":9415,"ĠÙħÙĪØ³ÙĬÙĤÙī":9416,"ĠØ§ÙĦØ¬ÙĩÙĪØ¯":9417,"ĠÙĪØªØŃØ³ÙĬÙĨ":9418,"ÙĤÙĪØ·":9419,"ĠØ§Ø¹Ø·":9420,"ĠÙĪØ¬Ø§Ø¡":9421,"ĠØ«ÙĨØ§Ø¦ÙĬØ©":9422,"ĠØ¨Ø¯Ø¹Ùħ":9423,"ĠÙĪØ§ÙĦØ¹Ø§ÙĦÙħÙĬØ©":9424,"ĠÙĪØŃÙĤÙĪÙĤ":9425,"ĠØªØ¨Ø¹":9426,"ĠØ§ÙĦØ´Ø§Ùģ":9427,"ĠØ§ÙĦØªÙĨÙģØ³":9428,"ĠÙĥÙħÙĬØ§Øª":9429,"ĠØ³Ø¬Ø§Ø¯":9430,"ĠØ§ØªÙħÙĨÙī":9431,"ĠØ§ÙĦØ§ÙĤØµØ±":9432,"ĠÙĬØ®ØªÙĦÙģ":9433,"ĠØ¹Ø²ÙĬØ²ÙĬ":9434,"ĠØ§ÙĦØ¬ÙĨØ³ÙĬ":9435,"ÙĨØ§Ùħ":9436,"ĠØ§ÙĦÙħØªØ¹":9437,"Ø±Ø§ÙĪÙĬ":9438,"ĠØ§ÙĦÙħØªØ¬":9439,"ĠØ¸Ø¨ÙĬ":9440,"ĠÙĦÙĬØ²Ø±":9441,"ĠÙĥÙĬØ³":9442,"ĠØ§ÙĦØ§Ø³ÙĦØŃØ©":9443,"ĠØŃØµÙĬÙĦØ©":9444,"ĠÙĪØ§ÙĦØºØ§Ø²":9445,"ĠØ§ÙĦØ§Ø¹Ø¯Ø§Ø¯ÙĬ":9446,"ĠÙģØ³ØªØ§ÙĨ":9447,"ĠØ§ÙĦÙģØ¬Ø±":9448,"ĠÙĨÙĩØ§Ø¦ÙĬØ§":9449,"Ø§ÙĪØ±Ø©":9450,"ĠØ§ÙĦØ±Ø§Ø³ÙĬ":9451,"ĠØ§ÙĦÙĤØµÙĬÙħ":9452,"ĠÙĦØ¨ÙĦ":9453,"ĠØ§ÙĦÙģØ®":9454,"ĠÙĦÙĦØ§ÙħÙħ":9455,"ĠÙħØ©":9456,"ØµØ±ÙĬØ©":9457,"ĠØ§ÙĦÙħØŃØ§ÙħÙĬ":9458,"ÙĥØ³Ø§Ø±Ø§Øª":9459,"ĠÙĪÙĩÙĨØ§":9460,"ĠØŃÙĤØ§":9461,"ĠÙĦØ§Ø²Ø§ÙĦØ©":9462,"ĠÙģØ±Ø¬":9463,"ĠÙĪØ§ÙĦØ§Øµ":9464,"ØªØª":9465,"ĠØ§ÙĦÙħØªÙĥ":9466,"ĠÙĪØ³ÙĪÙĬØª":9467,"ÙģÙĬÙĪÙħ":9468,"ĠØ§ÙĦÙĤØ§Ø¨Ø¶Ø©":9469,"ĠÙħÙĨØ§Ùĩ":9470,"ĠÙħÙĩØªÙħ":9471,"Ø§Ø¸Ø±":9472,"ĠÙĬÙģØ¹ÙĦ":9473,"ĠØªØªÙħØªØ¹":9474,"ĠØ§ÙĦØµØŃÙģÙĬÙĬÙĨ":9475,"Ġ2002":9476,"ĠÙħØªÙĪÙģØ±Ø©":9477,"ØªÙħØ±Ø§Øª":9478,"ĠØ§ÙĦØ§Ø±Ø¨Ø§ØŃ":9479,"ĠØ§ÙĦØ®ÙģÙĬÙģØ©":9480,"ĠÙħØ¯Ùħ":9481,"ĠØ§ÙĦØ®Ø·ÙĬØ¨":9482,"ĠÙħØºØ±Ø¨ÙĬØ©":9483,"ĠÙĬÙĩØ¯Ø¯":9484,"ĠØ§ÙĦÙħØŃØ§Ø³Ø¨Ø©":9485,"Ø§ÙĦÙĬÙģÙĪØ±ÙĨÙĬØ§":9486,"ĠØ§ÙĦØµØ¯ÙĬÙĤ":9487,"ÙħÙĬØµ":9488,"ĠÙĦØ¹ÙħÙĦÙĬØ©":9489,"ĠØ®Ø³Ø§Ø±Ø©":9490,"ĠØ§Ø³ØªØ±Ø¯Ø§Ø¯":9491,"ĠØ¬Ø±Ùī":9492,"ÙĦÙĬØµ":9493,"ĠØ¨Ø¹ÙĨØ§ÙĬØ©":9494,"ĠØ§ÙĦÙĤÙĬØ§Ø³ÙĬØ©":9495,"ĠØªÙĪØ¶ÙĬØŃ":9496,"Ø§Ø¶Ùī":9497,"ĠØ±ÙĪÙħØ§ÙĨØ³ÙĬØ©":9498,"ĠÙĩÙĪØ¯ÙĬØ§Øª":9499,"ĠÙĨØ¶":9500,"ĠØ°ÙĥÙĬØ©":9501,"ĠØ³ØªØ®Ø¯Ùħ":9502,"ĠØ§ÙĨØ¨Ø§Ø¡":9503,"ĠÙĪÙĨØ¸Ø§Ùħ":9504,"ĠÙĬØ´ÙĩØ¯":9505,"ĠÙĦØ¯Ø®ÙĪÙĦ":9506,"ĠÙĬØ³Ø¹Ùī":9507,"ØªØ³Ø§Ø¨":9508,"ĠØ§ÙĦÙħØ«Ø§ÙĦÙĬØ©":9509,"ĠØ§ÙĦØºØ±Ø¶":9510,"ĠØ¹Ø¨ÙĬØ¯":9511,"ĠØ°Ø§ØªÙĩ":9512,"ĠÙĪØ§ÙĦØµÙĪØ±":9513,"Ø§ÙĨØº":9514,"ĠØ§ÙĦØ²ÙĨÙĥ":9515,"ĠÙĪÙĨØ´Ø±":9516,"ĠØ§ÙĦØªÙħÙĬ":9517,"ØªØ®Ø±Ø§Ø¬":9518,"ĠØ§ÙĦØªØŃØ¯ÙĬØ§Øª":9519,"ĠØ§ÙĦØ¶Ø±ÙĪØ±ÙĬ":9520,"ØªÙģØ¹ÙĬÙĦ":9521,"ĠÙģÙĬÙĦ":9522,"ĠØ§Ø³ØªØ·Ø§Ø¹":9523,"ĠÙĨØ¬ÙĬØ¨":9524,"ĠØ§ÙħØ§Ø±Ø§Øª":9525,"ĠØ§ÙĦÙħØŃØªØ±ÙģÙĬÙĨ":9526,"ĠÙĦÙĦØ§Ø¹ÙĦØ§Ùħ":9527,"ĠØ§ÙĦØ§Ø³ÙĬØ±":9528,"ĠÙĪØ§Ø¬ÙĩØ©":9529,"ĠÙĩÙĪØ§ÙĪÙĬ":9530,"ĠØ¨ÙĪØ³Øª":9531,"ĠØ§ÙĦØ§Ø¦ØªÙħ":9532,"ĠØ§ÙĦØ³Ø±ÙĬØ©":9533,"ĠÙĪØ§Ø®Ø±":9534,"ĠØªØ®ÙĦ":9535,"Ø§Ø±ÙĬØ§":9536,"ĠØ§ÙĦØ¨ÙĨØ¯":9537,"ĠÙĪØªÙĦ":9538,"ĠÙĦÙĨÙģØ³":9539,"ĠÙĪØªÙĨØ¸ÙĬÙģ":9540,"ØµÙĬØ±":9541,"ĠØ§ÙĦØ´Ø¯ÙĬØ¯":9542,"ĠØªØµØ¯ÙĬØ±":9543,"ĠØ§ÙĬÙĩØ§":9544,"ĠØ§ÙĦÙħØ´ÙģØ±Ø©":9545,"ĠØ¨ÙĦØ¬ÙĬÙĥØ§":9546,"ĠØ§ÙĦØªØŃÙĪÙĦ":9547,"ĠÙĬØªØ¹ÙĬÙĨ":9548,"ĠÙĥÙĪØ±Ø³":9549,"ĠÙħØ§ÙĥØ±ÙĪÙĨ":9550,"ĠØ§ÙĦØªØ®Ø²ÙĬÙĨ":9551,"ĠØ§ÙĦØ§Ø±ÙĩØ§Ø¨ÙĬØ©":9552,"ĠÙĨØ§ÙĤÙĦØ©":9553,"ĠØ§ÙĦÙģÙĬØ¯ÙĬÙĪÙĩØ§Øª":9554,"ĠÙħØ¬ÙĪÙĩØ±Ø§Øª":9555,"ĠÙĪØ§ÙĦØªØ¹":9556,"Ø²Ø§ÙĦ":9557,"ĠØ§ÙĦÙħÙĨØŃ":9558,"ĠÙħÙĬÙĨØ§Ø¡":9559,"ĠØ¬Ø¨Ø±":9560,"ĠØ¨ØªØµÙħÙĬÙħ":9561,"ĠØ¨ÙĬØ¬":9562,"ĠØ´Ø¬Ø±Ø©":9563,"ĠØªØŃØ¯ÙĬ":9564,"ĠØ§ÙĦÙĥÙĪÙĬØªÙĬ":9565,"ĠÙĦÙī":9566,"ĠØ´Ø§ÙĥØ±":9567,"ĠÙĪÙĬÙĤÙĪÙĦ":9568,"ĠØ§Ø³Ø§ÙĦÙĬØ¨":9569,"ĠØ§ÙĦØ¨ÙĬØªÙĥÙĪÙĬÙĨ":9570,"ĠÙĦÙĦØµØ¯Ø§":9571,"ĠÙĨØ¨Ø°Ø©":9572,"ĠØ§ÙĦÙħÙĤØ¯Ø³Ø©":9573,"ĠØŃÙĤÙĬÙĤÙĬ":9574,"ÙħÙħØ©":9575,"ÙĨØ§Ø³":9576,"ĠØ¨Ø§ÙĥØ«Ø±":9577,"ÙĤØ¯Ø§Ùħ":9578,"ĠØ§ÙĦÙħØ±Ø§ÙĤØ¨Ø©":9579,"ĠØ§ÙĦÙħÙģØ§ØµÙĦ":9580,"ĠÙħÙĤÙĦ":9581,"ĠÙħÙĬØ´":9582,"ĠØ§ÙĦÙħØ´Ø±ÙĪØ¨Ø§Øª":9583,"ĠØ¹ØµØ§Ùħ":9584,"ĠØªØ«ÙĬØ±":9585,"ĠØ§Ø±Ø¬ÙĪ":9586,"Ġ240":9587,"ĠØ§ÙĦØ§Ø°ÙĨ":9588,"Ø§Ø³Ùĥ":9589,"ĠÙħØ²ÙĬØ¬":9590,"ĠØ§ÙĦØ¬ÙĨÙĪØ¨ÙĬ":9591,"ĠÙĦÙĦØ´Ø¨Ø§Ø¨":9592,"ĠÙĦØµÙĨØ¹":9593,"ĠØ§ÙĬÙĨØ´ÙĬØ±ÙĬ":9594,"63":9595,"Ø³Ùĩ":9596,"ÙĦÙĥÙħ":9597,"ĠÙħÙħÙĦÙĥØ©":9598,"ĠÙĪØ¹ÙĦÙħ":9599,"ĠØ§ÙĥØ´ÙĨ":9600,"ĠØŃØ³Ø§Ùħ":9601,"ØªØ±ÙĥØ§Ø±Ø¯":9602,"ĠØ¨Ø§Ø¹ÙħØ§ÙĦ":9603,"ĠØ§ÙĦØ§Ø¹Ø¯Ø§Ø¯ÙĬØ©":9604,"ĠØ³Ø¹Ø§Ø¯Ø©":9605,"ĠØ§ÙĦØŃØ¬Ø²":9606,"ĠÙħØµØ¨Ø§ØŃ":9607,"ĠØ¬ÙĨØ¨":9608,"ĠØ³Ø§ÙĩÙħ":9609,"Ø§ÙĩÙĨ":9610,"ĠØªÙĨØ§Ùģ":9611,"ĠØ§ÙĦÙĦØ¬ÙĪØ¡":9612,"ĠÙĦÙĦÙĪ":9613,"ĠÙĩØ§Ø¯ÙĬ":9614,"ĠØ§ÙĦØ¹ÙĤØ§Ø±":9615,"ĠØ§ÙĦØ³Ø¬Ø§Ø¯":9616,"ĠÙĪØ§ÙģÙĤ":9617,"ĠÙĤÙĬØ±":9618,"ĠÙħÙĦØŃÙĤØ§Øª":9619,"ĠÙħØ´Ø±ÙĪØ¹Ø§Øª":9620,"ĠØªÙĪØ±ÙĬØ¯":9621,"ĠØ¬ÙĦÙĬ":9622,"ĠØ§ÙĦÙħØµØ±ÙģÙĬØ©":9623,"ĠØ¨Ø§ÙĦØªØ³Ø¬ÙĬÙĦ":9624,"ĠÙĦÙĥØ§ÙģØ©":9625,"ĠØ§ÙĦØ´ÙĬØ¹":9626,"ĠÙĨØ´Ø§Ø·Ø§Øª":9627,"ĠØ§ØŃØªØ¬Ø§Ø¬":9628,"ĠÙħÙĪÙĦØ¯":9629,"ĠØ§ÙĦØ§Ø³ØªÙĩÙĦØ§Ùĥ":9630,"ĠØ´ÙĩØ±ÙĬÙĨ":9631,"ĠØ§ÙĦØ´ÙĩÙĬØ±":9632,"ĠØ§ÙĦØ§Ø¦ØªÙħØ§ÙĨ":9633,"ĠÙĦÙĬÙĥÙĪÙĨ":9634,"ÙīØ¡":9635,"ĠØ§Ø¬Ø§Ø²Ø©":9636,"ĠØ§ÙĦÙħÙĥÙĬØ§Ø¬":9637,"ĠÙĪØªØŃØ¯ÙĬØ¯":9638,"ĠØªÙĪÙĤÙĬÙģ":9639,"Ø§ÙģØ§":9640,"ĠØ¹Ø¨Ø§Ø¯":9641,"ĠÙĪØ§ÙĦÙĦØºØ§Øª":9642,"ĠÙħØ®ØµØµØ©":9643,"ĠØ§ÙĦÙģÙĬ":9644,"ĠØªØ¬Ø§ÙĩÙĦÙĩ":9645,"ĠÙĪÙĪÙĦ":9646,"Ø¹Ø§Ø±Ø¶":9647,"ĠÙħØ²Ø¯ÙĪØ¬":9648,"Ø¹Ø§Ø´":9649,"ĠÙħØ³ØªÙĤÙĦ":9650,"ĠÙħØ§Ø±Ùĥ":9651,"ĠÙħÙĬÙĪÙĨ":9652,"ĠØ§ÙĦÙģÙĤØ±":9653,"ĠØ§ÙĦØ¯ÙĪØ§Ø±":9654,"ĠØ§Ø³ÙĪØ§ÙĨ":9655,"ĠÙħØ§Ø³ØªØ±ÙĥØ§Ø±Ø¯":9656,"ĠØ§ÙĦÙħÙĨÙĬØ§":9657,"ĠÙĦØ§ÙĦØ©":9658,"ĠØ´Ø¯ÙĬØ¯Ø©":9659,"ĠØ·Ø§ÙĪÙĦØ©":9660,"ĠØªÙħÙĬØ²":9661,"ĠØ§ÙĦØ¬Ø±ÙĬ":9662,"ĠÙħØ¹Ø§ÙĦÙħ":9663,"ĠØ§ÙĦØ±Ø§Ø¦Ø¹":9664,"ĠØºØ§ÙĬØ©":9665,"ĠØ§ÙĦØ¨Ø±ÙĬØ©":9666,"ĠÙĩÙĬØª":9667,"ĠØ§ÙĦØ³Ø¨Ø¹":9668,"ĠÙģØ§ÙĦÙħ":9669,"Ø±Ø¶Ùī":9670,"ĠÙĦÙĦØ¶":9671,"ĠÙħØ³Ø§ØŃ":9672,"ĠØªØ¯Ø±ÙĬØ³":9673,"ĠØ¯Ø±Ø§ÙħØ§":9674,"ĠÙĦØ³Øª":9675,"ĠÙĨØ¯Ø§Ø¡":9676,"ĠØ§ÙĦØ·ÙĦØ§ÙĤ":9677,"ĠØ«Ø§Ø¨ØªØ©":9678,"ĠØ§Ø±Ø¬Ø§Ø¹":9679,"ĠØ§ÙĦØ§Ø¬ÙħØ§ÙĦÙĬ":9680,"ĠØ¹Ø´Ø§ÙĨ":9681,"ĠÙĦØ¶":9682,"ĠÙĬÙĥØª":9683,"ĠØªÙĪØ«ÙĬÙĤ":9684,"ĠØ§ÙĦÙħØ®Ø§Ø¨":9685,"ĠØ¯Ø§Ùģ":9686,"ĠØ®Ø§Ø¯Ùħ":9687,"ĠØ§ÙĦØ¯ÙĪØ±Ø§Øª":9688,"ĠØ§ÙĦØªÙĤÙĨÙĬ":9689,"ĠØµØ±Ø§Ø¹":9690,"ĠØ·Ø±Ø¯":9691,"ĠÙĪÙģÙī":9692,"ĠÙĦØ¬ÙĩØ§Ø²":9693,"ĠØ§ÙĦÙħÙĩØ§Ø±Ø§Øª":9694,"ĠÙĦÙĦØ´Ø±ÙĥØ©":9695,"Ø§Ø³ÙĬØ³":9696,"ĠØ§ÙĦÙĤÙĪÙħÙĬØ©":9697,"ĠÙĪØ¬Ø¹ÙĦ":9698,"ĠÙĪØ¹ÙĨØ¯ÙħØ§":9699,"ĠØ¬Ø³Ø±":9700,"ĠØ¨ÙĪØªØ§Ø¬Ø§Ø²":9701,"ĠØ§ÙĦØªÙĪØŃÙĬØ¯":9702,"ĠÙĬÙĩÙħ":9703,"ĠØ§Ø³ØªÙĥÙħØ§ÙĦ":9704,"ĠØ§ÙĦÙģØ¹":9705,"ĠØ§ÙĦØ§ÙĪÙĤØ§Ùģ":9706,"ĠØ§ÙĦÙħØ±Ø§Ø¯":9707,"ĠØªØªØ·ÙĦØ¨":9708,"ÙģÙĩ":9709,"ĠÙĪØ¬Ø¨Ø§Øª":9710,"ĠØªØ³ØªØ¹Ø¯":9711,"ĠØªØªØ±Ø¯Ø¯":9712,"ĠÙĪØ¹Ùħ":9713,"ĠØ§ÙĦØ¬Ø±Ø¹Ø©":9714,"Ø±ÙĪØŃØ©":9715,"ĠØ§ÙĦÙħØ¹ÙĦÙħÙĬÙĨ":9716,"ĠØ§ÙĦÙħØµÙĨÙĪØ¹Ø©":9717,"ĠÙĦØªØŃØ¯ÙĬØ¯":9718,"ĠØ§ÙĪØ¶ØŃ":9719,"Ø±Ø¨ÙĬØ¬Ø§ÙĨ":9720,"ĠØ§ÙĦØ¬Ø§ÙĩØ²Ø©":9721,"100":9722,"ĠØªØºÙĦÙĬÙģ":9723,"ĠØ¯ÙħÙĬ":9724,"ĠØªÙĥØ±ÙĬÙħ":9725,"ĠØªØºØ·ÙĬØ©":9726,"ĠÙĩØ±Ùħ":9727,"ĠØºØ·Ø§Ø¡":9728,"ĠØ§ÙĦÙģÙĬØ±ÙĪØ³Ø§Øª":9729,"ĠØ§Ø³ØªÙģØ³Ø§Ø±Ø§Øª":9730,"ĠÙĥØ±Ùħ":9731,"ĠØªØŃØ§ÙĦÙģ":9732,"ĠØ§ÙĦØ¹ÙĦÙĪÙĬ":9733,"ĠØ³Ø±ÙĬØ©":9734,"ĠØ³Ø§Ø¨ÙĤØ©":9735,"ĠØ§ÙĦØ¨ÙĨÙĬØ©":9736,"ĠØ§ÙĦØ§Ø¬ÙĨØ¨ÙĬ":9737,"ĠØ§ÙĦØ¹Ø¸Ùħ":9738,"ĠØ§ÙĦÙħØ²Ø¹":9739,"ĠØ§ÙĦØ¨Ø®Ø§Ø±ÙĬ":9740,"ĠÙħØªØ§Ø¬Ø±":9741,"ĠØªØ¹ÙĤØ¯":9742,"ĠØ§ÙĦØ¬ÙĨÙĬÙĩ":9743,"ĠØ¨Ø¨Ø·":9744,"ĠÙģÙĨØ§ÙĨ":9745,"ĠÙĬØ¹Ø§ÙĨÙĪÙĨ":9746,"ĠØ§Ø·ÙĦØ¹":9747,"ĠÙĦØ¨Ø±":9748,"ĠØ§ÙĦÙĩØ§ÙħØ©":9749,"ĠÙĤÙħØµØ§ÙĨ":9750,"ĠÙĦÙĦØ§Ø·":9751,"ĠØ®Ø§ÙĨ":9752,"ĠØ·ÙĤØ³":9753,"ĠØ§ÙĦÙħÙĩÙĨØ¯Ø³ÙĬÙĨ":9754,"ĠÙĨØ¹Ø±Ùģ":9755,"Ø§Ø´ÙĬØ©":9756,"ĠØ§ÙĥÙĦØ§Øª":9757,"ĠÙĪØªØ§Ø¨Ø¹":9758,"ÙĨÙĬÙĩØ§":9759,"ĠØ§ÙĦÙĨØ§ÙģØ°Ø©":9760,"ĠÙĬØ§Ø®Ø°":9761,"ÙĪÙħØ§ÙĨ":9762,"ĠÙħÙĪØ§ÙĦÙĬØ¯":9763,"ĠÙĤØ¯ÙĬÙħØ©":9764,"ĠØ±Ø¬Ø¨":9765,"ĠÙĤØ±ÙĬØ¨Ø©":9766,"ĠØ§ÙĦØ®ÙĦÙĬÙĦ":9767,"ĠØ§ÙĦÙħØªÙĨÙĪØ¹Ø©":9768,"Ø§Ø³Ùĩ":9769,"ĠØŃØ±ÙĬ":9770,"ĠØ§Ø¹ÙħØ§Ø±":9771,"ĠØŃÙĤØ§Ø¦ÙĤ":9772,"ĠØ§ÙĦÙĪØ±ÙĤÙĬØ©":9773,"ĠØ§ÙĬÙħÙĬÙĦ":9774,"ĠØªØ·ÙĦØ¨":9775,"ĠÙĪØ§ÙĪÙĦ":9776,"ĠØªÙĥÙĦ":9777,"ĠØ§ÙĦÙħØ¸":9778,"ĠØªØªÙĥÙĪÙĨ":9779,"ĠØ³Ø§ÙĦ":9780,"ĠØ§ÙĦØ²ÙħØ§ÙĨ":9781,"ĠØ¨Ø§ÙĨØª":9782,"ĠÙĪØ·ÙĦØ¨":9783,"ĠÙģÙĬØ±":9784,"ĠØ§ÙĦØ¹Ø§Ø´Ø±Ø©":9785,"Ø§Ø«ÙĦØ©":9786,"ĠÙħØ¬Ùģ":9787,"ĠÙĦØ§ÙĨØ¯":9788,"ĠØªÙĪØ§ÙĦÙĬØª":9789,"ĠØµÙģØŃ":9790,"ĠØ§Ø°Ø§Ø¹Ø©":9791,"ĠØ§ÙĦØ¹Ø±Ø¨Ùī":9792,"ĠØ§ÙĦØ¨ÙĪØ±ØµØ©":9793,"ĠØ¨Ø§ÙĪÙĦ":9794,"ĠØ¯Ø¨ÙĦÙĪÙħ":9795,"ĠÙħØ§Ø¬":9796,"ĠÙĥØ§ÙħÙĦØ§":9797,"ĠØ¨ÙĪÙĦØ§ÙĬØ©":9798,"ĠÙĩØ§Ø´Ùħ":9799,"ĠØ§ÙĦÙħØ¬ØªÙħØ¹Ø§Øª":9800,"ÙĨÙĪØ´":9801,"ĠØ§ÙĦÙĥØ¨Ø§Ø±":9802,"ĠÙĪØ§ÙĦÙħØ¬ØªÙħØ¹":9803,"ĠÙħÙĩØ¯ÙĬ":9804,"ĠØ§ÙĦÙģØ±ØµØ©":9805,"ĠØ§ÙĨØªØ¸Ø§Ø±":9806,"ĠÙĤØ§Ø¦ÙĦØ§":9807,"Ø§Ø¨ØŃ":9808,"ĠØ¹ÙĨØ§ÙĬØ©":9809,"ĠÙħØŃØ¯ÙĪØ¯":9810,"ĠØ§ÙĦØ§ÙĬÙģÙĪÙĨ":9811,"ĠÙħØ¤Ø³Ø³":9812,"ĠØ§ÙĦÙģØªÙĬØ§Øª":9813,"ĠÙĦÙħÙĤ":9814,"ĠØ§ÙĦØ§Ø±Ø¨Ø¹Ø©":9815,"ĠØ¦ÙĦ":9816,"Ø±Ø®":9817,"Ø´Ø±ÙĥØ©":9818,"ĠÙĥØ§ÙĦÙĬÙģÙĪØ±ÙĨÙĬØ§":9819,"ĠØ§ÙĦØŃÙĪ":9820,"ÙĨØ§ÙĪÙĬÙĨ":9821,"Ġ994":9822,"ĠÙĦÙĦÙħØ®":9823,"ĠÙĪØ¨ÙĨ":9824,"ÙĩÙĪØ±ÙĬ":9825,"ĠÙĬØªÙħØªØ¹":9826,"ĠÙĦÙĦØªØ¬":9827,"ĠØ§ÙĦÙģÙĦÙģÙĦ":9828,"ĠÙħÙĤØ§ÙĦØ©":9829,"ĠØ§ÙĦÙĪØŃØ¯Ø§Øª":9830,"ĠØ§ÙĦØ³ÙĥÙĨÙĬØ©":9831,"ĠÙĪØ±Ø¨ÙħØ§":9832,"Ø¯Ø¹":9833,"ĠØ§ÙĨØ¯Ø±":9834,"ĠÙħØ§ÙĩÙĬ":9835,"ĠÙħÙĥØªÙĪØ¨":9836,"ĠØ§ÙĦØ§Ø¨ÙĪØ§Ø¨":9837,"ĠØ§ÙĦØ´Ø±ÙĪÙĤ":9838,"ĠØ³Ø¯Ø§Ø¯":9839,"ĠØ·ÙĬØ²":9840,"ĠÙħØ³Ø¤":9841,"ĠØ³ÙĪÙĦ":9842,"ĠØŃØ§ÙģØ¸":9843,"ĠÙĩÙĦØ§ÙĦ":9844,"ĠØ§ÙĦØ¨Ø§Ø¦Ø¹":9845,"ĠØ²Ø¹ÙĬÙħ":9846,"ĠØªØ±ÙĬÙĨ":9847,"Ø¯Ø§Ø«":9848,"ØªØ±Ùħ":9849,"ĠØºØ±ÙĬØ¨Ø©":9850,"ĠØ§ÙĦØ¯ÙĪØ§Ø¦Ø±":9851,"ĠØ§ÙĦØ±ÙĬÙģ":9852,"ĠÙĦØ³ÙĬ":9853,"Ø´Ø§ÙĦ":9854,"ĠØ¨Ø§ÙĦØ§Ø´":9855,"ĠÙħÙĬØ¬Ø§":9856,"ĠÙĪÙĬØ®":9857,"ĠØªØŃØ°Ø±":9858,"ĠØªÙĨÙĤÙĦ":9859,"ĠØ§Ø·ÙĦØ¨":9860,"ĠÙħØ«Ø§ÙĦÙĬ":9861,"ĠØ¨ÙĪØªÙĬÙĨ":9862,"ĠØ§ÙĦÙĪØ±Ø¯":9863,"ĠØ¨Ø±Ùĥ":9864,"Ø§ÙĨØ§Ø©":9865,"ĠØ§ÙĨØ¸Ø±":9866,"ĠØ§ÙĦØ³Ø±ÙĬØ±":9867,"ĠØ§ÙĦÙĤØ§Ø¦Ø¯":9868,"ĠÙĪØŃØ¯Ùĩ":9869,"ĠØ§ÙĨØªØŃ":9870,"ĠØ§ÙĦÙĨÙĤØ±":9871,"ĠØºØ³ÙĪÙĦ":9872,"ĠÙħØ¹Ø±ÙģØªÙĩ":9873,"ĠÙĩØ§ÙĬ":9874,"ĠØ²Ø§ÙħØ¨ÙĬØ§":9875,"ĠØ¨Ø§ÙĦØ·Ø¨Ø¹":9876,"ĠØ§ÙĬØ§":9877,"ØºØ°ÙĬØ©":9878,"ĠÙĩØ§Øª":9879,"Ø§Ø²ÙħØ§":9880,"ĠÙĪØŃÙħØ§ÙĬØ©":9881,"ĠØªÙģØ§ÙĩÙħ":9882,"ĠÙĪØ§ÙĦØªÙī":9883,"ĠØ´Ú©ÙĨ":9884,"ĠÙĬÙĩØªÙħ":9885,"ĠØ§ÙĦØ§ÙĨØ³Ø§ÙĨÙĬ":9886,"ĠØ³Ø§ØŃ":9887,"Ø¨Ø±ÙĬØ©":9888,"ĠØ§ÙĦØµÙĪÙĬØ§":9889,"ĠØªÙĨØ²":9890,"83":9891,"ĠÙĦÙĪØ³":9892,"ĠØ¹ÙĦØ¨Ø©":9893,"ĠØ§ÙĦØ§Ø¹Ø§ÙĤØ©":9894,"ĠØ§ÙĦØ²ÙĪØ¬Ø©":9895,"ĠÙĨØ¨ÙĬÙĦ":9896,"ĠÙĬØ±ÙģØ¹":9897,"ĠØ§ÙĦØ¯Ø®ÙĦ":9898,"ÙģÙĬØ¸":9899,"ĠØ¨ÙĦØ§Ø¯Ùĩ":9900,"ĠØªØªØµ":9901,"ĠØ§ÙĦØ¹Ø²":9902,"ĠØ§Ø³ØªÙĩØ¯Ùģ":9903,"ĠØ§ÙĥÙħÙĦ":9904,"ÙĪÙĥÙĬ":9905,"Ġ174":9906,"ĠØ§Ø¨Ø¹Ø§Ø¯":9907,"ĠÙħØ·ÙĦÙĤ":9908,"ĠÙħØ±Ùĩ":9909,"ĠÙħÙħÙĦ":9910,"ĠÙĨÙĥÙĪÙĨ":9911,"ĠØ§ÙĦØ±Ø§Ø¯":9912,"ĠØ§ÙĦØªØµÙĪÙĬØª":9913,"ĠØ³ÙħØ±Ø§Ø¡":9914,"ĠÙĩØ§Ø¯":9915,"ĠØ§ÙĦÙĪØ§Ø³":9916,"ĠÙĬÙģØ¶ÙĦ":9917,"ĠØ§ÙĦØ¨ÙĦØ¯ÙĬÙĨ":9918,"Ø§Ø¬Ø±ÙĬÙĨ":9919,"Ø§ØµØ¨":9920,"ĠØªØ¹ÙĦÙĤ":9921,"ĠØ´ÙĩØ§Ø¯Ø§Øª":9922,"ĠÙħÙĦÙĥÙĬØ©":9923,"ĠÙģØ¹Ø§ÙĦØ©":9924,"ĠÙĥÙĬÙħ":9925,"ĠØ¬Ø§Ø²Ø§ÙĨ":9926,"ĠÙĦÙĦØ§ÙĨØªØ®Ø§Ø¨Ø§Øª":9927,"ĠØ¯Ø§ÙĨ":9928,"ĠØ§ÙĦÙĥØ«":9929,"Ġ450":9930,"ĠØ§ÙĦØ®ÙĪÙģ":9931,"ĠØ¯Ø¹ÙĪÙī":9932,"ĠØ¹Ø·ÙĦØ©":9933,"ĠØ§ÙĨÙģØ³ÙĩÙħ":9934,"ĠØ§Ø©":9935,"ĠÙĪÙĬÙģ":9936,"ĠÙģÙĦÙĨ":9937,"ĠØ¨ØªÙģ":9938,"Ġ107":9939,"ĠØ§ÙĦØ¬ÙħØ§Ø¹Ø©":9940,"Ø²ÙĬÙĬÙĨ":9941,"ĠØµØŃÙĬØŃØ©":9942,"ĠÚ¤Ø§ÙĬØ¨Ø±":9943,"ĠØ§ÙĦÙĥÙĬØ§ÙĨ":9944,"ĠØ§ÙĦÙħØ¨Ø§ÙĨÙĬ":9945,"ĠØ±ØŃÙħØ©":9946,"ĠØ§ÙĦØ§Ø³ÙħØ§Ùĥ":9947,"ĠØ¬ÙĬÙĨØ²":9948,"ĠÙĪØ¹Ø±Ø¶":9949,"ĠØ§ÙĦÙħØ«ÙĦ":9950,"ĠÙĪØ±ÙģØ¹":9951,"ÙĬØ¯Ùĩ":9952,"ĠØ§ÙĦÙħÙĨØ§ÙģØ³Ø©":9953,"ĠØ§ÙĦØªÙħÙĬÙħ":9954,"Ø«ÙĪØ±":9955,"ĠØ¨Ø¹Ø¶ÙĩÙħ":9956,"ĠÙĬÙĩØ¯Ùģ":9957,"ĠØ¨Ø§ÙĦØ§Ø±":9958,"ĠØ§ÙĦØ§Ø³ØªÙħØ±Ø§Ø±":9959,"ĠØ§ÙĦØºØ¯":9960,"ĠØ¨ÙĦØ¯ÙĬ":9961,"ĠØ¯ÙģØ¹Ø©":9962,"ĠØ·Ø§Ø¦Ø±Ø§Øª":9963,"ĠØ¹ÙħÙĦÙĩØ§":9964,"ĠØªØ§Ø®Ø°":9965,"ĠØ®Ø´Ø¨":9966,"ĠÙħÙĦØŃÙĪ":9967,"Ø´Ø§Ø·":9968,"ĠØºØ§Ùħ":9969,"ĠØ³ÙĨÙĬÙĥØ±Ø²":9970,"ĠØ±Ø¬Ùī":9971,"ĠÙħØ¶Ø§Ø¯":9972,"ÙħÙĬØ±":9973,"ĠØªÙĤØ±Ø±":9974,"Ø§Ø¯ÙĤØ©":9975,"ÙĪÙħØªØ±":9976,"ĠØ§Ø¬ÙĪØ§Ø¡":9977,"ĠØ¨ØŃØ±ÙĬÙĨ":9978,"ĠÙĬÙĤØ¨ÙĦ":9979,"ĠØ¨Ø¹ÙĦ":9980,"ĠÙħØ¹Ø§Ø±Ø¶":9981,"Ø§Ø·ÙĨØ©":9982,"ĠØ§ÙĦÙĪØ§ÙĤ":9983,"ĠÙħØ³Ø±":9984,"ØªØµØ§Ø¯":9985,"ĠØ³ÙĬØ§Ø³Ø§Øª":9986,"ĠØ§ÙĨØ³Ø§ÙĨÙĬØ©":9987,"ĠÙĬØ´ÙĥÙĦ":9988,"Ø¨Ø³Ø§Ø·Ø©":9989,"ĠØ´ÙĪØ±ØªØ§Øª":9990,"ĠØªØµØŃÙĬØŃ":9991,"ĠÙĤØ·Ø§Ø±":9992,"ĠØ§ÙĦØªÙĦÙĤÙĬØŃ":9993,"ĠØ§ÙĦØ¨ØªØ±ÙĪÙĦ":9994,"ĠØ§ÙĦØ§ÙĨÙħÙĬ":9995,"ĠØ§Ø³ØªÙĤØ±Ø§Ø±":9996,"ĠØ§ÙĦØºØ§Ùħ":9997,"ĠØ§Ø¨Ø±Ø§Ø¬":9998,"ĠÙĤØ¶ÙĬØ¨":9999}